{
  "version": "1.0",
  "truncation": null,
  "padding": null,
  "added_tokens": [
    {
      "id": 0,
      "content": "__pad__",
      "single_word": false,
      "lstrip": false,
      "rstrip": false,
      "normalized": false,
      "special": true
    },
    {
      "id": 1,
      "content": "__url__",
      "single_word": false,
      "lstrip": false,
      "rstrip": false,
      "normalized": false,
      "special": true
    },
    {
      "id": 2,
      "content": "__sep__",
      "single_word": false,
      "lstrip": false,
      "rstrip": false,
      "normalized": false,
      "special": true
    },
    {
      "id": 3,
      "content": "__tar__",
      "single_word": false,
      "lstrip": false,
      "rstrip": false,
      "normalized": false,
      "special": true
    },
    {
      "id": 4,
      "content": "__unk__",
      "single_word": false,
      "lstrip": false,
      "rstrip": false,
      "normalized": false,
      "special": true
    }
  ],
  "normalizer": {
    "type": "BertNormalizer",
    "clean_text": true,
    "handle_chinese_chars": true,
    "strip_accents": null,
    "lowercase": true
  },
  "pre_tokenizer": {
    "type": "BertPreTokenizer"
  },
  "post_processor": null,
  "decoder": null,
  "model": {
    "type": "WordPiece",
    "unk_token": "__unk__",
    "continuing_subword_prefix": "##",
    "max_input_chars_per_word": 100,
    "vocab": {
      "__pad__": 0,
      "__url__": 1,
      "__sep__": 2,
      "__tar__": 3,
      "__unk__": 4,
      "#": 5,
      "*": 6,
      "0": 7,
      "1": 8,
      "2": 9,
      "3": 10,
      "4": 11,
      "5": 12,
      "6": 13,
      "7": 14,
      "8": 15,
      "9": 16,
      "_": 17,
      "a": 18,
      "b": 19,
      "c": 20,
      "d": 21,
      "e": 22,
      "f": 23,
      "g": 24,
      "h": 25,
      "i": 26,
      "j": 27,
      "k": 28,
      "l": 29,
      "m": 30,
      "n": 31,
      "o": 32,
      "p": 33,
      "q": 34,
      "r": 35,
      "s": 36,
      "t": 37,
      "u": 38,
      "v": 39,
      "w": 40,
      "x": 41,
      "y": 42,
      "z": 43,
      "©": 44,
      "®": 45,
      "·": 46,
      "º": 47,
      "ß": 48,
      "æ": 49,
      "ð": 50,
      "ø": 51,
      "đ": 52,
      "ı": 53,
      "ł": 54,
      "œ": 55,
      "ə": 56,
      "ɛ": 57,
      "ɪ": 58,
      "ʊ": 59,
      "ʒ": 60,
      "ʖ": 61,
      "ʘ": 62,
      "˙": 63,
      "٩": 64,
      "۶": 65,
      "๑": 66,
      "™": 67,
      "↔": 68,
      "☺": 69,
      "♥": 70,
      "✌": 71,
      "✝": 72,
      "❤": 73,
      "０": 74,
      "１": 75,
      "ａ": 76,
      "ｃ": 77,
      "ｄ": 78,
      "ｅ": 79,
      "ｆ": 80,
      "ｇ": 81,
      "ｈ": 82,
      "ｉ": 83,
      "ｌ": 84,
      "ｍ": 85,
      "ｎ": 86,
      "ｏ": 87,
      "ｐ": 88,
      "ｒ": 89,
      "ｓ": 90,
      "ｔ": 91,
      "ｕ": 92,
      "ｖ": 93,
      "ｗ": 94,
      "ｘ": 95,
      "ｙ": 96,
      "🏼": 97,
      "👌": 98,
      "😁": 99,
      "😂": 100,
      "😄": 101,
      "😇": 102,
      "😉": 103,
      "😊": 104,
      "😋": 105,
      "😐": 106,
      "😝": 107,
      "😡": 108,
      "😱": 109,
      "🦄": 110,
      "##y": 111,
      "##n": 112,
      "##c": 113,
      "##h": 114,
      "##r": 115,
      "##o": 116,
      "##i": 117,
      "##s": 118,
      "##a": 119,
      "##t": 120,
      "##k": 121,
      "##e": 122,
      "##b": 123,
      "##u": 124,
      "##x": 125,
      "##m": 126,
      "##f": 127,
      "##l": 128,
      "##g": 129,
      "##w": 130,
      "##q": 131,
      "##1": 132,
      "##d": 133,
      "##v": 134,
      "##p": 135,
      "##8": 136,
      "##5": 137,
      "##j": 138,
      "##7": 139,
      "##9": 140,
      "##6": 141,
      "##2": 142,
      "##z": 143,
      "##4": 144,
      "##0": 145,
      "##3": 146,
      "##ø": 147,
      "##™": 148,
      "##๑": 149,
      "##😄": 150,
      "##ə": 151,
      "##ɪ": 152,
      "##º": 153,
      "##ｒ": 154,
      "##ｕ": 155,
      "##ｍ": 156,
      "##ｐ": 157,
      "##ｉ": 158,
      "##ｓ": 159,
      "##ａ": 160,
      "##ｎ": 161,
      "##ｅ": 162,
      "##ｔ": 163,
      "##ｈ": 164,
      "##ｏ": 165,
      "##ｙ": 166,
      "##ｆ": 167,
      "##ｄ": 168,
      "##ｇ": 169,
      "##®": 170,
      "##♥": 171,
      "##ｃ": 172,
      "##ð": 173,
      "##œ": 174,
      "##❤": 175,
      "##ｌ": 176,
      "##ｘ": 177,
      "##ß": 178,
      "##ʘ": 179,
      "##˙": 180,
      "##æ": 181,
      "##０": 182,
      "##ʊ": 183,
      "##😂": 184,
      "##ｗ": 185,
      "##ｖ": 186,
      "##ʒ": 187,
      "##🏼": 188,
      "th": 189,
      "##in": 190,
      "##er": 191,
      "##ou": 192,
      "se": 193,
      "##at": 194,
      "##on": 195,
      "the": 196,
      "##ing": 197,
      "sep": 198,
      "##nd": 199,
      "##es": 200,
      "to": 201,
      "##re": 202,
      "##ar": 203,
      "##ll": 204,
      "##nt": 205,
      "##it": 206,
      "##or": 207,
      "##ve": 208,
      "you": 209,
      "and": 210,
      "##st": 211,
      "##ed": 212,
      "##om": 213,
      "of": 214,
      "be": 215,
      "it": 216,
      "##an": 217,
      "wh": 218,
      "##ot": 219,
      "##le": 220,
      "##en": 221,
      "in": 222,
      "##ut": 223,
      "ha": 224,
      "that": 225,
      "##is": 226,
      "is": 227,
      "##al": 228,
      "##el": 229,
      "##ic": 230,
      "##ow": 231,
      "my": 232,
      "##ion": 233,
      "##et": 234,
      "##ay": 235,
      "##as": 236,
      "on": 237,
      "an": 238,
      "##ly": 239,
      "##all": 240,
      "li": 241,
      "me": 242,
      "re": 243,
      "for": 244,
      "##ke": 245,
      "##gh": 246,
      "tar": 247,
      "##ct": 248,
      "##se": 249,
      "##ver": 250,
      "##ld": 251,
      "##ith": 252,
      "im": 253,
      "##ally": 254,
      "but": 255,
      "st": 256,
      "with": 257,
      "##id": 258,
      "have": 259,
      "##oo": 260,
      "##im": 261,
      "##ch": 262,
      "##ere": 263,
      "##ad": 264,
      "not": 265,
      "do": 266,
      "as": 267,
      "som": 268,
      "##op": 269,
      "are": 270,
      "##ce": 271,
      "this": 272,
      "so": 273,
      "##th": 274,
      "we": 275,
      "##ri": 276,
      "mo": 277,
      "##ont": 278,
      "like": 279,
      "##ust": 280,
      "##ould": 281,
      "##est": 282,
      "##ink": 283,
      "##ant": 284,
      "##ir": 285,
      "ab": 286,
      "sh": 287,
      "##am": 288,
      "##ers": 289,
      "was": 290,
      "al": 291,
      "##ess": 292,
      "fe": 293,
      "int": 294,
      "##pe": 295,
      "##ro": 296,
      "think": 297,
      "what": 298,
      "or": 299,
      "he": 300,
      "##out": 301,
      "if": 302,
      "##ght": 303,
      "just": 304,
      "ne": 305,
      "ex": 306,
      "dont": 307,
      "at": 308,
      "its": 309,
      "your": 310,
      "##ent": 311,
      "##ur": 312,
      "pe": 313,
      "de": 314,
      "about": 315,
      "some": 316,
      "peop": 317,
      "##one": 318,
      "su": 319,
      "when": 320,
      "people": 321,
      "##ation": 322,
      "kn": 323,
      "##au": 324,
      "lo": 325,
      "com": 326,
      "can": 327,
      "##ill": 328,
      "all": 329,
      "know": 330,
      "##ind": 331,
      "##ra": 332,
      "##ive": 333,
      "##end": 334,
      "they": 335,
      "ma": 336,
      "##ck": 337,
      "ch": 338,
      "##ate": 339,
      "get": 340,
      "po": 341,
      "would": 342,
      "wor": 343,
      "see": 344,
      "am": 345,
      "##pp": 346,
      "go": 347,
      "##ul": 348,
      "how": 349,
      "feel": 350,
      "any": 351,
      "out": 352,
      "one": 353,
      "con": 354,
      "bec": 355,
      "tr": 356,
      "fr": 357,
      "more": 358,
      "##un": 359,
      "really": 360,
      "##ight": 361,
      "##us": 362,
      "##il": 363,
      "thing": 364,
      "##ough": 365,
      "tim": 366,
      "##art": 367,
      "##ause": 368,
      "##ff": 369,
      "##um": 370,
      "than": 371,
      "##ea": 372,
      "##ge": 373,
      "##ong": 374,
      "ever": 375,
      "##ble": 376,
      "pro": 377,
      "##ci": 378,
      "##king": 379,
      "us": 380,
      "because": 381,
      "ty": 382,
      "##ood": 383,
      "oth": 384,
      "up": 385,
      "##ter": 386,
      "from": 387,
      "somet": 388,
      "who": 389,
      "ive": 390,
      "en": 391,
      "##ity": 392,
      "pers": 393,
      "##ely": 394,
      "ur": 395,
      "no": 396,
      "qu": 397,
      "##riend": 398,
      "##ist": 399,
      "##ound": 400,
      "url": 401,
      "##hing": 402,
      "them": 403,
      "say": 404,
      "##ous": 405,
      "##ery": 406,
      "time": 407,
      "##her": 408,
      "##ain": 409,
      "person": 410,
      "##ps": 411,
      "##ard": 412,
      "want": 413,
      "##and": 414,
      "there": 415,
      "too": 416,
      "##are": 417,
      "very": 418,
      "##way": 419,
      "##sel": 420,
      "friend": 421,
      "##ear": 422,
      "id": 423,
      "##ually": 424,
      "##ig": 425,
      "##so": 426,
      "mu": 427,
      "every": 428,
      "##ie": 429,
      "well": 430,
      "##ame": 431,
      "love": 432,
      "fa": 433,
      "much": 434,
      "being": 435,
      "gu": 436,
      "ar": 437,
      "most": 438,
      "pre": 439,
      "##ions": 440,
      "##fe": 441,
      "act": 442,
      "##ort": 443,
      "ta": 444,
      "##ks": 445,
      "other": 446,
      "way": 447,
      "ag": 448,
      "inter": 449,
      "good": 450,
      "##ite": 451,
      "##self": 452,
      "been": 453,
      "by": 454,
      "##ha": 455,
      "di": 456,
      "##ue": 457,
      "##lo": 458,
      "pl": 459,
      "will": 460,
      "un": 461,
      "te": 462,
      "things": 463,
      "rel": 464,
      "##ore": 465,
      "##ven": 466,
      "##ure": 467,
      "did": 468,
      "something": 469,
      "man": 470,
      "##pt": 471,
      "##ack": 472,
      "had": 473,
      "##eri": 474,
      "##ine": 475,
      "##ry": 476,
      "only": 477,
      "her": 478,
      "also": 479,
      "exp": 480,
      "##ab": 481,
      "then": 482,
      "lot": 483,
      "##ep": 484,
      "does": 485,
      "she": 486,
      "has": 487,
      "loo": 488,
      "could": 489,
      "type": 490,
      "##ence": 491,
      "##ies": 492,
      "##ways": 493,
      "##ty": 494,
      "##ast": 495,
      "now": 496,
      "even": 497,
      "sa": 498,
      "##ice": 499,
      "##ving": 500,
      "may": 501,
      "##ome": 502,
      "##ations": 503,
      "try": 504,
      "comp": 505,
      "##act": 506,
      "##ect": 507,
      "always": 508,
      "make": 509,
      "ad": 510,
      "##ud": 511,
      "fun": 512,
      "##thing": 513,
      "##read": 514,
      "thats": 515,
      "were": 516,
      "##ree": 517,
      "youre": 518,
      "seem": 519,
      "##ide": 520,
      "co": 521,
      "read": 522,
      "why": 523,
      "need": 524,
      "##nder": 525,
      "find": 526,
      "their": 527,
      "##ought": 528,
      "someone": 529,
      "never": 530,
      "##ich": 531,
      "here": 532,
      "##ip": 533,
      "##os": 534,
      "myself": 535,
      "over": 536,
      "##iz": 537,
      "em": 538,
      "##be": 539,
      "##em": 540,
      "life": 541,
      "post": 542,
      "res": 543,
      "happ": 544,
      "dis": 545,
      "tal": 546,
      "though": 547,
      "##ress": 548,
      "mean": 549,
      "##ag": 550,
      "##ting": 551,
      "##ment": 552,
      "diff": 553,
      "bet": 554,
      "spe": 555,
      "##ile": 556,
      "interest": 557,
      "friends": 558,
      "under": 559,
      "##ys": 560,
      "##reat": 561,
      "into": 562,
      "##our": 563,
      "thought": 564,
      "year": 565,
      "him": 566,
      "cant": 567,
      "##kes": 568,
      "part": 569,
      "##ond": 570,
      "wr": 571,
      "##ical": 572,
      "##int": 573,
      "off": 574,
      "actually": 575,
      "pret": 576,
      "which": 577,
      "fir": 578,
      "##ose": 579,
      "sure": 580,
      "cl": 581,
      "##ish": 582,
      "pr": 583,
      "##ool": 584,
      "first": 585,
      "work": 586,
      "going": 587,
      "right": 588,
      "per": 589,
      "##ass": 590,
      "got": 591,
      "sp": 592,
      "##itt": 593,
      "typ": 594,
      "##oy": 595,
      "##other": 596,
      "pretty": 597,
      "##ful": 598,
      "yes": 599,
      "inf": 600,
      "##ated": 601,
      "hi": 602,
      "kind": 603,
      "day": 604,
      "gr": 605,
      "same": 606,
      "ac": 607,
      "real": 608,
      "##ick": 609,
      "def": 610,
      "hel": 611,
      "##able": 612,
      "feeling": 613,
      "des": 614,
      "ill": 615,
      "##ves": 616,
      "##ss": 617,
      "le": 618,
      "##js": 619,
      "underst": 620,
      "af": 621,
      "##ang": 622,
      "##ol": 623,
      "still": 624,
      "his": 625,
      "where": 626,
      "##ably": 627,
      "thread": 628,
      "##oth": 629,
      "tw": 630,
      "##age": 631,
      "start": 632,
      "said": 633,
      "should": 634,
      "back": 635,
      "##ual": 636,
      "##ating": 637,
      "gen": 638,
      "personal": 639,
      "sen": 640,
      "str": 641,
      "##own": 642,
      "##ach": 643,
      "quest": 644,
      "##od": 645,
      "##if": 646,
      "understand": 647,
      "jo": 648,
      "ph": 649,
      "##ily": 650,
      "prob": 651,
      "sm": 652,
      "long": 653,
      "bel": 654,
      "take": 655,
      "##imes": 656,
      "many": 657,
      "##ever": 658,
      "yea": 659,
      "sc": 660,
      "##ber": 661,
      "bl": 662,
      "##ire": 663,
      "aw": 664,
      "att": 665,
      "probably": 666,
      "tell": 667,
      "our": 668,
      "op": 669,
      "##lf": 670,
      "thr": 671,
      "best": 672,
      "##wn": 673,
      "stu": 674,
      "ext": 675,
      "sometimes": 676,
      "help": 677,
      "around": 678,
      "relations": 679,
      "look": 680,
      "##vert": 681,
      "##ath": 682,
      "##ious": 683,
      "point": 684,
      "cont": 685,
      "lol": 686,
      "ke": 687,
      "defin": 688,
      "##erent": 689,
      "##ance": 690,
      "didnt": 691,
      "relationsh": 692,
      "##pect": 693,
      "imp": 694,
      "##ult": 695,
      "maybe": 696,
      "yeah": 697,
      "##ade": 698,
      "sound": 699,
      "doesnt": 700,
      "app": 701,
      "after": 702,
      "hard": 703,
      "anything": 704,
      "emot": 705,
      "ob": 706,
      "those": 707,
      "##ak": 708,
      "let": 709,
      "##ert": 710,
      "lea": 711,
      "##atch": 712,
      "##ple": 713,
      "##ase": 714,
      "years": 715,
      "cons": 716,
      "##ict": 717,
      "ro": 718,
      "##ittle": 719,
      "##fore": 720,
      "different": 721,
      "bit": 722,
      "belie": 723,
      "##ces": 724,
      "sim": 725,
      "little": 726,
      "give": 727,
      "usually": 728,
      "##we": 729,
      "soci": 730,
      "##ason": 731,
      "sch": 732,
      "mind": 733,
      "rem": 734,
      "sin": 735,
      "better": 736,
      "while": 737,
      "new": 738,
      "##ically": 739,
      "talk": 740,
      "##bt": 741,
      "two": 742,
      "##ory": 743,
      "thanks": 744,
      "##ten": 745,
      "definit": 746,
      "##orm": 747,
      "##ull": 748,
      "##ace": 749,
      "great": 750,
      "ent": 751,
      "##ap": 752,
      "use": 753,
      "br": 754,
      "few": 755,
      "might": 756,
      "others": 757,
      "these": 758,
      "seems": 759,
      "oh": 760,
      "##ning": 761,
      "before": 762,
      "both": 763,
      "##iv": 764,
      "##ary": 765,
      "care": 766,
      "own": 767,
      "makes": 768,
      "play": 769,
      "high": 770,
      "conf": 771,
      "through": 772,
      "guess": 773,
      "##cept": 774,
      "##mm": 775,
      "agree": 776,
      "es": 777,
      "world": 778,
      "##blem": 779,
      "bad": 780,
      "##rovert": 781,
      "##vers": 782,
      "haha": 783,
      "problem": 784,
      "since": 785,
      "el": 786,
      "##vel": 787,
      "##ather": 788,
      "##qu": 789,
      "reason": 790,
      "experi": 791,
      "sit": 792,
      "##gg": 793,
      "thinking": 794,
      "test": 795,
      "down": 796,
      "##ens": 797,
      "bas": 798,
      "gener": 799,
      "##ness": 800,
      "everyone": 801,
      "tend": 802,
      "trying": 803,
      "school": 804,
      "gir": 805,
      "##ild": 806,
      "fl": 807,
      "thank": 808,
      "##00": 809,
      "##ise": 810,
      "types": 811,
      "cou": 812,
      "##ract": 813,
      "ask": 814,
      "##uck": 815,
      "doing": 816,
      "quite": 817,
      "funct": 818,
      "##ics": 819,
      "come": 820,
      "ther": 821,
      "dr": 822,
      "definitely": 823,
      "interesting": 824,
      "list": 825,
      "question": 826,
      "comm": 827,
      "made": 828,
      "clo": 829,
      "end": 830,
      "fo": 831,
      "everything": 832,
      "fi": 833,
      "put": 834,
      "lear": 835,
      "believe": 836,
      "##log": 837,
      "again": 838,
      "##iss": 839,
      "hes": 840,
      "guys": 841,
      "##ward": 842,
      "having": 843,
      "##sw": 844,
      "##itive": 845,
      "##day": 846,
      "##les": 847,
      "relationship": 848,
      "eas": 849,
      "##cri": 850,
      "##let": 851,
      "ins": 852,
      "##less": 853,
      "word": 854,
      "##cess": 855,
      "##ject": 856,
      "often": 857,
      "##ook": 858,
      "used": 859,
      "##ell": 860,
      "##ope": 861,
      "##gr": 862,
      "last": 863,
      "personality": 864,
      "seri": 865,
      "call": 866,
      "show": 867,
      "mus": 868,
      "answ": 869,
      "mom": 870,
      "##ional": 871,
      "happy": 872,
      "##ible": 873,
      "##ntly": 874,
      "##ost": 875,
      "##per": 876,
      "ass": 877,
      "##augh": 878,
      "##ib": 879,
      "##wh": 880,
      "ind": 881,
      "keep": 882,
      "##ither": 883,
      "old": 884,
      "enj": 885,
      "cr": 886,
      "ok": 887,
      "times": 888,
      "hum": 889,
      "theres": 890,
      "##ertain": 891,
      "##ange": 892,
      "self": 893,
      "##xt": 894,
      "girl": 895,
      "anyone": 896,
      "##ider": 897,
      "##cus": 898,
      "enjoy": 899,
      "##ans": 900,
      "##come": 901,
      "forum": 902,
      "##ream": 903,
      "enough": 904,
      "##fer": 905,
      "descri": 906,
      "isnt": 907,
      "##onder": 908,
      "watch": 909,
      "##ize": 910,
      "another": 911,
      "poss": 912,
      "##get": 913,
      "hu": 914,
      "mbt": 915,
      "fact": 916,
      "##cl": 917,
      "hate": 918,
      "else": 919,
      "hon": 920,
      "wel": 921,
      "exact": 922,
      "getting": 923,
      "cra": 924,
      "tra": 925,
      "laugh": 926,
      "talking": 927,
      "##olog": 928,
      "mbti": 929,
      "mat": 930,
      "met": 931,
      "big": 932,
      "char": 933,
      "true": 934,
      "##ia": 935,
      "idea": 936,
      "nice": 937,
      "inst": 938,
      "such": 939,
      "dec": 940,
      "sense": 941,
      "wonder": 942,
      "sounds": 943,
      "##he": 944,
      "##ative": 945,
      "least": 946,
      "##ons": 947,
      "##ody": 948,
      "ap": 949,
      "stuff": 950,
      "##gn": 951,
      "##pend": 952,
      "social": 953,
      "hell": 954,
      "honest": 955,
      "tri": 956,
      "##ord": 957,
      "either": 958,
      "##ved": 959,
      "sor": 960,
      "consider": 961,
      "##arly": 962,
      "lik": 963,
      "yourself": 964,
      "mon": 965,
      "##ism": 966,
      "acc": 967,
      "rep": 968,
      "nothing": 969,
      "welcome": 970,
      "once": 971,
      "music": 972,
      "sorry": 973,
      "ple": 974,
      "##zy": 975,
      "wrong": 976,
      "##cially": 977,
      "art": 978,
      "##li": 979,
      "certain": 980,
      "fam": 981,
      "serious": 982,
      "far": 983,
      "##ma": 984,
      "resp": 985,
      "hand": 986,
      "found": 987,
      "answer": 988,
      "without": 989,
      "head": 990,
      "situ": 991,
      "sec": 992,
      "supp": 993,
      "theyre": 994,
      "complet": 995,
      "mar": 996,
      "##ian": 997,
      "##ned": 998,
      "guy": 999,
      "##ee": 1000,
      "##pecially": 1001,
      "##ween": 1002,
      "ment": 1003,
      "sub": 1004,
      "sl": 1005,
      "ter": 1006,
      "##iting": 1007,
      "however": 1008,
      "experience": 1009,
      "##ird": 1010,
      "##ember": 1011,
      "between": 1012,
      "##its": 1013,
      "wa": 1014,
      "happen": 1015,
      "##llow": 1016,
      "especially": 1017,
      "expl": 1018,
      "##rect": 1019,
      "rather": 1020,
      "reading": 1021,
      "##most": 1022,
      "introvert": 1023,
      "##na": 1024,
      "remember": 1025,
      "wom": 1026,
      "ide": 1027,
      "cle": 1028,
      "##ph": 1029,
      "fav": 1030,
      "done": 1031,
      "##ately": 1032,
      "bu": 1033,
      "##ner": 1034,
      "feelings": 1035,
      "car": 1036,
      "##fort": 1037,
      "##ny": 1038,
      "##ng": 1039,
      "class": 1040,
      "##ors": 1041,
      "saying": 1042,
      "fin": 1043,
      "child": 1044,
      "ho": 1045,
      "job": 1046,
      "each": 1047,
      "exactly": 1048,
      "wee": 1049,
      "##ced": 1050,
      "live": 1051,
      "sur": 1052,
      "sex": 1053,
      "less": 1054,
      "hope": 1055,
      "away": 1056,
      "##ft": 1057,
      "adv": 1058,
      "almost": 1059,
      "top": 1060,
      "##com": 1061,
      "##ities": 1062,
      "##co": 1063,
      "stop": 1064,
      "wouldnt": 1065,
      "strong": 1066,
      "looking": 1067,
      "##ign": 1068,
      "val": 1069,
      "rece": 1070,
      "che": 1071,
      "depend": 1072,
      "close": 1073,
      "exam": 1074,
      "##ilar": 1075,
      "##iew": 1076,
      "add": 1077,
      "sk": 1078,
      "stud": 1079,
      "nat": 1080,
      "##ition": 1081,
      "listen": 1082,
      "comes": 1083,
      "sens": 1084,
      "tur": 1085,
      "speci": 1086,
      "ago": 1087,
      "havent": 1088,
      "##als": 1089,
      "kid": 1090,
      "sort": 1091,
      "av": 1092,
      "##led": 1093,
      "##iet": 1094,
      "unt": 1095,
      "prefer": 1096,
      "##icul": 1097,
      "##vent": 1098,
      "cu": 1099,
      "##ready": 1100,
      "tot": 1101,
      "la": 1102,
      "yet": 1103,
      "##ail": 1104,
      "already": 1105,
      "##sy": 1106,
      "##cy": 1107,
      "##ates": 1108,
      "bo": 1109,
      "##red": 1110,
      "##ility": 1111,
      "reg": 1112,
      "making": 1113,
      "##ings": 1114,
      "wanted": 1115,
      "##ush": 1116,
      "##ark": 1117,
      "##der": 1118,
      "##gin": 1119,
      "cur": 1120,
      "shes": 1121,
      "ey": 1122,
      "past": 1123,
      "##hh": 1124,
      "cool": 1125,
      "mov": 1126,
      "##ips": 1127,
      "dream": 1128,
      "##ial": 1129,
      "dep": 1130,
      "place": 1131,
      "whole": 1132,
      "##lut": 1133,
      "##ues": 1134,
      "relate": 1135,
      "song": 1136,
      "general": 1137,
      "family": 1138,
      "open": 1139,
      "month": 1140,
      "convers": 1141,
      "sy": 1142,
      "told": 1143,
      "functions": 1144,
      "##ub": 1145,
      "coll": 1146,
      "cor": 1147,
      "ones": 1148,
      "able": 1149,
      "wish": 1150,
      "change": 1151,
      "##fps": 1152,
      "until": 1153,
      "cour": 1154,
      "##ne": 1155,
      "##gram": 1156,
      "##pl": 1157,
      "interested": 1158,
      "charact": 1159,
      "alone": 1160,
      "##ying": 1161,
      "fre": 1162,
      "fig": 1163,
      "completely": 1164,
      "##alth": 1165,
      "##vious": 1166,
      "god": 1167,
      "gl": 1168,
      "##ents": 1169,
      "opin": 1170,
      "dra": 1171,
      "night": 1172,
      "started": 1173,
      "min": 1174,
      "fuck": 1175,
      "##though": 1176,
      "##elt": 1177,
      "ni": 1178,
      "words": 1179,
      "##oud": 1180,
      "today": 1181,
      "##ote": 1182,
      "##az": 1183,
      "##ount": 1184,
      "et": 1185,
      "although": 1186,
      "intell": 1187,
      "##ized": 1188,
      "##leep": 1189,
      "bre": 1190,
      "det": 1191,
      "hey": 1192,
      "##ater": 1193,
      "weird": 1194,
      "seen": 1195,
      "meet": 1196,
      "inv": 1197,
      "face": 1198,
      "arg": 1199,
      "ang": 1200,
      "##gs": 1201,
      "wasnt": 1202,
      "explain": 1203,
      "dri": 1204,
      "favor": 1205,
      "laughing": 1206,
      "##fect": 1207,
      "##ences": 1208,
      "##ude": 1209,
      "imag": 1210,
      "using": 1211,
      "##uct": 1212,
      "situation": 1213,
      "si": 1214,
      "ed": 1215,
      "along": 1216,
      "eff": 1217,
      "vide": 1218,
      "log": 1219,
      "##body": 1220,
      "iss": 1221,
      "deep": 1222,
      "##yp": 1223,
      "##uth": 1224,
      "second": 1225,
      "hear": 1226,
      "phys": 1227,
      "mor": 1228,
      "young": 1229,
      "##alk": 1230,
      "sad": 1231,
      "import": 1232,
      "deal": 1233,
      "wont": 1234,
      "awes": 1235,
      "grou": 1236,
      "dom": 1237,
      "eng": 1238,
      "similar": 1239,
      "super": 1240,
      "##ts": 1241,
      "emotional": 1242,
      "etc": 1243,
      "bra": 1244,
      "ann": 1245,
      "home": 1246,
      "ti": 1247,
      "days": 1248,
      "funny": 1249,
      "##rem": 1250,
      "creat": 1251,
      "hur": 1252,
      "tea": 1253,
      "count": 1254,
      "book": 1255,
      "must": 1256,
      "course": 1257,
      "felt": 1258,
      "personally": 1259,
      "##sh": 1260,
      "attract": 1261,
      "perfect": 1262,
      "pass": 1263,
      "stand": 1264,
      "totally": 1265,
      "mostly": 1266,
      "##ute": 1267,
      "become": 1268,
      "crazy": 1269,
      "awesome": 1270,
      "likely": 1271,
      "ir": 1272,
      "psy": 1273,
      "please": 1274,
      "arent": 1275,
      "whats": 1276,
      "went": 1277,
      "gi": 1278,
      "plan": 1279,
      "obs": 1280,
      "run": 1281,
      "thoughts": 1282,
      "dist": 1283,
      "example": 1284,
      "important": 1285,
      "took": 1286,
      "means": 1287,
      "figure": 1288,
      "opp": 1289,
      "sleep": 1290,
      "##arent": 1291,
      "function": 1292,
      "emotions": 1293,
      "psych": 1294,
      "curre": 1295,
      "##istic": 1296,
      "based": 1297,
      "##ames": 1298,
      "human": 1299,
      "##iness": 1300,
      "abso": 1301,
      "sw": 1302,
      "sent": 1303,
      "##ored": 1304,
      "##aut": 1305,
      "view": 1306,
      "shit": 1307,
      "absolut": 1308,
      "ev": 1309,
      "##selves": 1310,
      "##ouse": 1311,
      "##cc": 1312,
      "questions": 1313,
      "##ower": 1314,
      "##nect": 1315,
      "##ken": 1316,
      "hour": 1317,
      "sci": 1318,
      "##dd": 1319,
      "##ully": 1320,
      "##gether": 1321,
      "war": 1322,
      "##ms": 1323,
      "extrem": 1324,
      "matter": 1325,
      "inc": 1326,
      "express": 1327,
      "okay": 1328,
      "follow": 1329,
      "##reci": 1330,
      "side": 1331,
      "##velop": 1332,
      "intjs": 1333,
      "dou": 1334,
      "norm": 1335,
      "##oid": 1336,
      "possible": 1337,
      "##lic": 1338,
      "intern": 1339,
      "pict": 1340,
      "small": 1341,
      "bor": 1342,
      "curi": 1343,
      "intu": 1344,
      "mess": 1345,
      "recently": 1346,
      "##vi": 1347,
      "advice": 1348,
      "gra": 1349,
      "learn": 1350,
      "##pr": 1351,
      "appreci": 1352,
      "##ret": 1353,
      "##aa": 1354,
      "working": 1355,
      "together": 1356,
      "fall": 1357,
      "favorite": 1358,
      "ra": 1359,
      "##nea": 1360,
      "##gy": 1361,
      "differ": 1362,
      "hmm": 1363,
      "##ongue": 1364,
      "mem": 1365,
      "miss": 1366,
      "name": 1367,
      "whatever": 1368,
      "depends": 1369,
      "jud": 1370,
      "##ash": 1371,
      "set": 1372,
      "share": 1373,
      "##aking": 1374,
      "heart": 1375,
      "##ption": 1376,
      "came": 1377,
      "##ime": 1378,
      "##ology": 1379,
      "xd": 1380,
      "sing": 1381,
      "uni": 1382,
      "##male": 1383,
      "stay": 1384,
      "expect": 1385,
      "##oc": 1386,
      "pain": 1387,
      "##line": 1388,
      "##ited": 1389,
      "##ments": 1390,
      "wow": 1391,
      "##where": 1392,
      "##ether": 1393,
      "taking": 1394,
      "##ead": 1395,
      "extrovert": 1396,
      "easy": 1397,
      "women": 1398,
      "anyway": 1399,
      "const": 1400,
      "obvious": 1401,
      "##ention": 1402,
      "couple": 1403,
      "mine": 1404,
      "female": 1405,
      "prof": 1406,
      "##aring": 1407,
      "room": 1408,
      "##ew": 1409,
      "youve": 1410,
      "##up": 1411,
      "focus": 1412,
      "pur": 1413,
      "infps": 1414,
      "generally": 1415,
      "seriously": 1416,
      "parent": 1417,
      "months": 1418,
      "develop": 1419,
      "case": 1420,
      "connect": 1421,
      "##osed": 1422,
      "depress": 1423,
      "##wards": 1424,
      "##cer": 1425,
      "##oney": 1426,
      "##ier": 1427,
      "mention": 1428,
      "##haha": 1429,
      "beha": 1430,
      "hello": 1431,
      "##ied": 1432,
      "common": 1433,
      "gets": 1434,
      "rom": 1435,
      "annoy": 1436,
      "##uring": 1437,
      "unless": 1438,
      "commun": 1439,
      "result": 1440,
      "next": 1441,
      "spend": 1442,
      "med": 1443,
      "##ump": 1444,
      "mis": 1445,
      "beaut": 1446,
      "##ational": 1447,
      "##iter": 1448,
      "state": 1449,
      "pos": 1450,
      "honestly": 1451,
      "inform": 1452,
      "group": 1453,
      "exist": 1454,
      "video": 1455,
      "sign": 1456,
      "whether": 1457,
      "assum": 1458,
      "tried": 1459,
      "gre": 1460,
      "particul": 1461,
      "writing": 1462,
      "20": 1463,
      "opinion": 1464,
      "dad": 1465,
      "form": 1466,
      "##ats": 1467,
      "##ired": 1468,
      "aff": 1469,
      "boo": 1470,
      "ear": 1471,
      "##althy": 1472,
      "ennea": 1473,
      "##cuss": 1474,
      "teach": 1475,
      "fit": 1476,
      "direct": 1477,
      "##io": 1478,
      "##erv": 1479,
      "##ures": 1480,
      "free": 1481,
      "looks": 1482,
      "relationships": 1483,
      "lead": 1484,
      "##ling": 1485,
      "confus": 1486,
      "male": 1487,
      "moment": 1488,
      "##tern": 1489,
      "colle": 1490,
      "##ised": 1491,
      "##pid": 1492,
      "possib": 1493,
      "short": 1494,
      "##ross": 1495,
      "says": 1496,
      "##ried": 1497,
      "fair": 1498,
      "story": 1499,
      "enneagram": 1500,
      "subject": 1501,
      "tongue": 1502,
      "main": 1503,
      "##not": 1504,
      "##ah": 1505,
      "conversation": 1506,
      "discuss": 1507,
      "house": 1508,
      "stress": 1509,
      "##fjs": 1510,
      "stupid": 1511,
      "write": 1512,
      "specif": 1513,
      "##cing": 1514,
      "maj": 1515,
      "##rist": 1516,
      "##man": 1517,
      "10": 1518,
      "absolutely": 1519,
      "trust": 1520,
      "age": 1521,
      "game": 1522,
      "##fortable": 1523,
      "##cent": 1524,
      "instead": 1525,
      "turn": 1526,
      "pres": 1527,
      "except": 1528,
      "##umb": 1529,
      "rand": 1530,
      "har": 1531,
      "boy": 1532,
      "level": 1533,
      "ideas": 1534,
      "adm": 1535,
      "##ined": 1536,
      "##haps": 1537,
      "##ister": 1538,
      "contro": 1539,
      "college": 1540,
      "order": 1541,
      "infjs": 1542,
      "saw": 1543,
      "intellig": 1544,
      "money": 1545,
      "emotion": 1546,
      "##oice": 1547,
      "goes": 1548,
      "dear": 1549,
      "natur": 1550,
      "##icult": 1551,
      "heard": 1552,
      "perhaps": 1553,
      "called": 1554,
      "posts": 1555,
      "par": 1556,
      "##aw": 1557,
      "##lect": 1558,
      "enfps": 1559,
      "##ustr": 1560,
      "left": 1561,
      "clos": 1562,
      "##gan": 1563,
      "amaz": 1564,
      "accept": 1565,
      "random": 1566,
      "difficult": 1567,
      "bus": 1568,
      "break": 1569,
      "notic": 1570,
      "##ones": 1571,
      "ca": 1572,
      "introverted": 1573,
      "cry": 1574,
      "feels": 1575,
      "relig": 1576,
      "##antly": 1577,
      "dam": 1578,
      "##ply": 1579,
      "major": 1580,
      "pick": 1581,
      "intps": 1582,
      "mother": 1583,
      "rest": 1584,
      "lack": 1585,
      "kinda": 1586,
      "chang": 1587,
      "simply": 1588,
      "ori": 1589,
      "anal": 1590,
      "##oooo": 1591,
      "curious": 1592,
      "incl": 1593,
      "pop": 1594,
      "kill": 1595,
      "pol": 1596,
      "week": 1597,
      "movie": 1598,
      "##av": 1599,
      "appe": 1600,
      "mist": 1601,
      "easily": 1602,
      "exc": 1603,
      "asking": 1604,
      "basically": 1605,
      "##ident": 1606,
      "mot": 1607,
      "check": 1608,
      "parents": 1609,
      "move": 1610,
      "sho": 1611,
      "##ense": 1612,
      "behavi": 1613,
      "pat": 1614,
      "##ories": 1615,
      "themselves": 1616,
      "##angu": 1617,
      "entps": 1618,
      "character": 1619,
      "domin": 1620,
      "dark": 1621,
      "speak": 1622,
      "bro": 1623,
      "men": 1624,
      "##bb": 1625,
      "couldnt": 1626,
      "information": 1627,
      "##oph": 1628,
      "happens": 1629,
      "ways": 1630,
      "brain": 1631,
      "hurt": 1632,
      "##ggest": 1633,
      "##con": 1634,
      "##ared": 1635,
      "half": 1636,
      "suggest": 1637,
      "cause": 1638,
      "##ific": 1639,
      "occ": 1640,
      "asked": 1641,
      "pot": 1642,
      "##ars": 1643,
      "##ouch": 1644,
      "inde": 1645,
      "vis": 1646,
      "process": 1647,
      "cre": 1648,
      "##no": 1649,
      "col": 1650,
      "imm": 1651,
      "problems": 1652,
      "##side": 1653,
      "rare": 1654,
      "eyes": 1655,
      "avoid": 1656,
      "##ided": 1657,
      "realize": 1658,
      "##ines": 1659,
      "towards": 1660,
      "full": 1661,
      "ref": 1662,
      "topic": 1663,
      "100": 1664,
      "hours": 1665,
      "books": 1666,
      "seeing": 1667,
      "hor": 1668,
      "sou": 1669,
      "##ren": 1670,
      "##idd": 1671,
      "##ument": 1672,
      "three": 1673,
      "meant": 1674,
      "quick": 1675,
      "cal": 1676,
      "extremely": 1677,
      "meaning": 1678,
      "lets": 1679,
      "entire": 1680,
      "needs": 1681,
      "##ane": 1682,
      "necess": 1683,
      "math": 1684,
      "##og": 1685,
      "event": 1686,
      "coming": 1687,
      "works": 1688,
      "ener": 1689,
      "##friend": 1690,
      "##ivid": 1691,
      "swe": 1692,
      "playing": 1693,
      "##but": 1694,
      "##lt": 1695,
      "##ify": 1696,
      "attention": 1697,
      "langu": 1698,
      "grow": 1699,
      "##ereot": 1700,
      "watching": 1701,
      "knew": 1702,
      "ist": 1703,
      "hold": 1704,
      "fine": 1705,
      "drink": 1706,
      "posted": 1707,
      "respect": 1708,
      "understanding": 1709,
      "glad": 1710,
      "truth": 1711,
      "touch": 1712,
      "##ove": 1713,
      "##right": 1714,
      "##iful": 1715,
      "##lish": 1716,
      "theory": 1717,
      "neg": 1718,
      "girls": 1719,
      "regard": 1720,
      "var": 1721,
      "red": 1722,
      "##ination": 1723,
      "sever": 1724,
      "games": 1725,
      "ign": 1726,
      "stereot": 1727,
      "dating": 1728,
      "##elf": 1729,
      "amazing": 1730,
      "appreciate": 1731,
      "noticed": 1732,
      "pract": 1733,
      "living": 1734,
      "wait": 1735,
      "##cious": 1736,
      "currently": 1737,
      "online": 1738,
      "##like": 1739,
      "romant": 1740,
      "black": 1741,
      "youll": 1742,
      "quiet": 1743,
      "sister": 1744,
      "surpr": 1745,
      "wants": 1746,
      "##aught": 1747,
      "leave": 1748,
      "hang": 1749,
      "power": 1750,
      "beautiful": 1751,
      "food": 1752,
      "picture": 1753,
      "compl": 1754,
      "##ave": 1755,
      "##ides": 1756,
      "emp": 1757,
      "##ances": 1758,
      "happened": 1759,
      "bored": 1760,
      "liter": 1761,
      "ident": 1762,
      "eat": 1763,
      "anim": 1764,
      "light": 1765,
      "##br": 1766,
      "suck": 1767,
      "known": 1768,
      "##unch": 1769,
      "fut": 1770,
      "##ages": 1771,
      "##ality": 1772,
      "##rible": 1773,
      "physical": 1774,
      "##stem": 1775,
      "liked": 1776,
      "##use": 1777,
      "learning": 1778,
      "hit": 1779,
      "stra": 1780,
      "worth": 1781,
      "extra": 1782,
      "react": 1783,
      "deb": 1784,
      "##go": 1785,
      "anx": 1786,
      "system": 1787,
      "heres": 1788,
      "##ming": 1789,
      "sn": 1790,
      "outside": 1791,
      "##arc": 1792,
      "cogn": 1793,
      "ret": 1794,
      "##de": 1795,
      "correct": 1796,
      "##ient": 1797,
      "##ank": 1798,
      "interact": 1799,
      "##fully": 1800,
      "forg": 1801,
      "loved": 1802,
      "bi": 1803,
      "christ": 1804,
      "##ugg": 1805,
      "during": 1806,
      "fear": 1807,
      "##onse": 1808,
      "decis": 1809,
      "brother": 1810,
      "link": 1811,
      "##arily": 1812,
      "##erior": 1813,
      "pay": 1814,
      "intro": 1815,
      "body": 1816,
      "choo": 1817,
      "wondering": 1818,
      "due": 1819,
      "given": 1820,
      "communic": 1821,
      "##ork": 1822,
      "later": 1823,
      "##ering": 1824,
      "##ists": 1825,
      "appro": 1826,
      "imagine": 1827,
      "takes": 1828,
      "internet": 1829,
      "est": 1830,
      "##ake": 1831,
      "##ging": 1832,
      "remind": 1833,
      "##res": 1834,
      "frustr": 1835,
      "##izing": 1836,
      "fight": 1837,
      "individ": 1838,
      "taken": 1839,
      "##oss": 1840,
      "##ows": 1841,
      "proud": 1842,
      "##ac": 1843,
      "death": 1844,
      "kids": 1845,
      "affect": 1846,
      "response": 1847,
      "woman": 1848,
      "hair": 1849,
      "##iti": 1850,
      "mood": 1851,
      "aware": 1852,
      "begin": 1853,
      "lost": 1854,
      "against": 1855,
      "angry": 1856,
      "##ptions": 1857,
      "##ix": 1858,
      "##ety": 1859,
      "##iety": 1860,
      "difference": 1861,
      "cannot": 1862,
      "normal": 1863,
      "cold": 1864,
      "smart": 1865,
      "future": 1866,
      "pri": 1867,
      "clear": 1868,
      "##hip": 1869,
      "##idence": 1870,
      "num": 1871,
      "lots": 1872,
      "late": 1873,
      "describ": 1874,
      "issue": 1875,
      "control": 1876,
      "non": 1877,
      "##yle": 1878,
      "nature": 1879,
      "##bs": 1880,
      "fail": 1881,
      "origin": 1882,
      "bring": 1883,
      "worry": 1884,
      "respons": 1885,
      "individual": 1886,
      "##air": 1887,
      "cognitive": 1888,
      "value": 1889,
      "ideal": 1890,
      "oppos": 1891,
      "learned": 1892,
      "accur": 1893,
      "##more": 1894,
      "perc": 1895,
      "simple": 1896,
      "above": 1897,
      "trou": 1898,
      "reasons": 1899,
      "##atic": 1900,
      "comput": 1901,
      "##the": 1902,
      "science": 1903,
      "##lling": 1904,
      "doubt": 1905,
      "text": 1906,
      "##onna": 1907,
      "##ster": 1908,
      "requ": 1909,
      "detail": 1910,
      "##unk": 1911,
      "##uly": 1912,
      "older": 1913,
      "draw": 1914,
      "bother": 1915,
      "issues": 1916,
      "phil": 1917,
      "damn": 1918,
      "inside": 1919,
      "nf": 1920,
      "invol": 1921,
      "##ins": 1922,
      "##ale": 1923,
      "sol": 1924,
      "several": 1925,
      "crit": 1926,
      "single": 1927,
      "smile": 1928,
      "##ester": 1929,
      "low": 1930,
      "reply": 1931,
      "##ledge": 1932,
      "##how": 1933,
      "##kward": 1934,
      "comfortable": 1935,
      "confused": 1936,
      "energy": 1937,
      "##ining": 1938,
      "##iment": 1939,
      "##orn": 1940,
      "romantic": 1941,
      "gonna": 1942,
      "sweet": 1943,
      "##irt": 1944,
      "typing": 1945,
      "##itch": 1946,
      "##earch": 1947,
      "dominant": 1948,
      "giving": 1949,
      "movies": 1950,
      "ant": 1951,
      "##ger": 1952,
      "##lex": 1953,
      "forget": 1954,
      "##ively": 1955,
      "##ature": 1956,
      "bur": 1957,
      "awkward": 1958,
      "boyfriend": 1959,
      "description": 1960,
      "##eless": 1961,
      "env": 1962,
      "across": 1963,
      "##set": 1964,
      "##eld": 1965,
      "##irc": 1966,
      "##ular": 1967,
      "##eric": 1968,
      "research": 1969,
      "date": 1970,
      "hot": 1971,
      "##wise": 1972,
      "language": 1973,
      "cute": 1974,
      "wink": 1975,
      "listening": 1976,
      "##what": 1977,
      "younger": 1978,
      "##ivity": 1979,
      "eye": 1980,
      "wi": 1981,
      "walk": 1982,
      "telling": 1983,
      "respond": 1984,
      "prop": 1985,
      "lar": 1986,
      "##cover": 1987,
      "boring": 1988,
      "peoples": 1989,
      "suppose": 1990,
      "straight": 1991,
      "win": 1992,
      "decided": 1993,
      "cut": 1994,
      "del": 1995,
      "##ency": 1996,
      "likes": 1997,
      "truly": 1998,
      "tests": 1999,
      "huge": 2000,
      "deg": 2001,
      "tem": 2002,
      "bed": 2003,
      "##ising": 2004,
      "stre": 2005,
      "object": 2006,
      "certainly": 2007,
      "lim": 2008,
      "##10": 2009,
      "english": 2010,
      "fil": 2011,
      "##asc": 2012,
      "logic": 2013,
      "choose": 2014,
      "situations": 2015,
      "vers": 2016,
      "rec": 2017,
      "luck": 2018,
      "beh": 2019,
      "mentioned": 2020,
      "early": 2021,
      "perspect": 2022,
      "helps": 2023,
      "constantly": 2024,
      "##arch": 2025,
      "trans": 2026,
      "circ": 2027,
      "negative": 2028,
      "shy": 2029,
      "soon": 2030,
      "finally": 2031,
      "##gress": 2032,
      "supposed": 2033,
      "##mon": 2034,
      "project": 2035,
      "notice": 2036,
      "organ": 2037,
      "##ung": 2038,
      "support": 2039,
      "effect": 2040,
      "results": 2041,
      "pub": 2042,
      "approach": 2043,
      "##row": 2044,
      "##sp": 2045,
      "number": 2046,
      "comment": 2047,
      "skill": 2048,
      "annoying": 2049,
      "##iddle": 2050,
      "ah": 2051,
      "motiv": 2052,
      "fem": 2053,
      "amount": 2054,
      "society": 2055,
      "speaking": 2056,
      "reality": 2057,
      "cat": 2058,
      "##ype": 2059,
      "characters": 2060,
      "argument": 2061,
      "##uc": 2062,
      "##cked": 2063,
      "obviously": 2064,
      "comb": 2065,
      "wal": 2066,
      "er": 2067,
      "##clus": 2068,
      "philos": 2069,
      "fant": 2070,
      "##que": 2071,
      "perce": 2072,
      "describe": 2073,
      "sat": 2074,
      "summ": 2075,
      "anymore": 2076,
      "weeks": 2077,
      "special": 2078,
      "gave": 2079,
      "ste": 2080,
      "##raid": 2081,
      "realized": 2082,
      "##ili": 2083,
      "space": 2084,
      "experiences": 2085,
      "cap": 2086,
      "dead": 2087,
      "contact": 2088,
      "specific": 2089,
      "fix": 2090,
      "fan": 2091,
      "rid": 2092,
      "##pat": 2093,
      "##att": 2094,
      "step": 2095,
      "computer": 2096,
      "bull": 2097,
      "##eh": 2098,
      "refer": 2099,
      "finding": 2100,
      "strugg": 2101,
      "whenever": 2102,
      "tech": 2103,
      "##ped": 2104,
      "somewhere": 2105,
      "ru": 2106,
      "afraid": 2107,
      "bab": 2108,
      "middle": 2109,
      "polit": 2110,
      "soul": 2111,
      "literally": 2112,
      "hop": 2113,
      "four": 2114,
      "nor": 2115,
      "##ended": 2116,
      "logical": 2117,
      "##ler": 2118,
      "starting": 2119,
      "fore": 2120,
      "hist": 2121,
      "##duct": 2122,
      "trouble": 2123,
      "vs": 2124,
      "##ered": 2125,
      "knows": 2126,
      "party": 2127,
      "smo": 2128,
      "##book": 2129,
      "slight": 2130,
      "term": 2131,
      "lately": 2132,
      "edit": 2133,
      "purp": 2134,
      "##aus": 2135,
      "##unt": 2136,
      "##ther": 2137,
      "##astic": 2138,
      "gif": 2139,
      "phot": 2140,
      "##cra": 2141,
      "points": 2142,
      "rock": 2143,
      "anxiety": 2144,
      "fucking": 2145,
      "positive": 2146,
      "finish": 2147,
      "knowing": 2148,
      "opposite": 2149,
      "##ho": 2150,
      "style": 2151,
      "natural": 2152,
      "goo": 2153,
      "je": 2154,
      "##rel": 2155,
      "phone": 2156,
      "bri": 2157,
      "tit": 2158,
      "easier": 2159,
      "pie": 2160,
      "scen": 2161,
      "behavior": 2162,
      "uns": 2163,
      "forums": 2164,
      "mental": 2165,
      "particular": 2166,
      "19": 2167,
      "odd": 2168,
      "weak": 2169,
      "##ently": 2170,
      "stereotyp": 2171,
      "##ales": 2172,
      "cult": 2173,
      "##aim": 2174,
      "considered": 2175,
      "terms": 2176,
      "study": 2177,
      "includ": 2178,
      "americ": 2179,
      "accurate": 2180,
      "philosoph": 2181,
      "12": 2182,
      "within": 2183,
      "##inct": 2184,
      "##ential": 2185,
      "knowledge": 2186,
      "##app": 2187,
      "slow": 2188,
      "children": 2189,
      "occas": 2190,
      "behind": 2191,
      "becom": 2192,
      "##ipul": 2193,
      "obsess": 2194,
      "##any": 2195,
      "concept": 2196,
      "disag": 2197,
      "line": 2198,
      "avat": 2199,
      "ep": 2200,
      "wear": 2201,
      "healthy": 2202,
      "possibly": 2203,
      "site": 2204,
      "suc": 2205,
      "leg": 2206,
      "##vin": 2207,
      "grad": 2208,
      "##ax": 2209,
      "incred": 2210,
      "ability": 2211,
      "inferior": 2212,
      "answers": 2213,
      "manipul": 2214,
      "morning": 2215,
      "##x9": 2216,
      "##ants": 2217,
      "impress": 2218,
      "##amp": 2219,
      "sensitive": 2220,
      "##tu": 2221,
      "somewhat": 2222,
      "##iction": 2223,
      "humor": 2224,
      "present": 2225,
      "##ards": 2226,
      "build": 2227,
      "law": 2228,
      "##order": 2229,
      "aut": 2230,
      "worked": 2231,
      "somehow": 2232,
      "gotten": 2233,
      "mad": 2234,
      "treat": 2235,
      "blue": 2236,
      "shows": 2237,
      "effort": 2238,
      "insight": 2239,
      "bar": 2240,
      "threads": 2241,
      "##yy": 2242,
      "##ott": 2243,
      "##version": 2244,
      "hahaha": 2245,
      "gone": 2246,
      "om": 2247,
      "##ries": 2248,
      "tired": 2249,
      "quote": 2250,
      "tapat": 2251,
      "needed": 2252,
      "tapatalk": 2253,
      "fellow": 2254,
      "fast": 2255,
      "intuitive": 2256,
      "father": 2257,
      "##ets": 2258,
      "##udd": 2259,
      "attracted": 2260,
      "##ring": 2261,
      "profess": 2262,
      "necessarily": 2263,
      "otherwise": 2264,
      "values": 2265,
      "particularly": 2266,
      "##itten": 2267,
      "contin": 2268,
      "watched": 2269,
      "sx": 2270,
      "chance": 2271,
      "dreams": 2272,
      "##ug": 2273,
      "##anna": 2274,
      "analy": 2275,
      "perspective": 2276,
      "wall": 2277,
      "##ters": 2278,
      "##erm": 2279,
      "desp": 2280,
      "##for": 2281,
      "##ushed": 2282,
      "degree": 2283,
      "lon": 2284,
      "tv": 2285,
      "##utes": 2286,
      "emotionally": 2287,
      "##ites": 2288,
      "##iron": 2289,
      "15": 2290,
      "##etic": 2291,
      "traits": 2292,
      "intelligence": 2293,
      "##ze": 2294,
      "unhe": 2295,
      "wrote": 2296,
      "##spect": 2297,
      "##ppy": 2298,
      "##fortun": 2299,
      "##view": 2300,
      "user": 2301,
      "##yn": 2302,
      "extroverted": 2303,
      "choice": 2304,
      "sun": 2305,
      "worst": 2306,
      "die": 2307,
      "married": 2308,
      "##ww": 2309,
      "white": 2310,
      "related": 2311,
      "joke": 2312,
      "religion": 2313,
      "##verse": 2314,
      "##arently": 2315,
      "##empt": 2316,
      "##bit": 2317,
      "##ots": 2318,
      "itself": 2319,
      "youtu": 2320,
      "allow": 2321,
      "wast": 2322,
      "soc": 2323,
      "hands": 2324,
      "admit": 2325,
      "rul": 2326,
      "strang": 2327,
      "country": 2328,
      "fairly": 2329,
      "prov": 2330,
      "posting": 2331,
      "apparently": 2332,
      "rarely": 2333,
      "##lies": 2334,
      "da": 2335,
      "strange": 2336,
      "avatar": 2337,
      "concer": 2338,
      "hug": 2339,
      "evil": 2340,
      "environ": 2341,
      "techn": 2342,
      "mult": 2343,
      "public": 2344,
      "disagree": 2345,
      "##ives": 2346,
      "clearly": 2347,
      "note": 2348,
      "spir": 2349,
      "unhealthy": 2350,
      "##oint": 2351,
      "##med": 2352,
      "tom": 2353,
      "unfortun": 2354,
      "actual": 2355,
      "youtube": 2356,
      "dislike": 2357,
      "discover": 2358,
      "interests": 2359,
      "belief": 2360,
      "match": 2361,
      "##bo": 2362,
      "experien": 2363,
      "nt": 2364,
      "##lev": 2365,
      "songs": 2366,
      "intuition": 2367,
      "pla": 2368,
      "##lfriend": 2369,
      "empath": 2370,
      "intellect": 2371,
      "grand": 2372,
      "appear": 2373,
      "##erve": 2374,
      "business": 2375,
      "forgot": 2376,
      "##ender": 2377,
      "drive": 2378,
      "gives": 2379,
      "##ased": 2380,
      "##comm": 2381,
      "sport": 2382,
      "cas": 2383,
      "##hood": 2384,
      "buy": 2385,
      "depressed": 2386,
      "voice": 2387,
      "##raph": 2388,
      "seemed": 2389,
      "minutes": 2390,
      "thinks": 2391,
      "conversations": 2392,
      "piss": 2393,
      "spent": 2394,
      "highly": 2395,
      "univers": 2396,
      "water": 2397,
      "tast": 2398,
      "ton": 2399,
      "##irth": 2400,
      "depression": 2401,
      "##11": 2402,
      "dog": 2403,
      "upon": 2404,
      "looked": 2405,
      "career": 2406,
      "coff": 2407,
      "helpful": 2408,
      "auth": 2409,
      "mod": 2410,
      "none": 2411,
      "front": 2412,
      "passion": 2413,
      "##ruct": 2414,
      "##ator": 2415,
      "intelligent": 2416,
      "youd": 2417,
      "spot": 2418,
      "unc": 2419,
      "emb": 2420,
      "##ii": 2421,
      "clean": 2422,
      "mil": 2423,
      "plus": 2424,
      "stuck": 2425,
      "wanna": 2426,
      "##tw": 2427,
      "##illy": 2428,
      "assume": 2429,
      "lazy": 2430,
      "creative": 2431,
      "##verage": 2432,
      "current": 2433,
      "caus": 2434,
      "series": 2435,
      "indeed": 2436,
      "attempt": 2437,
      "history": 2438,
      "##band": 2439,
      "partner": 2440,
      "mix": 2441,
      "##ror": 2442,
      "##sing": 2443,
      "##lict": 2444,
      "##form": 2445,
      "willing": 2446,
      "decide": 2447,
      "born": 2448,
      "lives": 2449,
      "##w6": 2450,
      "mer": 2451,
      "##w5": 2452,
      "##0s": 2453,
      "stick": 2454,
      "lose": 2455,
      "shouldnt": 2456,
      "irr": 2457,
      "coffee": 2458,
      "##allen": 2459,
      "worse": 2460,
      "entjs": 2461,
      "environment": 2462,
      "loud": 2463,
      "dem": 2464,
      "vi": 2465,
      "##under": 2466,
      "##cial": 2467,
      "girlfriend": 2468,
      "##head": 2469,
      "##ording": 2470,
      "original": 2471,
      "birth": 2472,
      "##ially": 2473,
      "purpose": 2474,
      "istps": 2475,
      "bal": 2476,
      "##ey": 2477,
      "quickly": 2478,
      "search": 2479,
      "complete": 2480,
      "opinions": 2481,
      "warm": 2482,
      "aspect": 2483,
      "challen": 2484,
      "##ibly": 2485,
      "terrible": 2486,
      "tre": 2487,
      "yep": 2488,
      "##zz": 2489,
      "##edi": 2490,
      "hus": 2491,
      "##els": 2492,
      "##ilities": 2493,
      "typed": 2494,
      "dan": 2495,
      "##xx": 2496,
      "wanting": 2497,
      "extravert": 2498,
      "kitt": 2499,
      "lad": 2500,
      "##ese": 2501,
      "##yr": 2502,
      "uncom": 2503,
      "genu": 2504,
      "throw": 2505,
      "attractive": 2506,
      "dev": 2507,
      "compet": 2508,
      "upset": 2509,
      "priv": 2510,
      "fur": 2511,
      "useful": 2512,
      "sym": 2513,
      "naturally": 2514,
      "##33": 2515,
      "intim": 2516,
      "suff": 2517,
      "prot": 2518,
      "lab": 2519,
      "##rop": 2520,
      "##atter": 2521,
      "##rew": 2522,
      "apart": 2523,
      "##uing": 2524,
      "action": 2525,
      "friendship": 2526,
      "longer": 2527,
      "conflict": 2528,
      "debate": 2529,
      "pull": 2530,
      "initi": 2531,
      "descriptions": 2532,
      "success": 2533,
      "claim": 2534,
      "peri": 2535,
      "dude": 2536,
      "enc": 2537,
      "connection": 2538,
      "program": 2539,
      "prom": 2540,
      "desire": 2541,
      "putting": 2542,
      "judge": 2543,
      "impro": 2544,
      "hugs": 2545,
      "reach": 2546,
      "##ices": 2547,
      "moving": 2548,
      "husband": 2549,
      "##ping": 2550,
      "sharing": 2551,
      "conclus": 2552,
      "unfortunately": 2553,
      "##ta": 2554,
      "##ability": 2555,
      "apolog": 2556,
      "eventually": 2557,
      "unsure": 2558,
      "##ays": 2559,
      "##roll": 2560,
      "written": 2561,
      "identify": 2562,
      "rational": 2563,
      "##acy": 2564,
      "##land": 2565,
      "fire": 2566,
      "##nce": 2567,
      "handle": 2568,
      "teacher": 2569,
      "color": 2570,
      "rules": 2571,
      "ya": 2572,
      "star": 2573,
      "stri": 2574,
      "helped": 2575,
      "##iving": 2576,
      "lie": 2577,
      "changed": 2578,
      "sarc": 2579,
      "bene": 2580,
      "enfjs": 2581,
      "title": 2582,
      "prim": 2583,
      "ended": 2584,
      "wonderful": 2585,
      "account": 2586,
      "period": 2587,
      "##ym": 2588,
      "##eth": 2589,
      "##ensive": 2590,
      "large": 2591,
      "##ama": 2592,
      "poor": 2593,
      "##cogn": 2594,
      "critic": 2595,
      "##du": 2596,
      "recomm": 2597,
      "guil": 2598,
      "average": 2599,
      "##ric": 2600,
      "##my": 2601,
      "travel": 2602,
      "create": 2603,
      "involved": 2604,
      "drop": 2605,
      "developed": 2606,
      "convin": 2607,
      "gender": 2608,
      "##ding": 2609,
      "insp": 2610,
      "described": 2611,
      "pet": 2612,
      "message": 2613,
      "ele": 2614,
      "favour": 2615,
      "18": 2616,
      "bunch": 2617,
      "pen": 2618,
      "##uff": 2619,
      "##work": 2620,
      "near": 2621,
      "##ky": 2622,
      "socion": 2623,
      "wind": 2624,
      "##lent": 2625,
      "##pped": 2626,
      "running": 2627,
      "##ged": 2628,
      "pleas": 2629,
      "earth": 2630,
      "eq": 2631,
      "##uu": 2632,
      "##put": 2633,
      "##asm": 2634,
      "according": 2635,
      "artic": 2636,
      "##sec": 2637,
      "facebook": 2638,
      "pattern": 2639,
      "roll": 2640,
      "cent": 2641,
      "whos": 2642,
      "quot": 2643,
      "##dden": 2644,
      "alot": 2645,
      "incredibly": 2646,
      "16": 2647,
      "##esh": 2648,
      "somebody": 2649,
      "##itude": 2650,
      "peace": 2651,
      "sexual": 2652,
      "following": 2653,
      "air": 2654,
      "jump": 2655,
      "##ples": 2656,
      "studying": 2657,
      "places": 2658,
      "##w2": 2659,
      "##ral": 2660,
      "##onic": 2661,
      "religious": 2662,
      "ver": 2663,
      "##arr": 2664,
      "sudden": 2665,
      "cook": 2666,
      "confident": 2667,
      "fill": 2668,
      "loc": 2669,
      "determ": 2670,
      "socionics": 2671,
      "silly": 2672,
      "##ext": 2673,
      "potential": 2674,
      "##lu": 2675,
      "recogn": 2676,
      "meth": 2677,
      "##ires": 2678,
      "##lock": 2679,
      "considering": 2680,
      "##gest": 2681,
      "introverts": 2682,
      "pictures": 2683,
      "band": 2684,
      "ce": 2685,
      "##ization": 2686,
      "calm": 2687,
      "animals": 2688,
      "summer": 2689,
      "spirit": 2690,
      "##ca": 2691,
      "##edom": 2692,
      "goog": 2693,
      "##hol": 2694,
      "mag": 2695,
      "drunk": 2696,
      "dest": 2697,
      "##ateg": 2698,
      "nobody": 2699,
      "skills": 2700,
      "omg": 2701,
      "##underst": 2702,
      "kitteh": 2703,
      "##ru": 2704,
      "##w1": 2705,
      "talked": 2706,
      "##ngth": 2707,
      "psychology": 2708,
      "30": 2709,
      "stories": 2710,
      "five": 2711,
      "pic": 2712,
      "##esterday": 2713,
      "nope": 2714,
      "played": 2715,
      "turned": 2716,
      "discussion": 2717,
      "rain": 2718,
      "score": 2719,
      "slightly": 2720,
      "yesterday": 2721,
      "company": 2722,
      "baby": 2723,
      "page": 2724,
      "sick": 2725,
      "##erved": 2726,
      "##soci": 2727,
      "##back": 2728,
      "surprised": 2729,
      "dress": 2730,
      "eating": 2731,
      "ie": 2732,
      "conscious": 2733,
      "crap": 2734,
      "spo": 2735,
      "forward": 2736,
      "weve": 2737,
      "alright": 2738,
      "explo": 2739,
      "##chie": 2740,
      "shut": 2741,
      "among": 2742,
      "complex": 2743,
      "scient": 2744,
      "femin": 2745,
      "box": 2746,
      "specifically": 2747,
      "multip": 2748,
      "relax": 2749,
      "typical": 2750,
      "entirely": 2751,
      "walking": 2752,
      "sour": 2753,
      "intense": 2754,
      "qual": 2755,
      "waiting": 2756,
      "responses": 2757,
      "details": 2758,
      "##iding": 2759,
      "immedi": 2760,
      "btw": 2761,
      "cop": 2762,
      "catch": 2763,
      "50": 2764,
      "sile": 2765,
      "##time": 2766,
      "image": 2767,
      "moved": 2768,
      "sitting": 2769,
      "##ological": 2770,
      "busy": 2771,
      "##x92": 2772,
      "##ex": 2773,
      "##w4": 2774,
      "classes": 2775,
      "##hhhh": 2776,
      "meeting": 2777,
      "anger": 2778,
      "health": 2779,
      "##ived": 2780,
      "actions": 2781,
      "scared": 2782,
      "crush": 2783,
      "figured": 2784,
      "##ital": 2785,
      "##aged": 2786,
      "decision": 2787,
      "proper": 2788,
      "occasion": 2789,
      "stat": 2790,
      "version": 2791,
      "pap": 2792,
      "quality": 2793,
      "ball": 2794,
      "teen": 2795,
      "beginning": 2796,
      "interp": 2797,
      "##othes": 2798,
      "##ney": 2799,
      "##iliar": 2800,
      "dated": 2801,
      "##hn": 2802,
      "##room": 2803,
      "consist": 2804,
      "ignor": 2805,
      "hom": 2806,
      "hilar": 2807,
      "##erc": 2808,
      "agre": 2809,
      "fu": 2810,
      "push": 2811,
      "feed": 2812,
      "became": 2813,
      "judging": 2814,
      "temper": 2815,
      "philosophy": 2816,
      "recommend": 2817,
      "tough": 2818,
      "cond": 2819,
      "attack": 2820,
      "hobb": 2821,
      "depending": 2822,
      "normally": 2823,
      "dry": 2824,
      "dumb": 2825,
      "##ius": 2826,
      "##iculous": 2827,
      "city": 2828,
      "##inating": 2829,
      "strength": 2830,
      "despite": 2831,
      "14": 2832,
      "fasc": 2833,
      "loves": 2834,
      "##phone": 2835,
      "fantas": 2836,
      "ignore": 2837,
      "christian": 2838,
      "field": 2839,
      "childhood": 2840,
      "frequ": 2841,
      "mainly": 2842,
      "growing": 2843,
      "repe": 2844,
      "previous": 2845,
      "definition": 2846,
      "##ception": 2847,
      "position": 2848,
      "communication": 2849,
      "hilarious": 2850,
      "path": 2851,
      "##w8": 2852,
      "everybody": 2853,
      "lean": 2854,
      "rob": 2855,
      "hol": 2856,
      "sps": 2857,
      "green": 2858,
      "excited": 2859,
      "pure": 2860,
      "send": 2861,
      "conc": 2862,
      "##iest": 2863,
      "area": 2864,
      "heav": 2865,
      "chem": 2866,
      "##eeee": 2867,
      "decisions": 2868,
      "##ises": 2869,
      "shall": 2870,
      "ps": 2871,
      "prin": 2872,
      "mark": 2873,
      "wife": 2874,
      "uncomfortable": 2875,
      "hyp": 2876,
      "press": 2877,
      "##rib": 2878,
      "higher": 2879,
      "educ": 2880,
      "university": 2881,
      "##cul": 2882,
      "##ses": 2883,
      "##sent": 2884,
      "doct": 2885,
      "neither": 2886,
      "seek": 2887,
      "##lier": 2888,
      "caring": 2889,
      "##round": 2890,
      "isfps": 2891,
      "statement": 2892,
      "benef": 2893,
      "season": 2894,
      "parts": 2895,
      "##ified": 2896,
      "majority": 2897,
      "horrible": 2898,
      "dat": 2899,
      "dig": 2900,
      "##ask": 2901,
      "chat": 2902,
      "##ured": 2903,
      "argue": 2904,
      "insec": 2905,
      "perfectly": 2906,
      "misunderst": 2907,
      "ve": 2908,
      "interview": 2909,
      "biggest": 2910,
      "secret": 2911,
      "bes": 2912,
      "##ball": 2913,
      "##oof": 2914,
      "instinct": 2915,
      "method": 2916,
      "soft": 2917,
      "##rog": 2918,
      "save": 2919,
      "crying": 2920,
      "shocked": 2921,
      "moder": 2922,
      "##ament": 2923,
      "##levant": 2924,
      "##fp": 2925,
      "lived": 2926,
      "sup": 2927,
      "typically": 2928,
      "apply": 2929,
      "sports": 2930,
      "cow": 2931,
      "congr": 2932,
      "clar": 2933,
      "closest": 2934,
      "sucks": 2935,
      "athe": 2936,
      "boss": 2937,
      "comments": 2938,
      "##agn": 2939,
      "driving": 2940,
      "fully": 2941,
      "goal": 2942,
      "frustrating": 2943,
      "##otic": 2944,
      "product": 2945,
      "friendly": 2946,
      "influ": 2947,
      "imposs": 2948,
      "purs": 2949,
      "cats": 2950,
      "##itar": 2951,
      "bey": 2952,
      "videos": 2953,
      "engine": 2954,
      "complain": 2955,
      "intellectual": 2956,
      "pu": 2957,
      "##een": 2958,
      "sem": 2959,
      "##nty": 2960,
      "myst": 2961,
      "john": 2962,
      "double": 2963,
      "profile": 2964,
      "istjs": 2965,
      "##igh": 2966,
      "##iny": 2967,
      "beat": 2968,
      "##isf": 2969,
      "himself": 2970,
      "bitch": 2971,
      "confidence": 2972,
      "observ": 2973,
      "fits": 2974,
      "##icial": 2975,
      "comfort": 2976,
      "inner": 2977,
      "experienced": 2978,
      "##w3": 2979,
      "##ager": 2980,
      "kept": 2981,
      "understood": 2982,
      "multiple": 2983,
      "dun": 2984,
      "pa": 2985,
      "##ugs": 2986,
      "dealing": 2987,
      "reflect": 2988,
      "achie": 2989,
      "##uments": 2990,
      "ridiculous": 2991,
      "##ton": 2992,
      "##eps": 2993,
      "##mind": 2994,
      "##w7": 2995,
      "##ishing": 2996,
      "tested": 2997,
      "ten": 2998,
      "##akes": 2999,
      "force": 3000,
      "key": 3001,
      "associ": 3002,
      "club": 3003,
      "join": 3004,
      "##ggs": 3005,
      "13": 3006,
      "##now": 3007,
      "##ience": 3008,
      "shop": 3009,
      "yours": 3010,
      "trad": 3011,
      "surround": 3012,
      "sensing": 3013,
      "various": 3014,
      "elect": 3015,
      "hy": 3016,
      "mass": 3017,
      "ult": 3018,
      "##by": 3019,
      "##gu": 3020,
      "input": 3021,
      "anyways": 3022,
      "disorder": 3023,
      "context": 3024,
      "humans": 3025,
      "wild": 3026,
      "##ges": 3027,
      "ready": 3028,
      "plenty": 3029,
      "circum": 3030,
      "##nch": 3031,
      "##dom": 3032,
      "reject": 3033,
      "hehe": 3034,
      "earlier": 3035,
      "##ann": 3036,
      "strongly": 3037,
      "struggle": 3038,
      "further": 3039,
      "11": 3040,
      "##ians": 3041,
      "##ault": 3042,
      "plans": 3043,
      "selfish": 3044,
      "piece": 3045,
      "impossible": 3046,
      "dang": 3047,
      "##urity": 3048,
      "reminds": 3049,
      "forever": 3050,
      "##crast": 3051,
      "200": 3052,
      "procrast": 3053,
      "tells": 3054,
      "differences": 3055,
      "##gressive": 3056,
      "birthday": 3057,
      "mut": 3058,
      "nearly": 3059,
      "jobs": 3060,
      "valid": 3061,
      "popular": 3062,
      "bott": 3063,
      "port": 3064,
      "##light": 3065,
      "door": 3066,
      "##aaaa": 3067,
      "stressed": 3068,
      "favourite": 3069,
      "den": 3070,
      "ris": 3071,
      "##ternal": 3072,
      "author": 3073,
      "beyond": 3074,
      "core": 3075,
      "ge": 3076,
      "ut": 3077,
      "##bal": 3078,
      "exce": 3079,
      "##ortun": 3080,
      "keeping": 3081,
      "preference": 3082,
      "total": 3083,
      "gain": 3084,
      "##ux": 3085,
      "team": 3086,
      "disc": 3087,
      "wo": 3088,
      "##93": 3089,
      "liber": 3090,
      "offer": 3091,
      "rad": 3092,
      "accom": 3093,
      "collect": 3094,
      "annoyed": 3095,
      "grew": 3096,
      "creep": 3097,
      "taste": 3098,
      "##ka": 3099,
      "##mate": 3100,
      "##ution": 3101,
      "entertain": 3102,
      "lonely": 3103,
      "don": 3104,
      "##50": 3105,
      "therefore": 3106,
      "opportun": 3107,
      "jack": 3108,
      "net": 3109,
      "circumst": 3110,
      "##rr": 3111,
      "enjoyed": 3112,
      "compliment": 3113,
      "rule": 3114,
      "lif": 3115,
      "webs": 3116,
      "##ibility": 3117,
      "extreme": 3118,
      "independ": 3119,
      "lyr": 3120,
      "wit": 3121,
      "##others": 3122,
      "socially": 3123,
      "flaw": 3124,
      "universe": 3125,
      "signific": 3126,
      "mel": 3127,
      "##ison": 3128,
      "##loy": 3129,
      "protect": 3130,
      "google": 3131,
      "ast": 3132,
      "##pro": 3133,
      "##ooo": 3134,
      "happiness": 3135,
      "jokes": 3136,
      "##bl": 3137,
      "##kend": 3138,
      "##istics": 3139,
      "acting": 3140,
      "ground": 3141,
      "helping": 3142,
      "wed": 3143,
      "exerc": 3144,
      "fake": 3145,
      "blood": 3146,
      "memory": 3147,
      "ner": 3148,
      "extraverted": 3149,
      "kiss": 3150,
      "##happy": 3151,
      "##ground": 3152,
      "iphone": 3153,
      "##wor": 3154,
      "##14": 3155,
      "cha": 3156,
      "div": 3157,
      "culture": 3158,
      "epis": 3159,
      "##cks": 3160,
      "explan": 3161,
      "views": 3162,
      "analys": 3163,
      "conclusion": 3164,
      "tear": 3165,
      "pretend": 3166,
      "grade": 3167,
      "brought": 3168,
      "cross": 3169,
      "nts": 3170,
      "##ef": 3171,
      "moments": 3172,
      "##whel": 3173,
      "including": 3174,
      "dance": 3175,
      "##icient": 3176,
      "attach": 3177,
      "ourselves": 3178,
      "familiar": 3179,
      "practical": 3180,
      "becoming": 3181,
      "episod": 3182,
      "iq": 3183,
      "shad": 3184,
      "##you": 3185,
      "##orate": 3186,
      "neut": 3187,
      "idi": 3188,
      "content": 3189,
      "flow": 3190,
      "physically": 3191,
      "groups": 3192,
      "reaction": 3193,
      "eh": 3194,
      "andor": 3195,
      "ali": 3196,
      "basic": 3197,
      "weekend": 3198,
      "waste": 3199,
      "article": 3200,
      "besides": 3201,
      "mid": 3202,
      "adult": 3203,
      "commit": 3204,
      "satisf": 3205,
      "american": 3206,
      "tomor": 3207,
      "gay": 3208,
      "narc": 3209,
      "##12": 3210,
      "someones": 3211,
      "##ulation": 3212,
      "drugs": 3213,
      "##name": 3214,
      "click": 3215,
      "contr": 3216,
      "freak": 3217,
      "jung": 3218,
      "##mas": 3219,
      "finished": 3220,
      "eth": 3221,
      "isfjs": 3222,
      "abst": 3223,
      "repres": 3224,
      "mr": 3225,
      "oo": 3226,
      "sal": 3227,
      "##do": 3228,
      "##just": 3229,
      "##ores": 3230,
      "##anced": 3231,
      "##ribut": 3232,
      "##erson": 3233,
      "##urn": 3234,
      "overwhel": 3235,
      "tomorrow": 3236,
      "jour": 3237,
      "amb": 3238,
      "flir": 3239,
      "therap": 3240,
      "regardless": 3241,
      "ba": 3242,
      "##yal": 3243,
      "manage": 3244,
      "role": 3245,
      "tendency": 3246,
      "stopped": 3247,
      "distract": 3248,
      "aud": 3249,
      "land": 3250,
      "suspect": 3251,
      "pred": 3252,
      "clothes": 3253,
      "##cohol": 3254,
      "continue": 3255,
      "##onscious": 3256,
      "private": 3257,
      "##bers": 3258,
      "##alous": 3259,
      "##ction": 3260,
      "##ront": 3261,
      "##ina": 3262,
      "##opath": 3263,
      "##rage": 3264,
      "##ains": 3265,
      "blushed": 3266,
      "facts": 3267,
      "behaviour": 3268,
      "guilty": 3269,
      "agreed": 3270,
      "bare": 3271,
      "fly": 3272,
      "thus": 3273,
      "smell": 3274,
      "anime": 3275,
      "loyal": 3276,
      "master": 3277,
      "users": 3278,
      "gotta": 3279,
      "twice": 3280,
      "mature": 3281,
      "student": 3282,
      "hmmm": 3283,
      "23": 3284,
      "lay": 3285,
      "##aries": 3286,
      "werent": 3287,
      "regarding": 3288,
      "stereotypes": 3289,
      "##icks": 3290,
      "broke": 3291,
      "daily": 3292,
      "25": 3293,
      "ban": 3294,
      "##outh": 3295,
      "whom": 3296,
      "##imate": 3297,
      "solut": 3298,
      "##osity": 3299,
      "news": 3300,
      "changes": 3301,
      "loving": 3302,
      "##aint": 3303,
      "##lied": 3304,
      "hopefully": 3305,
      "deeply": 3306,
      "evidence": 3307,
      "unique": 3308,
      "beliefs": 3309,
      "categ": 3310,
      "##ior": 3311,
      "abs": 3312,
      "planning": 3313,
      "focused": 3314,
      "necessary": 3315,
      "##lli": 3316,
      "gift": 3317,
      "impression": 3318,
      "mill": 3319,
      "##amm": 3320,
      "goals": 3321,
      "##une": 3322,
      "disapp": 3323,
      "skin": 3324,
      "stereotype": 3325,
      "animal": 3326,
      "king": 3327,
      "##cis": 3328,
      "##xp": 3329,
      "hasnt": 3330,
      "define": 3331,
      "marri": 3332,
      "opt": 3333,
      "alcohol": 3334,
      "##pping": 3335,
      "paper": 3336,
      "excell": 3337,
      "abstract": 3338,
      "coo": 3339,
      "ont": 3340,
      "##ony": 3341,
      "overall": 3342,
      "film": 3343,
      "suddenly": 3344,
      "squ": 3345,
      "everyday": 3346,
      "setting": 3347,
      "neutral": 3348,
      "hide": 3349,
      "option": 3350,
      "##dy": 3351,
      "##ds": 3352,
      "##ingly": 3353,
      "switch": 3354,
      "turns": 3355,
      "nah": 3356,
      "yell": 3357,
      "arrog": 3358,
      "recent": 3359,
      "##play": 3360,
      "mir": 3361,
      "third": 3362,
      "road": 3363,
      "possibility": 3364,
      "narciss": 3365,
      "bill": 3366,
      "persons": 3367,
      "estps": 3368,
      "doctor": 3369,
      "intent": 3370,
      "##ural": 3371,
      "upd": 3372,
      "prep": 3373,
      "calling": 3374,
      "invest": 3375,
      "internal": 3376,
      "17": 3377,
      "ahead": 3378,
      "##amed": 3379,
      "chill": 3380,
      "##cies": 3381,
      "faith": 3382,
      "trait": 3383,
      "glass": 3384,
      "jealous": 3385,
      "flo": 3386,
      "##ray": 3387,
      "##ob": 3388,
      "advent": 3389,
      "kinds": 3390,
      "##shit": 3391,
      "##going": 3392,
      "hated": 3393,
      "lines": 3394,
      "ser": 3395,
      "##ners": 3396,
      "##fi": 3397,
      "alb": 3398,
      "happening": 3399,
      "moral": 3400,
      "visual": 3401,
      "hoping": 3402,
      "circumstances": 3403,
      "eg": 3404,
      "mic": 3405,
      "na": 3406,
      "##iver": 3407,
      "dogs": 3408,
      "snow": 3409,
      "interaction": 3410,
      "empathy": 3411,
      "lady": 3412,
      "pun": 3413,
      "##lled": 3414,
      "##itions": 3415,
      "keeps": 3416,
      "nfs": 3417,
      "caught": 3418,
      "dar": 3419,
      "attitude": 3420,
      "subjective": 3421,
      "##aughter": 3422,
      "marriage": 3423,
      "prove": 3424,
      "cover": 3425,
      "gut": 3426,
      "hm": 3427,
      "yay": 3428,
      "##omb": 3429,
      "forced": 3430,
      "idk": 3431,
      "diagn": 3432,
      "##olate": 3433,
      "mouth": 3434,
      "##miss": 3435,
      "##dream": 3436,
      "tor": 3437,
      "weight": 3438,
      "personalities": 3439,
      "scary": 3440,
      "interpret": 3441,
      "##edia": 3442,
      "mach": 3443,
      "showing": 3444,
      "crow": 3445,
      "wake": 3446,
      "examples": 3447,
      "correl": 3448,
      "arguments": 3449,
      "created": 3450,
      "drawing": 3451,
      "pan": 3452,
      "##chan": 3453,
      "##iling": 3454,
      "activ": 3455,
      "indic": 3456,
      "freedom": 3457,
      "missed": 3458,
      "require": 3459,
      "lyrics": 3460,
      "##w9": 3461,
      "town": 3462,
      "rev": 3463,
      "altern": 3464,
      "extroverts": 3465,
      "excellent": 3466,
      "equ": 3467,
      "##tt": 3468,
      "moon": 3469,
      "anywhere": 3470,
      "##000": 3471,
      "physics": 3472,
      "sleeping": 3473,
      "nerv": 3474,
      "##ked": 3475,
      "##fl": 3476,
      "##inter": 3477,
      "store": 3478,
      "anybody": 3479,
      "overly": 3480,
      "perform": 3481,
      "extent": 3482,
      "dunno": 3483,
      "ble": 3484,
      "rant": 3485,
      "##aks": 3486,
      "##ker": 3487,
      "habit": 3488,
      "sto": 3489,
      "##load": 3490,
      "minute": 3491,
      "occasionally": 3492,
      "yup": 3493,
      "starts": 3494,
      "obl": 3495,
      "sensors": 3496,
      "becomes": 3497,
      "irrit": 3498,
      "24": 3499,
      "numb": 3500,
      "##erous": 3501,
      "medic": 3502,
      "excuse": 3503,
      "budd": 3504,
      "rude": 3505,
      "separ": 3506,
      "acqu": 3507,
      "##ashion": 3508,
      "assuming": 3509,
      "mistake": 3510,
      "gradu": 3511,
      "##ana": 3512,
      "uses": 3513,
      "leaving": 3514,
      "topics": 3515,
      "depth": 3516,
      "six": 3517,
      "hanging": 3518,
      "political": 3519,
      "analysis": 3520,
      "ger": 3521,
      "vent": 3522,
      "##xual": 3523,
      "compared": 3524,
      "awful": 3525,
      "esfjs": 3526,
      "scenar": 3527,
      "mum": 3528,
      "##ki": 3529,
      "bear": 3530,
      "##key": 3531,
      "##istry": 3532,
      "introversion": 3533,
      "data": 3534,
      "nervous": 3535,
      "tool": 3536,
      "arch": 3537,
      "missing": 3538,
      "practice": 3539,
      "challenge": 3540,
      "bound": 3541,
      "cand": 3542,
      "din": 3543,
      "##aling": 3544,
      "curiosity": 3545,
      "affection": 3546,
      "trity": 3547,
      "##ushing": 3548,
      "metal": 3549,
      "embarr": 3550,
      "achieve": 3551,
      "breat": 3552,
      "gather": 3553,
      "rout": 3554,
      "serv": 3555,
      "ugh": 3556,
      "##anch": 3557,
      "##urb": 3558,
      "relative": 3559,
      "##apan": 3560,
      "directly": 3561,
      "changing": 3562,
      "album": 3563,
      "pair": 3564,
      "vol": 3565,
      "##rom": 3566,
      "##aly": 3567,
      "##itted": 3568,
      "drinking": 3569,
      "bullshit": 3570,
      "obsessed": 3571,
      "##99": 3572,
      "cho": 3573,
      "members": 3574,
      "equal": 3575,
      "troll": 3576,
      "gold": 3577,
      "tends": 3578,
      "cele": 3579,
      "immediately": 3580,
      "onto": 3581,
      "offended": 3582,
      "japan": 3583,
      "kick": 3584,
      "vag": 3585,
      "##ium": 3586,
      "##lly": 3587,
      "##itional": 3588,
      "awh": 3589,
      "##well": 3590,
      "basis": 3591,
      "##ograph": 3592,
      "communicate": 3593,
      "motivation": 3594,
      "embarrass": 3595,
      "7w6": 3596,
      "cam": 3597,
      "lying": 3598,
      "sj": 3599,
      "vio": 3600,
      "itll": 3601,
      "##ift": 3602,
      "letting": 3603,
      "fat": 3604,
      "##inely": 3605,
      "huh": 3606,
      "fashion": 3607,
      "##fj": 3608,
      "##inate": 3609,
      "parties": 3610,
      "harder": 3611,
      "##gging": 3612,
      "addict": 3613,
      "combination": 3614,
      "##son": 3615,
      "##irm": 3616,
      "maint": 3617,
      "span": 3618,
      "##aph": 3619,
      "concerned": 3620,
      "dancing": 3621,
      "hers": 3622,
      "##of": 3623,
      "wearing": 3624,
      "office": 3625,
      "screw": 3626,
      "drawn": 3627,
      "distance": 3628,
      "beauty": 3629,
      "##hole": 3630,
      "tonight": 3631,
      "balance": 3632,
      "primary": 3633,
      "website": 3634,
      "##iff": 3635,
      "##ech": 3636,
      "safe": 3637,
      "email": 3638,
      "hardly": 3639,
      "imagination": 3640,
      "community": 3641,
      "christmas": 3642,
      "21": 3643,
      "board": 3644,
      "professional": 3645,
      "um": 3646,
      "##ening": 3647,
      "##etry": 3648,
      "cost": 3649,
      "##ares": 3650,
      "##urch": 3651,
      "gover": 3652,
      "##aging": 3653,
      "background": 3654,
      "accident": 3655,
      "sexy": 3656,
      "french": 3657,
      "teachers": 3658,
      "possibilities": 3659,
      "vibe": 3660,
      "ego": 3661,
      "nar": 3662,
      "##oted": 3663,
      "##asing": 3664,
      "##rif": 3665,
      "external": 3666,
      "choc": 3667,
      "fresh": 3668,
      "everywhere": 3669,
      "lovely": 3670,
      "complic": 3671,
      "differently": 3672,
      "surv": 3673,
      "minor": 3674,
      "breaking": 3675,
      "vari": 3676,
      "individuals": 3677,
      "organized": 3678,
      "cy": 3679,
      "masc": 3680,
      "##iring": 3681,
      "hahahaha": 3682,
      "events": 3683,
      "forgive": 3684,
      "objective": 3685,
      "##hips": 3686,
      "chick": 3687,
      "fantasy": 3688,
      "optim": 3689,
      "##cle": 3690,
      "##16": 3691,
      "myers": 3692,
      "imo": 3693,
      "enth": 3694,
      "development": 3695,
      "broken": 3696,
      "limited": 3697,
      "females": 3698,
      "##ropri": 3699,
      "qualities": 3700,
      "ice": 3701,
      "sake": 3702,
      "struct": 3703,
      "##aughing": 3704,
      "holy": 3705,
      "spending": 3706,
      "closer": 3707,
      "cafe": 3708,
      "occur": 3709,
      "nut": 3710,
      "##zing": 3711,
      "toler": 3712,
      "##omy": 3713,
      "guitar": 3714,
      "##izz": 3715,
      "trip": 3716,
      "expression": 3717,
      "celebr": 3718,
      "fol": 3719,
      "##wr": 3720,
      "##icip": 3721,
      "mechan": 3722,
      "aside": 3723,
      "load": 3724,
      "losing": 3725,
      "feeler": 3726,
      "replies": 3727,
      "artist": 3728,
      "improve": 3729,
      "criticism": 3730,
      "significant": 3731,
      "awhile": 3732,
      "pink": 3733,
      "sigh": 3734,
      "raised": 3735,
      "lucky": 3736,
      "exercise": 3737,
      "rap": 3738,
      "##ued": 3739,
      "##anted": 3740,
      "decent": 3741,
      "daydream": 3742,
      "flirt": 3743,
      "kidding": 3744,
      "expected": 3745,
      "confusing": 3746,
      "flirting": 3747,
      "fing": 3748,
      "##che": 3749,
      "##erial": 3750,
      "judg": 3751,
      "intimid": 3752,
      "accompl": 3753,
      "##30": 3754,
      "theories": 3755,
      "talent": 3756,
      "phr": 3757,
      "swear": 3758,
      "frustrated": 3759,
      "genuinely": 3760,
      "explanation": 3761,
      "gam": 3762,
      "wise": 3763,
      "##ron": 3764,
      "##icking": 3765,
      "libr": 3766,
      "delet": 3767,
      "##iles": 3768,
      "aggressive": 3769,
      "exper": 3770,
      "drama": 3771,
      "insult": 3772,
      "weakness": 3773,
      "strangers": 3774,
      "frequently": 3775,
      "education": 3776,
      "nic": 3777,
      "uh": 3778,
      "via": 3779,
      "wis": 3780,
      "##itary": 3781,
      "##icious": 3782,
      "meas": 3783,
      "church": 3784,
      "hero": 3785,
      "reasoning": 3786,
      "expectations": 3787,
      "discovered": 3788,
      "barely": 3789,
      "##orable": 3790,
      "##ases": 3791,
      "active": 3792,
      "passive": 3793,
      "constant": 3794,
      "mistyp": 3795,
      "slowly": 3796,
      "feminine": 3797,
      "german": 3798,
      "mur": 3799,
      "vul": 3800,
      "thinker": 3801,
      "##used": 3802,
      "throughout": 3803,
      "foot": 3804,
      "falling": 3805,
      "apologize": 3806,
      "4w5": 3807,
      "son": 3808,
      "und": 3809,
      "fell": 3810,
      "intention": 3811,
      "useless": 3812,
      "shell": 3813,
      "der": 3814,
      "rough": 3815,
      "##ley": 3816,
      "##eness": 3817,
      "worried": 3818,
      "##uss": 3819,
      "existence": 3820,
      "fantastic": 3821,
      "encou": 3822,
      "pages": 3823,
      "##to": 3824,
      "##iday": 3825,
      "mode": 3826,
      "hearing": 3827,
      "bothered": 3828,
      "base": 3829,
      "fiction": 3830,
      "wing": 3831,
      "novel": 3832,
      "capable": 3833,
      "patterns": 3834,
      "40": 3835,
      "##eem": 3836,
      "##oun": 3837,
      "##uls": 3838,
      "design": 3839,
      "scored": 3840,
      "exists": 3841,
      "represent": 3842,
      "hung": 3843,
      "rich": 3844,
      "##face": 3845,
      "##ously": 3846,
      "perception": 3847,
      "matters": 3848,
      "sentence": 3849,
      "username": 3850,
      "fascinating": 3851,
      "dyn": 3852,
      "nail": 3853,
      "tm": 3854,
      "##ik": 3855,
      "##inary": 3856,
      "##oring": 3857,
      "##iments": 3858,
      "##olution": 3859,
      "casual": 3860,
      "sarcasm": 3861,
      "lord": 3862,
      "##fo": 3863,
      "lies": 3864,
      "relevant": 3865,
      "trick": 3866,
      "table": 3867,
      "manner": 3868,
      "confess": 3869,
      "cowork": 3870,
      "##arian": 3871,
      "##usi": 3872,
      "##ume": 3873,
      "info": 3874,
      "letters": 3875,
      "solution": 3876,
      "len": 3877,
      "chose": 3878,
      "##olic": 3879,
      "carry": 3880,
      "absolute": 3881,
      "media": 3882,
      "direction": 3883,
      "source": 3884,
      "bright": 3885,
      "fool": 3886,
      "##encies": 3887,
      "blind": 3888,
      "elab": 3889,
      "perfection": 3890,
      "##oooooooo": 3891,
      "prior": 3892,
      "dynam": 3893,
      "names": 3894,
      "##nal": 3895,
      "usual": 3896,
      "quit": 3897,
      "##ems": 3898,
      "genius": 3899,
      "joking": 3900,
      "minds": 3901,
      "sincer": 3902,
      "spiritual": 3903,
      "chemistry": 3904,
      "disappoint": 3905,
      "tritype": 3906,
      "sna": 3907,
      "##ga": 3908,
      "##imately": 3909,
      "weed": 3910,
      "##ilt": 3911,
      "blunt": 3912,
      "instance": 3913,
      "drag": 3914,
      "autom": 3915,
      "creepy": 3916,
      "govern": 3917,
      "22": 3918,
      "cudd": 3919,
      "##pet": 3920,
      "itd": 3921,
      "loop": 3922,
      "ends": 3923,
      "assert": 3924,
      "deeper": 3925,
      "harry": 3926,
      "pissed": 3927,
      "aspects": 3928,
      "ess": 3929,
      "voc": 3930,
      "##fill": 3931,
      "picked": 3932,
      "immature": 3933,
      "chocolate": 3934,
      "##cd": 3935,
      "##me": 3936,
      "##ato": 3937,
      "meh": 3938,
      "mast": 3939,
      "##anding": 3940,
      "classic": 3941,
      "regret": 3942,
      "orient": 3943,
      "include": 3944,
      "jer": 3945,
      "shot": 3946,
      "confront": 3947,
      "cares": 3948,
      "mistakes": 3949,
      "element": 3950,
      "xn": 3951,
      "stated": 3952,
      "code": 3953,
      "allowed": 3954,
      "bat": 3955,
      "batt": 3956,
      "lat": 3957,
      "##inc": 3958,
      "sha": 3959,
      "progress": 3960,
      "track": 3961,
      "sky": 3962,
      "bold": 3963,
      "mascul": 3964,
      "enthusi": 3965,
      "##point": 3966,
      "essent": 3967,
      "construct": 3968,
      "passionate": 3969,
      "heavy": 3970,
      "##conscious": 3971,
      "##ev": 3972,
      "##ero": 3973,
      "##ops": 3974,
      "##ams": 3975,
      "##ils": 3976,
      "asshole": 3977,
      "material": 3978,
      "attraction": 3979,
      "##ification": 3980,
      "street": 3981,
      "genuine": 3982,
      "bag": 3983,
      "gri": 3984,
      "##here": 3985,
      "##apt": 3986,
      "##dra": 3987,
      "##path": 3988,
      "toward": 3989,
      "smoke": 3990,
      "provide": 3991,
      "insecure": 3992,
      "engineering": 3993,
      "vill": 3994,
      "##ris": 3995,
      "##urt": 3996,
      "referring": 3997,
      "superior": 3998,
      "cred": 3999,
      "scream": 4000,
      "shadow": 4001,
      "contrad": 4002,
      "card": 4003,
      "##oys": 4004,
      "butter": 4005,
      "honesty": 4006,
      "##hhh": 4007,
      "standards": 4008,
      "surprise": 4009,
      "recognize": 4010,
      "atheist": 4011,
      "##ropriate": 4012,
      "sides": 4013,
      "##bed": 4014,
      "states": 4015,
      "friendships": 4016,
      "irl": 4017,
      "levels": 4018,
      "destro": 4019,
      "9w1": 4020,
      "fault": 4021,
      "jes": 4022,
      "vict": 4023,
      "##gar": 4024,
      "##13": 4025,
      "##pes": 4026,
      "##ja": 4027,
      "##20": 4028,
      "##itation": 4029,
      "alive": 4030,
      "speech": 4031,
      "below": 4032,
      "letter": 4033,
      "hurts": 4034,
      "paran": 4035,
      "building": 4036,
      "risk": 4037,
      "complicated": 4038,
      "bird": 4039,
      "taught": 4040,
      "##ened": 4041,
      "##mao": 4042,
      "mentally": 4043,
      "sett": 4044,
      "subjects": 4045,
      "surprising": 4046,
      "transl": 4047,
      "herself": 4048,
      "accomplish": 4049,
      "park": 4050,
      "tho": 4051,
      "intri": 4052,
      "trump": 4053,
      "died": 4054,
      "speed": 4055,
      "blame": 4056,
      "cru": 4057,
      "photos": 4058,
      "america": 4059,
      "convinced": 4060,
      "aux": 4061,
      "sand": 4062,
      "##matic": 4063,
      "stare": 4064,
      "subt": 4065,
      "##term": 4066,
      "brown": 4067,
      "advant": 4068,
      "failed": 4069,
      "record": 4070,
      "activities": 4071,
      "camp": 4072,
      "pin": 4073,
      "##15": 4074,
      "stim": 4075,
      "##think": 4076,
      "reserved": 4077,
      "explained": 4078,
      "colour": 4079,
      "return": 4080,
      "wik": 4081,
      "##eyes": 4082,
      "##minded": 4083,
      "cous": 4084,
      "econ": 4085,
      "males": 4086,
      "##17": 4087,
      "##ett": 4088,
      "liking": 4089,
      "theyve": 4090,
      "frank": 4091,
      "oper": 4092,
      "train": 4093,
      "independent": 4094,
      "border": 4095,
      "poll": 4096,
      "##aster": 4097,
      "empt": 4098,
      "deserve": 4099,
      "employ": 4100,
      "anxious": 4101,
      "concern": 4102,
      "pressure": 4103,
      "misunderstood": 4104,
      "broad": 4105,
      "languages": 4106,
      "brilli": 4107,
      "feedback": 4108,
      "hat": 4109,
      "scr": 4110,
      "address": 4111,
      "painting": 4112,
      "##rupt": 4113,
      "mate": 4114,
      "vote": 4115,
      "stage": 4116,
      "answered": 4117,
      "sensor": 4118,
      "sarcastic": 4119,
      "dinner": 4120,
      "vulner": 4121,
      "ack": 4122,
      "bought": 4123,
      "gh": 4124,
      "gent": 4125,
      "pill": 4126,
      "zone": 4127,
      "##egr": 4128,
      "##ule": 4129,
      "section": 4130,
      "theyll": 4131,
      "##ifest": 4132,
      "sched": 4133,
      "greatest": 4134,
      "appreciated": 4135,
      "shared": 4136,
      "scene": 4137,
      "vir": 4138,
      "##chool": 4139,
      "heh": 4140,
      "outgoing": 4141,
      "remain": 4142,
      "hunt": 4143,
      "member": 4144,
      "memories": 4145,
      "leader": 4146,
      "harm": 4147,
      "introdu": 4148,
      "opportunity": 4149,
      "experiment": 4150,
      "5w4": 4151,
      "pm": 4152,
      "tb": 4153,
      "till": 4154,
      "tert": 4155,
      "guessing": 4156,
      "coun": 4157,
      "romance": 4158,
      "capt": 4159,
      "model": 4160,
      "scientific": 4161,
      "##tical": 4162,
      "suic": 4163,
      "explaining": 4164,
      "expressing": 4165,
      "stressful": 4166,
      "label": 4167,
      "local": 4168,
      "service": 4169,
      "45": 4170,
      "gun": 4171,
      "##inting": 4172,
      "inno": 4173,
      "manifest": 4174,
      "pride": 4175,
      "belong": 4176,
      "holding": 4177,
      "circle": 4178,
      "maintain": 4179,
      "lower": 4180,
      "lmao": 4181,
      "ske": 4182,
      "##ustom": 4183,
      "exha": 4184,
      "percent": 4185,
      "shoot": 4186,
      "visit": 4187,
      "solve": 4188,
      "tmlt": 4189,
      "##ceed": 4190,
      "feet": 4191,
      "originally": 4192,
      "perceive": 4193,
      "irrational": 4194,
      "encount": 4195,
      "joy": 4196,
      "##nn": 4197,
      "##erg": 4198,
      "##using": 4199,
      "activity": 4200,
      "stubb": 4201,
      "badly": 4202,
      "metaph": 4203,
      "##cape": 4204,
      "arrogant": 4205,
      "ded": 4206,
      "##aur": 4207,
      "##laughing": 4208,
      "##por": 4209,
      "shame": 4210,
      "adapt": 4211,
      "pointless": 4212,
      "questionna": 4213,
      "##logy": 4214,
      "admire": 4215,
      "exhaust": 4216,
      "du": 4217,
      "##atically": 4218,
      "tries": 4219,
      "arts": 4220,
      "solid": 4221,
      "cases": 4222,
      "acquaint": 4223,
      "ow": 4224,
      "##18": 4225,
      "##cking": 4226,
      "tex": 4227,
      "enjoying": 4228,
      "cheese": 4229,
      "regul": 4230,
      "arguing": 4231,
      "paint": 4232,
      "paying": 4233,
      "photo": 4234,
      "eur": 4235,
      "##hd": 4236,
      "incom": 4237,
      "##adem": 4238,
      "insane": 4239,
      "signs": 4240,
      "teaching": 4241,
      "leaders": 4242,
      "##itives": 4243,
      "mixed": 4244,
      "dick": 4245,
      "ran": 4246,
      "sig": 4247,
      "##mates": 4248,
      "threat": 4249,
      "politics": 4250,
      "gifts": 4251,
      "numbers": 4252,
      "fict": 4253,
      "mi": 4254,
      "sjs": 4255,
      "yo": 4256,
      "##74": 4257,
      "heads": 4258,
      "laid": 4259,
      "counter": 4260,
      "calcul": 4261,
      "reference": 4262,
      "crowd": 4263,
      "blog": 4264,
      "pian": 4265,
      "wood": 4266,
      "##iary": 4267,
      "##la": 4268,
      "##100": 4269,
      "thri": 4270,
      "##orge": 4271,
      "asks": 4272,
      "acts": 4273,
      "cos": 4274,
      "gramm": 4275,
      "careful": 4276,
      "humanity": 4277,
      "roommate": 4278,
      "critical": 4279,
      "5w6": 4280,
      "bump": 4281,
      "lur": 4282,
      "nin": 4283,
      "loss": 4284,
      "poetry": 4285,
      "adorable": 4286,
      "instr": 4287,
      "update": 4288,
      "1w2": 4289,
      "options": 4290,
      "ted": 4291,
      "wand": 4292,
      "sees": 4293,
      "realise": 4294,
      "scale": 4295,
      "awww": 4296,
      "##ension": 4297,
      "calls": 4298,
      "regular": 4299,
      "sadly": 4300,
      "colors": 4301,
      "##alent": 4302,
      "cast": 4303,
      "pra": 4304,
      "task": 4305,
      "doc": 4306,
      "unf": 4307,
      "##olar": 4308,
      "bigger": 4309,
      "sorts": 4310,
      "drives": 4311,
      "staying": 4312,
      "harsh": 4313,
      "patience": 4314,
      "powerful": 4315,
      "burn": 4316,
      "leaning": 4317,
      "gentle": 4318,
      "ful": 4319,
      "nick": 4320,
      "tick": 4321,
      "##bra": 4322,
      "##xic": 4323,
      "##ision": 4324,
      "asleep": 4325,
      "talks": 4326,
      "systems": 4327,
      "properly": 4328,
      "mutual": 4329,
      "episode": 4330,
      "elaborate": 4331,
      "stubborn": 4332,
      "block": 4333,
      "mount": 4334,
      "sle": 4335,
      "compat": 4336,
      "academ": 4337,
      "blow": 4338,
      "brings": 4339,
      "students": 4340,
      "creating": 4341,
      "creativity": 4342,
      "discussing": 4343,
      "accepted": 4344,
      "killing": 4345,
      "trend": 4346,
      "diagnosed": 4347,
      "acknow": 4348,
      "van": 4349,
      "##ov": 4350,
      "##str": 4351,
      "invent": 4352,
      "unre": 4353,
      "illness": 4354,
      "seconds": 4355,
      "perceiving": 4356,
      "stereotypical": 4357,
      "quotes": 4358,
      "jesus": 4359,
      "fictional": 4360,
      "4w3": 4361,
      "6w5": 4362,
      "tro": 4363,
      "##boy": 4364,
      "withdra": 4365,
      "everyones": 4366,
      "managed": 4367,
      "answering": 4368,
      "stronger": 4369,
      "##yyyy": 4370,
      "symb": 4371,
      "influence": 4372,
      "60": 4373,
      "90": 4374,
      "cried": 4375,
      "daughter": 4376,
      "xnt": 4377,
      "##66": 4378,
      "select": 4379,
      "suit": 4380,
      "##aul": 4381,
      "blank": 4382,
      "##gged": 4383,
      "##ologist": 4384,
      "marry": 4385,
      "##ailable": 4386,
      "hobbies": 4387,
      "##ribly": 4388,
      "hyper": 4389,
      "library": 4390,
      "mistyped": 4391,
      "sam": 4392,
      "##sequ": 4393,
      "stack": 4394,
      "comed": 4395,
      "compare": 4396,
      "##mental": 4397,
      "prone": 4398,
      "final": 4399,
      "signature": 4400,
      "potter": 4401,
      "vision": 4402,
      "interactions": 4403,
      "stranger": 4404,
      "temperament": 4405,
      "advantage": 4406,
      "wikip": 4407,
      "fal": 4408,
      "fish": 4409,
      "##oms": 4410,
      "##ada": 4411,
      "areas": 4412,
      "##cend": 4413,
      "quir": 4414,
      "dish": 4415,
      "particip": 4416,
      "dram": 4417,
      "charming": 4418,
      "efficient": 4419,
      "followed": 4420,
      "analyze": 4421,
      "silence": 4422,
      "ram": 4423,
      "ride": 4424,
      "##port": 4425,
      "##78": 4426,
      "inh": 4427,
      "feelers": 4428,
      "fighting": 4429,
      "##ribute": 4430,
      "predict": 4431,
      "tbh": 4432,
      "europe": 4433,
      "ug": 4434,
      "vac": 4435,
      "##iable": 4436,
      "atm": 4437,
      "compass": 4438,
      "resour": 4439,
      "flu": 4440,
      "report": 4441,
      "engage": 4442,
      "incre": 4443,
      "population": 4444,
      "successful": 4445,
      "status": 4446,
      "modern": 4447,
      "brilliant": 4448,
      "34": 4449,
      "dying": 4450,
      "rub": 4451,
      "##ox": 4452,
      "##kn": 4453,
      "fort": 4454,
      "arm": 4455,
      "artistic": 4456,
      "warning": 4457,
      "appears": 4458,
      "##idden": 4459,
      "limit": 4460,
      "manipulative": 4461,
      "7w8": 4462,
      "80": 4463,
      "gar": 4464,
      "size": 4465,
      "##mer": 4466,
      "##gers": 4467,
      "##22": 4468,
      "thor": 4469,
      "##othing": 4470,
      "##ending": 4471,
      "hadnt": 4472,
      "spont": 4473,
      "trigg": 4474,
      "opposed": 4475,
      "reminded": 4476,
      "appearance": 4477,
      "folks": 4478,
      "sincerely": 4479,
      "empty": 4480,
      "range": 4481,
      "##gue": 4482,
      "##94": 4483,
      "##reg": 4484,
      "rele": 4485,
      "##bert": 4486,
      "singing": 4487,
      "shoes": 4488,
      "requires": 4489,
      "military": 4490,
      "causes": 4491,
      "magic": 4492,
      "tears": 4493,
      "alternative": 4494,
      "scenario": 4495,
      "masculine": 4496,
      "tertiary": 4497,
      "wikipedia": 4498,
      "3w2": 4499,
      "custom": 4500,
      "pack": 4501,
      "##old": 4502,
      "##heart": 4503,
      "cup": 4504,
      "leads": 4505,
      "pleasure": 4506,
      "attached": 4507,
      "wisdom": 4508,
      "round": 4509,
      "intens": 4510,
      "##usive": 4511,
      "joined": 4512,
      "terrif": 4513,
      "distinct": 4514,
      "characteristics": 4515,
      "recall": 4516,
      "pieces": 4517,
      "congrat": 4518,
      "bottom": 4519,
      "##roversion": 4520,
      "grown": 4521,
      "ending": 4522,
      "graph": 4523,
      "describes": 4524,
      "caused": 4525,
      "piano": 4526,
      "##owers": 4527,
      "##ading": 4528,
      "##pper": 4529,
      "tact": 4530,
      "planet": 4531,
      "fulfill": 4532,
      "bath": 4533,
      "soooo": 4534,
      "tiny": 4535,
      "doll": 4536,
      "cling": 4537,
      "proof": 4538,
      "contem": 4539,
      "leaves": 4540,
      "plays": 4541,
      "puts": 4542,
      "corner": 4543,
      "superf": 4544,
      "psychological": 4545,
      "##rete": 4546,
      "gym": 4547,
      "##ji": 4548,
      "##atives": 4549,
      "##vey": 4550,
      "##imin": 4551,
      "sos": 4552,
      "##ulations": 4553,
      "aww": 4554,
      "factor": 4555,
      "studies": 4556,
      "boys": 4557,
      "driven": 4558,
      "##hahahaha": 4559,
      "princi": 4560,
      "congrats": 4561,
      "ultimately": 4562,
      "million": 4563,
      "government": 4564,
      "tang": 4565,
      "##reen": 4566,
      "##stal": 4567,
      "weather": 4568,
      "turning": 4569,
      "standing": 4570,
      "estjs": 4571,
      "grades": 4572,
      "##board": 4573,
      "fund": 4574,
      "market": 4575,
      "9w8": 4576,
      "jun": 4577,
      "##bits": 4578,
      "##fy": 4579,
      "thinkers": 4580,
      "heck": 4581,
      "emo": 4582,
      "##aked": 4583,
      "bothers": 4584,
      "connected": 4585,
      "harmon": 4586,
      "parag": 4587,
      "cake": 4588,
      "idiot": 4589,
      "bs": 4590,
      "cart": 4591,
      "hip": 4592,
      "sir": 4593,
      "##cut": 4594,
      "##rit": 4595,
      "##rum": 4596,
      "##ai": 4597,
      "##uit": 4598,
      "##70": 4599,
      "obser": 4600,
      "repeat": 4601,
      "utter": 4602,
      "35": 4603,
      "bf": 4604,
      "mart": 4605,
      "pc": 4606,
      "yall": 4607,
      "##off": 4608,
      "##34": 4609,
      "compar": 4610,
      "minded": 4611,
      "minim": 4612,
      "mirror": 4613,
      "spontane": 4614,
      "bond": 4615,
      "tone": 4616,
      "##bles": 4617,
      "reve": 4618,
      "fac": 4619,
      "assess": 4620,
      "wondered": 4621,
      "studied": 4622,
      "freaking": 4623,
      "correctly": 4624,
      "describing": 4625,
      "competitive": 4626,
      "cyn": 4627,
      "gig": 4628,
      "gee": 4629,
      "led": 4630,
      "rh": 4631,
      "##oon": 4632,
      "##bre": 4633,
      "##ware": 4634,
      "##98": 4635,
      "hah": 4636,
      "notes": 4637,
      "web": 4638,
      "##iration": 4639,
      "writer": 4640,
      "imply": 4641,
      "brothers": 4642,
      "filled": 4643,
      "determine": 4644,
      "cooking": 4645,
      "spanish": 4646,
      "shape": 4647,
      "bible": 4648,
      "hed": 4649,
      "nons": 4650,
      "virt": 4651,
      "##95": 4652,
      "##asp": 4653,
      "sty": 4654,
      "##char": 4655,
      "hea": 4656,
      "quiz": 4657,
      "adhd": 4658,
      "clue": 4659,
      "meaningful": 4660,
      "compliments": 4661,
      "merely": 4662,
      "japanese": 4663,
      "vague": 4664,
      "destroy": 4665,
      "##pha": 4666,
      "##rees": 4667,
      "butt": 4668,
      "##ury": 4669,
      "max": 4670,
      "typology": 4671,
      "connections": 4672,
      "regards": 4673,
      "variety": 4674,
      "briggs": 4675,
      "brief": 4676,
      "mysteri": 4677,
      "choices": 4678,
      "questionnaire": 4679,
      "hiding": 4680,
      "mal": 4681,
      "punch": 4682,
      "plot": 4683,
      "spl": 4684,
      "realistic": 4685,
      "passed": 4686,
      "exciting": 4687,
      "winter": 4688,
      "smoking": 4689,
      "experiencing": 4690,
      "center": 4691,
      "observation": 4692,
      "borderline": 4693,
      "dut": 4694,
      "##tf": 4695,
      "##bel": 4696,
      "sher": 4697,
      "theyd": 4698,
      "chea": 4699,
      "esfps": 4700,
      "tendencies": 4701,
      "flat": 4702,
      "morality": 4703,
      "painful": 4704,
      "south": 4705,
      "sxsp": 4706,
      "searching": 4707,
      "rolleyes": 4708,
      "strengths": 4709,
      "glo": 4710,
      "##fx": 4711,
      "##ifying": 4712,
      "simpl": 4713,
      "drug": 4714,
      "buying": 4715,
      "opening": 4716,
      "detach": 4717,
      "standard": 4718,
      "iron": 4719,
      "distant": 4720,
      "expecting": 4721,
      "former": 4722,
      "links": 4723,
      "introspect": 4724,
      "explore": 4725,
      "ix": 4726,
      "race": 4727,
      "sib": 4728,
      "tree": 4729,
      "poke": 4730,
      "##cient": 4731,
      "whose": 4732,
      "nowhere": 4733,
      "spect": 4734,
      "training": 4735,
      "favorites": 4736,
      "responsible": 4737,
      "sxso": 4738,
      "benefit": 4739,
      "separate": 4740,
      "disappointed": 4741,
      "paragraph": 4742,
      "dav": 4743,
      "forth": 4744,
      "faces": 4745,
      "##type": 4746,
      "explains": 4747,
      "sympath": 4748,
      "##ersonal": 4749,
      "false": 4750,
      "27": 4751,
      "3w4": 4752,
      "lect": 4753,
      "expert": 4754,
      "##aken": 4755,
      "conserv": 4756,
      "grey": 4757,
      "initially": 4758,
      "equally": 4759,
      "concrete": 4760,
      "ugly": 4761,
      "ns": 4762,
      "##reh": 4763,
      "neigh": 4764,
      "##ands": 4765,
      "musical": 4766,
      "humour": 4767,
      "famous": 4768,
      "built": 4769,
      "closed": 4770,
      "suggestions": 4771,
      "identity": 4772,
      "manipulation": 4773,
      "picking": 4774,
      "astro": 4775,
      "relatively": 4776,
      "battle": 4777,
      "hence": 4778,
      "##rated": 4779,
      "##ronic": 4780,
      "##xj": 4781,
      "##inity": 4782,
      "button": 4783,
      "seeking": 4784,
      "greater": 4785,
      "factors": 4786,
      "irre": 4787,
      "20s": 4788,
      "legit": 4789,
      "robot": 4790,
      "pursue": 4791,
      "aim": 4792,
      "gro": 4793,
      "tall": 4794,
      "##90": 4795,
      "plain": 4796,
      "##oles": 4797,
      "listed": 4798,
      "classical": 4799,
      "perceived": 4800,
      "capital": 4801,
      "flaws": 4802,
      "murder": 4803,
      "cousin": 4804,
      "70": 4805,
      "bip": 4806,
      "host": 4807,
      "##60": 4808,
      "##itate": 4809,
      "##irts": 4810,
      "granted": 4811,
      "angel": 4812,
      "developing": 4813,
      "randomly": 4814,
      "##forum": 4815,
      "silent": 4816,
      "spsx": 4817,
      "category": 4818,
      "contradict": 4819,
      "aint": 4820,
      "pants": 4821,
      "wtf": 4822,
      "##ife": 4823,
      "##bing": 4824,
      "##gth": 4825,
      "thous": 4826,
      "theore": 4827,
      "mellow": 4828,
      "integr": 4829,
      "##eable": 4830,
      "offense": 4831,
      "access": 4832,
      "impact": 4833,
      "valu": 4834,
      "accepting": 4835,
      "mathem": 4836,
      "films": 4837,
      "paid": 4838,
      "neighb": 4839,
      "cell": 4840,
      "##und": 4841,
      "##ara": 4842,
      "bell": 4843,
      "##irty": 4844,
      "agn": 4845,
      "unable": 4846,
      "##mmmm": 4847,
      "photograph": 4848,
      "convince": 4849,
      "sly": 4850,
      "sight": 4851,
      "tatt": 4852,
      "zomb": 4853,
      "##58": 4854,
      "##ades": 4855,
      "##ested": 4856,
      "##entic": 4857,
      "theme": 4858,
      "adore": 4859,
      "sociopath": 4860,
      "clever": 4861,
      "available": 4862,
      "greet": 4863,
      "puzz": 4864,
      "dangerous": 4865,
      "authority": 4866,
      "overwhelming": 4867,
      "##ulsive": 4868,
      "8w7": 4869,
      "hidden": 4870,
      "ixt": 4871,
      "##era": 4872,
      "##rap": 4873,
      "consequ": 4874,
      "whereas": 4875,
      "assumed": 4876,
      "projects": 4877,
      "motivated": 4878,
      "heavily": 4879,
      "shallow": 4880,
      "length": 4881,
      "grammar": 4882,
      "rely": 4883,
      "vib": 4884,
      "##list": 4885,
      "##sey": 4886,
      "chann": 4887,
      "extroversion": 4888,
      "figuring": 4889,
      "##crazy": 4890,
      "therapy": 4891,
      "distracted": 4892,
      "oblig": 4893,
      "essentially": 4894,
      "stimul": 4895,
      "sherlock": 4896,
      "san": 4897,
      "##mit": 4898,
      "##vo": 4899,
      "##lement": 4900,
      "##idge": 4901,
      "demon": 4902,
      "partners": 4903,
      "contribut": 4904,
      "possess": 4905,
      "exception": 4906,
      "struggling": 4907,
      "counsel": 4908,
      "bow": 4909,
      "##esth": 4910,
      "##rets": 4911,
      "guard": 4912,
      "actively": 4913,
      "surely": 4914,
      "cloud": 4915,
      "desk": 4916,
      "reasonable": 4917,
      "disturb": 4918,
      "intuitives": 4919,
      "insightful": 4920,
      "correlation": 4921,
      "measure": 4922,
      "##known": 4923,
      "tattoo": 4924,
      "hates": 4925,
      "##ators": 4926,
      "init": 4927,
      "ash": 4928,
      "chances": 4929,
      "facial": 4930,
      "spring": 4931,
      "smiling": 4932,
      "nights": 4933,
      "hurting": 4934,
      "horror": 4935,
      "includes": 4936,
      "professor": 4937,
      "analyzing": 4938,
      "condition": 4939,
      "regularly": 4940,
      "wide": 4941,
      "##bling": 4942,
      "unp": 4943,
      "desper": 4944,
      "blah": 4945,
      "##ostic": 4946,
      "gods": 4947,
      "swed": 4948,
      "incor": 4949,
      "literature": 4950,
      "paranoid": 4951,
      "subtle": 4952,
      "compassion": 4953,
      "bipolar": 4954,
      "cath": 4955,
      "cream": 4956,
      "##uro": 4957,
      "##oned": 4958,
      "shar": 4959,
      "alpha": 4960,
      "prevent": 4961,
      "ages": 4962,
      "##osp": 4963,
      "reson": 4964,
      "desig": 4965,
      "##appe": 4966,
      "observe": 4967,
      "wars": 4968,
      "messy": 4969,
      "failure": 4970,
      "alien": 4971,
      "journal": 4972,
      "structure": 4973,
      "trolling": 4974,
      "hint": 4975,
      "hook": 4976,
      "tips": 4977,
      "wol": 4978,
      "isol": 4979,
      "shr": 4980,
      "orange": 4981,
      "neat": 4982,
      "compan": 4983,
      "resist": 4984,
      "added": 4985,
      "reactions": 4986,
      "semester": 4987,
      "adventure": 4988,
      "machine": 4989,
      "boundaries": 4990,
      "delete": 4991,
      "congratulations": 4992,
      "1w9": 4993,
      "2w1": 4994,
      "##ya": 4995,
      "##ios": 4996,
      "##ls": 4997,
      "meat": 4998,
      "reci": 4999,
      "concent": 5000,
      "makeup": 5001,
      "dismiss": 5002,
      "laughed": 5003,
      "cars": 5004,
      "surface": 5005,
      "massive": 5006,
      "liberal": 5007,
      "narrow": 5008,
      "hill": 5009,
      "##ategy": 5010,
      "gosh": 5011,
      "##usion": 5012,
      "##isters": 5013,
      "appropriate": 5014,
      "homework": 5015,
      "presence": 5016,
      "inclined": 5017,
      "entertaining": 5018,
      "melanch": 5019,
      "routine": 5020,
      "econom": 5021,
      "ghost": 5022,
      "document": 5023,
      "superficial": 5024,
      "david": 5025,
      "6w7": 5026,
      "bc": 5027,
      "civ": 5028,
      "eight": 5029,
      "ri": 5030,
      "tons": 5031,
      "##pa": 5032,
      "##ini": 5033,
      "##atory": 5034,
      "beer": 5035,
      "hall": 5036,
      "##ival": 5037,
      "escape": 5038,
      "finan": 5039,
      "discussions": 5040,
      "##connect": 5041,
      "walls": 5042,
      "suffering": 5043,
      "contempl": 5044,
      "initial": 5045,
      "ponder": 5046,
      "porn": 5047,
      "xs": 5048,
      "##sc": 5049,
      "##itty": 5050,
      "##oop": 5051,
      "display": 5052,
      "strategy": 5053,
      "scar": 5054,
      "applic": 5055,
      "confir": 5056,
      "##phas": 5057,
      "responsibility": 5058,
      "effective": 5059,
      "incredible": 5060,
      "consistent": 5061,
      "shopping": 5062,
      "chaos": 5063,
      "commitment": 5064,
      "lau": 5065,
      "lunch": 5066,
      "##fast": 5067,
      "##62": 5068,
      "habits": 5069,
      "chess": 5070,
      "produ": 5071,
      "spread": 5072,
      "showed": 5073,
      "##iac": 5074,
      "morals": 5075,
      "phrase": 5076,
      "caut": 5077,
      "##eg": 5078,
      "##men": 5079,
      "##inated": 5080,
      "##asks": 5081,
      "##ulting": 5082,
      "urge": 5083,
      "disp": 5084,
      "spark": 5085,
      "greatly": 5086,
      "highs": 5087,
      "assign": 5088,
      "subconscious": 5089,
      "##aware": 5090,
      "practically": 5091,
      "romantically": 5092,
      "debating": 5093,
      "frustration": 5094,
      "rainb": 5095,
      "radio": 5096,
      "suicide": 5097,
      "sosx": 5098,
      "conservative": 5099,
      "##38": 5100,
      "sell": 5101,
      "seven": 5102,
      "stars": 5103,
      "arr": 5104,
      "defined": 5105,
      "subst": 5106,
      "messages": 5107,
      "bias": 5108,
      "responding": 5109,
      "##related": 5110,
      "treated": 5111,
      "initiate": 5112,
      "clarify": 5113,
      "witty": 5114,
      "55": 5115,
      "dates": 5116,
      "jk": 5117,
      "les": 5118,
      "##64": 5119,
      "staring": 5120,
      "justice": 5121,
      "unus": 5122,
      "overthink": 5123,
      "poster": 5124,
      "pray": 5125,
      "phase": 5126,
      "screen": 5127,
      "preferred": 5128,
      "countries": 5129,
      "psychopath": 5130,
      "confusion": 5131,
      "controlling": 5132,
      "embra": 5133,
      "suffer": 5134,
      "guilt": 5135,
      "associated": 5136,
      "rage": 5137,
      "##uous": 5138,
      "##lr": 5139,
      "##97": 5140,
      "##ica": 5141,
      "##ressed": 5142,
      "realizing": 5143,
      "cris": 5144,
      "artists": 5145,
      "edge": 5146,
      "swim": 5147,
      "raven": 5148,
      "behave": 5149,
      "refuse": 5150,
      "required": 5151,
      "philosophical": 5152,
      "verbal": 5153,
      "traditional": 5154,
      "instrument": 5155,
      "lu": 5156,
      "lin": 5157,
      "named": 5158,
      "oops": 5159,
      "ts": 5160,
      "tsh": 5161,
      "uk": 5162,
      "##fa": 5163,
      "##gen": 5164,
      "inn": 5165,
      "stone": 5166,
      "fears": 5167,
      "intended": 5168,
      "exclus": 5169,
      "##active": 5170,
      "strict": 5171,
      "hahah": 5172,
      "shower": 5173,
      "##ship": 5174,
      "focusing": 5175,
      "patient": 5176,
      "awareness": 5177,
      "jeans": 5178,
      "location": 5179,
      "surrounded": 5180,
      "overwhelmed": 5181,
      "intentions": 5182,
      "agnostic": 5183,
      "xst": 5184,
      "##af": 5185,
      "mac": 5186,
      "goss": 5187,
      "plat": 5188,
      "##oses": 5189,
      "statements": 5190,
      "biology": 5191,
      "included": 5192,
      "##attered": 5193,
      "primarily": 5194,
      "addicted": 5195,
      "assertive": 5196,
      "symbol": 5197,
      "mysterious": 5198,
      "2nd": 5199,
      "austr": 5200,
      "pics": 5201,
      "zero": 5202,
      "##ingu": 5203,
      "poem": 5204,
      "##ief": 5205,
      "##lol": 5206,
      "contra": 5207,
      "hardest": 5208,
      "playful": 5209,
      "elses": 5210,
      "indust": 5211,
      "nightm": 5212,
      "leading": 5213,
      "##conf": 5214,
      "processes": 5215,
      "growth": 5216,
      "effects": 5217,
      "err": 5218,
      "programming": 5219,
      "immediate": 5220,
      "copy": 5221,
      "teenager": 5222,
      "breath": 5223,
      "cruel": 5224,
      "heaven": 5225,
      "concentr": 5226,
      "bang": 5227,
      "ju": 5228,
      "ring": 5229,
      "sooo": 5230,
      "umm": 5231,
      "##cast": 5232,
      "##ram": 5233,
      "##ole": 5234,
      "##ene": 5235,
      "cock": 5236,
      "sentiment": 5237,
      "affirm": 5238,
      "potent": 5239,
      "idealistic": 5240,
      "##iliary": 5241,
      "verb": 5242,
      "ignorant": 5243,
      "narcissistic": 5244,
      "automatically": 5245,
      "schedule": 5246,
      "thorough": 5247,
      "austral": 5248,
      "##200": 5249,
      "##iced": 5250,
      "cancer": 5251,
      "chart": 5252,
      "official": 5253,
      "held": 5254,
      "contribute": 5255,
      "talkative": 5256,
      "skype": 5257,
      "preferences": 5258,
      "incons": 5259,
      "promise": 5260,
      "window": 5261,
      "dynamic": 5262,
      "oriented": 5263,
      "elementary": 5264,
      "innocent": 5265,
      "voted": 5266,
      "abuse": 5267,
      "trau": 5268,
      "##ilst": 5269,
      "loose": 5270,
      "disney": 5271,
      "clothing": 5272,
      "spa": 5273,
      "realised": 5274,
      "scores": 5275,
      "applies": 5276,
      "crack": 5277,
      "subforum": 5278,
      "received": 5279,
      "cuz": 5280,
      "sadness": 5281,
      "checked": 5282,
      "balanced": 5283,
      "##x92s": 5284,
      "rejection": 5285,
      "therapist": 5286,
      "naive": 5287,
      "vulnerable": 5288,
      "vo": 5289,
      "##rd": 5290,
      "allows": 5291,
      "unne": 5292,
      "accus": 5293,
      "understands": 5294,
      "pointed": 5295,
      "memor": 5296,
      "bike": 5297,
      "purely": 5298,
      "accidentally": 5299,
      "skept": 5300,
      "bon": 5301,
      "pushing": 5302,
      "##night": 5303,
      "##gir": 5304,
      "##jud": 5305,
      "##25": 5306,
      "##ste": 5307,
      "whilst": 5308,
      "##idom": 5309,
      "pee": 5310,
      "enter": 5311,
      "badass": 5312,
      "testing": 5313,
      "cheer": 5314,
      "fucked": 5315,
      "dads": 5316,
      "breakfast": 5317,
      "suggested": 5318,
      "legal": 5319,
      "technical": 5320,
      "##iiii": 5321,
      "milk": 5322,
      "apartment": 5323,
      "hobby": 5324,
      "virgin": 5325,
      "irrelevant": 5326,
      "ahh": 5327,
      "x93": 5328,
      "##pir": 5329,
      "##onym": 5330,
      "began": 5331,
      "##ooh": 5332,
      "shift": 5333,
      "amusing": 5334,
      "friday": 5335,
      "##iled": 5336,
      "unw": 5337,
      "emphas": 5338,
      "disg": 5339,
      "difficul": 5340,
      "offic": 5341,
      "##ensitive": 5342,
      "manipulate": 5343,
      "authentic": 5344,
      "intimidating": 5345,
      "encourage": 5346,
      "auxiliary": 5347,
      "gossip": 5348,
      "difficulty": 5349,
      "28": 5350,
      "ec": 5351,
      "ix92": 5352,
      "pizz": 5353,
      "russ": 5354,
      "##iders": 5355,
      "wouldve": 5356,
      "queen": 5357,
      "unknown": 5358,
      "seemingly": 5359,
      "##ucks": 5360,
      "hole": 5361,
      "medical": 5362,
      "assumption": 5363,
      "suggestion": 5364,
      "avoiding": 5365,
      "bringing": 5366,
      "concepts": 5367,
      "ignoring": 5368,
      "associate": 5369,
      "volunt": 5370,
      "chicken": 5371,
      "credit": 5372,
      "victim": 5373,
      "dual": 5374,
      "gal": 5375,
      "lem": 5376,
      "##iqu": 5377,
      "##gmatic": 5378,
      "##icing": 5379,
      "sugar": 5380,
      "faster": 5381,
      "beings": 5382,
      "tax": 5383,
      "nowad": 5384,
      "firm": 5385,
      "questioning": 5386,
      "apath": 5387,
      "socializing": 5388,
      "security": 5389,
      "shitty": 5390,
      "parad": 5391,
      "restaur": 5392,
      "killed": 5393,
      "drinks": 5394,
      "judgement": 5395,
      "consistently": 5396,
      "veget": 5397,
      "interviews": 5398,
      "ninja": 5399,
      "unnecess": 5400,
      "gf": 5401,
      "mask": 5402,
      "nine": 5403,
      "##over": 5404,
      "##omet": 5405,
      "##bell": 5406,
      "schools": 5407,
      "believed": 5408,
      "replied": 5409,
      "dreaming": 5410,
      "giant": 5411,
      "messed": 5412,
      "grav": 5413,
      "##inese": 5414,
      "epic": 5415,
      "determined": 5416,
      "panic": 5417,
      "inherent": 5418,
      "spectrum": 5419,
      "mathemat": 5420,
      "ip": 5421,
      "powers": 5422,
      "sil": 5423,
      "sisters": 5424,
      "vary": 5425,
      "##oly": 5426,
      "##fun": 5427,
      "##54": 5428,
      "ben": 5429,
      "beach": 5430,
      "##ids": 5431,
      "susp": 5432,
      "##ateful": 5433,
      "nostal": 5434,
      "worlds": 5435,
      "##ords": 5436,
      "repl": 5437,
      "objects": 5438,
      "technology": 5439,
      "periods": 5440,
      "chaotic": 5441,
      "viole": 5442,
      "coworkers": 5443,
      "dramatic": 5444,
      "astrology": 5445,
      "slyther": 5446,
      "nowadays": 5447,
      "dy": 5448,
      "rush": 5449,
      "tune": 5450,
      "vast": 5451,
      "##icism": 5452,
      "sole": 5453,
      "mob": 5454,
      "##umps": 5455,
      "arri": 5456,
      "precis": 5457,
      "manager": 5458,
      "longterm": 5459,
      "brit": 5460,
      "sites": 5461,
      "moms": 5462,
      "listened": 5463,
      "boat": 5464,
      "annoys": 5465,
      "fixed": 5466,
      "##hold": 5467,
      "conclusions": 5468,
      "relaxed": 5469,
      "benefits": 5470,
      "productive": 5471,
      "episodes": 5472,
      "floor": 5473,
      "leadership": 5474,
      "1st": 5475,
      "ath": 5476,
      "native": 5477,
      "##bi": 5478,
      "##look": 5479,
      "##den": 5480,
      "##eral": 5481,
      "chinese": 5482,
      "arms": 5483,
      "compreh": 5484,
      "##izes": 5485,
      "clim": 5486,
      "lapt": 5487,
      "##umblr": 5488,
      "##ogical": 5489,
      "technically": 5490,
      "absor": 5491,
      "hungry": 5492,
      "texting": 5493,
      "acknowledge": 5494,
      "cheap": 5495,
      "channel": 5496,
      "nostalg": 5497,
      "fet": 5498,
      "##bri": 5499,
      "##ern": 5500,
      "chuck": 5501,
      "worries": 5502,
      "goodness": 5503,
      "adop": 5504,
      "##udes": 5505,
      "thoughtful": 5506,
      "afterwards": 5507,
      "lists": 5508,
      "images": 5509,
      "evolution": 5510,
      "meditation": 5511,
      "appeal": 5512,
      "touching": 5513,
      "viol": 5514,
      "articles": 5515,
      "observations": 5516,
      "flying": 5517,
      "buddy": 5518,
      "survive": 5519,
      "dedic": 5520,
      "highschool": 5521,
      "26": 5522,
      "2w3": 5523,
      "ax": 5524,
      "mild": 5525,
      "##bble": 5526,
      "##lings": 5527,
      "##vis": 5528,
      "##92": 5529,
      "sea": 5530,
      "##enced": 5531,
      "shake": 5532,
      "disappe": 5533,
      "believing": 5534,
      "schiz": 5535,
      "mindset": 5536,
      "flav": 5537,
      "detect": 5538,
      "secondary": 5539,
      "estab": 5540,
      "resources": 5541,
      "clingy": 5542,
      "disgust": 5543,
      "dich": 5544,
      "##boo": 5545,
      "##bur": 5546,
      "##val": 5547,
      "##84": 5548,
      "##inge": 5549,
      "myth": 5550,
      "shed": 5551,
      "intr": 5552,
      "exh": 5553,
      "dece": 5554,
      "kno": 5555,
      "convent": 5556,
      "##action": 5557,
      "coinc": 5558,
      "offend": 5559,
      "clash": 5560,
      "flash": 5561,
      "assist": 5562,
      "raise": 5563,
      "police": 5564,
      "laws": 5565,
      "uncle": 5566,
      "cookies": 5567,
      "methods": 5568,
      "woke": 5569,
      "glasses": 5570,
      "vacation": 5571,
      "harmony": 5572,
      "bun": 5573,
      "bite": 5574,
      "dirty": 5575,
      "fro": 5576,
      "##bu": 5577,
      "##fly": 5578,
      "##77": 5579,
      "stream": 5580,
      "doors": 5581,
      "exch": 5582,
      "##cipl": 5583,
      "quant": 5584,
      "unlike": 5585,
      "##ables": 5586,
      "twist": 5587,
      "remo": 5588,
      "insert": 5589,
      "remembered": 5590,
      "##coming": 5591,
      "species": 5592,
      "brand": 5593,
      "polite": 5594,
      "interacting": 5595,
      "wasting": 5596,
      "##box": 5597,
      "cleaning": 5598,
      "inspired": 5599,
      "jumping": 5600,
      "journey": 5601,
      "management": 5602,
      "yellow": 5603,
      "optimistic": 5604,
      "gigg": 5605,
      "pizza": 5606,
      "cards": 5607,
      "dump": 5608,
      "eld": 5609,
      "hosp": 5610,
      "ou": 5611,
      "##hop": 5612,
      "##xious": 5613,
      "##llll": 5614,
      "stom": 5615,
      "magn": 5616,
      "sometime": 5617,
      "##anda": 5618,
      "player": 5619,
      "endless": 5620,
      "ideals": 5621,
      "finishing": 5622,
      "addition": 5623,
      "logically": 5624,
      "appreciation": 5625,
      "debates": 5626,
      "foreign": 5627,
      "grandm": 5628,
      "trees": 5629,
      "nerd": 5630,
      "divor": 5631,
      "withdraw": 5632,
      "civil": 5633,
      "slytherin": 5634,
      "blo": 5635,
      "fond": 5636,
      "pal": 5637,
      "##nes": 5638,
      "##kin": 5639,
      "ate": 5640,
      "frame": 5641,
      "enlight": 5642,
      "teens": 5643,
      "grasp": 5644,
      "brows": 5645,
      "##crif": 5646,
      "charism": 5647,
      "opened": 5648,
      "pleasant": 5649,
      "##uuuu": 5650,
      "candy": 5651,
      "masters": 5652,
      "acquaintances": 5653,
      "crisis": 5654,
      "national": 5655,
      "ppl": 5656,
      "won": 5657,
      "##nat": 5658,
      "##hi": 5659,
      "##rs": 5660,
      "##ique": 5661,
      "##down": 5662,
      "shirt": 5663,
      "guide": 5664,
      "applied": 5665,
      "boredom": 5666,
      "biased": 5667,
      "request": 5668,
      "detailed": 5669,
      "error": 5670,
      "obsession": 5671,
      "princess": 5672,
      "ultimate": 5673,
      "##writing": 5674,
      "groc": 5675,
      "rig": 5676,
      "##aff": 5677,
      "##wink": 5678,
      "##jo": 5679,
      "##iters": 5680,
      "forms": 5681,
      "enem": 5682,
      "unst": 5683,
      "unex": 5684,
      "finds": 5685,
      "offensive": 5686,
      "senior": 5687,
      "longest": 5688,
      "generation": 5689,
      "selfd": 5690,
      "terribly": 5691,
      "depressing": 5692,
      "miser": 5693,
      "hitler": 5694,
      "texts": 5695,
      "burst": 5696,
      "envy": 5697,
      "babies": 5698,
      "pisses": 5699,
      "obliv": 5700,
      "observing": 5701,
      "64": 5702,
      "latter": 5703,
      "pess": 5704,
      "west": 5705,
      "##85": 5706,
      "##ounce": 5707,
      "##ashing": 5708,
      "moves": 5709,
      "aband": 5710,
      "##urd": 5711,
      "##ums": 5712,
      "persona": 5713,
      "instantly": 5714,
      "bubb": 5715,
      "stands": 5716,
      "##ocr": 5717,
      "ladies": 5718,
      "throwing": 5719,
      "strikes": 5720,
      "concert": 5721,
      "satisfied": 5722,
      "embarrassed": 5723,
      "jerk": 5724,
      "scratch": 5725,
      "comedy": 5726,
      "aka": 5727,
      "gard": 5728,
      "nur": 5729,
      "rings": 5730,
      "##hen": 5731,
      "##ogy": 5732,
      "##tain": 5733,
      "ham": 5734,
      "##ici": 5735,
      "stable": 5736,
      "##ura": 5737,
      "##arded": 5738,
      "prem": 5739,
      "teeth": 5740,
      "expensive": 5741,
      "rights": 5742,
      "infin": 5743,
      "illogical": 5744,
      "exploring": 5745,
      "childish": 5746,
      "skip": 5747,
      "sorta": 5748,
      "lacking": 5749,
      "##respect": 5750,
      "##acity": 5751,
      "responded": 5752,
      "degrees": 5753,
      "surroundings": 5754,
      "opportunities": 5755,
      "fingers": 5756,
      "styles": 5757,
      "confirmed": 5758,
      "unusual": 5759,
      "potentially": 5760,
      "laptop": 5761,
      "dichot": 5762,
      "aqu": 5763,
      "rate": 5764,
      "tumblr": 5765,
      "wine": 5766,
      "##core": 5767,
      "##watch": 5768,
      "##zed": 5769,
      "whis": 5770,
      "island": 5771,
      "##thy": 5772,
      "##aming": 5773,
      "height": 5774,
      "chest": 5775,
      "##ouses": 5776,
      "##achel": 5777,
      "esc": 5778,
      "##claw": 5779,
      "charge": 5780,
      "counts": 5781,
      "sentences": 5782,
      "directed": 5783,
      "##lished": 5784,
      "choosing": 5785,
      "involve": 5786,
      "replying": 5787,
      "anth": 5788,
      "walks": 5789,
      "steps": 5790,
      "bands": 5791,
      "george": 5792,
      "spontaneous": 5793,
      "cynical": 5794,
      "contrast": 5795,
      "dict": 5796,
      "ms": 5797,
      "nav": 5798,
      "rere": 5799,
      "##rome": 5800,
      "##tra": 5801,
      "##esy": 5802,
      "target": 5803,
      "sold": 5804,
      "ord": 5805,
      "exe": 5806,
      "evening": 5807,
      "comprom": 5808,
      "##agon": 5809,
      "##osexual": 5810,
      "societ": 5811,
      "highest": 5812,
      "depart": 5813,
      "assumptions": 5814,
      "checking": 5815,
      "worrying": 5816,
      "versus": 5817,
      "perspectives": 5818,
      "hopeless": 5819,
      "tastes": 5820,
      "spoken": 5821,
      "sources": 5822,
      "loyalty": 5823,
      "reveal": 5824,
      "violence": 5825,
      "bb": 5826,
      "bod": 5827,
      "dare": 5828,
      "vivid": 5829,
      "##power": 5830,
      "##arm": 5831,
      "##alu": 5832,
      "##etics": 5833,
      "review": 5834,
      "pointing": 5835,
      "reliable": 5836,
      "grateful": 5837,
      "genre": 5838,
      "instant": 5839,
      "advance": 5840,
      "receiving": 5841,
      "sensory": 5842,
      "bob": 5843,
      "expressions": 5844,
      "##aaa": 5845,
      "hearts": 5846,
      "existential": 5847,
      "##noxious": 5848,
      "inspiration": 5849,
      "fundament": 5850,
      "valuable": 5851,
      "65": 5852,
      "bread": 5853,
      "lun": 5854,
      "##oe": 5855,
      "sel": 5856,
      "##itivity": 5857,
      "##edly": 5858,
      "shown": 5859,
      "lover": 5860,
      "map": 5861,
      "##cience": 5862,
      "whoever": 5863,
      "tele": 5864,
      "funn": 5865,
      "spell": 5866,
      "spam": 5867,
      "##cycl": 5868,
      "doms": 5869,
      "expressed": 5870,
      "smaller": 5871,
      "purple": 5872,
      "potato": 5873,
      "delicious": 5874,
      "spso": 5875,
      "bottle": 5876,
      "libert": 5877,
      "pessim": 5878,
      "3rd": 5879,
      "row": 5880,
      "##cr": 5881,
      "##te": 5882,
      "##lin": 5883,
      "##82": 5884,
      "andro": 5885,
      "whe": 5886,
      "asper": 5887,
      "sund": 5888,
      "outward": 5889,
      "army": 5890,
      "relation": 5891,
      "saf": 5892,
      "kindness": 5893,
      "committed": 5894,
      "##life": 5895,
      "runs": 5896,
      "##hahaha": 5897,
      "mistaken": 5898,
      "ignored": 5899,
      "bullied": 5900,
      "legend": 5901,
      "lonel": 5902,
      "causing": 5903,
      "mystery": 5904,
      "banned": 5905,
      "weaknesses": 5906,
      "batman": 5907,
      "bathroom": 5908,
      "split": 5909,
      "catholic": 5910,
      "ravenclaw": 5911,
      "fed": 5912,
      "lou": 5913,
      "ren": 5914,
      "vamp": 5915,
      "##ield": 5916,
      "##know": 5917,
      "##ju": 5918,
      "##orp": 5919,
      "##orical": 5920,
      "##etime": 5921,
      "##ches": 5922,
      "##ffle": 5923,
      "##agger": 5924,
      "betray": 5925,
      "obnoxious": 5926,
      "confirm": 5927,
      "fluff": 5928,
      "crime": 5929,
      "adding": 5930,
      "rape": 5931,
      "##airs": 5932,
      "walked": 5933,
      "provided": 5934,
      "miles": 5935,
      "claims": 5936,
      "chemical": 5937,
      "##eeeeeeee": 5938,
      "procrastination": 5939,
      "ooh": 5940,
      "finger": 5941,
      "encoura": 5942,
      "incorrect": 5943,
      "8w9": 5944,
      "cig": 5945,
      "nap": 5946,
      "##uce": 5947,
      "##oting": 5948,
      "##esteem": 5949,
      "resol": 5950,
      "perman": 5951,
      "scare": 5952,
      "receive": 5953,
      "driver": 5954,
      "internally": 5955,
      "maths": 5956,
      "energ": 5957,
      "oddly": 5958,
      "apologies": 5959,
      "witness": 5960,
      "graduate": 5961,
      "camera": 5962,
      "intentionally": 5963,
      "dragon": 5964,
      "32": 5965,
      "dim": 5966,
      "sales": 5967,
      "wings": 5968,
      "wester": 5969,
      "thin": 5970,
      "##ino": 5971,
      "##organ": 5972,
      "ine": 5973,
      "neur": 5974,
      "sacrif": 5975,
      "##ished": 5976,
      "confuse": 5977,
      "oldest": 5978,
      "discussed": 5979,
      "acceptable": 5980,
      "linked": 5981,
      "involves": 5982,
      "combined": 5983,
      "souls": 5984,
      "intimate": 5985,
      "coworker": 5986,
      "latest": 5987,
      "settle": 5988,
      "nonsense": 5989,
      "vibes": 5990,
      "volunte": 5991,
      "stomach": 5992,
      "95": 5993,
      "james": 5994,
      "luc": 5995,
      "mm": 5996,
      "tight": 5997,
      "##yth": 5998,
      "##year": 5999,
      "##zzy": 6000,
      "##itter": 6001,
      "##ancy": 6002,
      "nose": 6003,
      "noise": 6004,
      "percept": 6005,
      "impulsive": 6006,
      "##aker": 6007,
      "instruct": 6008,
      "sexually": 6009,
      "closely": 6010,
      "noticing": 6011,
      "excite": 6012,
      "fights": 6013,
      "traveling": 6014,
      "consciously": 6015,
      "prepared": 6016,
      "nuts": 6017,
      "football": 6018,
      "intrig": 6019,
      "comparison": 6020,
      "theoretical": 6021,
      "aunt": 6022,
      "fle": 6023,
      "wat": 6024,
      "##pm": 6025,
      "##96": 6026,
      "##zen": 6027,
      "##alog": 6028,
      "##imp": 6029,
      "canada": 6030,
      "concl": 6031,
      "proven": 6032,
      "saving": 6033,
      "adjust": 6034,
      "##iche": 6035,
      "resent": 6036,
      "spelling": 6037,
      "sounded": 6038,
      "##0000": 6039,
      "courage": 6040,
      "selfesteem": 6041,
      "##phere": 6042,
      "cheating": 6043,
      "senses": 6044,
      "brave": 6045,
      "medium": 6046,
      "fitting": 6047,
      "communicating": 6048,
      "fancy": 6049,
      "##duction": 6050,
      "smooth": 6051,
      "peaceful": 6052,
      "secretly": 6053,
      "absurd": 6054,
      "surprisingly": 6055,
      "frankly": 6056,
      "compatible": 6057,
      "quirky": 6058,
      "unnecessary": 6059,
      "precisely": 6060,
      "47": 6061,
      "gree": 6062,
      "tasks": 6063,
      "##iat": 6064,
      "##bled": 6065,
      "##mber": 6066,
      "##ora": 6067,
      "stalk": 6068,
      "##cist": 6069,
      "##istically": 6070,
      "everytime": 6071,
      "overcome": 6072,
      "thrown": 6073,
      "##claim": 6074,
      "deciding": 6075,
      "##orders": 6076,
      "advoc": 6077,
      "luckily": 6078,
      "profession": 6079,
      "intimacy": 6080,
      "tort": 6081,
      "villain": 6082,
      "siblings": 6083,
      "honey": 6084,
      "ocd": 6085,
      "tun": 6086,
      "##ups": 6087,
      "##cha": 6088,
      "wash": 6089,
      "outcome": 6090,
      "##ounds": 6091,
      "unhappy": 6092,
      "mush": 6093,
      "enjoyable": 6094,
      "charl": 6095,
      "ski": 6096,
      "##place": 6097,
      "##azz": 6098,
      "ironic": 6099,
      "planned": 6100,
      "observed": 6101,
      "expressive": 6102,
      "picky": 6103,
      "behaviors": 6104,
      "biological": 6105,
      "esteem": 6106,
      "supportive": 6107,
      "north": 6108,
      "##force": 6109,
      "statistics": 6110,
      "incompet": 6111,
      "pushed": 6112,
      "##ras": 6113,
      "##uri": 6114,
      "##wa": 6115,
      "storm": 6116,
      "##oops": 6117,
      "##ami": 6118,
      "feat": 6119,
      "##urs": 6120,
      "comparing": 6121,
      "keys": 6122,
      "cared": 6123,
      "easiest": 6124,
      "##grad": 6125,
      "maturity": 6126,
      "repet": 6127,
      "addiction": 6128,
      "evol": 6129,
      "horse": 6130,
      "accurately": 6131,
      "deliver": 6132,
      "occasional": 6133,
      "ignorance": 6134,
      "complaining": 6135,
      "adopt": 6136,
      "alex": 6137,
      "flex": 6138,
      "mont": 6139,
      "nurt": 6140,
      "pets": 6141,
      "vice": 6142,
      "##iber": 6143,
      "##wing": 6144,
      "##orious": 6145,
      "##omen": 6146,
      "reck": 6147,
      "abusive": 6148,
      "##types": 6149,
      "compos": 6150,
      "clin": 6151,
      "bless": 6152,
      "believes": 6153,
      "conform": 6154,
      "##quote": 6155,
      "flight": 6156,
      "crimin": 6157,
      "##isms": 6158,
      "articul": 6159,
      "wave": 6160,
      "breaks": 6161,
      "tied": 6162,
      "fallen": 6163,
      "affects": 6164,
      "satur": 6165,
      "repeated": 6166,
      "tolerate": 6167,
      "mountain": 6168,
      "pokemon": 6169,
      "cautious": 6170,
      "affirmation": 6171,
      "##iciency": 6172,
      "western": 6173,
      "36": 6174,
      "75": 6175,
      "ease": 6176,
      "oce": 6177,
      "rp": 6178,
      "sli": 6179,
      "snea": 6180,
      "ven": 6181,
      "yog": 6182,
      "##gl": 6183,
      "ina": 6184,
      "reass": 6185,
      "recover": 6186,
      "forest": 6187,
      "abilities": 6188,
      "##ortion": 6189,
      "diet": 6190,
      "specul": 6191,
      "apple": 6192,
      "crash": 6193,
      "similarities": 6194,
      "occasions": 6195,
      "succeed": 6196,
      "reached": 6197,
      "strike": 6198,
      "adults": 6199,
      "interpretation": 6200,
      "consequences": 6201,
      "loneliness": 6202,
      "js": 6203,
      "jane": 6204,
      "##bod": 6205,
      "##uh": 6206,
      "##mark": 6207,
      "##stream": 6208,
      "ital": 6209,
      "##icy": 6210,
      "reward": 6211,
      "##antic": 6212,
      "##hael": 6213,
      "unint": 6214,
      "partly": 6215,
      "spin": 6216,
      "defend": 6217,
      "defense": 6218,
      "twin": 6219,
      "strateg": 6220,
      "smith": 6221,
      "lessons": 6222,
      "imagin": 6223,
      "##x94": 6224,
      "attempting": 6225,
      "holiday": 6226,
      "attachment": 6227,
      "embarrassing": 6228,
      "greetings": 6229,
      "aesth": 6230,
      "dub": 6231,
      "jam": 6232,
      "junk": 6233,
      "mmm": 6234,
      "##80": 6235,
      "##23": 6236,
      "asp": 6237,
      "whoa": 6238,
      "##eria": 6239,
      "twent": 6240,
      "apparent": 6241,
      "bitter": 6242,
      "monster": 6243,
      "##lik": 6244,
      "psychologist": 6245,
      "snap": 6246,
      "previously": 6247,
      "software": 6248,
      "##interest": 6249,
      "detached": 6250,
      "embrace": 6251,
      "jim": 6252,
      "naked": 6253,
      "rat": 6254,
      "##hand": 6255,
      "##ba": 6256,
      "##uary": 6257,
      "##anks": 6258,
      "rein": 6259,
      "##idays": 6260,
      "asian": 6261,
      "conv": 6262,
      "pros": 6263,
      "##soever": 6264,
      "##osis": 6265,
      "awake": 6266,
      "attend": 6267,
      "consum": 6268,
      "creatures": 6269,
      "brains": 6270,
      "indecis": 6271,
      "opposites": 6272,
      "computers": 6273,
      "filter": 6274,
      "cultural": 6275,
      "pulled": 6276,
      "dropped": 6277,
      "spoke": 6278,
      "salt": 6279,
      "gaming": 6280,
      "derail": 6281,
      "enthusiasm": 6282,
      "financial": 6283,
      "46": 6284,
      "gest": 6285,
      "ii": 6286,
      "##cil": 6287,
      "youth": 6288,
      "##aybe": 6289,
      "anonym": 6290,
      "##ching": 6291,
      "shap": 6292,
      "neuro": 6293,
      "fran": 6294,
      "proceed": 6295,
      "encycl": 6296,
      "unic": 6297,
      "##osen": 6298,
      "spider": 6299,
      "definitions": 6300,
      "remembering": 6301,
      "importance": 6302,
      "##veloped": 6303,
      "cave": 6304,
      "movement": 6305,
      "##ifications": 6306,
      "calif": 6307,
      "tempor": 6308,
      "supposedly": 6309,
      "##forward": 6310,
      "windows": 6311,
      "scientist": 6312,
      "irritated": 6313,
      "tools": 6314,
      "demonstr": 6315,
      "wolf": 6316,
      "##briggs": 6317,
      "saturday": 6318,
      "encyclop": 6319,
      "cents": 6320,
      "hun": 6321,
      "mothers": 6322,
      "soph": 6323,
      "##ivers": 6324,
      "##top": 6325,
      "##mod": 6326,
      "##father": 6327,
      "##lim": 6328,
      "##ald": 6329,
      "notion": 6330,
      "##estyle": 6331,
      "org": 6332,
      "comic": 6333,
      "trash": 6334,
      "needing": 6335,
      "dise": 6336,
      "discipl": 6337,
      "charm": 6338,
      "lesson": 6339,
      "invis": 6340,
      "irony": 6341,
      "admitted": 6342,
      "tempt": 6343,
      "ruin": 6344,
      "challenging": 6345,
      "wedding": 6346,
      "##natural": 6347,
      "oblivious": 6348,
      "bast": 6349,
      "cash": 6350,
      "jew": 6351,
      "lame": 6352,
      "pi": 6353,
      "ped": 6354,
      "pool": 6355,
      "pier": 6356,
      "roles": 6357,
      "##mo": 6358,
      "##arks": 6359,
      "weigh": 6360,
      "usa": 6361,
      "##istent": 6362,
      "acted": 6363,
      "saved": 6364,
      "default": 6365,
      "joining": 6366,
      "flip": 6367,
      "passing": 6368,
      "psychiat": 6369,
      "profound": 6370,
      "earn": 6371,
      "identified": 6372,
      "affected": 6373,
      "solving": 6374,
      "woah": 6375,
      "affectionate": 6376,
      "graphic": 6377,
      "melancholy": 6378,
      "54": 6379,
      "67": 6380,
      "jan": 6381,
      "ss": 6382,
      "##cel": 6383,
      "##oke": 6384,
      "##wood": 6385,
      "##puff": 6386,
      "##arius": 6387,
      "##sexual": 6388,
      "stumb": 6389,
      "whatsoever": 6390,
      "anytime": 6391,
      "##feel": 6392,
      "interrupt": 6393,
      "##lolo": 6394,
      "relates": 6395,
      "##ement": 6396,
      "happily": 6397,
      "disrespect": 6398,
      "definite": 6399,
      "clock": 6400,
      "afford": 6401,
      "breakup": 6402,
      "refres": 6403,
      "meaningless": 6404,
      "touched": 6405,
      "larger": 6406,
      "straightforward": 6407,
      "winning": 6408,
      "amounts": 6409,
      "insights": 6410,
      "loner": 6411,
      "uncertain": 6412,
      "competition": 6413,
      "holidays": 6414,
      "##itarian": 6415,
      "violent": 6416,
      "daydreaming": 6417,
      "birds": 6418,
      "excitement": 6419,
      "californ": 6420,
      "56": 6421,
      "houses": 6422,
      "kitty": 6423,
      "tip": 6424,
      "##kind": 6425,
      "##sters": 6426,
      "##analy": 6427,
      "heal": 6428,
      "decl": 6429,
      "muse": 6430,
      "pregn": 6431,
      "relating": 6432,
      "##uded": 6433,
      "##bec": 6434,
      "struck": 6435,
      "##ache": 6436,
      "##ifies": 6437,
      "##irect": 6438,
      "##getic": 6439,
      "hund": 6440,
      "##proud": 6441,
      "falls": 6442,
      "formal": 6443,
      "stupidity": 6444,
      "president": 6445,
      "touchy": 6446,
      "##resp": 6447,
      "capacity": 6448,
      "obsessive": 6449,
      "impressed": 6450,
      "relaxing": 6451,
      "##x92t": 6452,
      "instinctual": 6453,
      "procrastinate": 6454,
      "alike": 6455,
      "audit": 6456,
      "introduced": 6457,
      "restaurant": 6458,
      "bud": 6459,
      "ration": 6460,
      "tid": 6461,
      "##ket": 6462,
      "##inn": 6463,
      "##eday": 6464,
      "neck": 6465,
      "##illa": 6466,
      "chee": 6467,
      "##earing": 6468,
      "unlik": 6469,
      "##izations": 6470,
      "writers": 6471,
      "accent": 6472,
      "heshe": 6473,
      "trail": 6474,
      "consideration": 6475,
      "mentality": 6476,
      "advise": 6477,
      "draining": 6478,
      "smarter": 6479,
      "researching": 6480,
      "##thern": 6481,
      "forgotten": 6482,
      "quoted": 6483,
      "consciousness": 6484,
      "procrastinating": 6485,
      "arrogance": 6486,
      "michael": 6487,
      "stole": 6488,
      "buddh": 6489,
      "scenarios": 6490,
      "essay": 6491,
      "lurking": 6492,
      "academic": 6493,
      "utterly": 6494,
      "##stein": 6495,
      "intriguing": 6496,
      "lion": 6497,
      "rot": 6498,
      "rab": 6499,
      "rip": 6500,
      "soo": 6501,
      "xx": 6502,
      "##fing": 6503,
      "##win": 6504,
      "##vy": 6505,
      "beg": 6506,
      "inev": 6507,
      "##icit": 6508,
      "##icle": 6509,
      "reven": 6510,
      "##roat": 6511,
      "peers": 6512,
      "##ssss": 6513,
      "shoulder": 6514,
      "hardcore": 6515,
      "bits": 6516,
      "##ivalent": 6517,
      "fox": 6518,
      "##lessly": 6519,
      "england": 6520,
      "darkness": 6521,
      "matches": 6522,
      "universal": 6523,
      "destruct": 6524,
      "explos": 6525,
      "reflection": 6526,
      "ethics": 6527,
      "ambi": 6528,
      "wander": 6529,
      "australia": 6530,
      "miserable": 6531,
      "hundred": 6532,
      "99": 6533,
      "cough": 6534,
      "dys": 6535,
      "fb": 6536,
      "gry": 6537,
      "lic": 6538,
      "pig": 6539,
      "##ocial": 6540,
      "##sure": 6541,
      "##gely": 6542,
      "##atable": 6543,
      "##lying": 6544,
      "rechar": 6545,
      "excess": 6546,
      "exagger": 6547,
      "chase": 6548,
      "sheep": 6549,
      "##osphere": 6550,
      "happier": 6551,
      "disli": 6552,
      "deser": 6553,
      "##anging": 6554,
      "attribut": 6555,
      "root": 6556,
      "careers": 6557,
      "syn": 6558,
      "imaginary": 6559,
      "grace": 6560,
      "fairy": 6561,
      "motor": 6562,
      "numerous": 6563,
      "anti": 6564,
      "antis": 6565,
      "scenes": 6566,
      "analytical": 6567,
      "boxes": 6568,
      "hypoth": 6569,
      "medications": 6570,
      "deleted": 6571,
      "intensity": 6572,
      "grocery": 6573,
      "unicorn": 6574,
      "inevit": 6575,
      "gem": 6576,
      "kore": 6577,
      "nast": 6578,
      "ron": 6579,
      "##mes": 6580,
      "##55": 6581,
      "##eres": 6582,
      "##rey": 6583,
      "##eds": 6584,
      "ish": 6585,
      "stab": 6586,
      "stating": 6587,
      "justify": 6588,
      "outs": 6589,
      "disconnect": 6590,
      "prison": 6591,
      "##while": 6592,
      "humble": 6593,
      "socialize": 6594,
      "cheat": 6595,
      "synd": 6596,
      "##ypes": 6597,
      "rave": 6598,
      "stayed": 6599,
      "controlled": 6600,
      "energetic": 6601,
      "despise": 6602,
      "##3333": 6603,
      "magical": 6604,
      "crushes": 6605,
      "ridiculously": 6606,
      "contrary": 6607,
      "unfair": 6608,
      "emoji": 6609,
      "assessment": 6610,
      "russian": 6611,
      "fans": 6612,
      "witch": 6613,
      "##ns": 6614,
      "##cere": 6615,
      "##rot": 6616,
      "##porate": 6617,
      "##26": 6618,
      "tow": 6619,
      "inability": 6620,
      "stem": 6621,
      "##that": 6622,
      "aloof": 6623,
      "lock": 6624,
      "chosen": 6625,
      "##ilies": 6626,
      "##arts": 6627,
      "afric": 6628,
      "genres": 6629,
      "phen": 6630,
      "carefully": 6631,
      "learnt": 6632,
      "insensitive": 6633,
      "trapped": 6634,
      "subs": 6635,
      "dependent": 6636,
      "engaged": 6637,
      "admin": 6638,
      "##bby": 6639,
      "creation": 6640,
      "largely": 6641,
      "unconscious": 6642,
      "sympt": 6643,
      "rejected": 6644,
      "flawed": 6645,
      "jungian": 6646,
      "indicate": 6647,
      "encounter": 6648,
      "zombie": 6649,
      "unexpect": 6650,
      "ocean": 6651,
      "unlikely": 6652,
      "bout": 6653,
      "bully": 6654,
      "ol": 6655,
      "sf": 6656,
      "##ees": 6657,
      "##lam": 6658,
      "##24": 6659,
      "##♥♥": 6660,
      "toxic": 6661,
      "##real": 6662,
      "ancient": 6663,
      "sums": 6664,
      "##rag": 6665,
      "conven": 6666,
      "needy": 6667,
      "speaks": 6668,
      "grass": 6669,
      "entit": 6670,
      "commer": 6671,
      "invite": 6672,
      "imagining": 6673,
      "youngest": 6674,
      "viewpoint": 6675,
      "motives": 6676,
      "suggesting": 6677,
      "occup": 6678,
      "holds": 6679,
      "teenage": 6680,
      "pretending": 6681,
      "tshirt": 6682,
      "grandmother": 6683,
      "encyclopedia": 6684,
      "gryff": 6685,
      "4th": 6686,
      "hind": 6687,
      "ze": 6688,
      "##hil": 6689,
      "##oh": 6690,
      "##kers": 6691,
      "##fli": 6692,
      "theat": 6693,
      "##rep": 6694,
      "##orient": 6695,
      "someday": 6696,
      "sosp": 6697,
      "##urance": 6698,
      "cher": 6699,
      "que": 6700,
      "##arett": 6701,
      "mans": 6702,
      "posters": 6703,
      "flag": 6704,
      "enjoys": 6705,
      "triv": 6706,
      "commonly": 6707,
      "medi": 6708,
      "formul": 6709,
      "grandma": 6710,
      "balls": 6711,
      "nerdy": 6712,
      "clicked": 6713,
      "##interp": 6714,
      "thrill": 6715,
      "mobile": 6716,
      "athlet": 6717,
      "sunday": 6718,
      "hypothet": 6719,
      "29": 6720,
      "fright": 6721,
      "nu": 6722,
      "xxx": 6723,
      "##nis": 6724,
      "##bul": 6725,
      "##based": 6726,
      "##arant": 6727,
      "##asy": 6728,
      "shout": 6729,
      "los": 6730,
      "manga": 6731,
      "disorders": 6732,
      "print": 6733,
      "remark": 6734,
      "sincere": 6735,
      "brut": 6736,
      "##when": 6737,
      "exams": 6738,
      "godd": 6739,
      "grab": 6740,
      "trusting": 6741,
      "discovering": 6742,
      "pulling": 6743,
      "##hhhhhhhh": 6744,
      "misunderstanding": 6745,
      "tradition": 6746,
      "graduated": 6747,
      "vocal": 6748,
      "fortun": 6749,
      "distinction": 6750,
      "gryffind": 6751,
      "bio": 6752,
      "dread": 6753,
      "eternal": 6754,
      "oct": 6755,
      "oil": 6756,
      "rose": 6757,
      "rise": 6758,
      "##och": 6759,
      "##esi": 6760,
      "beast": 6761,
      "##otes": 6762,
      "weap": 6763,
      "telev": 6764,
      "pron": 6765,
      "smiles": 6766,
      "##athers": 6767,
      "rolling": 6768,
      "esp": 6769,
      "advanced": 6770,
      "curse": 6771,
      "kills": 6772,
      "appealing": 6773,
      "hitting": 6774,
      "##developed": 6775,
      "moods": 6776,
      "goofy": 6777,
      "cookie": 6778,
      "amongst": 6779,
      "netfli": 6780,
      "lifestyle": 6781,
      "##working": 6782,
      "judgmental": 6783,
      "##ette": 6784,
      "introduce": 6785,
      "participate": 6786,
      "atmosphere": 6787,
      "terrified": 6788,
      "replace": 6789,
      "exhib": 6790,
      "aspergers": 6791,
      "indecisive": 6792,
      "netflix": 6793,
      "53": 6794,
      "bomb": 6795,
      "egg": 6796,
      "gross": 6797,
      "hits": 6798,
      "jon": 6799,
      "ry": 6800,
      "serve": 6801,
      "##mat": 6802,
      "##wich": 6803,
      "##da": 6804,
      "##ziness": 6805,
      "stret": 6806,
      "sticking": 6807,
      "##this": 6808,
      "alter": 6809,
      "knight": 6810,
      "compe": 6811,
      "##ilight": 6812,
      "enne": 6813,
      "disreg": 6814,
      "offered": 6815,
      "defensive": 6816,
      "legs": 6817,
      "contain": 6818,
      "insan": 6819,
      "huffle": 6820,
      "crave": 6821,
      "waking": 6822,
      "cheated": 6823,
      "mainstream": 6824,
      "lights": 6825,
      "sucked": 6826,
      "worthy": 6827,
      "troubles": 6828,
      "doubts": 6829,
      "deliber": 6830,
      "wasted": 6831,
      "empathetic": 6832,
      "chatting": 6833,
      "deny": 6834,
      "torn": 6835,
      "cycle": 6836,
      "myersbriggs": 6837,
      "loads": 6838,
      "captain": 6839,
      "sharp": 6840,
      "mathematics": 6841,
      "silver": 6842,
      "solely": 6843,
      "exchange": 6844,
      "hospital": 6845,
      "unstable": 6846,
      "hufflepuff": 6847,
      "90s": 6848,
      "dow": 6849,
      "eu": 6850,
      "kat": 6851,
      "kar": 6852,
      "laughter": 6853,
      "##inging": 6854,
      "lift": 6855,
      "upload": 6856,
      "reads": 6857,
      "resem": 6858,
      "partially": 6859,
      "price": 6860,
      "gray": 6861,
      "keir": 6862,
      "afterno": 6863,
      "functional": 6864,
      "##which": 6865,
      "secrets": 6866,
      "slam": 6867,
      "##comes": 6868,
      "courses": 6869,
      "creates": 6870,
      "mistype": 6871,
      "shock": 6872,
      "limits": 6873,
      "##craft": 6874,
      "frequent": 6875,
      "moderate": 6876,
      "pursuing": 6877,
      "danger": 6878,
      "portray": 6879,
      "independence": 6880,
      "prepare": 6881,
      "covered": 6882,
      "talented": 6883,
      "nicely": 6884,
      "thousand": 6885,
      "photography": 6886,
      "rainbow": 6887,
      "swimming": 6888,
      "verbally": 6889,
      "reread": 6890,
      "011": 6891,
      "aha": 6892,
      "east": 6893,
      "gle": 6894,
      "mas": 6895,
      "ny": 6896,
      "por": 6897,
      "rar": 6898,
      "rum": 6899,
      "tie": 6900,
      "items": 6901,
      "##enn": 6902,
      "##eter": 6903,
      "liqu": 6904,
      "stark": 6905,
      "##cif": 6906,
      "##itect": 6907,
      "unrelated": 6908,
      "firstly": 6909,
      "scares": 6910,
      "blond": 6911,
      "impat": 6912,
      "robert": 6913,
      "hugging": 6914,
      "secure": 6915,
      "court": 6916,
      "dealt": 6917,
      "psycho": 6918,
      "##ccur": 6919,
      "##pres": 6920,
      "closet": 6921,
      "1000": 6922,
      "sweat": 6923,
      "severe": 6924,
      "transform": 6925,
      "seasons": 6926,
      "##gued": 6927,
      "protective": 6928,
      "gifted": 6929,
      "architect": 6930,
      "golden": 6931,
      "tricky": 6932,
      "intrigued": 6933,
      "sandwich": 6934,
      "exhausting": 6935,
      "trigger": 6936,
      "release": 6937,
      "lecture": 6938,
      "exclusive": 6939,
      "thoroughly": 6940,
      "skeptical": 6941,
      "nasty": 6942,
      "gryffindor": 6943,
      "television": 6944,
      "cit": 6945,
      "dust": 6946,
      "dull": 6947,
      "eggs": 6948,
      "fer": 6949,
      "gap": 6950,
      "oooh": 6951,
      "paul": 6952,
      "##cles": 6953,
      "##iate": 6954,
      "##ean": 6955,
      "thumb": 6956,
      "##atu": 6957,
      "chap": 6958,
      "chair": 6959,
      "##ffe": 6960,
      "##ander": 6961,
      "##ossy": 6962,
      "grud": 6963,
      "##ormal": 6964,
      "guessed": 6965,
      "basket": 6966,
      "insulting": 6967,
      "handwriting": 6968,
      "openness": 6969,
      "scifi": 6970,
      "miscon": 6971,
      "damage": 6972,
      "bothering": 6973,
      "versa": 6974,
      "motivations": 6975,
      "demand": 6976,
      "uncommon": 6977,
      "idiots": 6978,
      "skinny": 6979,
      "performance": 6980,
      "venting": 6981,
      "owl": 6982,
      "principles": 6983,
      "duty": 6984,
      "industry": 6985,
      "officially": 6986,
      "british": 6987,
      "bubbly": 6988,
      "department": 6989,
      "libertarian": 6990,
      "california": 6991,
      "boun": 6992,
      "kitch": 6993,
      "##care": 6994,
      "##rust": 6995,
      "##uity": 6996,
      "##lor": 6997,
      "##dr": 6998,
      "##lla": 6999,
      "inqu": 7000,
      "##uts": 7001,
      "hallow": 7002,
      "##ched": 7003,
      "heat": 7004,
      "suits": 7005,
      "polic": 7006,
      "ambit": 7007,
      "##umn": 7008,
      "##amele": 7009,
      "prejud": 7010,
      "tail": 7011,
      "##ifting": 7012,
      "blast": 7013,
      "sounding": 7014,
      "league": 7015,
      "##pleas": 7016,
      "remove": 7017,
      "guesses": 7018,
      "##ucky": 7019,
      "indiff": 7020,
      "slip": 7021,
      "##phones": 7022,
      "stops": 7023,
      "connecting": 7024,
      "burning": 7025,
      "riding": 7026,
      "rocks": 7027,
      "presented": 7028,
      "privacy": 7029,
      "peter": 7030,
      "spoil": 7031,
      "condes": 7032,
      "attacks": 7033,
      "pathetic": 7034,
      "instincts": 7035,
      "util": 7036,
      "collection": 7037,
      "ethical": 7038,
      "audience": 7039,
      "teddy": 7040,
      "##cending": 7041,
      "sympathy": 7042,
      "overthinking": 7043,
      "revenge": 7044,
      "phenomen": 7045,
      "afternoon": 7046,
      "33": 7047,
      "63": 7048,
      "bank": 7049,
      "cere": 7050,
      "fs": 7051,
      "mc": 7052,
      "mort": 7053,
      "##cal": 7054,
      "##han": 7055,
      "##vable": 7056,
      "##parent": 7057,
      "lied": 7058,
      "intend": 7059,
      "sum": 7060,
      "conce": 7061,
      "dialog": 7062,
      "unaware": 7063,
      "expand": 7064,
      "spare": 7065,
      "infatu": 7066,
      "twilight": 7067,
      "crappy": 7068,
      "wishes": 7069,
      "##shine": 7070,
      "analogy": 7071,
      "effectively": 7072,
      "autism": 7073,
      "criticize": 7074,
      "fields": 7075,
      "##aaaaaaaa": 7076,
      "grounded": 7077,
      "medication": 7078,
      "tolerance": 7079,
      "germany": 7080,
      "puzzle": 7081,
      "cigarett": 7082,
      "greek": 7083,
      "aug": 7084,
      "bul": 7085,
      "jul": 7086,
      "melt": 7087,
      "naz": 7088,
      "rising": 7089,
      "tf": 7090,
      "##cat": 7091,
      "##ients": 7092,
      "##tongue": 7093,
      "##bid": 7094,
      "##py": 7095,
      "##arn": 7096,
      "##eli": 7097,
      "##cho": 7098,
      "washing": 7099,
      "##ille": 7100,
      "soundtra": 7101,
      "waves": 7102,
      "bugs": 7103,
      "##redict": 7104,
      "openly": 7105,
      "sooner": 7106,
      "combo": 7107,
      "hopes": 7108,
      "elements": 7109,
      "electric": 7110,
      "##blushed": 7111,
      "flowers": 7112,
      "represents": 7113,
      "narcissism": 7114,
      "investig": 7115,
      "survival": 7116,
      "bolded": 7117,
      "inherently": 7118,
      "removed": 7119,
      "infinite": 7120,
      "disease": 7121,
      "auditory": 7122,
      "syndrome": 7123,
      "44": 7124,
      "dro": 7125,
      "ga": 7126,
      "gas": 7127,
      "mond": 7128,
      "##can": 7129,
      "##hes": 7130,
      "##bet": 7131,
      "##uk": 7132,
      "##maybe": 7133,
      "##fit": 7134,
      "##graph": 7135,
      "##28": 7136,
      "toy": 7137,
      "beating": 7138,
      "##alf": 7139,
      "anarch": 7140,
      "##alled": 7141,
      "meal": 7142,
      "##sect": 7143,
      "stal": 7144,
      "guarant": 7145,
      "##love": 7146,
      "plant": 7147,
      "##icked": 7148,
      "genes": 7149,
      "##verted": 7150,
      "implic": 7151,
      "download": 7152,
      "bubble": 7153,
      "mission": 7154,
      "religions": 7155,
      "##rence": 7156,
      "introduction": 7157,
      "trek": 7158,
      "robots": 7159,
      "influenced": 7160,
      "medicine": 7161,
      "screwed": 7162,
      "intimidated": 7163,
      "neighbor": 7164,
      "garden": 7165,
      "vampire": 7166,
      "italian": 7167,
      "kitchen": 7168,
      "4s": 7169,
      "diction": 7170,
      "jaw": 7171,
      "jazz": 7172,
      "pour": 7173,
      "pace": 7174,
      "pump": 7175,
      "##house": 7176,
      "##pan": 7177,
      "inapp": 7178,
      "##icate": 7179,
      "##owing": 7180,
      "##ril": 7181,
      "align": 7182,
      "hows": 7183,
      "underlying": 7184,
      "infx": 7185,
      "serial": 7186,
      "buff": 7187,
      "register": 7188,
      "collea": 7189,
      "evalu": 7190,
      "sciences": 7191,
      "follows": 7192,
      "douche": 7193,
      "raw": 7194,
      "ears": 7195,
      "polar": 7196,
      "retur": 7197,
      "retarded": 7198,
      "cutting": 7199,
      "organization": 7200,
      "sunshine": 7201,
      "sexuality": 7202,
      "christianity": 7203,
      "digital": 7204,
      "insecurity": 7205,
      "misunderstand": 7206,
      "applying": 7207,
      "cooper": 7208,
      "exhausted": 7209,
      "unreal": 7210,
      "minimal": 7211,
      "isolated": 7212,
      "sentimental": 7213,
      "accused": 7214,
      "##bodys": 7215,
      "antisocial": 7216,
      "trivial": 7217,
      "bum": 7218,
      "ein": 7219,
      "gt": 7220,
      "hood": 7221,
      "narr": 7222,
      "##iel": 7223,
      "##eve": 7224,
      "##3000": 7225,
      "sequ": 7226,
      "##asion": 7227,
      "##urities": 7228,
      "chamele": 7229,
      "enxp": 7230,
      "aggress": 7231,
      "dile": 7232,
      "spr": 7233,
      "hiking": 7234,
      "conspir": 7235,
      "indie": 7236,
      "handed": 7237,
      "invited": 7238,
      "distingu": 7239,
      "processing": 7240,
      "extraversion": 7241,
      "failing": 7242,
      "circles": 7243,
      "poorly": 7244,
      "convincing": 7245,
      "##cafe": 7246,
      "sending": 7247,
      "settings": 7248,
      "darn": 7249,
      "revol": 7250,
      "celebrity": 7251,
      "confession": 7252,
      "xnfp": 7253,
      "guns": 7254,
      "junior": 7255,
      "global": 7256,
      "ixfp": 7257,
      "disturbing": 7258,
      "ashamed": 7259,
      "unpredict": 7260,
      "paradox": 7261,
      "lucid": 7262,
      "48": 7263,
      "80s": 7264,
      "buck": 7265,
      "cure": 7266,
      "ell": 7267,
      "gear": 7268,
      "pity": 7269,
      "sque": 7270,
      "tig": 7271,
      "tour": 7272,
      "##xy": 7273,
      "##91": 7274,
      "##inations": 7275,
      "sess": 7276,
      "##rent": 7277,
      "##stop": 7278,
      "##utter": 7279,
      "stability": 7280,
      "##ado": 7281,
      "##opher": 7282,
      "##irable": 7283,
      "shakes": 7284,
      "shirts": 7285,
      "alt": 7286,
      "albe": 7287,
      "guid": 7288,
      "overl": 7289,
      "##ifi": 7290,
      "scri": 7291,
      "newb": 7292,
      "drown": 7293,
      "reput": 7294,
      "imagined": 7295,
      "viewed": 7296,
      "misinterp": 7297,
      "caffe": 7298,
      "quietly": 7299,
      "idealist": 7300,
      "bedroom": 7301,
      "petty": 7302,
      "fascinated": 7303,
      "insecurities": 7304,
      "atheism": 7305,
      "engineer": 7306,
      "electronic": 7307,
      "categor": 7308,
      "priority": 7309,
      "customer": 7310,
      "maxim": 7311,
      "introspection": 7312,
      "escap": 7313,
      "repetitive": 7314,
      "cope": 7315,
      "fri": 7316,
      "pit": 7317,
      "tut": 7318,
      "wid": 7319,
      "wishing": 7320,
      "##cool": 7321,
      "##col": 7322,
      "##ok": 7323,
      "##pass": 7324,
      "##75": 7325,
      "##36": 7326,
      "threw": 7327,
      "##inf": 7328,
      "##storm": 7329,
      "forces": 7330,
      "poems": 7331,
      "##uses": 7332,
      "tease": 7333,
      "##berry": 7334,
      "schem": 7335,
      "thankful": 7336,
      "strongest": 7337,
      "drift": 7338,
      "##ypical": 7339,
      "directions": 7340,
      "killer": 7341,
      "halfway": 7342,
      "soup": 7343,
      "straw": 7344,
      "forgetting": 7345,
      "eyebr": 7346,
      "approaching": 7347,
      "struggled": 7348,
      "purposes": 7349,
      "treatment": 7350,
      "clarity": 7351,
      "mechanical": 7352,
      "cosm": 7353,
      "##iques": 7354,
      "compromise": 7355,
      "yoga": 7356,
      "deserves": 7357,
      "albeit": 7358,
      "66": 7359,
      "8s": 7360,
      "bust": 7361,
      "gorge": 7362,
      "pir": 7363,
      "pil": 7364,
      "river": 7365,
      "sink": 7366,
      "sau": 7367,
      "tay": 7368,
      "##ham": 7369,
      "##des": 7370,
      "##erence": 7371,
      "##oning": 7372,
      "##seud": 7373,
      "##idal": 7374,
      "##chem": 7375,
      "doom": 7376,
      "##rix": 7377,
      "##amn": 7378,
      "knife": 7379,
      "##rain": 7380,
      "pock": 7381,
      "fruit": 7382,
      "persu": 7383,
      "mund": 7384,
      "prec": 7385,
      "willi": 7386,
      "diss": 7387,
      "perpet": 7388,
      "grin": 7389,
      "illustr": 7390,
      "scorp": 7391,
      "blat": 7392,
      "extended": 7393,
      "cheers": 7394,
      "sensitivity": 7395,
      "openminded": 7396,
      "##ublic": 7397,
      "corporate": 7398,
      "psychic": 7399,
      "##centric": 7400,
      "suggests": 7401,
      "objectively": 7402,
      "politic": 7403,
      "##ductive": 7404,
      "intellectually": 7405,
      "devil": 7406,
      "homosexual": 7407,
      "hypothes": 7408,
      "lifetime": 7409,
      "nerves": 7410,
      "judgment": 7411,
      "dynamics": 7412,
      "essence": 7413,
      "colours": 7414,
      "encountered": 7415,
      "metaphor": 7416,
      "dishes": 7417,
      "european": 7418,
      "implying": 7419,
      "thousands": 7420,
      "permanent": 7421,
      "incompetent": 7422,
      "##oriented": 7423,
      "ahhh": 7424,
      "bass": 7425,
      "hating": 7426,
      "mile": 7427,
      "pseud": 7428,
      "u200": 7429,
      "##rict": 7430,
      "##zs": 7431,
      "thick": 7432,
      "rent": 7433,
      "france": 7434,
      "ups": 7435,
      "united": 7436,
      "teasing": 7437,
      "manual": 7438,
      "ade": 7439,
      "desires": 7440,
      "lasted": 7441,
      "traff": 7442,
      "buzz": 7443,
      "awesom": 7444,
      "profiles": 7445,
      "varies": 7446,
      "stephen": 7447,
      "impressive": 7448,
      "strangely": 7449,
      "concerning": 7450,
      "girlfriends": 7451,
      "entertainment": 7452,
      "lifes": 7453,
      "##worthy": 7454,
      "solutions": 7455,
      "invested": 7456,
      "micro": 7457,
      "freshman": 7458,
      "novels": 7459,
      "nails": 7460,
      "xntp": 7461,
      "tattoos": 7462,
      "nightmare": 7463,
      "emphasis": 7464,
      "fluffy": 7465,
      "dilemm": 7466,
      "cab": 7467,
      "lam": 7468,
      "mere": 7469,
      "valent": 7470,
      "wiz": 7471,
      "ye": 7472,
      "##ipp": 7473,
      "##zer": 7474,
      "##sth": 7475,
      "##step": 7476,
      "income": 7477,
      "stood": 7478,
      "##ople": 7479,
      "chris": 7480,
      "unem": 7481,
      "##agers": 7482,
      "##itto": 7483,
      "##fulness": 7484,
      "implies": 7485,
      "insist": 7486,
      "elsewhere": 7487,
      "musician": 7488,
      "bug": 7489,
      "rac": 7490,
      "darker": 7491,
      "neglect": 7492,
      "steam": 7493,
      "smoked": 7494,
      "attempts": 7495,
      "challenges": 7496,
      "improving": 7497,
      "strive": 7498,
      "dropping": 7499,
      "dressed": 7500,
      "repeating": 7501,
      "holes": 7502,
      "gained": 7503,
      "punish": 7504,
      "irritating": 7505,
      "enthusiastic": 7506,
      "increase": 7507,
      "economics": 7508,
      "articulate": 7509,
      "inaccur": 7510,
      "invisible": 7511,
      "conspiracy": 7512,
      "mundane": 7513,
      "52": 7514,
      "500": 7515,
      "9s": 7516,
      "ditto": 7517,
      "ls": 7518,
      "lust": 7519,
      "tan": 7520,
      "tension": 7521,
      "yess": 7522,
      "##yer": 7523,
      "##rim": 7524,
      "##tr": 7525,
      "##ban": 7526,
      "##bag": 7527,
      "##uits": 7528,
      "throat": 7529,
      "sets": 7530,
      "##least": 7531,
      "forcing": 7532,
      "##very": 7533,
      "##rier": 7534,
      "absent": 7535,
      "##ulated": 7536,
      "##umsy": 7537,
      "##lored": 7538,
      "##being": 7539,
      "clumsy": 7540,
      "typings": 7541,
      "phle": 7542,
      "defining": 7543,
      "couch": 7544,
      "drum": 7545,
      "indul": 7546,
      "decade": 7547,
      "subtype": 7548,
      "surg": 7549,
      "edited": 7550,
      "exceptions": 7551,
      "acceptance": 7552,
      "visiting": 7553,
      "retreat": 7554,
      "idealism": 7555,
      "unfortunate": 7556,
      "magaz": 7557,
      "##exp": 7558,
      "##world": 7559,
      "satisfying": 7560,
      "switched": 7561,
      "jealousy": 7562,
      "##obic": 7563,
      "gathering": 7564,
      "cuddle": 7565,
      "slept": 7566,
      "compatibility": 7567,
      "jungs": 7568,
      "dedicated": 7569,
      "criminal": 7570,
      "psychiatrist": 7571,
      "stumbled": 7572,
      "subscri": 7573,
      "downt": 7574,
      "fest": 7575,
      "nom": 7576,
      "nam": 7577,
      "##names": 7578,
      "##ari": 7579,
      "##uto": 7580,
      "##isc": 7581,
      "lips": 7582,
      "##irst": 7583,
      "faced": 7584,
      "dies": 7585,
      "plastic": 7586,
      "keen": 7587,
      "obtain": 7588,
      "thankfully": 7589,
      "learner": 7590,
      "mates": 7591,
      "monkey": 7592,
      "families": 7593,
      "##eee": 7594,
      "preferably": 7595,
      "dreamer": 7596,
      "dreamed": 7597,
      "##aze": 7598,
      "incap": 7599,
      "judged": 7600,
      "singer": 7601,
      "dominance": 7602,
      "horribly": 7603,
      "practicing": 7604,
      "foods": 7605,
      "bullet": 7606,
      "environmental": 7607,
      "papers": 7608,
      "hypoc": 7609,
      "ambition": 7610,
      "yelling": 7611,
      "equivalent": 7612,
      "concerns": 7613,
      "schedul": 7614,
      "mountains": 7615,
      "outwardly": 7616,
      "features": 7617,
      "anonymous": 7618,
      "halloween": 7619,
      "ay": 7620,
      "ace": 7621,
      "cert": 7622,
      "cities": 7623,
      "fid": 7624,
      "rice": 7625,
      "wra": 7626,
      "##ek": 7627,
      "##fall": 7628,
      "##fuck": 7629,
      "##liness": 7630,
      "##lines": 7631,
      "##gra": 7632,
      "##pop": 7633,
      "theor": 7634,
      "##oration": 7635,
      "##isation": 7636,
      "##ads": 7637,
      "##anth": 7638,
      "##people": 7639,
      "convey": 7640,
      "relatives": 7641,
      "advert": 7642,
      "theirs": 7643,
      "nevermind": 7644,
      "##osing": 7645,
      "overanaly": 7646,
      "meanings": 7647,
      "undergrad": 7648,
      "genetic": 7649,
      "simil": 7650,
      "branch": 7651,
      "flower": 7652,
      "figures": 7653,
      "supernatural": 7654,
      "##ashed": 7655,
      "parrot": 7656,
      "literal": 7657,
      "solved": 7658,
      "projecting": 7659,
      "fixing": 7660,
      "cultures": 7661,
      "device": 7662,
      "beneficial": 7663,
      "satisfaction": 7664,
      "smells": 7665,
      "adventures": 7666,
      "candid": 7667,
      "masturb": 7668,
      "hunter": 7669,
      "introspective": 7670,
      "designed": 7671,
      "##girl": 7672,
      "vegetarian": 7673,
      "browsing": 7674,
      "wheel": 7675,
      "sacrifice": 7676,
      "disregard": 7677,
      "citiz": 7678,
      "42": 7679,
      "bore": 7680,
      "bush": 7681,
      "bachel": 7682,
      "drew": 7683,
      "sab": 7684,
      "##ointing": 7685,
      "##u3000": 7686,
      "##law": 7687,
      "##ded": 7688,
      "##ativity": 7689,
      "##itting": 7690,
      "##orter": 7691,
      "##otional": 7692,
      "rebell": 7693,
      "deem": 7694,
      "actor": 7695,
      "agend": 7696,
      "##osh": 7697,
      "##izar": 7698,
      "##beat": 7699,
      "explicit": 7700,
      "classmates": 7701,
      "cheesy": 7702,
      "##ccer": 7703,
      "racist": 7704,
      "involving": 7705,
      "struggles": 7706,
      "fourth": 7707,
      "sufficient": 7708,
      "central": 7709,
      "explode": 7710,
      "5050": 7711,
      "homes": 7712,
      "clubs": 7713,
      "bloody": 7714,
      "revolution": 7715,
      "stock": 7716,
      "breathing": 7717,
      "folk": 7718,
      "mechanism": 7719,
      "perfectionist": 7720,
      "constructive": 7721,
      "woods": 7722,
      "withdrawn": 7723,
      "intensely": 7724,
      "recipro": 7725,
      "trauma": 7726,
      "execut": 7727,
      "recharge": 7728,
      "hypothetical": 7729,
      "blonde": 7730,
      "inappropriate": 7731,
      "unpredictable": 7732,
      "gorgeous": 7733,
      "traffic": 7734,
      "85": 7735,
      "aust": 7736,
      "fis": 7737,
      "nag": 7738,
      "sid": 7739,
      "tu": 7740,
      "tis": 7741,
      "til": 7742,
      "##xter": 7743,
      "##fr": 7744,
      "##free": 7745,
      "##long": 7746,
      "##ws": 7747,
      "##pd": 7748,
      "seat": 7749,
      "selling": 7750,
      "##oman": 7751,
      "thatd": 7752,
      "##sem": 7753,
      "stro": 7754,
      "stance": 7755,
      "stead": 7756,
      "stages": 7757,
      "atleast": 7758,
      "##urous": 7759,
      "pean": 7760,
      "##acking": 7761,
      "disclaim": 7762,
      "handful": 7763,
      "foundation": 7764,
      "skim": 7765,
      "creator": 7766,
      "incident": 7767,
      "##gyn": 7768,
      "informative": 7769,
      "existed": 7770,
      "##renal": 7771,
      "moody": 7772,
      "noneth": 7773,
      "burden": 7774,
      "odds": 7775,
      "inspiring": 7776,
      "##rooms": 7777,
      "conditions": 7778,
      "vegan": 7779,
      "atheists": 7780,
      "validation": 7781,
      "blend": 7782,
      "passiveag": 7783,
      "confrontation": 7784,
      "essential": 7785,
      "texas": 7786,
      "marketing": 7787,
      "compassionate": 7788,
      "pondering": 7789,
      "voices": 7790,
      "galax": 7791,
      "rigid": 7792,
      "pregnant": 7793,
      "symptoms": 7794,
      "unexpected": 7795,
      "entitled": 7796,
      "monday": 7797,
      "caffeine": 7798,
      "nonetheless": 7799,
      "ahaha": 7800,
      "dab": 7801,
      "ja": 7802,
      "ops": 7803,
      "pix": 7804,
      "vid": 7805,
      "wre": 7806,
      "woo": 7807,
      "zod": 7808,
      "##kk": 7809,
      "##bon": 7810,
      "##uate": 7811,
      "##uely": 7812,
      "##word": 7813,
      "##eline": 7814,
      "##icting": 7815,
      "alarm": 7816,
      "excus": 7817,
      "excl": 7818,
      "chronic": 7819,
      "##uman": 7820,
      "noone": 7821,
      "quart": 7822,
      "plag": 7823,
      "uncon": 7824,
      "##eries": 7825,
      "realization": 7826,
      "illusion": 7827,
      "definately": 7828,
      "consens": 7829,
      "command": 7830,
      "fold": 7831,
      "asshol": 7832,
      "trave": 7833,
      "instances": 7834,
      "submiss": 7835,
      "sket": 7836,
      "nihil": 7837,
      "engaging": 7838,
      "shorts": 7839,
      "amazon": 7840,
      "respected": 7841,
      "##acle": 7842,
      "steal": 7843,
      "placed": 7844,
      "demanding": 7845,
      "extraverts": 7846,
      "astron": 7847,
      "##works": 7848,
      "weekends": 7849,
      "hatred": 7850,
      "dollars": 7851,
      "cartoon": 7852,
      "martial": 7853,
      "minimum": 7854,
      "counselor": 7855,
      "desperately": 7856,
      "flexible": 7857,
      "repeatedly": 7858,
      "imaginative": 7859,
      "impatient": 7860,
      "dilemma": 7861,
      "similarly": 7862,
      "zodiac": 7863,
      "00": 7864,
      "43": 7865,
      "dorm": 7866,
      "hr": 7867,
      "tad": 7868,
      "##lan": 7869,
      "##86": 7870,
      "##40": 7871,
      "##see": 7872,
      "defe": 7873,
      "allerg": 7874,
      "mand": 7875,
      "chain": 7876,
      "conso": 7877,
      "trade": 7878,
      "preach": 7879,
      "tag": 7880,
      "diam": 7881,
      "herm": 7882,
      "adrenal": 7883,
      "##anged": 7884,
      "genetics": 7885,
      "##ode": 7886,
      "brush": 7887,
      "ohh": 7888,
      "hesit": 7889,
      "worded": 7890,
      "trips": 7891,
      "certainty": 7892,
      "eachother": 7893,
      "psycholog": 7894,
      "doub": 7895,
      "roman": 7896,
      "meds": 7897,
      "trusted": 7898,
      "pays": 7899,
      "supporting": 7900,
      "doctors": 7901,
      "traditions": 7902,
      "##rrrr": 7903,
      "billion": 7904,
      "kicked": 7905,
      "improvement": 7906,
      "butterfly": 7907,
      "signed": 7908,
      "principle": 7909,
      "ironically": 7910,
      "companies": 7911,
      "lesb": 7912,
      "ix92m": 7913,
      "##books": 7914,
      "anthrop": 7915,
      "navig": 7916,
      "fundamental": 7917,
      "advocate": 7918,
      "condescending": 7919,
      "august": 7920,
      "##nie": 7921,
      "##cs": 7922,
      "##ration": 7923,
      "##iw": 7924,
      "##sm": 7925,
      "##sed": 7926,
      "##person": 7927,
      "##inal": 7928,
      "##onent": 7929,
      "theater": 7930,
      "##inger": 7931,
      "toss": 7932,
      "##eding": 7933,
      "##otion": 7934,
      "inj": 7935,
      "##aded": 7936,
      "mold": 7937,
      "##irk": 7938,
      "alas": 7939,
      "intx": 7940,
      "heels": 7941,
      "sus": 7942,
      "##ppers": 7943,
      "outdo": 7944,
      "truck": 7945,
      "##umble": 7946,
      "##eah": 7947,
      "dipl": 7948,
      "reader": 7949,
      "##osition": 7950,
      "resort": 7951,
      "spiders": 7952,
      "backwards": 7953,
      "phones": 7954,
      "blush": 7955,
      "thankyou": 7956,
      "trap": 7957,
      "pleased": 7958,
      "seriousness": 7959,
      "##ails": 7960,
      "fucks": 7961,
      "editing": 7962,
      "efficiency": 7963,
      "supervis": 7964,
      "irish": 7965,
      "international": 7966,
      "hmmmm": 7967,
      "mentioning": 7968,
      "speaker": 7969,
      "identifying": 7970,
      "accuracy": 7971,
      "##they": 7972,
      "delay": 7973,
      "slightest": 7974,
      "autumn": 7975,
      "discovery": 7976,
      "empathize": 7977,
      "modest": 7978,
      "demean": 7979,
      "labels": 7980,
      "inspire": 7981,
      "digging": 7982,
      "hehehe": 7983,
      "websites": 7984,
      "route": 7985,
      "percentage": 7986,
      "acknowled": 7987,
      "geek": 7988,
      "desperate": 7989,
      "violin": 7990,
      "divorce": 7991,
      "charismatic": 7992,
      "drove": 7993,
      "misinterpret": 7994,
      "taylor": 7995,
      "aries": 7996,
      "duck": 7997,
      "eag": 7998,
      "echo": 7999,
      "fired": 8000,
      "las": 8001,
      "niet": 8002,
      "ot": 8003,
      "punk": 8004,
      "rick": 8005,
      "tent": 8006,
      "##oken": 8007,
      "##bor": 8008,
      "##met": 8009,
      "##fin": 8010,
      "##dis": 8011,
      "##76": 8012,
      "sect": 8013,
      "##itute": 8014,
      "##omn": 8015,
      "##encing": 8016,
      "reverse": 8017,
      "socks": 8018,
      "soccer": 8019,
      "##aments": 8020,
      "feature": 8021,
      "lovers": 8022,
      "locked": 8023,
      "##inder": 8024,
      "anyones": 8025,
      "##terior": 8026,
      "pref": 8027,
      "precious": 8028,
      "plants": 8029,
      "coast": 8030,
      "offering": 8031,
      "clu": 8032,
      "spill": 8033,
      "obst": 8034,
      "sociable": 8035,
      "remains": 8036,
      "highlight": 8037,
      "selfconscious": 8038,
      "matt": 8039,
      "completed": 8040,
      "marvel": 8041,
      "territ": 8042,
      "laziness": 8043,
      "sleepy": 8044,
      "norms": 8045,
      "difficulties": 8046,
      "burned": 8047,
      "organize": 8048,
      "presentation": 8049,
      "allowing": 8050,
      "reaching": 8051,
      "recommended": 8052,
      "pengu": 8053,
      "clarification": 8054,
      "comforting": 8055,
      "explanations": 8056,
      "square": 8057,
      "albums": 8058,
      "heroes": 8059,
      "orientation": 8060,
      "latin": 8061,
      "superiority": 8062,
      "accomplished": 8063,
      "##yyyyyyyy": 8064,
      "fluent": 8065,
      "clouds": 8066,
      "documentary": 8067,
      "application": 8068,
      "apathetic": 8069,
      "suspicious": 8070,
      "disgusting": 8071,
      "bunny": 8072,
      "bodies": 8073,
      "##organized": 8074,
      "volunteer": 8075,
      "clinical": 8076,
      "ambivert": 8077,
      "license": 8078,
      "script": 8079,
      "reputation": 8080,
      "incapable": 8081,
      "diplom": 8082,
      "lit": 8083,
      "mall": 8084,
      "niss": 8085,
      "ties": 8086,
      "vit": 8087,
      "veh": 8088,
      "##nic": 8089,
      "##cont": 8090,
      "##bot": 8091,
      "##xps": 8092,
      "##fish": 8093,
      "##lers": 8094,
      "##83": 8095,
      "##inent": 8096,
      "toile": 8097,
      "##oral": 8098,
      "wheres": 8099,
      "##etc": 8100,
      "##ader": 8101,
      "##ests": 8102,
      "abn": 8103,
      "comics": 8104,
      "chasing": 8105,
      "##ulate": 8106,
      "##igned": 8107,
      "relie": 8108,
      "somethings": 8109,
      "exposed": 8110,
      "##abilities": 8111,
      "joker": 8112,
      "phd": 8113,
      "##athe": 8114,
      "imper": 8115,
      "##why": 8116,
      "trained": 8117,
      "april": 8118,
      "##shell": 8119,
      "sword": 8120,
      "roommates": 8121,
      "positions": 8122,
      "dominate": 8123,
      "brainstorm": 8124,
      "hitch": 8125,
      "decisive": 8126,
      "textbook": 8127,
      "shyness": 8128,
      "##apping": 8129,
      "tony": 8130,
      "claiming": 8131,
      "scientists": 8132,
      "feminism": 8133,
      "interpersonal": 8134,
      "fuel": 8135,
      "products": 8136,
      "network": 8137,
      "aliens": 8138,
      "midnight": 8139,
      "ambig": 8140,
      "bacon": 8141,
      "categories": 8142,
      "pairing": 8143,
      "##together": 8144,
      "screaming": 8145,
      "mixt": 8146,
      "counseling": 8147,
      "swedish": 8148,
      "hooked": 8149,
      "platonic": 8150,
      "nightmares": 8151,
      "comprehend": 8152,
      "nostalgic": 8153,
      "coincidence": 8154,
      "androgyn": 8155,
      "keirsey": 8156,
      "basketball": 8157,
      "dictionary": 8158,
      "disclaimer": 8159,
      "androgynous": 8160,
      "5s": 8161,
      "asexual": 8162,
      "cro": 8163,
      "cus": 8164,
      "fw": 8165,
      "hors": 8166,
      "iv": 8167,
      "jp": 8168,
      "mary": 8169,
      "nit": 8170,
      "yum": 8171,
      "##ran": 8172,
      "##ials": 8173,
      "##war": 8174,
      "##inator": 8175,
      "##ata": 8176,
      "##itution": 8177,
      "haunt": 8178,
      "liar": 8179,
      "##opes": 8180,
      "##open": 8181,
      "solo": 8182,
      "wealth": 8183,
      "poly": 8184,
      "##gebra": 8185,
      "discer": 8186,
      "##ression": 8187,
      "##agram": 8188,
      "##ours": 8189,
      "scott": 8190,
      "impul": 8191,
      "playlist": 8192,
      "muslim": 8193,
      "triple": 8194,
      "trilogy": 8195,
      "sensation": 8196,
      "wished": 8197,
      "##plan": 8198,
      "glance": 8199,
      "obsc": 8200,
      "signals": 8201,
      "format": 8202,
      "boost": 8203,
      "controvers": 8204,
      "amazed": 8205,
      "worthless": 8206,
      "begins": 8207,
      "delight": 8208,
      "warmth": 8209,
      "treas": 8210,
      "pencil": 8211,
      "dressing": 8212,
      "prince": 8213,
      "johnny": 8214,
      "keyboard": 8215,
      "portion": 8216,
      "denial": 8217,
      "##obia": 8218,
      "minority": 8219,
      "translate": 8220,
      "economy": 8221,
      "vulnerability": 8222,
      "castle": 8223,
      "praise": 8224,
      "dishon": 8225,
      "fulfilling": 8226,
      "authenticity": 8227,
      "absorbed": 8228,
      "disappear": 8229,
      "established": 8230,
      "conventional": 8231,
      "premise": 8232,
      "ordinary": 8233,
      "safety": 8234,
      "charlie": 8235,
      "discipline": 8236,
      "soundtrack": 8237,
      "einstein": 8238,
      "phlegmatic": 8239,
      "ber": 8240,
      "fate": 8241,
      "fried": 8242,
      "horm": 8243,
      "hunch": 8244,
      "kitten": 8245,
      "niti": 8246,
      "nedom": 8247,
      "pitch": 8248,
      "sant": 8249,
      "sno": 8250,
      "##rical": 8251,
      "##rick": 8252,
      "##vation": 8253,
      "##73": 8254,
      "befriend": 8255,
      "lil": 8256,
      "ship": 8257,
      "algebra": 8258,
      "exfp": 8259,
      "dexter": 8260,
      "amused": 8261,
      "##arted": 8262,
      "##geon": 8263,
      "whore": 8264,
      "##rying": 8265,
      "adam": 8266,
      "cliche": 8267,
      "realm": 8268,
      "twitch": 8269,
      "shouldve": 8270,
      "joe": 8271,
      "implement": 8272,
      "bridge": 8273,
      "agreement": 8274,
      "girly": 8275,
      "##ibilities": 8276,
      "craft": 8277,
      "mari": 8278,
      "finn": 8279,
      "boards": 8280,
      "dreamy": 8281,
      "drained": 8282,
      "messing": 8283,
      "##ogam": 8284,
      "animated": 8285,
      "nonf": 8286,
      "motivate": 8287,
      "sticky": 8288,
      "privile": 8289,
      "conflicts": 8290,
      "penis": 8291,
      "century": 8292,
      "quoting": 8293,
      "pupp": 8294,
      "puppy": 8295,
      "surrounding": 8296,
      "donald": 8297,
      "crossed": 8298,
      "emails": 8299,
      "campus": 8300,
      "shooting": 8301,
      "terrifying": 8302,
      "##belie": 8303,
      "integrity": 8304,
      "shrug": 8305,
      "dichotomy": 8306,
      "encouraging": 8307,
      "temporary": 8308,
      "ambitious": 8309,
      "unrealistic": 8310,
      "inaccurate": 8311,
      "reciproc": 8312,
      "clueless": 8313,
      "300": 8314,
      "6s": 8315,
      "ara": 8316,
      "bant": 8317,
      "fif": 8318,
      "pile": 8319,
      "ros": 8320,
      "##kitt": 8321,
      "##kins": 8322,
      "##fu": 8323,
      "##gues": 8324,
      "##pers": 8325,
      "##onal": 8326,
      "##sthe": 8327,
      "bend": 8328,
      "##alys": 8329,
      "deals": 8330,
      "outbur": 8331,
      "noises": 8332,
      "reluct": 8333,
      "##acks": 8334,
      "clip": 8335,
      "grat": 8336,
      "leo": 8337,
      "shoulders": 8338,
      "awe": 8339,
      "thrones": 8340,
      "##isexual": 8341,
      "interestingly": 8342,
      "honor": 8343,
      "laughs": 8344,
      "considerate": 8345,
      "farm": 8346,
      "sla": 8347,
      "carl": 8348,
      "todays": 8349,
      "drivers": 8350,
      "distribut": 8351,
      "swift": 8352,
      "##ternally": 8353,
      "retail": 8354,
      "christians": 8355,
      "anticip": 8356,
      "awkwardness": 8357,
      "##spoken": 8358,
      "treating": 8359,
      "providing": 8360,
      "programs": 8361,
      "eleph": 8362,
      "holmes": 8363,
      "##bye": 8364,
      "audio": 8365,
      "adventurous": 8366,
      "puns": 8367,
      "breathe": 8368,
      "optimism": 8369,
      "resource": 8370,
      "contradictory": 8371,
      "ixtj": 8372,
      "isolation": 8373,
      "nostalgia": 8374,
      "knock": 8375,
      "dumped": 8376,
      "##because": 8377,
      "aid": 8378,
      "ari": 8379,
      "apt": 8380,
      "dwell": 8381,
      "fy": 8382,
      "jar": 8383,
      "kim": 8384,
      "pff": 8385,
      "xp": 8386,
      "york": 8387,
      "##yes": 8388,
      "##hy": 8389,
      "##rion": 8390,
      "##rors": 8391,
      "##made": 8392,
      "##110": 8393,
      "##ploy": 8394,
      "##orph": 8395,
      "beard": 8396,
      "##enance": 8397,
      "inception": 8398,
      "##ione": 8399,
      "reb": 8400,
      "sticks": 8401,
      "##add": 8402,
      "sham": 8403,
      "devi": 8404,
      "##aunt": 8405,
      "champ": 8406,
      "china": 8407,
      "fridge": 8408,
      "plate": 8409,
      "relief": 8410,
      "couldve": 8411,
      "sag": 8412,
      "##uding": 8413,
      "beta": 8414,
      "specially": 8415,
      "underest": 8416,
      "workplace": 8417,
      "##anger": 8418,
      "##ifully": 8419,
      "blur": 8420,
      "sits": 8421,
      "generous": 8422,
      "personalitycafe": 8423,
      "indirect": 8424,
      "selfconf": 8425,
      "mars": 8426,
      "march": 8427,
      "additional": 8428,
      "oneself": 8429,
      "mini": 8430,
      "2010": 8431,
      "visited": 8432,
      "avoidant": 8433,
      "avoidance": 8434,
      "southern": 8435,
      "barb": 8436,
      "provides": 8437,
      "models": 8438,
      "##xxxx": 8439,
      "initiative": 8440,
      "roller": 8441,
      "fuzzy": 8442,
      "diagnosis": 8443,
      "variant": 8444,
      "nailed": 8445,
      "cuddly": 8446,
      "hunting": 8447,
      "pragmatic": 8448,
      "ixtp": 8449,
      "sweden": 8450,
      "contemplating": 8451,
      "assignment": 8452,
      "subconsciously": 8453,
      "rainbows": 8454,
      "concentrate": 8455,
      "apathy": 8456,
      "enemy": 8457,
      "twenty": 8458,
      "admittedly": 8459,
      "rabbit": 8460,
      "theatre": 8461,
      "prejudice": 8462,
      "galaxy": 8463,
      "excuses": 8464,
      "consensus": 8465,
      "assholes": 8466,
      "38": 8467,
      "37": 8468,
      "39": 8469,
      "30s": 8470,
      "ai": 8471,
      "gag": 8472,
      "tank": 8473,
      "##cup": 8474,
      "##fs": 8475,
      "##full": 8476,
      "##good": 8477,
      "##with": 8478,
      "##pal": 8479,
      "##44": 8480,
      "##rene": 8481,
      "##itor": 8482,
      "##itely": 8483,
      "whoops": 8484,
      "hamm": 8485,
      "##ethe": 8486,
      "dod": 8487,
      "##amin": 8488,
      "nec": 8489,
      "debt": 8490,
      "amen": 8491,
      "outlet": 8492,
      "##ussy": 8493,
      "quad": 8494,
      "##ained": 8495,
      "une": 8496,
      "unpleas": 8497,
      "sav": 8498,
      "##osc": 8499,
      "overs": 8500,
      "desert": 8501,
      "leon": 8502,
      "scattered": 8503,
      "rofl": 8504,
      "republic": 8505,
      "boot": 8506,
      "tife": 8507,
      "creature": 8508,
      "misread": 8509,
      "breakdown": 8510,
      "criteria": 8511,
      "boyfriends": 8512,
      "delus": 8513,
      "perceiver": 8514,
      "titles": 8515,
      "impressions": 8516,
      "influences": 8517,
      "narcissist": 8518,
      "crowds": 8519,
      "alternate": 8520,
      "structured": 8521,
      "celebrate": 8522,
      "wandering": 8523,
      "triggered": 8524,
      "tangible": 8525,
      "virtual": 8526,
      "capitalism": 8527,
      "produce": 8528,
      "errors": 8529,
      "ipad": 8530,
      "elder": 8531,
      "refreshing": 8532,
      "dialogue": 8533,
      "precise": 8534,
      "nietzs": 8535,
      "outburst": 8536,
      "57": 8537,
      "bossy": 8538,
      "daw": 8539,
      "eager": 8540,
      "frag": 8541,
      "mouse": 8542,
      "pant": 8543,
      "viv": 8544,
      "wicked": 8545,
      "##roph": 8546,
      "##oons": 8547,
      "##ipped": 8548,
      "##ipping": 8549,
      "##uced": 8550,
      "##qual": 8551,
      "##19": 8552,
      "##va": 8553,
      "ane": 8554,
      "meg": 8555,
      "##ida": 8556,
      "noted": 8557,
      "sof": 8558,
      "shel": 8559,
      "##entious": 8560,
      "##aux": 8561,
      "knowled": 8562,
      "outright": 8563,
      "themes": 8564,
      "overrated": 8565,
      "clown": 8566,
      "worker": 8567,
      "spar": 8568,
      "illeg": 8569,
      "string": 8570,
      "##aki": 8571,
      "downs": 8572,
      "muscle": 8573,
      "##who": 8574,
      "indian": 8575,
      "crushing": 8576,
      "monogam": 8577,
      "headed": 8578,
      "classroom": 8579,
      "boom": 8580,
      "grain": 8581,
      "parks": 8582,
      "##anguine": 8583,
      "redd": 8584,
      "smiley": 8585,
      "bullying": 8586,
      "humorous": 8587,
      "techniques": 8588,
      "##bob": 8589,
      "##commun": 8590,
      "competent": 8591,
      "inspir": 8592,
      "favourites": 8593,
      "homeless": 8594,
      "fantasies": 8595,
      "robin": 8596,
      "educated": 8597,
      "mutually": 8598,
      "significantly": 8599,
      "layers": 8600,
      "floating": 8601,
      "correlate": 8602,
      "costs": 8603,
      "baseball": 8604,
      "cuddling": 8605,
      "settled": 8606,
      "suicidal": 8607,
      "xntj": 8608,
      "fluid": 8609,
      "sooooo": 8610,
      "zombies": 8611,
      "resonate": 8612,
      "laund": 8613,
      "cocky": 8614,
      "gravity": 8615,
      "enemies": 8616,
      "##interesting": 8617,
      "gemini": 8618,
      "compelled": 8619,
      "tiger": 8620,
      "eyebrows": 8621,
      "valentines": 8622,
      "surgery": 8623,
      "mixture": 8624,
      "bars": 8625,
      "batter": 8626,
      "era": 8627,
      "easter": 8628,
      "ft": 8629,
      "ftw": 8630,
      "fidom": 8631,
      "gau": 8632,
      "jell": 8633,
      "ness": 8634,
      "sust": 8635,
      "tread": 8636,
      "yah": 8637,
      "##sa": 8638,
      "##ku": 8639,
      "##bly": 8640,
      "##gic": 8641,
      "##giving": 8642,
      "##oured": 8643,
      "toast": 8644,
      "##lend": 8645,
      "liz": 8646,
      "butth": 8647,
      "station": 8648,
      "shiny": 8649,
      "poker": 8650,
      "nod": 8651,
      "##loved": 8652,
      "overload": 8653,
      "disaster": 8654,
      "##ressing": 8655,
      "##ressive": 8656,
      "##aches": 8657,
      "blues": 8658,
      "##quate": 8659,
      "selfless": 8660,
      "craw": 8661,
      "stopping": 8662,
      "studio": 8663,
      "paste": 8664,
      "angle": 8665,
      "psyched": 8666,
      "swing": 8667,
      "##umpy": 8668,
      "existing": 8669,
      "##aneously": 8670,
      "soulmate": 8671,
      "americans": 8672,
      "handsome": 8673,
      "accounting": 8674,
      "consistency": 8675,
      "portra": 8676,
      "lands": 8677,
      "##field": 8678,
      "##ography": 8679,
      "hahahahaha": 8680,
      "richard": 8681,
      "xnfj": 8682,
      "stimulation": 8683,
      "pillow": 8684,
      "manifests": 8685,
      "deduct": 8686,
      "nickname": 8687,
      "designer": 8688,
      "strictly": 8689,
      "juice": 8690,
      "enlighten": 8691,
      "hunger": 8692,
      "africa": 8693,
      "indifferent": 8694,
      "cigarettes": 8695,
      "racism": 8696,
      "punishment": 8697,
      "agenda": 8698,
      "##kitteh": 8699,
      "68": 8700,
      "bizar": 8701,
      "cue": 8702,
      "dood": 8703,
      "faul": 8704,
      "gall": 8705,
      "ixx": 8706,
      "mes": 8707,
      "mim": 8708,
      "mens": 8709,
      "pis": 8710,
      "pause": 8711,
      "wrap": 8712,
      "##net": 8713,
      "##hr": 8714,
      "##hel": 8715,
      "##tle": 8716,
      "##ugh": 8717,
      "##88": 8718,
      "##45": 8719,
      "thou": 8720,
      "##itating": 8721,
      "##anny": 8722,
      "##ancing": 8723,
      "##ala": 8724,
      "rebel": 8725,
      "##road": 8726,
      "pepper": 8727,
      "conqu": 8728,
      "##eak": 8729,
      "overd": 8730,
      "hier": 8731,
      "##aper": 8732,
      "esxp": 8733,
      "flood": 8734,
      "apoc": 8735,
      "terror": 8736,
      "meme": 8737,
      "painfully": 8738,
      "misle": 8739,
      "informed": 8740,
      "household": 8741,
      "popped": 8742,
      "horrif": 8743,
      "solitude": 8744,
      "organic": 8745,
      "organizing": 8746,
      "positively": 8747,
      "avatars": 8748,
      "uncont": 8749,
      "suffered": 8750,
      "risks": 8751,
      "bills": 8752,
      "##interested": 8753,
      "judgments": 8754,
      "talents": 8755,
      "essays": 8756,
      "grip": 8757,
      "maintaining": 8758,
      "instruments": 8759,
      "blowing": 8760,
      "hipster": 8761,
      "facet": 8762,
      "hints": 8763,
      "inconsist": 8764,
      "flavor": 8765,
      "december": 8766,
      "frozen": 8767,
      "dichotom": 8768,
      "bbc": 8769,
      "neurotic": 8770,
      "perceptions": 8771,
      "january": 8772,
      "destructive": 8773,
      "goddamn": 8774,
      "chapter": 8775,
      "eagle": 8776,
      "unpleasant": 8777,
      "70s": 8778,
      "jay": 8779,
      "kay": 8780,
      "rut": 8781,
      "tld": 8782,
      "upper": 8783,
      "##eous": 8784,
      "##mart": 8785,
      "##32": 8786,
      "toys": 8787,
      "##aria": 8788,
      "##itual": 8789,
      "inxj": 8790,
      "##alid": 8791,
      "lip": 8792,
      "rewatch": 8793,
      "##amine": 8794,
      "healing": 8795,
      "##user": 8796,
      "##istical": 8797,
      "##psy": 8798,
      "arc": 8799,
      "tale": 8800,
      "##have": 8801,
      "hire": 8802,
      "hipp": 8803,
      "acid": 8804,
      "lee": 8805,
      "##angel": 8806,
      "obama": 8807,
      "entrep": 8808,
      "##ceptive": 8809,
      "##ensely": 8810,
      "fiance": 8811,
      "apology": 8812,
      "headphones": 8813,
      "ideally": 8814,
      "carried": 8815,
      "invalid": 8816,
      "borrow": 8817,
      "stays": 8818,
      "##ocra": 8819,
      "2011": 8820,
      "characteristic": 8821,
      "immort": 8822,
      "respectful": 8823,
      "fails": 8824,
      "solitary": 8825,
      "titan": 8826,
      "analyse": 8827,
      "improved": 8828,
      "2000": 8829,
      "kissing": 8830,
      "flirty": 8831,
      "roughly": 8832,
      "##oooooooooooooooo": 8833,
      "enthusiast": 8834,
      "duh": 8835,
      "calculus": 8836,
      "suitable": 8837,
      "predictable": 8838,
      "##break": 8839,
      "legitimate": 8840,
      "bowl": 8841,
      "assignments": 8842,
      "schizoid": 8843,
      "charisma": 8844,
      "abandon": 8845,
      "funniest": 8846,
      "pessimistic": 8847,
      "ineff": 8848,
      "torture": 8849,
      "##respond": 8850,
      "liquid": 8851,
      "squee": 8852,
      "peanut": 8853,
      "laundry": 8854,
      "31": 8855,
      "dor": 8856,
      "dur": 8857,
      "mich": 8858,
      "sanguine": 8859,
      "vod": 8860,
      "wond": 8861,
      "##yl": 8862,
      "##hate": 8863,
      "##bird": 8864,
      "##pie": 8865,
      "thom": 8866,
      "tooth": 8867,
      "##eni": 8868,
      "haw": 8869,
      "##icles": 8870,
      "stores": 8871,
      "wears": 8872,
      "abused": 8873,
      "mail": 8874,
      "pose": 8875,
      "worship": 8876,
      "amuse": 8877,
      "outer": 8878,
      "proving": 8879,
      "enorm": 8880,
      "facing": 8881,
      "arbit": 8882,
      "##abul": 8883,
      "happiest": 8884,
      "underne": 8885,
      "##asses": 8886,
      "desired": 8887,
      "wherever": 8888,
      "ours": 8889,
      "contest": 8890,
      "contract": 8891,
      "agreeing": 8892,
      "decides": 8893,
      "repla": 8894,
      "slap": 8895,
      "listener": 8896,
      "sorted": 8897,
      "drain": 8898,
      "plane": 8899,
      "beautifully": 8900,
      "restrict": 8901,
      "eaten": 8902,
      "skilled": 8903,
      "ruined": 8904,
      "mornings": 8905,
      "##wwww": 8906,
      "filling": 8907,
      "determining": 8908,
      "catching": 8909,
      "shops": 8910,
      "guts": 8911,
      "performing": 8912,
      "occurs": 8913,
      "insults": 8914,
      "perfectionism": 8915,
      "operate": 8916,
      "concentration": 8917,
      "eccentric": 8918,
      "lemon": 8919,
      "eldest": 8920,
      "divorced": 8921,
      "abandoned": 8922,
      "##juana": 8923,
      "gestures": 8924,
      "commercial": 8925,
      "chameleon": 8926,
      "distinguish": 8927,
      "travelling": 8928,
      "doubting": 8929,
      "lesbian": 8930,
      "nietzsche": 8931,
      "knowledg": 8932,
      "bizarre": 8933,
      "arbitr": 8934,
      "underneath": 8935,
      "58": 8936,
      "aura": 8937,
      "cri": 8938,
      "cmon": 8939,
      "dc": 8940,
      "fart": 8941,
      "gah": 8942,
      "lond": 8943,
      "mt": 8944,
      "roy": 8945,
      "sway": 8946,
      "##rant": 8947,
      "##oll": 8948,
      "##iation": 8949,
      "##sor": 8950,
      "##x85": 8951,
      "##die": 8952,
      "##56": 8953,
      "##onents": 8954,
      "##oric": 8955,
      "ing": 8956,
      "lily": 8957,
      "altogether": 8958,
      "yourselves": 8959,
      "canad": 8960,
      "prospect": 8961,
      "##hero": 8962,
      "##igo": 8963,
      "##igma": 8964,
      "tee": 8965,
      "overt": 8966,
      "overre": 8967,
      "wrest": 8968,
      "workout": 8969,
      "hisher": 8970,
      "extensive": 8971,
      "sims": 8972,
      "simult": 8973,
      "players": 8974,
      "couples": 8975,
      "enjoyment": 8976,
      "holly": 8977,
      "survey": 8978,
      "lake": 8979,
      "depri": 8980,
      "standpoint": 8981,
      "paris": 8982,
      "lacks": 8983,
      "pops": 8984,
      "movements": 8985,
      "negativity": 8986,
      "snugg": 8987,
      "cognition": 8988,
      "transition": 8989,
      "organised": 8990,
      "combat": 8991,
      "gradually": 8992,
      "autistic": 8993,
      "improv": 8994,
      "pleasing": 8995,
      "recognized": 8996,
      "tennis": 8997,
      "discou": 8998,
      "discrim": 8999,
      "disappointing": 9000,
      "squir": 9001,
      "interpreted": 9002,
      "stoic": 9003,
      "maintenance": 9004,
      "cycl": 9005,
      "translation": 9006,
      "cousins": 9007,
      "metaphors": 9008,
      "acquaintance": 9009,
      "rambling": 9010,
      "##ritical": 9011,
      "paragraphs": 9012,
      "sanity": 9013,
      "arrange": 9014,
      "innate": 9015,
      "spaces": 9016,
      "assistant": 9017,
      "##yearold": 9018,
      "bastard": 9019,
      "korean": 9020,
      "convenient": 9021,
      "stretch": 9022,
      "architecture": 9023,
      "diamond": 9024,
      "fyi": 9025,
      "hierarch": 9026,
      "uncontroll": 9027,
      "tldr": 9028,
      "ck": 9029,
      "eb": 9030,
      "fite": 9031,
      "gang": 9032,
      "oc": 9033,
      "oooo": 9034,
      "pounds": 9035,
      "##cons": 9036,
      "##corn": 9037,
      "##ias": 9038,
      "##ae": 9039,
      "##ko": 9040,
      "##kill": 9041,
      "##min": 9042,
      "##mar": 9043,
      "##flies": 9044,
      "##post": 9045,
      "##67": 9046,
      "##42": 9047,
      "##ita": 9048,
      "##itudes": 9049,
      "italy": 9050,
      "##uted": 9051,
      "##etically": 9052,
      "mexic": 9053,
      "##thats": 9054,
      "alice": 9055,
      "whatnot": 9056,
      "chips": 9057,
      "trance": 9058,
      "##gee": 9059,
      "usage": 9060,
      "friendz": 9061,
      "covers": 9062,
      "##ago": 9063,
      "pretentious": 9064,
      "grumpy": 9065,
      "understandable": 9066,
      "problematic": 9067,
      "flick": 9068,
      "valued": 9069,
      "drast": 9070,
      "mines": 9071,
      "racing": 9072,
      "focuses": 9073,
      "2012": 9074,
      "patri": 9075,
      "visible": 9076,
      "surprises": 9077,
      "identical": 9078,
      "steve": 9079,
      "tomato": 9080,
      "grandfather": 9081,
      "protagon": 9082,
      "labor": 9083,
      "updated": 9084,
      "naruto": 9085,
      "occurred": 9086,
      "phrases": 9087,
      "automatic": 9088,
      "harmless": 9089,
      "invented": 9090,
      "briefly": 9091,
      "substance": 9092,
      "cheerful": 9093,
      "nurse": 9094,
      "nursing": 9095,
      "luna": 9096,
      "nazi": 9097,
      "neighborhood": 9098,
      "newbie": 9099,
      "hypothesis": 9100,
      "rebellious": 9101,
      "submissive": 9102,
      "toilet": 9103,
      "dishonest": 9104,
      "psychedel": 9105,
      "##ocracy": 9106,
      "5th": 9107,
      "62": 9108,
      "78": 9109,
      "bounce": 9110,
      "cp": 9111,
      "cine": 9112,
      "dirt": 9113,
      "fps": 9114,
      "os": 9115,
      "pad": 9116,
      "sar": 9117,
      "wet": 9118,
      "wound": 9119,
      "yard": 9120,
      "##rous": 9121,
      "##bear": 9122,
      "##bage": 9123,
      "##ford": 9124,
      "##wind": 9125,
      "##part": 9126,
      "toe": 9127,
      "##aroo": 9128,
      "ofc": 9129,
      "##leting": 9130,
      "##ener": 9131,
      "inward": 9132,
      "##isy": 9133,
      "##elines": 9134,
      "stir": 9135,
      "staff": 9136,
      "shares": 9137,
      "externally": 9138,
      "poison": 9139,
      "outlook": 9140,
      "convert": 9141,
      "nove": 9142,
      "relatable": 9143,
      "sheer": 9144,
      "##aste": 9145,
      "compens": 9146,
      "coord": 9147,
      "scot": 9148,
      "scroll": 9149,
      "throws": 9150,
      "extp": 9151,
      "apples": 9152,
      "remot": 9153,
      "##ivated": 9154,
      "flesh": 9155,
      "questioned": 9156,
      "##oster": 9157,
      "criti": 9158,
      "selfaware": 9159,
      "musicians": 9160,
      "handling": 9161,
      "hopeful": 9162,
      "correspond": 9163,
      "minus": 9164,
      "breed": 9165,
      "meetup": 9166,
      "countless": 9167,
      "meditate": 9168,
      "formed": 9169,
      "director": 9170,
      "prescri": 9171,
      "parall": 9172,
      "damned": 9173,
      "majoring": 9174,
      "##bbing": 9175,
      "avoided": 9176,
      "necessity": 9177,
[...]
