{
  "version": "1.0",
  "truncation": null,
  "padding": null,
  "added_tokens": [
    {
      "id": 0,
      "content": "__url__",
      "single_word": false,
      "lstrip": false,
      "rstrip": false,
      "normalized": false,
      "special": true
    },
    {
      "id": 1,
      "content": "__sep__",
      "single_word": false,
      "lstrip": false,
      "rstrip": false,
      "normalized": false,
      "special": true
    },
    {
      "id": 2,
      "content": "__tar__",
      "single_word": false,
      "lstrip": false,
      "rstrip": false,
      "normalized": false,
      "special": true
    }
  ],
  "normalizer": {
    "type": "BertNormalizer",
    "clean_text": true,
    "handle_chinese_chars": true,
    "strip_accents": null,
    "lowercase": true
  },
  "pre_tokenizer": {
    "type": "BertPreTokenizer"
  },
  "post_processor": null,
  "decoder": null,
  "model": {
    "type": "WordPiece",
    "unk_token": "__unk__",
    "continuing_subword_prefix": "##",
    "max_input_chars_per_word": 100,
    "vocab": {
      "__url__": 0,
      "__sep__": 1,
      "__tar__": 2,
      "!": 3,
      "#": 4,
      "$": 5,
      "%": 6,
      "&": 7,
      "'": 8,
      "(": 9,
      ")": 10,
      "*": 11,
      "+": 12,
      ",": 13,
      "-": 14,
      ".": 15,
      "/": 16,
      "0": 17,
      "1": 18,
      "2": 19,
      "3": 20,
      "4": 21,
      "5": 22,
      "6": 23,
      "7": 24,
      "8": 25,
      "9": 26,
      ":": 27,
      ";": 28,
      "<": 29,
      "=": 30,
      ">": 31,
      "?": 32,
      "@": 33,
      "[": 34,
      "]": 35,
      "^": 36,
      "_": 37,
      "`": 38,
      "a": 39,
      "b": 40,
      "c": 41,
      "d": 42,
      "e": 43,
      "f": 44,
      "g": 45,
      "h": 46,
      "i": 47,
      "j": 48,
      "k": 49,
      "l": 50,
      "m": 51,
      "n": 52,
      "o": 53,
      "p": 54,
      "q": 55,
      "r": 56,
      "s": 57,
      "t": 58,
      "u": 59,
      "v": 60,
      "w": 61,
      "x": 62,
      "y": 63,
      "z": 64,
      "{": 65,
      "|": 66,
      "}": 67,
      "~": 68,
      "¡": 69,
      "¢": 70,
      "£": 71,
      "¤": 72,
      "§": 73,
      "¨": 74,
      "©": 75,
      "«": 76,
      "¬": 77,
      "®": 78,
      "¯": 79,
      "°": 80,
      "²": 81,
      "³": 82,
      "´": 83,
      "µ": 84,
      "¶": 85,
      "·": 86,
      "¸": 87,
      "¹": 88,
      "º": 89,
      "»": 90,
      "½": 91,
      "¾": 92,
      "¿": 93,
      "×": 94,
      "ß": 95,
      "æ": 96,
      "ð": 97,
      "÷": 98,
      "ø": 99,
      "þ": 100,
      "đ": 101,
      "ı": 102,
      "ł": 103,
      "œ": 104,
      "ǝ": 105,
      "ɐ": 106,
      "ɔ": 107,
      "ə": 108,
      "ɛ": 109,
      "ɟ": 110,
      "ɥ": 111,
      "ɪ": 112,
      "ɯ": 113,
      "ɹ": 114,
      "ʇ": 115,
      "ʌ": 116,
      "ʍ": 117,
      "ʎ": 118,
      "ʒ": 119,
      "ʖ": 120,
      "˂": 121,
      "˃": 122,
      "ˆ": 123,
      "ˈ": 124,
      "ˌ": 125,
      "ː": 126,
      "˘": 127,
      "˙": 128,
      "˝": 129,
      "˶": 130,
      "α": 131,
      "β": 132,
      "γ": 133,
      "δ": 134,
      "ε": 135,
      "η": 136,
      "θ": 137,
      "ι": 138,
      "κ": 139,
      "λ": 140,
      "μ": 141,
      "ν": 142,
      "ξ": 143,
      "ο": 144,
      "π": 145,
      "ρ": 146,
      "ς": 147,
      "σ": 148,
      "τ": 149,
      "υ": 150,
      "φ": 151,
      "ψ": 152,
      "ω": 153,
      "а": 154,
      "б": 155,
      "в": 156,
      "г": 157,
      "д": 158,
      "е": 159,
      "ж": 160,
      "з": 161,
      "и": 162,
      "к": 163,
      "л": 164,
      "м": 165,
      "н": 166,
      "о": 167,
      "п": 168,
      "р": 169,
      "с": 170,
      "т": 171,
      "у": 172,
      "ф": 173,
      "х": 174,
      "ц": 175,
      "ч": 176,
      "ш": 177,
      "щ": 178,
      "ъ": 179,
      "ы": 180,
      "ь": 181,
      "э": 182,
      "ю": 183,
      "я": 184,
      "ћ": 185,
      "҉": 186,
      "א": 187,
      "ב": 188,
      "ג": 189,
      "ד": 190,
      "ה": 191,
      "ו": 192,
      "ז": 193,
      "ח": 194,
      "י": 195,
      "ך": 196,
      "ל": 197,
      "ם": 198,
      "מ": 199,
      "ן": 200,
      "נ": 201,
      "ס": 202,
      "ע": 203,
      "פ": 204,
      "ץ": 205,
      "ר": 206,
      "ש": 207,
      "ת": 208,
      "؟": 209,
      "ا": 210,
      "ب": 211,
      "ت": 212,
      "ث": 213,
      "ح": 214,
      "د": 215,
      "ر": 216,
      "ز": 217,
      "س": 218,
      "ش": 219,
      "ظ": 220,
      "ع": 221,
      "غ": 222,
      "ف": 223,
      "ق": 224,
      "ك": 225,
      "ل": 226,
      "م": 227,
      "ن": 228,
      "ه": 229,
      "و": 230,
      "ي": 231,
      "٩": 232,
      "ک": 233,
      "گ": 234,
      "ی": 235,
      "۶": 236,
      "ः": 237,
      "त": 238,
      "म": 239,
      "र": 240,
      "ि": 241,
      "ஐ": 242,
      "௰": 243,
      "ಠ": 244,
      "ಡ": 245,
      "ಥ": 246,
      "ರ": 247,
      "ೃ": 248,
      "ฅ": 249,
      "ง": 250,
      "๑": 251,
      "ლ": 252,
      "ღ": 253,
      "ᄂ": 254,
      "ᄉ": 255,
      "ᄊ": 256,
      "ᄋ": 257,
      "ᄌ": 258,
      "ᄒ": 259,
      "ᅡ": 260,
      "ᅢ": 261,
      "ᅥ": 262,
      "ᅦ": 263,
      "ᅧ": 264,
      "ᅭ": 265,
      "ᅲ": 266,
      "ᅵ": 267,
      "ᆨ": 268,
      "ᆫ": 269,
      "ᆺ": 270,
      "ᆼ": 271,
      "ᴗ": 272,
      "–": 273,
      "—": 274,
      "―": 275,
      "‘": 276,
      "’": 277,
      "‚": 278,
      "“": 279,
      "”": 280,
      "„": 281,
      "•": 282,
      "…": 283,
      "′": 284,
      "‽": 285,
      "‿": 286,
      "⁎": 287,
      "₪": 288,
      "€": 289,
      "™": 290,
      "↑": 291,
      "→": 292,
      "∀": 293,
      "∇": 294,
      "∈": 295,
      "−": 296,
      "∙": 297,
      "√": 298,
      "∞": 299,
      "≈": 300,
      "≡": 301,
      "≥": 302,
      "≦": 303,
      "≧": 304,
      "⊃": 305,
      "⊙": 306,
      "⋆": 307,
      "⌒": 308,
      "⌣": 309,
      "─": 310,
      "━": 311,
      "┬": 312,
      "┻": 313,
      "╥": 314,
      "╬": 315,
      "╯": 316,
      "■": 317,
      "□": 318,
      "▬": 319,
      "△": 320,
      "▽": 321,
      "◇": 322,
      "●": 323,
      "◔": 324,
      "◕": 325,
      "◞": 326,
      "◠": 327,
      "◡": 328,
      "☂": 329,
      "★": 330,
      "☆": 331,
      "☺": 332,
      "☼": 333,
      "♉": 334,
      "♡": 335,
      "♢": 336,
      "♤": 337,
      "♥": 338,
      "♧": 339,
      "♪": 340,
      "♫": 341,
      "♬": 342,
      "✌": 343,
      "✍": 344,
      "✓": 345,
      "✔": 346,
      "✝": 347,
      "✧": 348,
      "✨": 349,
      "✿": 350,
      "❤": 351,
      "⸮": 352,
      "、": 353,
      "。": 354,
      "》": 355,
      "あ": 356,
      "い": 357,
      "う": 358,
      "え": 359,
      "お": 360,
      "か": 361,
      "き": 362,
      "く": 363,
      "こ": 364,
      "さ": 365,
      "し": 366,
      "す": 367,
      "せ": 368,
      "そ": 369,
      "た": 370,
      "ち": 371,
      "っ": 372,
      "つ": 373,
      "て": 374,
      "と": 375,
      "な": 376,
      "に": 377,
      "ね": 378,
      "の": 379,
      "は": 380,
      "ほ": 381,
      "ま": 382,
      "め": 383,
      "も": 384,
      "ゃ": 385,
      "や": 386,
      "よ": 387,
      "ら": 388,
      "り": 389,
      "る": 390,
      "れ": 391,
      "ろ": 392,
      "わ": 393,
      "を": 394,
      "ん": 395,
      "゜": 396,
      "ア": 397,
      "イ": 398,
      "ク": 399,
      "サ": 400,
      "シ": 401,
      "タ": 402,
      "ッ": 403,
      "ツ": 404,
      "ト": 405,
      "ニ": 406,
      "ノ": 407,
      "ミ": 408,
      "メ": 409,
      "モ": 410,
      "ュ": 411,
      "ラ": 412,
      "レ": 413,
      "ヮ": 414,
      "ワ": 415,
      "ン": 416,
      "・": 417,
      "ー": 418,
      "ヽ": 419,
      "ㅿ": 420,
      "一": 421,
      "上": 422,
      "不": 423,
      "中": 424,
      "之": 425,
      "习": 426,
      "了": 427,
      "事": 428,
      "人": 429,
      "仙": 430,
      "会": 431,
      "但": 432,
      "你": 433,
      "光": 434,
      "全": 435,
      "兴": 436,
      "冬": 437,
      "刀": 438,
      "到": 439,
      "勇": 440,
      "吉": 441,
      "同": 442,
      "吗": 443,
      "呢": 444,
      "喜": 445,
      "四": 446,
      "因": 447,
      "国": 448,
      "地": 449,
      "夜": 450,
      "夢": 451,
      "大": 452,
      "天": 453,
      "太": 454,
      "头": 455,
      "好": 456,
      "如": 457,
      "学": 458,
      "安": 459,
      "実": 460,
      "容": 461,
      "小": 462,
      "待": 463,
      "很": 464,
      "我": 465,
      "抜": 466,
      "掌": 467,
      "文": 468,
      "斎": 469,
      "斬": 470,
      "新": 471,
      "方": 472,
      "日": 473,
      "明": 474,
      "易": 475,
      "是": 476,
      "智": 477,
      "暗": 478,
      "望": 479,
      "本": 480,
      "柳": 481,
      "欢": 482,
      "気": 483,
      "汉": 484,
      "漫": 485,
      "為": 486,
      "然": 487,
      "爱": 488,
      "狼": 489,
      "王": 490,
      "白": 491,
      "的": 492,
      "益": 493,
      "眼": 494,
      "祥": 495,
      "私": 496,
      "組": 497,
      "美": 498,
      "聖": 499,
      "花": 500,
      "英": 501,
      "菀": 502,
      "見": 503,
      "語": 504,
      "语": 505,
      "说": 506,
      "迎": 507,
      "返": 508,
      "違": 509,
      "選": 510,
      "都": 511,
      "野": 512,
      "陰": 513,
      "陽": 514,
      "雪": 515,
      "馬": 516,
      "高": 517,
      "龍": 518,
      "︵": 519,
      "﹏": 520,
      "！": 521,
      "％": 522,
      "＇": 523,
      "（": 524,
      "）": 525,
      "＊": 526,
      "，": 527,
      "－": 528,
      "０": 529,
      "１": 530,
      "：": 531,
      "；": 532,
      "？": 533,
      "＠": 534,
      "｀": 535,
      "ａ": 536,
      "ｂ": 537,
      "ｃ": 538,
      "ｄ": 539,
      "ｅ": 540,
      "ｆ": 541,
      "ｇ": 542,
      "ｈ": 543,
      "ｉ": 544,
      "ｋ": 545,
      "ｌ": 546,
      "ｍ": 547,
      "ｎ": 548,
      "ｏ": 549,
      "ｐ": 550,
      "ｒ": 551,
      "ｓ": 552,
      "ｔ": 553,
      "ｕ": 554,
      "ｖ": 555,
      "ｗ": 556,
      "ｘ": 557,
      "ｙ": 558,
      "｡": 559,
      "･": 560,
      "ｧ": 561,
      "ｩ": 562,
      "ｫ": 563,
      "ｬ": 564,
      "ｼ": 565,
      "ﾉ": 566,
      "ﾞ": 567,
      "ﾟ": 568,
      "￣": 569,
      "🌹": 570,
      "🍄": 571,
      "🏼": 572,
      "👈": 573,
      "👋": 574,
      "👌": 575,
      "👍": 576,
      "👏": 577,
      "💎": 578,
      "💓": 579,
      "💖": 580,
      "💛": 581,
      "🔥": 582,
      "😀": 583,
      "😁": 584,
      "😂": 585,
      "😃": 586,
      "😄": 587,
      "😅": 588,
      "😆": 589,
      "😇": 590,
      "😉": 591,
      "😊": 592,
      "😋": 593,
      "😌": 594,
      "😍": 595,
      "😎": 596,
      "😏": 597,
      "😐": 598,
      "😓": 599,
      "😕": 600,
      "😘": 601,
      "😜": 602,
      "😝": 603,
      "😞": 604,
      "😡": 605,
      "😢": 606,
      "😣": 607,
      "😧": 608,
      "😫": 609,
      "😬": 610,
      "😮": 611,
      "😱": 612,
      "😳": 613,
      "😴": 614,
      "😺": 615,
      "🙋": 616,
      "🤓": 617,
      "🤔": 618,
      "🤗": 619,
      "🦄": 620,
      "##e": 621,
      "##b": 622,
      "##o": 623,
      "##p": 624,
      "##m": 625,
      "##u": 626,
      "##a": 627,
      "##l": 628,
      "##r": 629,
      "##i": 630,
      "##s": 631,
      "##t": 632,
      "##c": 633,
      "##k": 634,
      "##d": 635,
      "##h": 636,
      "##n": 637,
      "##f": 638,
      "##g": 639,
      "##q": 640,
      "##v": 641,
      "##w": 642,
      "##z": 643,
      "##y": 644,
      "##j": 645,
      "##4": 646,
      "##1": 647,
      "##5": 648,
      "##3": 649,
      "##8": 650,
      "##6": 651,
      "##あ": 652,
      "##い": 653,
      "##や": 654,
      "##0": 655,
      "##2": 656,
      "##x": 657,
      "##7": 658,
      "##9": 659,
      "##ß": 660,
      "##ɹ": 661,
      "##ɔ": 662,
      "##ǝ": 663,
      "##ı": 664,
      "##ﾟ": 665,
      "##و": 666,
      "##√": 667,
      "##÷": 668,
      "##˝": 669,
      "##о": 670,
      "##л": 671,
      "##у": 672,
      "##б": 673,
      "##и": 674,
      "##¯": 675,
      "##😄": 676,
      "##さ": 677,
      "##ﾞ": 678,
      "##€": 679,
      "##½": 680,
      "##ɟ": 681,
      "##ן": 682,
      "##ə": 683,
      "##ː": 684,
      "##ʒ": 685,
      "##ɪ": 686,
      "##ˌ": 687,
      "##ظ": 688,
      "##º": 689,
      "##ν": 690,
      "##か": 691,
      "##た": 692,
      "##な": 693,
      "##™": 694,
      "##ɥ": 695,
      "##゜": 696,
      "##🤗": 697,
      "##°": 698,
      "##ᅡ": 699,
      "##ᆫ": 700,
      "##ᄂ": 701,
      "##ᅧ": 702,
      "##ᆼ": 703,
      "##ᄒ": 704,
      "##ᄉ": 705,
      "##ᅦ": 706,
      "##ᄋ": 707,
      "##ᅭ": 708,
      "##µ": 709,
      "##´": 710,
      "##ೃ": 711,
      "##△": 712,
      "##◠": 713,
      "##✿": 714,
      "##ه": 715,
      "##¢": 716,
      "##─": 717,
      "##┬": 718,
      "##ノ": 719,
      "##◡": 720,
      "##◔": 721,
      "##￣": 722,
      "##£": 723,
      "##れ": 724,
      "##ら": 725,
      "##ا": 726,
      "##ل": 727,
      "##ك": 728,
      "##ø": 729,
      "##◕": 730,
      "##τ": 731,
      "##ι": 732,
      "##ʇ": 733,
      "##🤔": 734,
      "##œ": 735,
      "##ð": 736,
      "##¸": 737,
      "##¾": 738,
      "##²": 739,
      "##ω": 740,
      "##с": 741,
      "##к": 742,
      "##х": 743,
      "##ｓ": 744,
      "##ｙ": 745,
      "##♪": 746,
      "##♥": 747,
      "##👈": 748,
      "##е": 749,
      "##м": 750,
      "##ы": 751,
      "##н": 752,
      "##з": 753,
      "##α": 754,
      "##θ": 755,
      "##ε": 756,
      "##σ": 757,
      "##μ": 758,
      "##η": 759,
      "##ł": 760,
      "##י": 761,
      "##א": 762,
      "##ח": 763,
      "##ז": 764,
      "##こ": 765,
      "##と": 766,
      "##し": 767,
      "##ま": 768,
      "##せ": 769,
      "##ん": 770,
      "##て": 771,
      "##ヮ": 772,
      "##מ": 773,
      "##ו": 774,
      "##ר": 775,
      "##ך": 776,
      "##¨": 777,
      "##ゃ": 778,
      "##❤": 779,
      "##ב": 780,
      "##ל": 781,
      "##０": 782,
      "##р": 783,
      "##а": 784,
      "##ч": 785,
      "##т": 786,
      "##ћ": 787,
      "##₪": 788,
      "##ｄ": 789,
      "##😊": 790,
      "##в": 791,
      "##⊙": 792,
      "##ˈ": 793,
      "##り": 794,
      "##う": 795,
      "##す": 796,
      "##ト": 797,
      "##レ": 798,
      "##ー": 799,
      "##ニ": 800,
      "##д": 801,
      "##щ": 802,
      "##👏": 803,
      "##æ": 804,
      "##ｕ": 805,
      "##ｎ": 806,
      "##≥": 807,
      "##😱": 808,
      "##υ": 809,
      "##ψ": 810,
      "##め": 811,
      "##ʌ": 812,
      "##👍": 813,
      "##®": 814,
      "##わ": 815,
      "##に": 816,
      "##♢": 817,
      "##😫": 818,
      "##ᅲ": 819,
      "##ᄌ": 820,
      "##ᅢ": 821,
      "##ᅥ": 822,
      "##ᆨ": 823,
      "##נ": 824,
      "##よ": 825,
      "##ｒ": 826,
      "##ｍ": 827,
      "##ｐ": 828,
      "##ｉ": 829,
      "##ａ": 830,
      "##ｅ": 831,
      "##ｔ": 832,
      "##😂": 833,
      "##ち": 834,
      "##そ": 835,
      "##ろ": 836,
      "##く": 837,
      "##★": 838,
      "##☆": 839,
      "##▽": 840,
      "##¬": 841,
      "##😣": 842,
      "##😕": 843,
      "##♡": 844,
      "##π": 845,
      "##ｃ": 846,
      "##ｈ": 847,
      "##δ": 848,
      "##ɐ": 849,
      "##ש": 850,
      "##ˆ": 851,
      "##😌": 852,
      "##😜": 853,
      "##ｂ": 854,
      "##ｋ": 855,
      "##😁": 856,
      "##◇": 857,
      "##ک": 858,
      "##ｏ": 859,
      "##ｗ": 860,
      "##ｖ": 861,
      "##■": 862,
      "##☼": 863,
      "##ю": 864,
      "##ж": 865,
      "##♧": 866,
      "##♤": 867,
      "##م": 868,
      "##ی": 869,
      "##د": 870,
      "##گ": 871,
      "##ر": 872,
      "##｀": 873,
      "##∀": 874,
      "##ن": 875,
      "##□": 876,
      "##≦": 877,
      "##غ": 878,
      "##ಥ": 879,
      "##ц": 880,
      "##ʍ": 881,
      "##ｆ": 882,
      "##☺": 883,
      "##ア": 884,
      "##メ": 885,
      "##を": 886,
      "##♫": 887,
      "##г": 888,
      "##ｌ": 889,
      "##ｇ": 890,
      "##ز": 891,
      "##³": 892,
      "##ת": 893,
      "##ح": 894,
      "##ب": 895,
      "##😧": 896,
      "##😎": 897,
      "##ο": 898,
      "##γ": 899,
      "##ρ": 900,
      "##φ": 901,
      "##¹": 902,
      "##κ": 903,
      "##ς": 904,
      "##き": 905,
      "##つ": 906,
      "##る": 907,
      "##ほ": 908,
      "##は": 909,
      "##س": 910,
      "##ت": 911,
      "##ъ": 912,
      "##ג": 913,
      "##モ": 914,
      "##ン": 915,
      "##の": 916,
      "##ם": 917,
      "##ᆺ": 918,
      "##˂": 919,
      "##ლ": 920,
      "##⌒": 921,
      "##ワ": 922,
      "##ラ": 923,
      "##✧": 924,
      "##🔥": 925,
      "##も": 926,
      "##タ": 927,
      "##イ": 928,
      "##ي": 929,
      "##ف": 930,
      "##ס": 931,
      "##ע": 932,
      "##п": 933,
      "##∇": 934,
      "##ｼ": 935,
      "##ד": 936,
      "##ה": 937,
      "##⊃": 938,
      "##ಡ": 939,
      "##😳": 940,
      "##ｫ": 941,
      "##ｬ": 942,
      "##ｩ": 943,
      "##ｧ": 944,
      "##¤": 945,
      "##ㅿ": 946,
      "##👌": 947,
      "##━": 948,
      "##┻": 949,
      "##ᄊ": 950,
      "##ᅵ": 951,
      "##ﾉ": 952,
      "##˘": 953,
      "##⌣": 954,
      "##ღ": 955,
      "##🏼": 956,
      "##✨": 957,
      "##˙": 958,
      "##😢": 959,
      "##र": 960,
      "##ि": 961,
      "##म": 962,
      "##त": 963,
      "##ः": 964,
      "##פ": 965,
      "##ץ": 966,
      "##😅": 967,
      "##💓": 968,
      "##β": 969,
      "##ɯ": 970,
      "##҉": 971,
      "##ュ": 972,
      "##シ": 973,
      "##ッ": 974,
      "##ク": 975,
      "##ɛ": 976,
      "##≡": 977,
      "##ь": 978,
      "##λ": 979,
      "##ش": 980,
      "##ф": 981,
      "##😞": 982,
      "##ｘ": 983,
      "##ث": 984,
      "##え": 985,
      "th": 986,
      "##in": 987,
      "##er": 988,
      "##ou": 989,
      "se": 990,
      "##at": 991,
      "##on": 992,
      "the": 993,
      "##ing": 994,
      "sep": 995,
      "##nd": 996,
      "to": 997,
      "##es": 998,
      "##re": 999,
      "##ar": 1000,
      "##en": 1001,
      "##al": 1002,
      "##it": 1003,
      "##or": 1004,
      "##an": 1005,
      "##ly": 1006,
      "you": 1007,
      "and": 1008,
      "in": 1009,
      "##st": 1010,
      "##ed": 1011,
      "##om": 1012,
      "of": 1013,
      "be": 1014,
      "it": 1015,
      "wh": 1016,
      "##ve": 1017,
      "##ot": 1018,
      "##le": 1019,
      "##el": 1020,
      "##ut": 1021,
      "ha": 1022,
      "that": 1023,
      "##is": 1024,
      "is": 1025,
      "##ic": 1026,
      "##ow": 1027,
      "my": 1028,
      "re": 1029,
      "##ion": 1030,
      "##ay": 1031,
      "on": 1032,
      "##as": 1033,
      "##et": 1034,
      "an": 1035,
      "li": 1036,
      "##ke": 1037,
      "me": 1038,
      "for": 1039,
      "##gh": 1040,
      "al": 1041,
      "##se": 1042,
      "##ct": 1043,
      "tar": 1044,
      "##ver": 1045,
      "##ld": 1046,
      "##ith": 1047,
      "but": 1048,
      "##ally": 1049,
      "st": 1050,
      "with": 1051,
      "##id": 1052,
      "##im": 1053,
      "##ch": 1054,
      "##oo": 1055,
      "##ent": 1056,
      "have": 1057,
      "not": 1058,
      "##ad": 1059,
      "do": 1060,
      "as": 1061,
      "##il": 1062,
      "som": 1063,
      "##ere": 1064,
      "so": 1065,
      "##op": 1066,
      "this": 1067,
      "are": 1068,
      "##th": 1069,
      "like": 1070,
      "mo": 1071,
      "##ce": 1072,
      "##ri": 1073,
      "##ust": 1074,
      "##ould": 1075,
      "##ink": 1076,
      "##est": 1077,
      "ab": 1078,
      "##ir": 1079,
      "sh": 1080,
      "##am": 1081,
      "was": 1082,
      "##ess": 1083,
      "##ers": 1084,
      "fe": 1085,
      "int": 1086,
      "think": 1087,
      "##ro": 1088,
      "he": 1089,
      "don": 1090,
      "or": 1091,
      "what": 1092,
      "##out": 1093,
      "##ght": 1094,
      "can": 1095,
      "##pe": 1096,
      "just": 1097,
      "if": 1098,
      "ne": 1099,
      "ex": 1100,
      "at": 1101,
      "we": 1102,
      "##ur": 1103,
      "your": 1104,
      "##ant": 1105,
      "pe": 1106,
      "de": 1107,
      "about": 1108,
      "some": 1109,
      "peop": 1110,
      "people": 1111,
      "##ell": 1112,
      "##ul": 1113,
      "when": 1114,
      "su": 1115,
      "con": 1116,
      "kn": 1117,
      "lo": 1118,
      "##ation": 1119,
      "##ate": 1120,
      "##one": 1121,
      "com": 1122,
      "##au": 1123,
      "##ind": 1124,
      "know": 1125,
      "all": 1126,
      "##ra": 1127,
      "they": 1128,
      "##ill": 1129,
      "##end": 1130,
      "ch": 1131,
      "##ck": 1132,
      "po": 1133,
      "wor": 1134,
      "would": 1135,
      "am": 1136,
      "ma": 1137,
      "get": 1138,
      "##ive": 1139,
      "feel": 1140,
      "see": 1141,
      "##pp": 1142,
      "go": 1143,
      "one": 1144,
      "any": 1145,
      "how": 1146,
      "fr": 1147,
      "bec": 1148,
      "##un": 1149,
      "out": 1150,
      "en": 1151,
      "tr": 1152,
      "##ight": 1153,
      "really": 1154,
      "more": 1155,
      "##us": 1156,
      "thing": 1157,
      "ve": 1158,
      "tim": 1159,
      "##ough": 1160,
      "##art": 1161,
      "##ol": 1162,
      "##ause": 1163,
      "##ge": 1164,
      "than": 1165,
      "##ff": 1166,
      "##um": 1167,
      "there": 1168,
      "ever": 1169,
      "##ong": 1170,
      "##ci": 1171,
      "##ter": 1172,
      "pro": 1173,
      "##ble": 1174,
      "##ea": 1175,
      "##king": 1176,
      "because": 1177,
      "us": 1178,
      "from": 1179,
      "up": 1180,
      "##ood": 1181,
      "somet": 1182,
      "oth": 1183,
      "who": 1184,
      "ur": 1185,
      "ty": 1186,
      "##ity": 1187,
      "no": 1188,
      "pers": 1189,
      "##ite": 1190,
      "url": 1191,
      "qu": 1192,
      "##ound": 1193,
      "##ist": 1194,
      "##riend": 1195,
      "##ery": 1196,
      "##ays": 1197,
      "them": 1198,
      "time": 1199,
      "##hing": 1200,
      "##ous": 1201,
      "##her": 1202,
      "##ain": 1203,
      "person": 1204,
      "##ven": 1205,
      "##ard": 1206,
      "want": 1207,
      "very": 1208,
      "##sel": 1209,
      "too": 1210,
      "##are": 1211,
      "un": 1212,
      "##ps": 1213,
      "##and": 1214,
      "##ear": 1215,
      "say": 1216,
      "friend": 1217,
      "fa": 1218,
      "##ually": 1219,
      "##ie": 1220,
      "##ig": 1221,
      "mu": 1222,
      "every": 1223,
      "##ame": 1224,
      "well": 1225,
      "much": 1226,
      "being": 1227,
      "pre": 1228,
      "##self": 1229,
      "most": 1230,
      "act": 1231,
      "gu": 1232,
      "ar": 1233,
      "##fe": 1234,
      "ag": 1235,
      "love": 1236,
      "other": 1237,
      "##ions": 1238,
      "##ort": 1239,
      "pl": 1240,
      "been": 1241,
      "by": 1242,
      "ta": 1243,
      "##ks": 1244,
      "di": 1245,
      "inter": 1246,
      "she": 1247,
      "good": 1248,
      "rel": 1249,
      "im": 1250,
      "##ore": 1251,
      "##ue": 1252,
      "things": 1253,
      "will": 1254,
      "##all": 1255,
      "cl": 1256,
      "##nt": 1257,
      "##so": 1258,
      "##ure": 1259,
      "man": 1260,
      "way": 1261,
      "did": 1262,
      "something": 1263,
      "had": 1264,
      "##pt": 1265,
      "##ine": 1266,
      "##ha": 1267,
      "##ack": 1268,
      "##ies": 1269,
      "only": 1270,
      "##ry": 1271,
      "lot": 1272,
      "exp": 1273,
      "also": 1274,
      "##ence": 1275,
      "has": 1276,
      "##ose": 1277,
      "then": 1278,
      "##ab": 1279,
      "does": 1280,
      "##ways": 1281,
      "now": 1282,
      "loo": 1283,
      "##os": 1284,
      "could": 1285,
      "##eri": 1286,
      "##ep": 1287,
      "##ast": 1288,
      "may": 1289,
      "even": 1290,
      "here": 1291,
      "##ice": 1292,
      "##ty": 1293,
      "sa": 1294,
      "type": 1295,
      "##ving": 1296,
      "comp": 1297,
      "always": 1298,
      "try": 1299,
      "##ations": 1300,
      "##em": 1301,
      "ad": 1302,
      "her": 1303,
      "someone": 1304,
      "##ud": 1305,
      "##ome": 1306,
      "make": 1307,
      "read": 1308,
      "##ide": 1309,
      "find": 1310,
      "fun": 1311,
      "##act": 1312,
      "##read": 1313,
      "##ought": 1314,
      "##thing": 1315,
      "seem": 1316,
      "##ree": 1317,
      "sp": 1318,
      "##nder": 1319,
      "why": 1320,
      "never": 1321,
      "life": 1322,
      "need": 1323,
      "em": 1324,
      "myself": 1325,
      "happ": 1326,
      "their": 1327,
      "##ich": 1328,
      "##iz": 1329,
      "tal": 1330,
      "over": 1331,
      "##ip": 1332,
      "post": 1333,
      "id": 1334,
      "##ting": 1335,
      "res": 1336,
      "diff": 1337,
      "##ress": 1338,
      "though": 1339,
      "year": 1340,
      "mean": 1341,
      "##ag": 1342,
      "dis": 1343,
      "##reat": 1344,
      "under": 1345,
      "##be": 1346,
      "##ect": 1347,
      "thought": 1348,
      "##ful": 1349,
      "aw": 1350,
      "bet": 1351,
      "##ment": 1352,
      "part": 1353,
      "into": 1354,
      "##our": 1355,
      "##oy": 1356,
      "wr": 1357,
      "interest": 1358,
      "friends": 1359,
      "##ond": 1360,
      "##kes": 1361,
      "##ical": 1362,
      "him": 1363,
      "which": 1364,
      "fir": 1365,
      "##ile": 1366,
      "off": 1367,
      "pr": 1368,
      "pret": 1369,
      "actually": 1370,
      "##og": 1371,
      "inf": 1372,
      "ll": 1373,
      "right": 1374,
      "work": 1375,
      "first": 1376,
      "sure": 1377,
      "##ish": 1378,
      "spe": 1379,
      "##int": 1380,
      "per": 1381,
      "##itt": 1382,
      "going": 1383,
      "##ool": 1384,
      "yes": 1385,
      "##other": 1386,
      "##ass": 1387,
      "got": 1388,
      "pretty": 1389,
      "real": 1390,
      "kind": 1391,
      "hi": 1392,
      "##ated": 1393,
      "##ys": 1394,
      "gr": 1395,
      "typ": 1396,
      "feeling": 1397,
      "ac": 1398,
      "differ": 1399,
      "##ick": 1400,
      "same": 1401,
      "##iv": 1402,
      "were": 1403,
      "def": 1404,
      "##able": 1405,
      "##ss": 1406,
      "des": 1407,
      "hel": 1408,
      "af": 1409,
      "bl": 1410,
      "le": 1411,
      "where": 1412,
      "still": 1413,
      "underst": 1414,
      "bel": 1415,
      "his": 1416,
      "##od": 1417,
      "##js": 1418,
      "tw": 1419,
      "start": 1420,
      "##ang": 1421,
      "##age": 1422,
      "##ably": 1423,
      "thread": 1424,
      "gen": 1425,
      "str": 1426,
      "said": 1427,
      "should": 1428,
      "ph": 1429,
      "back": 1430,
      "##ual": 1431,
      "##ating": 1432,
      "sen": 1433,
      "many": 1434,
      "##ach": 1435,
      "##own": 1436,
      "##oth": 1437,
      "personal": 1438,
      "sc": 1439,
      "##ult": 1440,
      "sm": 1441,
      "sometim": 1442,
      "understand": 1443,
      "quest": 1444,
      "##ber": 1445,
      "##ire": 1446,
      "long": 1447,
      "##ily": 1448,
      "prob": 1449,
      "te": 1450,
      "sometimes": 1451,
      "thr": 1452,
      "op": 1453,
      "att": 1454,
      "our": 1455,
      "take": 1456,
      "ext": 1457,
      "##ever": 1458,
      "best": 1459,
      "##wn": 1460,
      "maybe": 1461,
      "jo": 1462,
      "probably": 1463,
      "tell": 1464,
      "##ance": 1465,
      "##ath": 1466,
      "around": 1467,
      "cont": 1468,
      "relations": 1469,
      "look": 1470,
      "point": 1471,
      "imp": 1472,
      "help": 1473,
      "stu": 1474,
      "lol": 1475,
      "##if": 1476,
      "##pect": 1477,
      "##ely": 1478,
      "##ious": 1479,
      "mind": 1480,
      "yea": 1481,
      "cons": 1482,
      "after": 1483,
      "hard": 1484,
      "relationsh": 1485,
      "emot": 1486,
      "app": 1487,
      "##ade": 1488,
      "ke": 1489,
      "defin": 1490,
      "those": 1491,
      "years": 1492,
      "##vert": 1493,
      "sound": 1494,
      "##atch": 1495,
      "belie": 1496,
      "day": 1497,
      "lea": 1498,
      "anything": 1499,
      "ob": 1500,
      "##ittle": 1501,
      "didn": 1502,
      "different": 1503,
      "##ak": 1504,
      "let": 1505,
      "##ase": 1506,
      "little": 1507,
      "##fore": 1508,
      "##ict": 1509,
      "soci": 1510,
      "##ple": 1511,
      "##ces": 1512,
      "br": 1513,
      "doesn": 1514,
      "##ically": 1515,
      "rem": 1516,
      "bit": 1517,
      "sim": 1518,
      "##ason": 1519,
      "while": 1520,
      "new": 1521,
      "sch": 1522,
      "sin": 1523,
      "few": 1524,
      "yeah": 1525,
      "usually": 1526,
      "##ace": 1527,
      "better": 1528,
      "##ory": 1529,
      "two": 1530,
      "##ves": 1531,
      "##ap": 1532,
      "world": 1533,
      "great": 1534,
      "conf": 1535,
      "talk": 1536,
      "##ert": 1537,
      "these": 1538,
      "might": 1539,
      "##ten": 1540,
      "##bt": 1541,
      "##orm": 1542,
      "oh": 1543,
      "fl": 1544,
      "before": 1545,
      "thanks": 1546,
      "guess": 1547,
      "el": 1548,
      "its": 1549,
      "##ning": 1550,
      "own": 1551,
      "both": 1552,
      "high": 1553,
      "##vel": 1554,
      "makes": 1555,
      "through": 1556,
      "rec": 1557,
      "seems": 1558,
      "use": 1559,
      "care": 1560,
      "##ary": 1561,
      "others": 1562,
      "##ather": 1563,
      "everyone": 1564,
      "##lf": 1565,
      "sit": 1566,
      "bad": 1567,
      "##ved": 1568,
      "##blem": 1569,
      "since": 1570,
      "thank": 1571,
      "reason": 1572,
      "##cept": 1573,
      "##we": 1574,
      "problem": 1575,
      "bas": 1576,
      "gener": 1577,
      "experi": 1578,
      "fi": 1579,
      "thinking": 1580,
      "test": 1581,
      "down": 1582,
      "cou": 1583,
      "agree": 1584,
      "es": 1585,
      "play": 1586,
      "##vers": 1587,
      "##mm": 1588,
      "##ild": 1589,
      "trying": 1590,
      "gir": 1591,
      "ro": 1592,
      "##ction": 1593,
      "tend": 1594,
      "##rovert": 1595,
      "school": 1596,
      "quite": 1597,
      "##gg": 1598,
      "happen": 1599,
      "come": 1600,
      "##qu": 1601,
      "doing": 1602,
      "list": 1603,
      "made": 1604,
      "##ise": 1605,
      "co": 1606,
      "haha": 1607,
      "end": 1608,
      "again": 1609,
      "definite": 1610,
      "##let": 1611,
      "##itive": 1612,
      "question": 1613,
      "comm": 1614,
      "dr": 1615,
      "##ics": 1616,
      "put": 1617,
      "ins": 1618,
      "everything": 1619,
      "types": 1620,
      "happy": 1621,
      "##uck": 1622,
      "ask": 1623,
      "interesting": 1624,
      "##ness": 1625,
      "believe": 1626,
      "definitely": 1627,
      "last": 1628,
      "lear": 1629,
      "having": 1630,
      "##ook": 1631,
      "##ange": 1632,
      "##ream": 1633,
      "##day": 1634,
      "word": 1635,
      "##ward": 1636,
      "mus": 1637,
      "##cri": 1638,
      "##less": 1639,
      "##iss": 1640,
      "used": 1641,
      "##ope": 1642,
      "relationship": 1643,
      "cr": 1644,
      "give": 1645,
      "old": 1646,
      "##pl": 1647,
      "##cess": 1648,
      "lau": 1649,
      "mom": 1650,
      "often": 1651,
      "eas": 1652,
      "call": 1653,
      "##ject": 1654,
      "ass": 1655,
      "personality": 1656,
      "col": 1657,
      "##ale": 1658,
      "ind": 1659,
      "self": 1660,
      "##sw": 1661,
      "##ract": 1662,
      "hum": 1663,
      "dec": 1664,
      "guys": 1665,
      "show": 1666,
      "##ib": 1667,
      "##ost": 1668,
      "##oc": 1669,
      "anyone": 1670,
      "watch": 1671,
      "##ible": 1672,
      "times": 1673,
      "answ": 1674,
      "ok": 1675,
      "##ither": 1676,
      "##00": 1677,
      "ent": 1678,
      "keep": 1679,
      "##joy": 1680,
      "enjoy": 1681,
      "##ider": 1682,
      "laugh": 1683,
      "##gr": 1684,
      "##ional": 1685,
      "##ian": 1686,
      "girl": 1687,
      "##ll": 1688,
      "else": 1689,
      "##onder": 1690,
      "##fer": 1691,
      "forum": 1692,
      "tra": 1693,
      "another": 1694,
      "cra": 1695,
      "##per": 1696,
      "##ize": 1697,
      "##xt": 1698,
      "##cl": 1699,
      "descri": 1700,
      "hate": 1701,
      "poss": 1702,
      "acc": 1703,
      "fact": 1704,
      "enough": 1705,
      "idea": 1706,
      "##ia": 1707,
      "##olog": 1708,
      "talking": 1709,
      "expl": 1710,
      "##come": 1711,
      "mat": 1712,
      "mon": 1713,
      "##ether": 1714,
      "##ention": 1715,
      "##ody": 1716,
      "hon": 1717,
      "big": 1718,
      "such": 1719,
      "least": 1720,
      "exact": 1721,
      "wonder": 1722,
      "true": 1723,
      "isn": 1724,
      "getting": 1725,
      "sense": 1726,
      "nice": 1727,
      "char": 1728,
      "##ertain": 1729,
      "wel": 1730,
      "ap": 1731,
      "social": 1732,
      "mbt": 1733,
      "music": 1734,
      "met": 1735,
      "mbti": 1736,
      "consider": 1737,
      "once": 1738,
      "##ism": 1739,
      "inst": 1740,
      "stuff": 1741,
      "hu": 1742,
      "sor": 1743,
      "##ative": 1744,
      "##der": 1745,
      "nothing": 1746,
      "either": 1747,
      "##cially": 1748,
      "art": 1749,
      "found": 1750,
      "honest": 1751,
      "##arly": 1752,
      "fam": 1753,
      "certain": 1754,
      "sounds": 1755,
      "##erious": 1756,
      "sl": 1757,
      "without": 1758,
      "sorry": 1759,
      "ev": 1760,
      "##pend": 1761,
      "tri": 1762,
      "adv": 1763,
      "far": 1764,
      "ter": 1765,
      "supp": 1766,
      "situ": 1767,
      "reading": 1768,
      "wrong": 1769,
      "mar": 1770,
      "head": 1771,
      "##wh": 1772,
      "complet": 1773,
      "resp": 1774,
      "hand": 1775,
      "yourself": 1776,
      "##zy": 1777,
      "welcome": 1778,
      "ide": 1779,
      "##ph": 1780,
      "##ition": 1781,
      "espe": 1782,
      "##ons": 1783,
      "especially": 1784,
      "hell": 1785,
      "##iting": 1786,
      "sec": 1787,
      "##ently": 1788,
      "guy": 1789,
      "##ween": 1790,
      "##ned": 1791,
      "##ember": 1792,
      "fav": 1793,
      "##ans": 1794,
      "##ately": 1795,
      "##ee": 1796,
      "between": 1797,
      "serious": 1798,
      "answer": 1799,
      "##ird": 1800,
      "experience": 1801,
      "sub": 1802,
      "wa": 1803,
      "remember": 1804,
      "child": 1805,
      "##ner": 1806,
      "disc": 1807,
      "however": 1808,
      "rather": 1809,
      "##ens": 1810,
      "##ull": 1811,
      "feelings": 1812,
      "bu": 1813,
      "##fort": 1814,
      "val": 1815,
      "##most": 1816,
      "##ng": 1817,
      "looking": 1818,
      "wom": 1819,
      "hope": 1820,
      "ni": 1821,
      "saying": 1822,
      "cle": 1823,
      "live": 1824,
      "##ents": 1825,
      "close": 1826,
      "each": 1827,
      "sur": 1828,
      "##ny": 1829,
      "wee": 1830,
      "class": 1831,
      "done": 1832,
      "##ft": 1833,
      "car": 1834,
      "ple": 1835,
      "introvert": 1836,
      "fin": 1837,
      "##na": 1838,
      "away": 1839,
      "exactly": 1840,
      "job": 1841,
      "##ced": 1842,
      "almost": 1843,
      "dream": 1844,
      "sk": 1845,
      "sex": 1846,
      "##ors": 1847,
      "less": 1848,
      "listen": 1849,
      "top": 1850,
      "stop": 1851,
      "ey": 1852,
      "##ctions": 1853,
      "gl": 1854,
      "exam": 1855,
      "##arent": 1856,
      "##li": 1857,
      "sort": 1858,
      "##icul": 1859,
      "stud": 1860,
      "strong": 1861,
      "nat": 1862,
      "##ilar": 1863,
      "##its": 1864,
      "sens": 1865,
      "##ign": 1866,
      "##ities": 1867,
      "speci": 1868,
      "wouldn": 1869,
      "dep": 1870,
      "ago": 1871,
      "yet": 1872,
      "depend": 1873,
      "ti": 1874,
      "##als": 1875,
      "comes": 1876,
      "##sy": 1877,
      "tur": 1878,
      "che": 1879,
      "ho": 1880,
      "av": 1881,
      "##oll": 1882,
      "kid": 1883,
      "unt": 1884,
      "##ready": 1885,
      "la": 1886,
      "cu": 1887,
      "add": 1888,
      "already": 1889,
      "mov": 1890,
      "haven": 1891,
      "prefer": 1892,
      "fem": 1893,
      "relate": 1894,
      "place": 1895,
      "##led": 1896,
      "song": 1897,
      "sy": 1898,
      "##he": 1899,
      "##ark": 1900,
      "reg": 1901,
      "##ush": 1902,
      "##iew": 1903,
      "##ail": 1904,
      "cur": 1905,
      "##ility": 1906,
      "wanted": 1907,
      "making": 1908,
      "##iet": 1909,
      "general": 1910,
      "dom": 1911,
      "##cy": 1912,
      "open": 1913,
      "tot": 1914,
      "rep": 1915,
      "family": 1916,
      "whole": 1917,
      "##ues": 1918,
      "##ates": 1919,
      "month": 1920,
      "past": 1921,
      "##rect": 1922,
      "##les": 1923,
      "##gin": 1924,
      "si": 1925,
      "inv": 1926,
      "cor": 1927,
      "night": 1928,
      "laughing": 1929,
      "gi": 1930,
      "told": 1931,
      "cool": 1932,
      "change": 1933,
      "able": 1934,
      "alone": 1935,
      "wish": 1936,
      "god": 1937,
      "abs": 1938,
      "until": 1939,
      "##ial": 1940,
      "##elt": 1941,
      "functions": 1942,
      "##ub": 1943,
      "##ord": 1944,
      "convers": 1945,
      "completely": 1946,
      "cour": 1947,
      "charact": 1948,
      "dra": 1949,
      "face": 1950,
      "fre": 1951,
      "##oud": 1952,
      "##hh": 1953,
      "using": 1954,
      "##ote": 1955,
      "##vious": 1956,
      "interested": 1957,
      "##az": 1958,
      "words": 1959,
      "fig": 1960,
      "bra": 1961,
      "##ized": 1962,
      "favor": 1963,
      "ang": 1964,
      "et": 1965,
      "##ences": 1966,
      "##ater": 1967,
      "##lect": 1968,
      "started": 1969,
      "##ute": 1970,
      "alth": 1971,
      "##ings": 1972,
      "sad": 1973,
      "hear": 1974,
      "##way": 1975,
      "although": 1976,
      "today": 1977,
      "##ips": 1978,
      "##red": 1979,
      "##leep": 1980,
      "imag": 1981,
      "##body": 1982,
      "weird": 1983,
      "##alk": 1984,
      "situation": 1985,
      "young": 1986,
      "##alth": 1987,
      "opin": 1988,
      "eng": 1989,
      "det": 1990,
      "min": 1991,
      "iss": 1992,
      "seen": 1993,
      "vide": 1994,
      "log": 1995,
      "deep": 1996,
      "meet": 1997,
      "##gram": 1998,
      "forg": 1999,
      "explain": 2000,
      "won": 2001,
      "ed": 2002,
      "##ying": 2003,
      "creat": 2004,
      "bo": 2005,
      "similar": 2006,
      "felt": 2007,
      "infps": 2008,
      "days": 2009,
      "must": 2010,
      "along": 2011,
      "eff": 2012,
      "phys": 2013,
      "##ude": 2014,
      "emotional": 2015,
      "fuck": 2016,
      "##aa": 2017,
      "crazy": 2018,
      "book": 2019,
      "##uth": 2020,
      "second": 2021,
      "perfe": 2022,
      "etc": 2023,
      "bre": 2024,
      "mor": 2025,
      "hey": 2026,
      "##rem": 2027,
      "inc": 2028,
      "arg": 2029,
      "thoughts": 2030,
      "pass": 2031,
      "deal": 2032,
      "import": 2033,
      "tea": 2034,
      "psy": 2035,
      "sent": 2036,
      "course": 2037,
      "wasn": 2038,
      "dri": 2039,
      "hur": 2040,
      "home": 2041,
      "mostly": 2042,
      "plan": 2043,
      "bor": 2044,
      "##ames": 2045,
      "psych": 2046,
      "##ock": 2047,
      "stand": 2048,
      "function": 2049,
      "funny": 2050,
      "##ars": 2051,
      "ann": 2052,
      "awes": 2053,
      "##rent": 2054,
      "##gs": 2055,
      "grou": 2056,
      "personally": 2057,
      "##aut": 2058,
      "human": 2059,
      "##ret": 2060,
      "please": 2061,
      "sw": 2062,
      "based": 2063,
      "dist": 2064,
      "took": 2065,
      "ir": 2066,
      "ones": 2067,
      "##yp": 2068,
      "obs": 2069,
      "##ount": 2070,
      "super": 2071,
      "##ored": 2072,
      "heart": 2073,
      "##istic": 2074,
      "emotions": 2075,
      "become": 2076,
      "totally": 2077,
      "intjs": 2078,
      "enf": 2079,
      "awesome": 2080,
      "##osed": 2081,
      "example": 2082,
      "count": 2083,
      "run": 2084,
      "sci": 2085,
      "went": 2086,
      "aren": 2087,
      "dou": 2088,
      "##olut": 2089,
      "##cc": 2090,
      "sleep": 2091,
      "##iness": 2092,
      "important": 2093,
      "##uss": 2094,
      "##selves": 2095,
      "exc": 2096,
      "current": 2097,
      "figure": 2098,
      "##ollow": 2099,
      "##ken": 2100,
      "means": 2101,
      "likely": 2102,
      "opp": 2103,
      "10": 2104,
      "##nect": 2105,
      "extrem": 2106,
      "##dd": 2107,
      "##used": 2108,
      "##ogn": 2109,
      "##ms": 2110,
      "intern": 2111,
      "mem": 2112,
      "##ouse": 2113,
      "sing": 2114,
      "follow": 2115,
      "uni": 2116,
      "boy": 2117,
      "hour": 2118,
      "shit": 2119,
      "express": 2120,
      "mess": 2121,
      "norm": 2122,
      "##ower": 2123,
      "fall": 2124,
      "matter": 2125,
      "favorite": 2126,
      "colle": 2127,
      "jud": 2128,
      "name": 2129,
      "depress": 2130,
      "##lic": 2131,
      "set": 2132,
      "advice": 2133,
      "##ied": 2134,
      "learn": 2135,
      "side": 2136,
      "recently": 2137,
      "okay": 2138,
      "ra": 2139,
      "share": 2140,
      "intu": 2141,
      "hmm": 2142,
      "view": 2143,
      "questions": 2144,
      "small": 2145,
      "working": 2146,
      "pict": 2147,
      "curi": 2148,
      "##vi": 2149,
      "whatever": 2150,
      "##oid": 2151,
      "##ology": 2152,
      "dont": 2153,
      "##velop": 2154,
      "gra": 2155,
      "perfect": 2156,
      "pain": 2157,
      "possible": 2158,
      "wow": 2159,
      "##ew": 2160,
      "came": 2161,
      "beaut": 2162,
      "##reci": 2163,
      "mine": 2164,
      "expect": 2165,
      "##ives": 2166,
      "gre": 2167,
      "const": 2168,
      "war": 2169,
      "tong": 2170,
      "anim": 2171,
      "anyway": 2172,
      "pur": 2173,
      "women": 2174,
      "appreci": 2175,
      "##ited": 2176,
      "infjs": 2177,
      "##ption": 2178,
      "writing": 2179,
      "free": 2180,
      "exist": 2181,
      "##aking": 2182,
      "annoy": 2183,
      "tongue": 2184,
      "##aring": 2185,
      "prof": 2186,
      "hello": 2187,
      "rom": 2188,
      "med": 2189,
      "##ised": 2190,
      "attract": 2191,
      "tog": 2192,
      "extrovert": 2193,
      "##uring": 2194,
      "parent": 2195,
      "months": 2196,
      "##ling": 2197,
      "develop": 2198,
      "##line": 2199,
      "xd": 2200,
      "beha": 2201,
      "particul": 2202,
      "connect": 2203,
      "together": 2204,
      "##ked": 2205,
      "obvious": 2206,
      "somewh": 2207,
      "mention": 2208,
      "##ash": 2209,
      "taking": 2210,
      "##ired": 2211,
      "whether": 2212,
      "form": 2213,
      "easy": 2214,
      "boo": 2215,
      "20": 2216,
      "miss": 2217,
      "##ont": 2218,
      "pos": 2219,
      "female": 2220,
      "couple": 2221,
      "assum": 2222,
      "mis": 2223,
      "generally": 2224,
      "stay": 2225,
      "common": 2226,
      "seriously": 2227,
      "##iter": 2228,
      "video": 2229,
      "depends": 2230,
      "intps": 2231,
      "hurt": 2232,
      "room": 2233,
      "ser": 2234,
      "##nea": 2235,
      "##uct": 2236,
      "##ments": 2237,
      "next": 2238,
      "relationships": 2239,
      "moment": 2240,
      "honestly": 2241,
      "foc": 2242,
      "case": 2243,
      "state": 2244,
      "write": 2245,
      "teach": 2246,
      "##pid": 2247,
      "spend": 2248,
      "##ead": 2249,
      "dad": 2250,
      "result": 2251,
      "##gn": 2252,
      "##ump": 2253,
      "sol": 2254,
      "##erg": 2255,
      "unless": 2256,
      "commun": 2257,
      "game": 2258,
      "##ier": 2259,
      "sign": 2260,
      "##icult": 2261,
      "##umb": 2262,
      "conversation": 2263,
      "tried": 2264,
      "##wards": 2265,
      "possib": 2266,
      "mother": 2267,
      "gets": 2268,
      "group": 2269,
      "##ried": 2270,
      "##oney": 2271,
      "ideas": 2272,
      "cry": 2273,
      "##haps": 2274,
      "pres": 2275,
      "difficult": 2276,
      "##rist": 2277,
      "##ures": 2278,
      "perhaps": 2279,
      "house": 2280,
      "opinion": 2281,
      "fair": 2282,
      "rand": 2283,
      "specif": 2284,
      "##ister": 2285,
      "movie": 2286,
      "story": 2287,
      "##ross": 2288,
      "left": 2289,
      "fit": 2290,
      "aff": 2291,
      "college": 2292,
      "ear": 2293,
      "adm": 2294,
      "level": 2295,
      "lead": 2296,
      "brain": 2297,
      "main": 2298,
      "stupid": 2299,
      "absolut": 2300,
      "##ational": 2301,
      "called": 2302,
      "inform": 2303,
      "##ense": 2304,
      "says": 2305,
      "heard": 2306,
      "##ental": 2307,
      "##pr": 2308,
      "age": 2309,
      "maj": 2310,
      "##tern": 2311,
      "unc": 2312,
      "except": 2313,
      "stress": 2314,
      "contro": 2315,
      "male": 2316,
      "##ellig": 2317,
      "notic": 2318,
      "##althy": 2319,
      "rest": 2320,
      "accept": 2321,
      "subject": 2322,
      "##fortable": 2323,
      "feels": 2324,
      "pol": 2325,
      "conc": 2326,
      "amaz": 2327,
      "turn": 2328,
      "emotion": 2329,
      "ori": 2330,
      "##ah": 2331,
      "##ustr": 2332,
      "random": 2333,
      "absolutely": 2334,
      "pop": 2335,
      "ennea": 2336,
      "relig": 2337,
      "intellig": 2338,
      "##gan": 2339,
      "trust": 2340,
      "looks": 2341,
      "##ats": 2342,
      "##ories": 2343,
      "hal": 2344,
      "order": 2345,
      "chang": 2346,
      "eyes": 2347,
      "men": 2348,
      "##oice": 2349,
      "natur": 2350,
      "enneagram": 2351,
      "saw": 2352,
      "lack": 2353,
      "dark": 2354,
      "##ne": 2355,
      "discuss": 2356,
      "ca": 2357,
      "goes": 2358,
      "instead": 2359,
      "##cing": 2360,
      "##antly": 2361,
      "short": 2362,
      "##man": 2363,
      "basically": 2364,
      "speak": 2365,
      "introverted": 2366,
      "pick": 2367,
      "appe": 2368,
      "curious": 2369,
      "bus": 2370,
      "posts": 2371,
      "money": 2372,
      "anal": 2373,
      "sou": 2374,
      "par": 2375,
      "week": 2376,
      "major": 2377,
      "dam": 2378,
      "##ined": 2379,
      "behavi": 2380,
      "problems": 2381,
      "parents": 2382,
      "books": 2383,
      "##iful": 2384,
      "rare": 2385,
      "incl": 2386,
      "entire": 2387,
      "dear": 2388,
      "happens": 2389,
      "cal": 2390,
      "move": 2391,
      "##bb": 2392,
      "kill": 2393,
      "vis": 2394,
      "cre": 2395,
      "asking": 2396,
      "##angu": 2397,
      "mist": 2398,
      "kinda": 2399,
      "domin": 2400,
      "##ply": 2401,
      "watching": 2402,
      "character": 2403,
      "##av": 2404,
      "hor": 2405,
      "pat": 2406,
      "ref": 2407,
      "imm": 2408,
      "bro": 2409,
      "mot": 2410,
      "sil": 2411,
      "##ific": 2412,
      "easily": 2413,
      "break": 2414,
      "ways": 2415,
      "meaning": 2416,
      "simply": 2417,
      "themselves": 2418,
      "three": 2419,
      "##ts": 2420,
      "##not": 2421,
      "beautiful": 2422,
      "half": 2423,
      "occ": 2424,
      "##side": 2425,
      "coming": 2426,
      "##cious": 2427,
      "##haha": 2428,
      "couldn": 2429,
      "games": 2430,
      "##ared": 2431,
      "##ggest": 2432,
      "##oooo": 2433,
      "extremely": 2434,
      "suggest": 2435,
      "check": 2436,
      "##lish": 2437,
      "##idd": 2438,
      "##ided": 2439,
      "avoid": 2440,
      "seeing": 2441,
      "process": 2442,
      "##ane": 2443,
      "topic": 2444,
      "cause": 2445,
      "pot": 2446,
      "knew": 2447,
      "asked": 2448,
      "grow": 2449,
      "##ivid": 2450,
      "##ove": 2451,
      "##ren": 2452,
      "sever": 2453,
      "##up": 2454,
      "realize": 2455,
      "information": 2456,
      "full": 2457,
      "100": 2458,
      "inde": 2459,
      "hold": 2460,
      "theory": 2461,
      "quick": 2462,
      "langu": 2463,
      "##ouch": 2464,
      "perc": 2465,
      "respect": 2466,
      "##sh": 2467,
      "necess": 2468,
      "##ern": 2469,
      "hours": 2470,
      "math": 2471,
      "living": 2472,
      "energ": 2473,
      "sister": 2474,
      "anx": 2475,
      "ign": 2476,
      "##aw": 2477,
      "non": 2478,
      "light": 2479,
      "attention": 2480,
      "amazing": 2481,
      "works": 2482,
      "posted": 2483,
      "est": 2484,
      "neg": 2485,
      "##ellow": 2486,
      "##ify": 2487,
      "truth": 2488,
      "##oph": 2489,
      "noticed": 2490,
      "needs": 2491,
      "swe": 2492,
      "glad": 2493,
      "happened": 2494,
      "towards": 2495,
      "fine": 2496,
      "har": 2497,
      "fear": 2498,
      "black": 2499,
      "lost": 2500,
      "##stem": 2501,
      "meant": 2502,
      "regard": 2503,
      "##ages": 2504,
      "##ines": 2505,
      "romant": 2506,
      "playing": 2507,
      "##ination": 2508,
      "system": 2509,
      "bi": 2510,
      "red": 2511,
      "##erv": 2512,
      "##rible": 2513,
      "surpr": 2514,
      "cogn": 2515,
      "internet": 2516,
      "proud": 2517,
      "understanding": 2518,
      "entps": 2519,
      "worth": 2520,
      "enfps": 2521,
      "ident": 2522,
      "dating": 2523,
      "fut": 2524,
      "christ": 2525,
      "touch": 2526,
      "hit": 2527,
      "currently": 2528,
      "argum": 2529,
      "power": 2530,
      "picture": 2531,
      "quiet": 2532,
      "food": 2533,
      "liter": 2534,
      "stere": 2535,
      "appreciate": 2536,
      "during": 2537,
      "##ident": 2538,
      "liked": 2539,
      "wait": 2540,
      "pract": 2541,
      "known": 2542,
      "aware": 2543,
      "ideal": 2544,
      "loved": 2545,
      "var": 2546,
      "stereot": 2547,
      "eat": 2548,
      "leave": 2549,
      "focus": 2550,
      "##use": 2551,
      "frustr": 2552,
      "brother": 2553,
      "online": 2554,
      "drink": 2555,
      "##friend": 2556,
      "outside": 2557,
      "girls": 2558,
      "##ugg": 2559,
      "sn": 2560,
      "physical": 2561,
      "##ides": 2562,
      "##unch": 2563,
      "extra": 2564,
      "##ene": 2565,
      "##ave": 2566,
      "ret": 2567,
      "suck": 2568,
      "given": 2569,
      "##io": 2570,
      "direct": 2571,
      "##ging": 2572,
      "##arily": 2573,
      "##ety": 2574,
      "due": 2575,
      "choo": 2576,
      "hang": 2577,
      "##right": 2578,
      "crit": 2579,
      "death": 2580,
      "##ac": 2581,
      "interact": 2582,
      "##oss": 2583,
      "deb": 2584,
      "##over": 2585,
      "react": 2586,
      "bored": 2587,
      "##iety": 2588,
      "##ster": 2589,
      "cognitive": 2590,
      "##ances": 2591,
      "individ": 2592,
      "##path": 2593,
      "intro": 2594,
      "angry": 2595,
      "##ung": 2596,
      "remind": 2597,
      "##ming": 2598,
      "##izing": 2599,
      "wants": 2600,
      "imagine": 2601,
      "compl": 2602,
      "nf": 2603,
      "body": 2604,
      "##like": 2605,
      "link": 2606,
      "takes": 2607,
      "stra": 2608,
      "##fully": 2609,
      "cannot": 2610,
      "appro": 2611,
      "against": 2612,
      "fight": 2613,
      "##arc": 2614,
      "doubt": 2615,
      "decis": 2616,
      "##ists": 2617,
      "##ptions": 2618,
      "difference": 2619,
      "woman": 2620,
      "cold": 2621,
      "learning": 2622,
      "##br": 2623,
      "##ma": 2624,
      "##ows": 2625,
      "clos": 2626,
      "later": 2627,
      "lots": 2628,
      "issue": 2629,
      "future": 2630,
      "taken": 2631,
      "control": 2632,
      "hair": 2633,
      "normal": 2634,
      "##onse": 2635,
      "nature": 2636,
      "##erior": 2637,
      "wondering": 2638,
      "##idence": 2639,
      "issues": 2640,
      "fail": 2641,
      "smart": 2642,
      "phil": 2643,
      "correct": 2644,
      "kids": 2645,
      "reasons": 2646,
      "individual": 2647,
      "##bs": 2648,
      "##aught": 2649,
      "confused": 2650,
      "##ering": 2651,
      "describ": 2652,
      "affect": 2653,
      "response": 2654,
      "single": 2655,
      "##ledge": 2656,
      "communic": 2657,
      "inside": 2658,
      "worry": 2659,
      "late": 2660,
      "##uly": 2661,
      "several": 2662,
      "num": 2663,
      "##hip": 2664,
      "origin": 2665,
      "younger": 2666,
      "oppos": 2667,
      "above": 2668,
      "text": 2669,
      "learned": 2670,
      "draw": 2671,
      "clear": 2672,
      "##ake": 2673,
      "mood": 2674,
      "begin": 2675,
      "respons": 2676,
      "science": 2677,
      "ill": 2678,
      "##more": 2679,
      "qual": 2680,
      "sty": 2681,
      "accur": 2682,
      "wink": 2683,
      "win": 2684,
      "detail": 2685,
      "##res": 2686,
      "pri": 2687,
      "##air": 2688,
      "energy": 2689,
      "simple": 2690,
      "romantic": 2691,
      "older": 2692,
      "boyfriend": 2693,
      "bring": 2694,
      "comput": 2695,
      "eye": 2696,
      "bur": 2697,
      "vi": 2698,
      "invol": 2699,
      "forget": 2700,
      "listening": 2701,
      "##kward": 2702,
      "tap": 2703,
      "##uc": 2704,
      "##orn": 2705,
      "smile": 2706,
      "date": 2707,
      "gon": 2708,
      "##ix": 2709,
      "ist": 2710,
      "##ork": 2711,
      "reality": 2712,
      "english": 2713,
      "value": 2714,
      "vers": 2715,
      "##earch": 2716,
      "language": 2717,
      "low": 2718,
      "pay": 2719,
      "respond": 2720,
      "soul": 2721,
      "walk": 2722,
      "##ining": 2723,
      "sweet": 2724,
      "research": 2725,
      "awkward": 2726,
      "##ivity": 2727,
      "wal": 2728,
      "mod": 2729,
      "##ular": 2730,
      "movies": 2731,
      "telling": 2732,
      "giving": 2733,
      "trou": 2734,
      "requ": 2735,
      "term": 2736,
      "luck": 2737,
      "suppose": 2738,
      "mental": 2739,
      "uns": 2740,
      "reply": 2741,
      "trans": 2742,
      "certainly": 2743,
      "##go": 2744,
      "##ank": 2745,
      "logic": 2746,
      "gonna": 2747,
      "##ively": 2748,
      "fil": 2749,
      "##atic": 2750,
      "prop": 2751,
      "fant": 2752,
      "comfortable": 2753,
      "##ency": 2754,
      "damn": 2755,
      "cut": 2756,
      "sx": 2757,
      "effect": 2758,
      "truly": 2759,
      "bother": 2760,
      "sat": 2761,
      "##raid": 2762,
      "##eless": 2763,
      "notice": 2764,
      "beh": 2765,
      "decided": 2766,
      "huge": 2767,
      "##itch": 2768,
      "organ": 2769,
      "cute": 2770,
      "bed": 2771,
      "dominant": 2772,
      "##asc": 2773,
      "supposed": 2774,
      "society": 2775,
      "lar": 2776,
      "afraid": 2777,
      "tests": 2778,
      "##set": 2779,
      "##eld": 2780,
      "shy": 2781,
      "strange": 2782,
      "##ime": 2783,
      "pub": 2784,
      "constantly": 2785,
      "mentioned": 2786,
      "wi": 2787,
      "##ester": 2788,
      "##ger": 2789,
      "quote": 2790,
      "description": 2791,
      "##yn": 2792,
      "situations": 2793,
      "##eric": 2794,
      "##ature": 2795,
      "conv": 2796,
      "across": 2797,
      "stre": 2798,
      "env": 2799,
      "choose": 2800,
      "negative": 2801,
      "deg": 2802,
      "perspect": 2803,
      "##irt": 2804,
      "##ony": 2805,
      "cat": 2806,
      "del": 2807,
      "##atalk": 2808,
      "tapatalk": 2809,
      "##row": 2810,
      "soon": 2811,
      "finally": 2812,
      "dem": 2813,
      "cir": 2814,
      "philos": 2815,
      "boring": 2816,
      "father": 2817,
      "##iddle": 2818,
      "experiences": 2819,
      "##how": 2820,
      "anxiety": 2821,
      "lately": 2822,
      "tech": 2823,
      "##ential": 2824,
      "characters": 2825,
      "##lex": 2826,
      "space": 2827,
      "typing": 2828,
      "project": 2829,
      "cap": 2830,
      "##arch": 2831,
      "ste": 2832,
      "##unk": 2833,
      "hot": 2834,
      "##ising": 2835,
      "anymore": 2836,
      "special": 2837,
      "lim": 2838,
      "speaking": 2839,
      "approach": 2840,
      "##rib": 2841,
      "obviously": 2842,
      "knowing": 2843,
      "comment": 2844,
      "knowledge": 2845,
      "strugg": 2846,
      "specific": 2847,
      "number": 2848,
      "fan": 2849,
      "support": 2850,
      "weeks": 2851,
      "##lt": 2852,
      "ah": 2853,
      "likes": 2854,
      "dead": 2855,
      "finding": 2856,
      "object": 2857,
      "##ially": 2858,
      "skill": 2859,
      "nor": 2860,
      "whenever": 2861,
      "##empt": 2862,
      "hist": 2863,
      "logical": 2864,
      "##wise": 2865,
      "apparent": 2866,
      "results": 2867,
      "##que": 2868,
      "##omm": 2869,
      "describe": 2870,
      "dreams": 2871,
      "phot": 2872,
      "##no": 2873,
      "refer": 2874,
      "starting": 2875,
      "straight": 2876,
      "##gress": 2877,
      "##unt": 2878,
      "particular": 2879,
      "er": 2880,
      "early": 2881,
      "##ient": 2882,
      "amount": 2883,
      "somewhere": 2884,
      "realized": 2885,
      "annoying": 2886,
      "event": 2887,
      "middle": 2888,
      "##etic": 2889,
      "##ins": 2890,
      "points": 2891,
      "##book": 2892,
      "computer": 2893,
      "spir": 2894,
      "motiv": 2895,
      "perce": 2896,
      "four": 2897,
      "finish": 2898,
      "contact": 2899,
      "phone": 2900,
      "sensitive": 2901,
      "behavior": 2902,
      "19": 2903,
      "children": 2904,
      "step": 2905,
      "helps": 2906,
      "related": 2907,
      "bab": 2908,
      "##ww": 2909,
      "knows": 2910,
      "opposite": 2911,
      "hop": 2912,
      "smo": 2913,
      "tired": 2914,
      "natural": 2915,
      "gave": 2916,
      "empath": 2917,
      "considered": 2918,
      "pie": 2919,
      "thats": 2920,
      "becom": 2921,
      "purp": 2922,
      "behind": 2923,
      "philosoph": 2924,
      "fore": 2925,
      "nt": 2926,
      "rock": 2927,
      "polit": 2928,
      "je": 2929,
      "##ped": 2930,
      "##uu": 2931,
      "odd": 2932,
      "literally": 2933,
      "##att": 2934,
      "concept": 2935,
      "rid": 2936,
      "somehow": 2937,
      "##ler": 2938,
      "init": 2939,
      "fix": 2940,
      "##usion": 2941,
      "slight": 2942,
      "obsess": 2943,
      "morning": 2944,
      "positive": 2945,
      "line": 2946,
      "treat": 2947,
      "contin": 2948,
      "edit": 2949,
      "cult": 2950,
      "comb": 2951,
      "##ended": 2952,
      "party": 2953,
      "style": 2954,
      "summ": 2955,
      "##aus": 2956,
      "goo": 2957,
      "##ru": 2958,
      "blue": 2959,
      "ability": 2960,
      "weak": 2961,
      "##itten": 2962,
      "white": 2963,
      "##iction": 2964,
      "##aim": 2965,
      "americ": 2966,
      "##verse": 2967,
      "easier": 2968,
      "##ili": 2969,
      "slow": 2970,
      "sun": 2971,
      "includ": 2972,
      "grad": 2973,
      "extroverted": 2974,
      "##oot": 2975,
      "accurate": 2976,
      "argument": 2977,
      "ep": 2978,
      "##tu": 2979,
      "values": 2980,
      "##ones": 2981,
      "emotionally": 2982,
      "gif": 2983,
      "study": 2984,
      "tit": 2985,
      "within": 2986,
      "present": 2987,
      "insight": 2988,
      "avat": 2989,
      "ant": 2990,
      "vs": 2991,
      "suc": 2992,
      "possibly": 2993,
      "circ": 2994,
      "fucking": 2995,
      "##ales": 2996,
      "ful": 2997,
      "##astic": 2998,
      "##fortun": 2999,
      "country": 3000,
      "particularly": 3001,
      "somewhat": 3002,
      "##ype": 3003,
      "##ets": 3004,
      "terms": 3005,
      "law": 3006,
      "otherwise": 3007,
      "site": 3008,
      "##where": 3009,
      "##ott": 3010,
      "##udd": 3011,
      "impress": 3012,
      "build": 3013,
      "fellow": 3014,
      "forums": 3015,
      "depression": 3016,
      "##utes": 3017,
      "watched": 3018,
      "trouble": 3019,
      "wear": 3020,
      "occas": 3021,
      "necessarily": 3022,
      "aut": 3023,
      "analy": 3024,
      "##roll": 3025,
      "disag": 3026,
      "techn": 3027,
      "wrote": 3028,
      "##ites": 3029,
      "profess": 3030,
      "intelligence": 3031,
      "ru": 3032,
      "unfortun": 3033,
      "30": 3034,
      "attracted": 3035,
      "gone": 3036,
      "##app": 3037,
      "allow": 3038,
      "inferior": 3039,
      "worked": 3040,
      "perspective": 3041,
      "##du": 3042,
      "leg": 3043,
      "religion": 3044,
      "stereotyp": 3045,
      "##ax": 3046,
      "##amp": 3047,
      "humor": 3048,
      "worst": 3049,
      "rarely": 3050,
      "intuitive": 3051,
      "youtu": 3052,
      "healthy": 3053,
      "##ring": 3054,
      "answers": 3055,
      "##ushed": 3056,
      "bar": 3057,
      "##ters": 3058,
      "note": 3059,
      "##ipul": 3060,
      "##version": 3061,
      "water": 3062,
      "##co": 3063,
      "discover": 3064,
      "evil": 3065,
      "married": 3066,
      "die": 3067,
      "shows": 3068,
      "##iment": 3069,
      "threads": 3070,
      "##spect": 3071,
      "##fjs": 3072,
      "public": 3073,
      "12": 3074,
      "om": 3075,
      "repl": 3076,
      "needed": 3077,
      "compan": 3078,
      "incred": 3079,
      "degree": 3080,
      "##erm": 3081,
      "concl": 3082,
      "manipul": 3083,
      "youtube": 3084,
      "##eh": 3085,
      "partner": 3086,
      "songs": 3087,
      "##ateg": 3088,
      "##ther": 3089,
      "##ants": 3090,
      "chance": 3091,
      "desp": 3092,
      "belief": 3093,
      "##ender": 3094,
      "effort": 3095,
      "##hood": 3096,
      "pla": 3097,
      "apparently": 3098,
      "tv": 3099,
      "##ards": 3100,
      "actual": 3101,
      "##ode": 3102,
      "rul": 3103,
      "posting": 3104,
      "dislike": 3105,
      "traits": 3106,
      "prov": 3107,
      "mad": 3108,
      "univers": 3109,
      "shock": 3110,
      "avatar": 3111,
      "50": 3112,
      "##ries": 3113,
      "gotten": 3114,
      "girlf": 3115,
      "intuition": 3116,
      "15": 3117,
      "choice": 3118,
      "large": 3119,
      "intel": 3120,
      "enter": 3121,
      "##anger": 3122,
      "girlfriend": 3123,
      "tom": 3124,
      "suff": 3125,
      "looked": 3126,
      "depressed": 3127,
      "##anna": 3128,
      "spot": 3129,
      "passion": 3130,
      "highly": 3131,
      "tem": 3132,
      "wall": 3133,
      "auth": 3134,
      "bal": 3135,
      "da": 3136,
      "voice": 3137,
      "dog": 3138,
      "pleas": 3139,
      "##w5": 3140,
      "cent": 3141,
      "mil": 3142,
      "fast": 3143,
      "wast": 3144,
      "gives": 3145,
      "hug": 3146,
      "clearly": 3147,
      "##land": 3148,
      "kitt": 3149,
      "##ze": 3150,
      "creative": 3151,
      "##med": 3152,
      "fairly": 3153,
      "conscious": 3154,
      "travel": 3155,
      "envir": 3156,
      "purpose": 3157,
      "##oun": 3158,
      "##irth": 3159,
      "career": 3160,
      "appear": 3161,
      "##92": 3162,
      "match": 3163,
      "##bit": 3164,
      "series": 3165,
      "loud": 3166,
      "attempt": 3167,
      "piss": 3168,
      "##ror": 3169,
      "cas": 3170,
      "mult": 3171,
      "##view": 3172,
      "intellect": 3173,
      "unhe": 3174,
      "conversations": 3175,
      "admit": 3176,
      "##ob": 3177,
      "clean": 3178,
      "grand": 3179,
      "hahaha": 3180,
      "spent": 3181,
      "hands": 3182,
      "assume": 3183,
      "judge": 3184,
      "thinks": 3185,
      "front": 3186,
      "coff": 3187,
      "forgot": 3188,
      "environ": 3189,
      "emb": 3190,
      "lives": 3191,
      "##raph": 3192,
      "terrible": 3193,
      "sym": 3194,
      "business": 3195,
      "itself": 3196,
      "experien": 3197,
      "written": 3198,
      "helpful": 3199,
      "lose": 3200,
      "seemed": 3201,
      "fur": 3202,
      "history": 3203,
      "##oint": 3204,
      "prot": 3205,
      "buy": 3206,
      "lad": 3207,
      "birth": 3208,
      "unsure": 3209,
      "16": 3210,
      "unfortunately": 3211,
      "unhealthy": 3212,
      "enc": 3213,
      "spirit": 3214,
      "tast": 3215,
      "ele": 3216,
      "##pir": 3217,
      "upon": 3218,
      "decide": 3219,
      "drive": 3220,
      "stick": 3221,
      "caus": 3222,
      "##lict": 3223,
      "impro": 3224,
      "##band": 3225,
      "lazy": 3226,
      "lab": 3227,
      "##yr": 3228,
      "##lying": 3229,
      "##using": 3230,
      "warm": 3231,
      "upset": 3232,
      "complete": 3233,
      "coffee": 3234,
      "friendship": 3235,
      "create": 3236,
      "hus": 3237,
      "quickly": 3238,
      "intense": 3239,
      "joke": 3240,
      "changed": 3241,
      "star": 3242,
      "wanting": 3243,
      "original": 3244,
      "ther": 3245,
      "##rew": 3246,
      "longer": 3247,
      "search": 3248,
      "##edi": 3249,
      "born": 3250,
      "irr": 3251,
      "mix": 3252,
      "wind": 3253,
      "aspect": 3254,
      "sport": 3255,
      "##onic": 3256,
      "christian": 3257,
      "##ley": 3258,
      "interests": 3259,
      "yester": 3260,
      "##ilities": 3261,
      "##ices": 3262,
      "worse": 3263,
      "bri": 3264,
      "##ug": 3265,
      "##acy": 3266,
      "intelligent": 3267,
      "critic": 3268,
      "priv": 3269,
      "##ho": 3270,
      "nobody": 3271,
      "minutes": 3272,
      "yesterday": 3273,
      "near": 3274,
      "##cra": 3275,
      "plus": 3276,
      "peri": 3277,
      "fantas": 3278,
      "##inct": 3279,
      "reach": 3280,
      "disagree": 3281,
      "color": 3282,
      "##uing": 3283,
      "intim": 3284,
      "husband": 3285,
      "claim": 3286,
      "psychology": 3287,
      "genu": 3288,
      "##ator": 3289,
      "success": 3290,
      "conflict": 3291,
      "opinions": 3292,
      "useful": 3293,
      "tre": 3294,
      "##fps": 3295,
      "##ged": 3296,
      "descriptions": 3297,
      "artic": 3298,
      "wanna": 3299,
      "soc": 3300,
      "cond": 3301,
      "shouldn": 3302,
      "five": 3303,
      "putting": 3304,
      "wonderful": 3305,
      "chall": 3306,
      "stuck": 3307,
      "##ording": 3308,
      "kitteh": 3309,
      "rational": 3310,
      "##ama": 3311,
      "mag": 3312,
      "typed": 3313,
      "ended": 3314,
      "account": 3315,
      "connection": 3316,
      "indeed": 3317,
      "##ii": 3318,
      "teacher": 3319,
      "earth": 3320,
      "bene": 3321,
      "##ots": 3322,
      "stri": 3323,
      "secret": 3324,
      "##aining": 3325,
      "apart": 3326,
      "message": 3327,
      "hol": 3328,
      "pa": 3329,
      "willing": 3330,
      "developed": 3331,
      "challen": 3332,
      "##phone": 3333,
      "environment": 3334,
      "##sing": 3335,
      "none": 3336,
      "##con": 3337,
      "##yy": 3338,
      "##ered": 3339,
      "prom": 3340,
      "apolog": 3341,
      "favour": 3342,
      "genuine": 3343,
      "eq": 3344,
      "recomm": 3345,
      "compet": 3346,
      "rules": 3347,
      "agre": 3348,
      "lie": 3349,
      "##aaaa": 3350,
      "period": 3351,
      "##verage": 3352,
      "ya": 3353,
      "program": 3354,
      "##ibly": 3355,
      "##head": 3356,
      "surprised": 3357,
      "pet": 3358,
      "sarc": 3359,
      "facebook": 3360,
      "desire": 3361,
      "##ples": 3362,
      "band": 3363,
      "##rel": 3364,
      "fill": 3365,
      "gender": 3366,
      "pen": 3367,
      "##lev": 3368,
      "dev": 3369,
      "guil": 3370,
      "bull": 3371,
      "dude": 3372,
      "extravert": 3373,
      "18": 3374,
      "sick": 3375,
      "peace": 3376,
      "pull": 3377,
      "action": 3378,
      "##erve": 3379,
      "debate": 3380,
      "considering": 3381,
      "##ta": 3382,
      "##ability": 3383,
      "ath": 3384,
      "silly": 3385,
      "identify": 3386,
      "##tw": 3387,
      "##ization": 3388,
      "played": 3389,
      "yep": 3390,
      "throw": 3391,
      "title": 3392,
      "somebody": 3393,
      "##ensive": 3394,
      "walking": 3395,
      "##ping": 3396,
      "sharing": 3397,
      "naturally": 3398,
      "##ric": 3399,
      "11": 3400,
      "dan": 3401,
      "ess": 3402,
      "##under": 3403,
      "##rop": 3404,
      "dest": 3405,
      "##ented": 3406,
      "helped": 3407,
      "described": 3408,
      "##pped": 3409,
      "crush": 3410,
      "teen": 3411,
      "##iving": 3412,
      "involved": 3413,
      "##atter": 3414,
      "among": 3415,
      "recogn": 3416,
      "places": 3417,
      "ton": 3418,
      "##ral": 3419,
      "5w": 3420,
      "##form": 3421,
      "calm": 3422,
      "##els": 3423,
      "running": 3424,
      "convin": 3425,
      "fire": 3426,
      "air": 3427,
      "##ese": 3428,
      "scient": 3429,
      "##xx": 3430,
      "hugs": 3431,
      "handle": 3432,
      "determ": 3433,
      "inse": 3434,
      "moving": 3435,
      "religious": 3436,
      "poor": 3437,
      "prim": 3438,
      "##ital": 3439,
      "coun": 3440,
      "##dden": 3441,
      "average": 3442,
      "following": 3443,
      "moral": 3444,
      "sexual": 3445,
      "animals": 3446,
      "health": 3447,
      "according": 3448,
      "jump": 3449,
      "attractive": 3450,
      "##zz": 3451,
      "##rog": 3452,
      "cant": 3453,
      "sudden": 3454,
      "scared": 3455,
      "green": 3456,
      "pattern": 3457,
      "##ky": 3458,
      "score": 3459,
      "immedi": 3460,
      "##cial": 3461,
      "entjs": 3462,
      "pu": 3463,
      "page": 3464,
      "stories": 3465,
      "catch": 3466,
      "##work": 3467,
      "##itude": 3468,
      "##hol": 3469,
      "sitting": 3470,
      "potential": 3471,
      "##gest": 3472,
      "studying": 3473,
      "company": 3474,
      "ver": 3475,
      "bunch": 3476,
      "##ox": 3477,
      "eventually": 3478,
      "shocked": 3479,
      "fu": 3480,
      "##erc": 3481,
      "lone": 3482,
      "crying": 3483,
      "dry": 3484,
      "drop": 3485,
      "details": 3486,
      "childhood": 3487,
      "ach": 3488,
      "dress": 3489,
      "eating": 3490,
      "scen": 3491,
      "anger": 3492,
      "uncom": 3493,
      "path": 3494,
      "pictures": 3495,
      "city": 3496,
      "frustrating": 3497,
      "normally": 3498,
      "incredibly": 3499,
      "##lu": 3500,
      "##enty": 3501,
      "9w": 3502,
      "##11": 3503,
      "fasc": 3504,
      "pic": 3505,
      "##ape": 3506,
      "disor": 3507,
      "talked": 3508,
      "proper": 3509,
      "goog": 3510,
      "pap": 3511,
      "spo": 3512,
      "skills": 3513,
      "actions": 3514,
      "femin": 3515,
      "doct": 3516,
      "relax": 3517,
      "baby": 3518,
      "iphone": 3519,
      "ignor": 3520,
      "rain": 3521,
      "confident": 3522,
      "philosophy": 3523,
      "cook": 3524,
      "waiting": 3525,
      "responses": 3526,
      "moder": 3527,
      "##lo": 3528,
      "##asm": 3529,
      "alot": 3530,
      "complex": 3531,
      "turned": 3532,
      "growing": 3533,
      "ce": 3534,
      "##to": 3535,
      "discussion": 3536,
      "slightly": 3537,
      "shall": 3538,
      "interp": 3539,
      "cop": 3540,
      "##ution": 3541,
      "##othes": 3542,
      "confidence": 3543,
      "enfjs": 3544,
      "decision": 3545,
      "socion": 3546,
      "shut": 3547,
      "educ": 3548,
      "recommend": 3549,
      "previous": 3550,
      "##ney": 3551,
      "entirely": 3552,
      "stat": 3553,
      "introverts": 3554,
      "hom": 3555,
      "##duct": 3556,
      "despite": 3557,
      "nope": 3558,
      "##aged": 3559,
      "##iculous": 3560,
      "version": 3561,
      "loc": 3562,
      "became": 3563,
      "typical": 3564,
      "##ified": 3565,
      "hyp": 3566,
      "forward": 3567,
      "field": 3568,
      "quality": 3569,
      "tough": 3570,
      "mainly": 3571,
      "bes": 3572,
      "##ius": 3573,
      "##soci": 3574,
      "sour": 3575,
      "##eth": 3576,
      "everybody": 3577,
      "##ological": 3578,
      "omg": 3579,
      "##cul": 3580,
      "image": 3581,
      "university": 3582,
      "mel": 3583,
      "##arr": 3584,
      "judging": 3585,
      "##inating": 3586,
      "##esh": 3587,
      "classes": 3588,
      "meeting": 3589,
      "summer": 3590,
      "multip": 3591,
      "14": 3592,
      "chat": 3593,
      "frequ": 3594,
      "##underst": 3595,
      "statement": 3596,
      "uncomfortable": 3597,
      "moved": 3598,
      "specifically": 3599,
      "alright": 3600,
      "horrible": 3601,
      "troll": 3602,
      "feed": 3603,
      "tested": 3604,
      "box": 3605,
      "ignore": 3606,
      "occasion": 3607,
      "myst": 3608,
      "definition": 3609,
      "press": 3610,
      "beat": 3611,
      "valid": 3612,
      "busy": 3613,
      "hy": 3614,
      "rece": 3615,
      "heav": 3616,
      "hobb": 3617,
      "benef": 3618,
      "port": 3619,
      "inner": 3620,
      "excited": 3621,
      "##ased": 3622,
      "depending": 3623,
      "##x92": 3624,
      "engine": 3625,
      "fully": 3626,
      "dumb": 3627,
      "##arian": 3628,
      "##put": 3629,
      "biggest": 3630,
      "##lier": 3631,
      "roll": 3632,
      "##ux": 3633,
      "area": 3634,
      "prin": 3635,
      "attack": 3636,
      "perfectly": 3637,
      "7w": 3638,
      "meth": 3639,
      "socionics": 3640,
      "blushed": 3641,
      "##iding": 3642,
      "rob": 3643,
      "insec": 3644,
      "200": 3645,
      "##ding": 3646,
      "##ires": 3647,
      "double": 3648,
      "dat": 3649,
      "jung": 3650,
      "pure": 3651,
      "comfort": 3652,
      "caring": 3653,
      "lonely": 3654,
      "##ises": 3655,
      "neither": 3656,
      "position": 3657,
      "crap": 3658,
      "beginning": 3659,
      "force": 3660,
      "understood": 3661,
      "push": 3662,
      "btw": 3663,
      "quot": 3664,
      "parts": 3665,
      "typically": 3666,
      "##ngth": 3667,
      "cats": 3668,
      "send": 3669,
      "bey": 3670,
      "lean": 3671,
      "mark": 3672,
      "figured": 3673,
      "##isf": 3674,
      "aggress": 3675,
      "clar": 3676,
      "strength": 3677,
      "wife": 3678,
      "harm": 3679,
      "ive": 3680,
      "imposs": 3681,
      "favourite": 3682,
      "##ured": 3683,
      "minded": 3684,
      "kiss": 3685,
      "drunk": 3686,
      "closest": 3687,
      "anime": 3688,
      "viol": 3689,
      "##iliar": 3690,
      "##akes": 3691,
      "reject": 3692,
      "trad": 3693,
      "dealing": 3694,
      "13": 3695,
      "##ison": 3696,
      "door": 3697,
      "misunderst": 3698,
      "##hn": 3699,
      "##itions": 3700,
      "humans": 3701,
      "ali": 3702,
      "universe": 3703,
      "anyways": 3704,
      "himself": 3705,
      "##room": 3706,
      "influ": 3707,
      "communication": 3708,
      "chem": 3709,
      "##ived": 3710,
      "##oes": 3711,
      "club": 3712,
      "ridiculous": 3713,
      "reminds": 3714,
      "achie": 3715,
      "##oof": 3716,
      "den": 3717,
      "lived": 3718,
      "blood": 3719,
      "master": 3720,
      "fits": 3721,
      "rad": 3722,
      "sal": 3723,
      "acting": 3724,
      "##hhhh": 3725,
      "dig": 3726,
      "season": 3727,
      "friendly": 3728,
      "istps": 3729,
      "forever": 3730,
      "dated": 3731,
      "##ruct": 3732,
      "##ext": 3733,
      "##ka": 3734,
      "##iny": 3735,
      "##erved": 3736,
      "##otic": 3737,
      "shop": 3738,
      "memory": 3739,
      "majority": 3740,
      "experienced": 3741,
      "further": 3742,
      "seek": 3743,
      "##ception": 3744,
      "profile": 3745,
      "sucks": 3746,
      "news": 3747,
      "ge": 3748,
      "tear": 3749,
      "##rum": 3750,
      "soft": 3751,
      "##w2": 3752,
      "associ": 3753,
      "pred": 3754,
      "socially": 3755,
      "repe": 3756,
      "loves": 3757,
      "user": 3758,
      "purs": 3759,
      "protect": 3760,
      "##cer": 3761,
      "ourselves": 3762,
      "##eps": 3763,
      "sup": 3764,
      "##ains": 3765,
      "earlier": 3766,
      "ut": 3767,
      "sports": 3768,
      "##ball": 3769,
      "observ": 3770,
      "intellectual": 3771,
      "ult": 3772,
      "webs": 3773,
      "ground": 3774,
      "key": 3775,
      "##eeee": 3776,
      "popular": 3777,
      "author": 3778,
      "impossible": 3779,
      "dun": 3780,
      "instinct": 3781,
      "beyond": 3782,
      "ment": 3783,
      "shad": 3784,
      "##urity": 3785,
      "##ager": 3786,
      "consist": 3787,
      "decisions": 3788,
      "hilar": 3789,
      "ast": 3790,
      "ready": 3791,
      "boss": 3792,
      "bott": 3793,
      "##light": 3794,
      "##ishing": 3795,
      "gay": 3796,
      "congr": 3797,
      "comments": 3798,
      "procra": 3799,
      "physically": 3800,
      "procrast": 3801,
      "ball": 3802,
      "##get": 3803,
      "nearly": 3804,
      "goal": 3805,
      "argue": 3806,
      "eth": 3807,
      "div": 3808,
      "kept": 3809,
      "piece": 3810,
      "17": 3811,
      "ten": 3812,
      "sem": 3813,
      "flow": 3814,
      "higher": 3815,
      "##ugs": 3816,
      "john": 3817,
      "disorder": 3818,
      "multiple": 3819,
      "yours": 3820,
      "save": 3821,
      "videos": 3822,
      "hilarious": 3823,
      "##back": 3824,
      "##ppy": 3825,
      "25": 3826,
      "context": 3827,
      "helping": 3828,
      "##levant": 3829,
      "lyr": 3830,
      "##ina": 3831,
      "happiness": 3832,
      "##ograph": 3833,
      "team": 3834,
      "preference": 3835,
      "continue": 3836,
      "##round": 3837,
      "##agn": 3838,
      "hmmm": 3839,
      "##elf": 3840,
      "selfish": 3841,
      "student": 3842,
      "jour": 3843,
      "wild": 3844,
      "##10": 3845,
      "differences": 3846,
      "grew": 3847,
      "circum": 3848,
      "##erial": 3849,
      "##iant": 3850,
      "##icial": 3851,
      "empathy": 3852,
      "interview": 3853,
      "extreme": 3854,
      "method": 3855,
      "##uff": 3856,
      "##igh": 3857,
      "article": 3858,
      "##dream": 3859,
      "struggle": 3860,
      "mass": 3861,
      "pretend": 3862,
      "grade": 3863,
      "therap": 3864,
      "ner": 3865,
      "liber": 3866,
      "dire": 3867,
      "creep": 3868,
      "becoming": 3869,
      "doctor": 3870,
      "##fp": 3871,
      "third": 3872,
      "surround": 3873,
      "strongly": 3874,
      "driving": 3875,
      "ris": 3876,
      "total": 3877,
      "stressed": 3878,
      "concer": 3879,
      "##for": 3880,
      "##kend": 3881,
      "##aint": 3882,
      "##whel": 3883,
      "##rr": 3884,
      "flaw": 3885,
      "explan": 3886,
      "sensing": 3887,
      "##ued": 3888,
      "athe": 3889,
      "jack": 3890,
      "##ann": 3891,
      "culture": 3892,
      "plenty": 3893,
      "various": 3894,
      "mut": 3895,
      "input": 3896,
      "##ortun": 3897,
      "core": 3898,
      "##raction": 3899,
      "plans": 3900,
      "4w5": 3901,
      "##iest": 3902,
      "##ton": 3903,
      "exerc": 3904,
      "temper": 3905,
      "suspect": 3906,
      "##istics": 3907,
      "overwhel": 3908,
      "finished": 3909,
      "cross": 3910,
      "##imate": 3911,
      "##ggs": 3912,
      "moments": 3913,
      "jobs": 3914,
      "unique": 3915,
      "besides": 3916,
      "##een": 3917,
      "manage": 3918,
      "brought": 3919,
      "enjoyed": 3920,
      "taste": 3921,
      "abst": 3922,
      "idi": 3923,
      "##ibility": 3924,
      "entert": 3925,
      "pan": 3926,
      "views": 3927,
      "signific": 3928,
      "basic": 3929,
      "##nch": 3930,
      "join": 3931,
      "##ternal": 3932,
      "american": 3933,
      "elect": 3934,
      "##ask": 3935,
      "jokes": 3936,
      "opportun": 3937,
      "independ": 3938,
      "hehe": 3939,
      "product": 3940,
      "marri": 3941,
      "stopped": 3942,
      "wer": 3943,
      "neut": 3944,
      "weekend": 3945,
      "paper": 3946,
      "circumst": 3947,
      "hide": 3948,
      "##bers": 3949,
      "##com": 3950,
      "##orrow": 3951,
      "loving": 3952,
      "therefore": 3953,
      "fake": 3954,
      "##ground": 3955,
      "planning": 3956,
      "waste": 3957,
      "##ym": 3958,
      "attach": 3959,
      "cover": 3960,
      "satisf": 3961,
      "cha": 3962,
      "tomorrow": 3963,
      "##rage": 3964,
      "mir": 3965,
      "wit": 3966,
      "adult": 3967,
      "animal": 3968,
      "film": 3969,
      "epis": 3970,
      "google": 3971,
      "##sp": 3972,
      "##ki": 3973,
      "contr": 3974,
      "including": 3975,
      "##ges": 3976,
      "clothes": 3977,
      "skin": 3978,
      "mou": 3979,
      "mid": 3980,
      "net": 3981,
      "smell": 3982,
      "bitch": 3983,
      "##lies": 3984,
      "fantasy": 3985,
      "dance": 3986,
      "eh": 3987,
      "drugs": 3988,
      "glass": 3989,
      "tm": 3990,
      "offer": 3991,
      "tells": 3992,
      "agreed": 3993,
      "##bo": 3994,
      "##ulation": 3995,
      "##cohol": 3996,
      "alcohol": 3997,
      "tendency": 3998,
      "guilty": 3999,
      "lines": 4000,
      "rol": 4001,
      "##my": 4002,
      "spiritual": 4003,
      "##mate": 4004,
      "beliefs": 4005,
      "private": 4006,
      "##aries": 4007,
      "annoyed": 4008,
      "regardless": 4009,
      "nerv": 4010,
      "##xp": 4011,
      "content": 4012,
      "istjs": 4013,
      "lay": 4014,
      "##w3": 4015,
      "relative": 4016,
      "twice": 4017,
      "wake": 4018,
      "iq": 4019,
      "##ores": 4020,
      "focused": 4021,
      "land": 4022,
      "mill": 4023,
      "wise": 4024,
      "role": 4025,
      "commit": 4026,
      "evidence": 4027,
      "bul": 4028,
      "##opath": 4029,
      "##urn": 4030,
      "happening": 4031,
      "practical": 4032,
      "neutral": 4033,
      "everyday": 4034,
      "reaction": 4035,
      "nervous": 4036,
      "##ience": 4037,
      "##erely": 4038,
      "faith": 4039,
      "facts": 4040,
      "freak": 4041,
      "conclusion": 4042,
      "ban": 4043,
      "##by": 4044,
      "created": 4045,
      "broke": 4046,
      "birthday": 4047,
      "marriage": 4048,
      "##cis": 4049,
      "familiar": 4050,
      "deeply": 4051,
      "24": 4052,
      "21": 4053,
      "##anced": 4054,
      "analys": 4055,
      "option": 4056,
      "##mas": 4057,
      "repres": 4058,
      "weren": 4059,
      "groups": 4060,
      "switch": 4061,
      "beauty": 4062,
      "##orate": 4063,
      "disapp": 4064,
      "changes": 4065,
      "gift": 4066,
      "##time": 4067,
      "##alous": 4068,
      "whom": 4069,
      "##icks": 4070,
      "amb": 4071,
      "safe": 4072,
      "initi": 4073,
      "mr": 4074,
      "##ooo": 4075,
      "kinds": 4076,
      "hopefully": 4077,
      "rule": 4078,
      "extraverted": 4079,
      "active": 4080,
      "drawing": 4081,
      "daily": 4082,
      "indic": 4083,
      "opt": 4084,
      "weight": 4085,
      "alb": 4086,
      "arrog": 4087,
      "breat": 4088,
      "tor": 4089,
      "##cies": 4090,
      "gotta": 4091,
      "keeping": 4092,
      "users": 4093,
      "daydream": 4094,
      "bare": 4095,
      "vol": 4096,
      "##amm": 4097,
      "strang": 4098,
      "scary": 4099,
      "lyrics": 4100,
      "categ": 4101,
      "##anch": 4102,
      "moon": 4103,
      "##olate": 4104,
      "flir": 4105,
      "mouth": 4106,
      "40": 4107,
      "##93": 4108,
      "click": 4109,
      "behaviour": 4110,
      "theories": 4111,
      "##pping": 4112,
      "distance": 4113,
      "ger": 4114,
      "hung": 4115,
      "setting": 4116,
      "snow": 4117,
      "##elling": 4118,
      "accom": 4119,
      "forced": 4120,
      "mach": 4121,
      "##usive": 4122,
      "recent": 4123,
      "metal": 4124,
      "examples": 4125,
      "introdu": 4126,
      "lady": 4127,
      "numb": 4128,
      "squ": 4129,
      "##ef": 4130,
      "immediately": 4131,
      "hm": 4132,
      "##w7": 4133,
      "inn": 4134,
      "dogs": 4135,
      "compliment": 4136,
      "##iver": 4137,
      "##ural": 4138,
      "##ogy": 4139,
      "define": 4140,
      "extent": 4141,
      "regret": 4142,
      "interpret": 4143,
      "narc": 4144,
      "vent": 4145,
      "##ior": 4146,
      "regarding": 4147,
      "complic": 4148,
      "crow": 4149,
      "minute": 4150,
      "stereotype": 4151,
      "##iven": 4152,
      "##94": 4153,
      "sj": 4154,
      "##xual": 4155,
      "##ana": 4156,
      "##amed": 4157,
      "##olic": 4158,
      "overall": 4159,
      "possibility": 4160,
      "turns": 4161,
      "arguments": 4162,
      "impression": 4163,
      "depth": 4164,
      "suddenly": 4165,
      "gain": 4166,
      "mature": 4167,
      "gradu": 4168,
      "abstract": 4169,
      "##omb": 4170,
      "prep": 4171,
      "##osity": 4172,
      "trait": 4173,
      "six": 4174,
      "internal": 4175,
      "improve": 4176,
      "##fj": 4177,
      "data": 4178,
      "gut": 4179,
      "##entially": 4180,
      "##ague": 4181,
      "necessary": 4182,
      "jealous": 4183,
      "equal": 4184,
      "fash": 4185,
      "pun": 4186,
      "##edom": 4187,
      "##etry": 4188,
      "keeps": 4189,
      "assuming": 4190,
      "aud": 4191,
      "budd": 4192,
      "rev": 4193,
      "upd": 4194,
      "becomes": 4195,
      "tmlt": 4196,
      "thus": 4197,
      "goals": 4198,
      "anybody": 4199,
      "hoping": 4200,
      "verb": 4201,
      "fiction": 4202,
      "um": 4203,
      "apply": 4204,
      "delet": 4205,
      "acqu": 4206,
      "esc": 4207,
      "track": 4208,
      "na": 4209,
      "wo": 4210,
      "excell": 4211,
      "visual": 4212,
      "interaction": 4213,
      "road": 4214,
      "wearing": 4215,
      "anywhere": 4216,
      "##apan": 4217,
      "introversion": 4218,
      "vibe": 4219,
      "raised": 4220,
      "changing": 4221,
      "##aks": 4222,
      "maint": 4223,
      "advent": 4224,
      "scenar": 4225,
      "japan": 4226,
      "gover": 4227,
      "balance": 4228,
      "fashion": 4229,
      "caught": 4230,
      "dar": 4231,
      "novel": 4232,
      "hasn": 4233,
      "##edia": 4234,
      "correl": 4235,
      "sleeping": 4236,
      "website": 4237,
      "ble": 4238,
      "##aling": 4239,
      "equ": 4240,
      "yup": 4241,
      "##ray": 4242,
      "##ker": 4243,
      "intent": 4244,
      "choc": 4245,
      "medic": 4246,
      "cow": 4247,
      "ugh": 4248,
      "town": 4249,
      "gather": 4250,
      "##asing": 4251,
      "altern": 4252,
      "members": 4253,
      "practice": 4254,
      "yay": 4255,
      "##eness": 4256,
      "gold": 4257,
      "##une": 4258,
      "differently": 4259,
      "collect": 4260,
      "dunno": 4261,
      "ahead": 4262,
      "bound": 4263,
      "rout": 4264,
      "##itted": 4265,
      "stereotypes": 4266,
      "album": 4267,
      "store": 4268,
      "diagn": 4269,
      "##son": 4270,
      "lovely": 4271,
      "calling": 4272,
      "22": 4273,
      "90": 4274,
      "king": 4275,
      "isfps": 4276,
      "##chan": 4277,
      "idk": 4278,
      "##onscious": 4279,
      "freedom": 4280,
      "physics": 4281,
      "political": 4282,
      "occasionally": 4283,
      "circumstances": 4284,
      "##itional": 4285,
      "##iveness": 4286,
      "##vent": 4287,
      "onto": 4288,
      "missed": 4289,
      "affection": 4290,
      "##te": 4291,
      "##oted": 4292,
      "##iling": 4293,
      "personalities": 4294,
      "confir": 4295,
      "expression": 4296,
      "##aph": 4297,
      "##ians": 4298,
      "obsessed": 4299,
      "inspir": 4300,
      "subjective": 4301,
      "mic": 4302,
      "sake": 4303,
      "##yal": 4304,
      "lif": 4305,
      "topics": 4306,
      "hanging": 4307,
      "education": 4308,
      "coo": 4309,
      "cho": 4310,
      "prove": 4311,
      "narciss": 4312,
      "separ": 4313,
      "##ploy": 4314,
      "surv": 4315,
      "extroverts": 4316,
      "mistake": 4317,
      "habit": 4318,
      "contrib": 4319,
      "french": 4320,
      "lucky": 4321,
      "##nn": 4322,
      "arch": 4323,
      "obl": 4324,
      "showing": 4325,
      "organized": 4326,
      "german": 4327,
      "artist": 4328,
      "reflect": 4329,
      "aggressive": 4330,
      "concerned": 4331,
      "din": 4332,
      "uh": 4333,
      "##ium": 4334,
      "##inate": 4335,
      "chill": 4336,
      "awful": 4337,
      "starts": 4338,
      "excuse": 4339,
      "existence": 4340,
      "rude": 4341,
      "##urch": 4342,
      "##ushing": 4343,
      "harder": 4344,
      "serv": 4345,
      "pair": 4346,
      "##ds": 4347,
      "aside": 4348,
      "fault": 4349,
      "##itar": 4350,
      "screw": 4351,
      "distract": 4352,
      "community": 4353,
      "possibilities": 4354,
      "activ": 4355,
      "##ival": 4356,
      "sky": 4357,
      "sigh": 4358,
      "nah": 4359,
      "loyal": 4360,
      "span": 4361,
      "esfjs": 4362,
      "tends": 4363,
      "irrit": 4364,
      "##miss": 4365,
      "##w9": 4366,
      "##izz": 4367,
      "struct": 4368,
      "huh": 4369,
      "hated": 4370,
      "##ses": 4371,
      "flo": 4372,
      "invest": 4373,
      "christmas": 4374,
      "##erson": 4375,
      "chick": 4376,
      "manner": 4377,
      "confusing": 4378,
      "mum": 4379,
      "##dom": 4380,
      "##33": 4381,
      "##aging": 4382,
      "cy": 4383,
      "danger": 4384,
      "hers": 4385,
      "spending": 4386,
      "achieve": 4387,
      "##ron": 4388,
      "exper": 4389,
      "attitude": 4390,
      "require": 4391,
      "mer": 4392,
      "##ners": 4393,
      "compared": 4394,
      "80": 4395,
      "##bed": 4396,
      "##ront": 4397,
      "tool": 4398,
      "phr": 4399,
      "events": 4400,
      "drawn": 4401,
      "curiosity": 4402,
      "medit": 4403,
      "directly": 4404,
      "cam": 4405,
      "foot": 4406,
      "##rif": 4407,
      "perform": 4408,
      "drama": 4409,
      "judg": 4410,
      "cafe": 4411,
      "excellent": 4412,
      "cand": 4413,
      "church": 4414,
      "fell": 4415,
      "##omy": 4416,
      "missing": 4417,
      "broken": 4418,
      "ego": 4419,
      "pages": 4420,
      "rant": 4421,
      "##icip": 4422,
      "development": 4423,
      "drinking": 4424,
      "analysis": 4425,
      "govern": 4426,
      "rich": 4427,
      "##wor": 4428,
      "suic": 4429,
      "##ems": 4430,
      "letting": 4431,
      "criticism": 4432,
      "##load": 4433,
      "strateg": 4434,
      "##play": 4435,
      "optim": 4436,
      "lon": 4437,
      "nar": 4438,
      "parties": 4439,
      "office": 4440,
      "toler": 4441,
      "basis": 4442,
      "cost": 4443,
      "complicated": 4444,
      "wing": 4445,
      "overly": 4446,
      "hearing": 4447,
      "communicate": 4448,
      "motivation": 4449,
      "leaving": 4450,
      "addict": 4451,
      "sentence": 4452,
      "embarr": 4453,
      "explanation": 4454,
      "##ech": 4455,
      "meas": 4456,
      "progress": 4457,
      "decent": 4458,
      "weakness": 4459,
      "bill": 4460,
      "ice": 4461,
      "wis": 4462,
      "worried": 4463,
      "confess": 4464,
      "nut": 4465,
      "background": 4466,
      "fol": 4467,
      "##going": 4468,
      "9w1": 4469,
      "strangers": 4470,
      "ine": 4471,
      "controll": 4472,
      "combination": 4473,
      "slowly": 4474,
      "joy": 4475,
      "names": 4476,
      "##hips": 4477,
      "uses": 4478,
      "hardly": 4479,
      "estps": 4480,
      "capable": 4481,
      "replies": 4482,
      "usern": 4483,
      "##eem": 4484,
      "##key": 4485,
      "external": 4486,
      "unf": 4487,
      "genius": 4488,
      "perfection": 4489,
      "expected": 4490,
      "tonight": 4491,
      "cele": 4492,
      "vul": 4493,
      "minds": 4494,
      "alive": 4495,
      "guitar": 4496,
      "letter": 4497,
      "sensors": 4498,
      "##ropri": 4499,
      "sam": 4500,
      "voc": 4501,
      "##istry": 4502,
      "awh": 4503,
      "design": 4504,
      "instance": 4505,
      "imagination": 4506,
      "frustrated": 4507,
      "##ares": 4508,
      "##rig": 4509,
      "board": 4510,
      "discovered": 4511,
      "encou": 4512,
      "embarrass": 4513,
      "bright": 4514,
      "##iff": 4515,
      "isfjs": 4516,
      "reb": 4517,
      "enth": 4518,
      "occur": 4519,
      "fascinating": 4520,
      "chocolate": 4521,
      "##inary": 4522,
      "##ening": 4523,
      "mechan": 4524,
      "##ift": 4525,
      "minor": 4526,
      "falling": 4527,
      "closer": 4528,
      "briggs": 4529,
      "aux": 4530,
      "##ously": 4531,
      "##olution": 4532,
      "dyn": 4533,
      "myers": 4534,
      "accompl": 4535,
      "pink": 4536,
      "##bing": 4537,
      "libr": 4538,
      "reasoning": 4539,
      "kick": 4540,
      "##dy": 4541,
      "expectations": 4542,
      "bullsh": 4543,
      "heavy": 4544,
      "jes": 4545,
      "lying": 4546,
      "##iday": 4547,
      "intention": 4548,
      "offended": 4549,
      "train": 4550,
      "201": 4551,
      "passionate": 4552,
      "direction": 4553,
      "##ases": 4554,
      "source": 4555,
      "exercise": 4556,
      "gh": 4557,
      "bear": 4558,
      "below": 4559,
      "brill": 4560,
      "insult": 4561,
      "sexy": 4562,
      "teachers": 4563,
      "frequently": 4564,
      "mentally": 4565,
      "##now": 4566,
      "empt": 4567,
      "trip": 4568,
      "challenge": 4569,
      "table": 4570,
      "breaking": 4571,
      "primary": 4572,
      "username": 4573,
      "cudd": 4574,
      "nts": 4575,
      "##icious": 4576,
      "blunt": 4577,
      "lets": 4578,
      "crack": 4579,
      "significant": 4580,
      "masc": 4581,
      "losing": 4582,
      "anxious": 4583,
      "flirting": 4584,
      "camp": 4585,
      "constant": 4586,
      "fat": 4587,
      "stated": 4588,
      "##ament": 4589,
      "trity": 4590,
      "died": 4591,
      "bold": 4592,
      "professional": 4593,
      "genuinely": 4594,
      "dynam": 4595,
      "sna": 4596,
      "##cle": 4597,
      "material": 4598,
      "objective": 4599,
      "bullshit": 4600,
      "rough": 4601,
      "son": 4602,
      "##iments": 4603,
      "##anted": 4604,
      "scored": 4605,
      "matters": 4606,
      "passive": 4607,
      "swear": 4608,
      "intimid": 4609,
      "60": 4610,
      "toward": 4611,
      "blind": 4612,
      "memories": 4613,
      "celebr": 4614,
      "70": 4615,
      "##icking": 4616,
      "carry": 4617,
      "admire": 4618,
      "mode": 4619,
      "anti": 4620,
      "sarcasm": 4621,
      "fool": 4622,
      "##old": 4623,
      "##zing": 4624,
      "##orable": 4625,
      "info": 4626,
      "attraction": 4627,
      "letters": 4628,
      "visit": 4629,
      "##hole": 4630,
      "batt": 4631,
      "len": 4632,
      "taught": 4633,
      "##uls": 4634,
      "useless": 4635,
      "throughout": 4636,
      "drag": 4637,
      "mur": 4638,
      "##apt": 4639,
      "everywhere": 4640,
      "imo": 4641,
      "surf": 4642,
      "disappoint": 4643,
      "barely": 4644,
      "awhile": 4645,
      "till": 4646,
      "und": 4647,
      "##fl": 4648,
      "quit": 4649,
      "sinc": 4650,
      "kidding": 4651,
      "##itary": 4652,
      "##urt": 4653,
      "solution": 4654,
      "shadow": 4655,
      "rap": 4656,
      "ish": 4657,
      "thinker": 4658,
      "fresh": 4659,
      "exists": 4660,
      "west": 4661,
      "record": 4662,
      "engineering": 4663,
      "jer": 4664,
      "apologize": 4665,
      "mi": 4666,
      "email": 4667,
      "speech": 4668,
      "sett": 4669,
      "limited": 4670,
      "allowed": 4671,
      "pressure": 4672,
      "via": 4673,
      "##cd": 4674,
      "stim": 4675,
      "scientific": 4676,
      "bag": 4677,
      "fing": 4678,
      "##ja": 4679,
      "##ened": 4680,
      "chose": 4681,
      "mistyp": 4682,
      "label": 4683,
      "ps": 4684,
      "##ingly": 4685,
      "##ilt": 4686,
      "deeper": 4687,
      "picked": 4688,
      "smoke": 4689,
      "poetry": 4690,
      "romance": 4691,
      "nail": 4692,
      "##olute": 4693,
      "scene": 4694,
      "assert": 4695,
      "esteem": 4696,
      "building": 4697,
      "##ceed": 4698,
      "feeler": 4699,
      "##gging": 4700,
      "females": 4701,
      "xn": 4702,
      "media": 4703,
      "transl": 4704,
      "feminine": 4705,
      "##lock": 4706,
      "##icient": 4707,
      "meh": 4708,
      "oper": 4709,
      "hahahaha": 4710,
      "return": 4711,
      "cous": 4712,
      "section": 4713,
      "##ification": 4714,
      "patterns": 4715,
      "creepy": 4716,
      "stare": 4717,
      "usual": 4718,
      "classic": 4719,
      "bought": 4720,
      "lord": 4721,
      "##85": 4722,
      "lies": 4723,
      "individuals": 4724,
      "qualities": 4725,
      "casual": 4726,
      "insecure": 4727,
      "chemistry": 4728,
      "round": 4729,
      "##encies": 4730,
      "load": 4731,
      "loop": 4732,
      "ends": 4733,
      "hurts": 4734,
      "recognize": 4735,
      "5w4": 4736,
      "##inc": 4737,
      "##iles": 4738,
      "poll": 4739,
      "##ume": 4740,
      "perception": 4741,
      "excl": 4742,
      "cares": 4743,
      "7w6": 4744,
      "gam": 4745,
      "hat": 4746,
      "intrig": 4747,
      "trick": 4748,
      "##anding": 4749,
      "accident": 4750,
      "explaining": 4751,
      "base": 4752,
      "fal": 4753,
      "vir": 4754,
      "##ga": 4755,
      "##wr": 4756,
      "scream": 4757,
      "flirt": 4758,
      "holy": 4759,
      "include": 4760,
      "element": 4761,
      "herself": 4762,
      "hes": 4763,
      "vill": 4764,
      "reserved": 4765,
      "insane": 4766,
      "##hhh": 4767,
      "border": 4768,
      "autom": 4769,
      "econ": 4770,
      "##97": 4771,
      "asleep": 4772,
      "pride": 4773,
      "referring": 4774,
      "states": 4775,
      "stranger": 4776,
      "brown": 4777,
      "immature": 4778,
      "bothered": 4779,
      "magic": 4780,
      "##aly": 4781,
      "shoot": 4782,
      "##rol": 4783,
      "cru": 4784,
      "painting": 4785,
      "politics": 4786,
      "provide": 4787,
      "relevant": 4788,
      "butter": 4789,
      "##imately": 4790,
      "##haust": 4791,
      "absolute": 4792,
      "aspects": 4793,
      "superior": 4794,
      "lat": 4795,
      "sides": 4796,
      "friendships": 4797,
      "dancing": 4798,
      "contrad": 4799,
      "wood": 4800,
      "exhaust": 4801,
      "##usi": 4802,
      "standards": 4803,
      "paran": 4804,
      "failed": 4805,
      "street": 4806,
      "destro": 4807,
      "independent": 4808,
      "nin": 4809,
      "subt": 4810,
      "pissed": 4811,
      "pian": 4812,
      "solve": 4813,
      "holding": 4814,
      "nfs": 4815,
      "photo": 4816,
      "america": 4817,
      "park": 4818,
      "##ule": 4819,
      "heh": 4820,
      "blame": 4821,
      "joking": 4822,
      "humanity": 4823,
      "5w6": 4824,
      "vulner": 4825,
      "pin": 4826,
      "photos": 4827,
      "##ropriate": 4828,
      "jesus": 4829,
      "du": 4830,
      "vague": 4831,
      "weed": 4832,
      "sched": 4833,
      "accomplish": 4834,
      "##omp": 4835,
      "##che": 4836,
      "address": 4837,
      "arguing": 4838,
      "##gu": 4839,
      "unlike": 4840,
      "##igned": 4841,
      "sarcastic": 4842,
      "atheist": 4843,
      "elab": 4844,
      "honesty": 4845,
      "##oooooooo": 4846,
      "tritype": 4847,
      "males": 4848,
      "pill": 4849,
      "liking": 4850,
      "gent": 4851,
      "vict": 4852,
      "##oring": 4853,
      "doc": 4854,
      "shot": 4855,
      "deserve": 4856,
      "languages": 4857,
      "convinced": 4858,
      "risk": 4859,
      "mascul": 4860,
      "der": 4861,
      "##rom": 4862,
      "weather": 4863,
      "speed": 4864,
      "concern": 4865,
      "south": 4866,
      "##dra": 4867,
      "fantastic": 4868,
      "card": 4869,
      "##tt": 4870,
      "comed": 4871,
      "tex": 4872,
      "enthusi": 4873,
      "daught": 4874,
      "lur": 4875,
      "##aur": 4876,
      "##atically": 4877,
      "block": 4878,
      "asshole": 4879,
      "enjoying": 4880,
      "##uuuu": 4881,
      "opportunity": 4882,
      "episode": 4883,
      "##fill": 4884,
      "##mao": 4885,
      "arrogant": 4886,
      "employ": 4887,
      "blog": 4888,
      "metaph": 4889,
      "solid": 4890,
      "ack": 4891,
      "sand": 4892,
      "realise": 4893,
      "member": 4894,
      "irrational": 4895,
      "cred": 4896,
      "code": 4897,
      "hall": 4898,
      "##matic": 4899,
      "##vey": 4900,
      "careful": 4901,
      "advant": 4902,
      "cases": 4903,
      "properly": 4904,
      "##ography": 4905,
      "acquaint": 4906,
      "hars": 4907,
      "##just": 4908,
      "##cles": 4909,
      "mistakes": 4910,
      "##90": 4911,
      "explained": 4912,
      "capt": 4913,
      "misunderstood": 4914,
      "crowd": 4915,
      "brilliant": 4916,
      "fict": 4917,
      "gri": 4918,
      "##orge": 4919,
      "colour": 4920,
      "counter": 4921,
      "bat": 4922,
      "##here": 4923,
      "##gar": 4924,
      "##xic": 4925,
      "tries": 4926,
      "shared": 4927,
      "tears": 4928,
      "represent": 4929,
      "activities": 4930,
      "teaching": 4931,
      "modern": 4932,
      "dinner": 4933,
      "threat": 4934,
      "belong": 4935,
      "confront": 4936,
      "calcul": 4937,
      "harry": 4938,
      "surprising": 4939,
      "##ris": 4940,
      "trump": 4941,
      "writer": 4942,
      "service": 4943,
      "government": 4944,
      "bird": 4945,
      "ske": 4946,
      "zone": 4947,
      "calls": 4948,
      "final": 4949,
      "subjects": 4950,
      "frank": 4951,
      "insp": 4952,
      "creativity": 4953,
      "model": 4954,
      "piano": 4955,
      "##point": 4956,
      "hero": 4957,
      "sensor": 4958,
      "levels": 4959,
      "vote": 4960,
      "areas": 4961,
      "##cend": 4962,
      "shirt": 4963,
      "suit": 4964,
      "numbers": 4965,
      "23": 4966,
      "##nal": 4967,
      "colors": 4968,
      "critical": 4969,
      "complain": 4970,
      "fighting": 4971,
      "limit": 4972,
      "hyper": 4973,
      "gun": 4974,
      "##por": 4975,
      "##ops": 4976,
      "outgoing": 4977,
      "creating": 4978,
      "paying": 4979,
      "harsh": 4980,
      "van": 4981,
      "##66": 4982,
      "shame": 4983,
      "##roc": 4984,
      "web": 4985,
      "##uses": 4986,
      "connected": 4987,
      "wik": 4988,
      "lower": 4989,
      "wand": 4990,
      "##tical": 4991,
      "##ero": 4992,
      "##sequ": 4993,
      "recall": 4994,
      "leaning": 4995,
      "fictional": 4996,
      "rh": 4997,
      "unre": 4998,
      "scale": 4999,
      "incre": 5000,
      "planet": 5001,
      "irl": 5002,
      "cast": 5003,
      "lmao": 5004,
      "stage": 5005,
      "prone": 5006,
      "forgive": 5007,
      "expressing": 5008,
      "45": 5009,
      "mellow": 5010,
      "tho": 5011,
      "oriented": 5012,
      "predict": 5013,
      "cyn": 5014,
      "##ai": 5015,
      "sell": 5016,
      "didnt": 5017,
      "guessing": 5018,
      "##ension": 5019,
      "regul": 5020,
      "vision": 5021,
      "surprise": 5022,
      "false": 5023,
      "4w3": 5024,
      "6w5": 5025,
      "withdra": 5026,
      "##ustom": 5027,
      "pointless": 5028,
      "staying": 5029,
      "silence": 5030,
      "bump": 5031,
      "##inting": 5032,
      "appreciated": 5033,
      "prior": 5034,
      "##rupt": 5035,
      "feedback": 5036,
      "empty": 5037,
      "options": 5038,
      "##ils": 5039,
      "cloud": 5040,
      "reference": 5041,
      "local": 5042,
      "##mental": 5043,
      "gifts": 5044,
      "symb": 5045,
      "ba": 5046,
      "eur": 5047,
      "mate": 5048,
      "sle": 5049,
      "managed": 5050,
      "stressful": 5051,
      "population": 5052,
      "##ada": 5053,
      "regular": 5054,
      "sadly": 5055,
      "systems": 5056,
      "perceive": 5057,
      "stereotypical": 5058,
      "feet": 5059,
      "loss": 5060,
      "studies": 5061,
      "broad": 5062,
      "originally": 5063,
      "nick": 5064,
      "pm": 5065,
      "acts": 5066,
      "emo": 5067,
      "##ologist": 5068,
      "bigger": 5069,
      "cup": 5070,
      "singing": 5071,
      "mutual": 5072,
      "gar": 5073,
      "greatest": 5074,
      "instrum": 5075,
      "fund": 5076,
      "fly": 5077,
      "##bl": 5078,
      "badly": 5079,
      "perceiving": 5080,
      "causes": 5081,
      "million": 5082,
      "update": 5083,
      "1w2": 5084,
      "pra": 5085,
      "tert": 5086,
      "##tf": 5087,
      "stack": 5088,
      "##adem": 5089,
      "feelers": 5090,
      "report": 5091,
      "favorites": 5092,
      "hobbies": 5093,
      "gee": 5094,
      "mal": 5095,
      "##ex": 5096,
      "##ision": 5097,
      "##elled": 5098,
      "##ending": 5099,
      "##others": 5100,
      "##bert": 5101,
      "##ailable": 5102,
      "library": 5103,
      "##val": 5104,
      "##82": 5105,
      "neigh": 5106,
      "leader": 5107,
      "burn": 5108,
      "trend": 5109,
      "market": 5110,
      "adorable": 5111,
      "particip": 5112,
      "gramm": 5113,
      "followed": 5114,
      "pieces": 5115,
      "circle": 5116,
      "innoc": 5117,
      "dick": 5118,
      "##14": 5119,
      "##chool": 5120,
      "##igg": 5121,
      "compare": 5122,
      "contem": 5123,
      "percent": 5124,
      "entertain": 5125,
      "ran": 5126,
      "##leg": 5127,
      "asks": 5128,
      "marry": 5129,
      "heads": 5130,
      "intuit": 5131,
      "##idden": 5132,
      "analyze": 5133,
      "##leyes": 5134,
      "benefit": 5135,
      "wisdom": 5136,
      "ow": 5137,
      "xnt": 5138,
      "activity": 5139,
      "laid": 5140,
      "psychological": 5141,
      "leaders": 5142,
      "killing": 5143,
      "illness": 5144,
      "fulfill": 5145,
      "bond": 5146,
      "mount": 5147,
      "##inter": 5148,
      "sees": 5149,
      "hadn": 5150,
      "adapt": 5151,
      "talks": 5152,
      "academ": 5153,
      "blow": 5154,
      "answered": 5155,
      "filled": 5156,
      "congrat": 5157,
      "rolleyes": 5158,
      "tree": 5159,
      "##stal": 5160,
      "atm": 5161,
      "##cks": 5162,
      "arm": 5163,
      "brings": 5164,
      "grey": 5165,
      "powerful": 5166,
      "interactions": 5167,
      "winter": 5168,
      "successful": 5169,
      "influence": 5170,
      "acknow": 5171,
      "neighb": 5172,
      "tick": 5173,
      "fort": 5174,
      "proof": 5175,
      "driven": 5176,
      "construct": 5177,
      "warning": 5178,
      "vari": 5179,
      "alternative": 5180,
      "cried": 5181,
      "ded": 5182,
      "rub": 5183,
      "wide": 5184,
      "manif": 5185,
      "scre": 5186,
      "simpl": 5187,
      "drives": 5188,
      "accepted": 5189,
      "pleasure": 5190,
      "scenario": 5191,
      "gym": 5192,
      "range": 5193,
      "rele": 5194,
      "peoples": 5195,
      "spont": 5196,
      "boys": 5197,
      "signs": 5198,
      "gentle": 5199,
      "manifest": 5200,
      "##hd": 5201,
      "##gth": 5202,
      "hea": 5203,
      "plat": 5204,
      "aww": 5205,
      "trigg": 5206,
      "answering": 5207,
      "subc": 5208,
      "corner": 5209,
      "daughter": 5210,
      "porn": 5211,
      "##mates": 5212,
      "shoes": 5213,
      "stubb": 5214,
      "dram": 5215,
      "arts": 5216,
      "sorts": 5217,
      "seconds": 5218,
      "##ribly": 5219,
      "mirror": 5220,
      "diagnosed": 5221,
      "europe": 5222,
      "dav": 5223,
      "ug": 5224,
      "seeking": 5225,
      "faces": 5226,
      "expert": 5227,
      "##000": 5228,
      "potter": 5229,
      "choices": 5230,
      "cos": 5231,
      "ram": 5232,
      "size": 5233,
      "meat": 5234,
      "##sey": 5235,
      "compass": 5236,
      "remain": 5237,
      "ending": 5238,
      "cheese": 5239,
      "graph": 5240,
      "signature": 5241,
      "appearance": 5242,
      "mixed": 5243,
      "determine": 5244,
      "melanch": 5245,
      "vac": 5246,
      "thor": 5247,
      "##ement": 5248,
      "roommate": 5249,
      "princi": 5250,
      "soooo": 5251,
      "##aster": 5252,
      "##ipedia": 5253,
      "students": 5254,
      "paint": 5255,
      "capital": 5256,
      "host": 5257,
      "##ici": 5258,
      "compat": 5259,
      "counsel": 5260,
      "bottom": 5261,
      "wikipedia": 5262,
      "##uit": 5263,
      "##74": 5264,
      "inher": 5265,
      "cling": 5266,
      "coll": 5267,
      "describes": 5268,
      "searching": 5269,
      "relatively": 5270,
      "hip": 5271,
      "pack": 5272,
      "##egr": 5273,
      "dish": 5274,
      "joined": 5275,
      "##ifying": 5276,
      "artistic": 5277,
      "##lied": 5278,
      "caused": 5279,
      "elaborate": 5280,
      "##pper": 5281,
      "opposed": 5282,
      "sympath": 5283,
      "japanese": 5284,
      "advantage": 5285,
      "ted": 5286,
      "##ronic": 5287,
      "reve": 5288,
      "whats": 5289,
      "##ulations": 5290,
      "unp": 5291,
      "spl": 5292,
      "disp": 5293,
      "terrif": 5294,
      "angel": 5295,
      "engage": 5296,
      "quotes": 5297,
      "27": 5298,
      "fish": 5299,
      "punch": 5300,
      "tb": 5301,
      "##ik": 5302,
      "unable": 5303,
      "leaves": 5304,
      "questionna": 5305,
      "minim": 5306,
      "##rete": 5307,
      "irre": 5308,
      "discussing": 5309,
      "custom": 5310,
      "tone": 5311,
      "##98": 5312,
      "blank": 5313,
      "wondered": 5314,
      "mistyped": 5315,
      "spontane": 5316,
      "##mon": 5317,
      "##mit": 5318,
      "guard": 5319,
      "resour": 5320,
      "puts": 5321,
      "standard": 5322,
      "painful": 5323,
      "military": 5324,
      "##bles": 5325,
      "##fy": 5326,
      "##ware": 5327,
      "clue": 5328,
      "adhd": 5329,
      "appears": 5330,
      "spanish": 5331,
      "tact": 5332,
      "scr": 5333,
      "##aked": 5334,
      "turning": 5335,
      "##mer": 5336,
      "##w4": 5337,
      "sher": 5338,
      "desper": 5339,
      "flu": 5340,
      "famous": 5341,
      "describing": 5342,
      "utter": 5343,
      "attached": 5344,
      "tang": 5345,
      "##imin": 5346,
      "accepting": 5347,
      "characteristics": 5348,
      "experiment": 5349,
      "sib": 5350,
      "##vit": 5351,
      "consequ": 5352,
      "mast": 5353,
      "meaningful": 5354,
      "identity": 5355,
      "reminded": 5356,
      "smoking": 5357,
      "therapy": 5358,
      "##ersonal": 5359,
      "orange": 5360,
      "unk": 5361,
      "freaking": 5362,
      "requires": 5363,
      "radio": 5364,
      "suicide": 5365,
      "docum": 5366,
      "stubborn": 5367,
      "eg": 5368,
      "##50": 5369,
      "##xj": 5370,
      "forth": 5371,
      "##entr": 5372,
      "thinkers": 5373,
      "plot": 5374,
      "desk": 5375,
      "##gged": 5376,
      "regards": 5377,
      "dangerous": 5378,
      "stimul": 5379,
      "cart": 5380,
      "##62": 5381,
      "plays": 5382,
      "closed": 5383,
      "built": 5384,
      "brief": 5385,
      "status": 5386,
      "cousin": 5387,
      "mart": 5388,
      "##oon": 5389,
      "doms": 5390,
      "expecting": 5391,
      "##ounter": 5392,
      "folks": 5393,
      "cream": 5394,
      "ix": 5395,
      "realistic": 5396,
      "classical": 5397,
      "compliments": 5398,
      "struggling": 5399,
      "encounter": 5400,
      "pow": 5401,
      "task": 5402,
      "##reh": 5403,
      "grown": 5404,
      "extro": 5405,
      "##ocr": 5406,
      "opening": 5407,
      "swim": 5408,
      "leads": 5409,
      "masculine": 5410,
      "aim": 5411,
      "bible": 5412,
      "tiny": 5413,
      "reci": 5414,
      "awww": 5415,
      "factor": 5416,
      "stronger": 5417,
      "standing": 5418,
      "center": 5419,
      "civ": 5420,
      "##cut": 5421,
      "poem": 5422,
      "iron": 5423,
      "obser": 5424,
      "cake": 5425,
      "estjs": 5426,
      "delete": 5427,
      "oo": 5428,
      "##iary": 5429,
      "##irty": 5430,
      "compar": 5431,
      "messages": 5432,
      "suffering": 5433,
      "ghost": 5434,
      "cath": 5435,
      "##ipped": 5436,
      "##ury": 5437,
      "produ": 5438,
      "quir": 5439,
      "distur": 5440,
      "concrete": 5441,
      "suffer": 5442,
      "shallow": 5443,
      "maintain": 5444,
      "thous": 5445,
      "doll": 5446,
      "##usions": 5447,
      "##cient": 5448,
      "plain": 5449,
      "distant": 5450,
      "messy": 5451,
      "initially": 5452,
      "observation": 5453,
      "escape": 5454,
      "cooking": 5455,
      "battle": 5456,
      "thousand": 5457,
      "dying": 5458,
      "pc": 5459,
      "##ole": 5460,
      "poke": 5461,
      "spect": 5462,
      "superf": 5463,
      "concentr": 5464,
      "ultimately": 5465,
      "tbh": 5466,
      "3w4": 5467,
      "zomb": 5468,
      "window": 5469,
      "condition": 5470,
      "picking": 5471,
      "##board": 5472,
      "verbal": 5473,
      "wol": 5474,
      "##w1": 5475,
      "##think": 5476,
      "##iring": 5477,
      "bothers": 5478,
      "tendencies": 5479,
      "assess": 5480,
      "available": 5481,
      "north": 5482,
      "grades": 5483,
      "repeat": 5484,
      "flaws": 5485,
      "ben": 5486,
      "race": 5487,
      "##mind": 5488,
      "##iable": 5489,
      "theore": 5490,
      "ash": 5491,
      "possess": 5492,
      "explore": 5493,
      "nightm": 5494,
      "connections": 5495,
      "essentially": 5496,
      "alien": 5497,
      "routine": 5498,
      "bath": 5499,
      "dut": 5500,
      "##und": 5501,
      "##34": 5502,
      "##30": 5503,
      "agn": 5504,
      "mathem": 5505,
      "puzz": 5506,
      "correlation": 5507,
      "san": 5508,
      "sir": 5509,
      "umm": 5510,
      "##ading": 5511,
      "nowhere": 5512,
      "passed": 5513,
      "parag": 5514,
      "pursue": 5515,
      "borderline": 5516,
      "sight": 5517,
      "wtf": 5518,
      "##me": 5519,
      "##rees": 5520,
      "butt": 5521,
      "whose": 5522,
      "impact": 5523,
      "##aken": 5524,
      "sociopath": 5525,
      "greater": 5526,
      "studied": 5527,
      "correctly": 5528,
      "equally": 5529,
      "competitive": 5530,
      "idiot": 5531,
      "merely": 5532,
      "wars": 5533,
      "##pes": 5534,
      "##17": 5535,
      "##54": 5536,
      "ing": 5537,
      "musical": 5538,
      "charming": 5539,
      "exciting": 5540,
      "raven": 5541,
      "horror": 5542,
      "professor": 5543,
      "david": 5544,
      "wed": 5545,
      "##do": 5546,
      "isol": 5547,
      "##asp": 5548,
      "cuz": 5549,
      "explains": 5550,
      "insightful": 5551,
      "destroy": 5552,
      "nic": 5553,
      "##port": 5554,
      "button": 5555,
      "notes": 5556,
      "lock": 5557,
      "sherlock": 5558,
      "1w9": 5559,
      "bf": 5560,
      "veget": 5561,
      "resist": 5562,
      "hurting": 5563,
      "greet": 5564,
      "randomly": 5565,
      "subconscious": 5566,
      "pants": 5567,
      "##lr": 5568,
      "##84": 5569,
      "##esty": 5570,
      "max": 5571,
      "reson": 5572,
      "conserv": 5573,
      "dreaming": 5574,
      "former": 5575,
      "meditation": 5576,
      "ugly": 5577,
      "bow": 5578,
      "virt": 5579,
      "##de": 5580,
      "##atives": 5581,
      "##othing": 5582,
      "surely": 5583,
      "shopping": 5584,
      "authority": 5585,
      "structure": 5586,
      "hidden": 5587,
      "ride": 5588,
      "russ": 5589,
      "##99": 5590,
      "sea": 5591,
      "##imental": 5592,
      "##ams": 5593,
      "amusing": 5594,
      "theme": 5595,
      "adore": 5596,
      "added": 5597,
      "detach": 5598,
      "legit": 5599,
      "9w8": 5600,
      "associated": 5601,
      "boundaries": 5602,
      "separate": 5603,
      "disappointed": 5604,
      "tertiary": 5605,
      "extroversion": 5606,
      "training": 5607,
      "awareness": 5608,
      "7w8": 5609,
      "contempl": 5610,
      "3w2": 5611,
      "led": 5612,
      "tatt": 5613,
      "voted": 5614,
      "yo": 5615,
      "##str": 5616,
      "##lection": 5617,
      "neat": 5618,
      "absor": 5619,
      "manipulative": 5620,
      "convince": 5621,
      "26": 5622,
      "hun": 5623,
      "##bre": 5624,
      "##hib": 5625,
      "##ya": 5626,
      "##12": 5627,
      "shape": 5628,
      "fears": 5629,
      "unus": 5630,
      "phase": 5631,
      "flat": 5632,
      "suggestions": 5633,
      "analyzing": 5634,
      "breath": 5635,
      "measure": 5636,
      "length": 5637,
      "tumb": 5638,
      "##oe": 5639,
      "relie": 5640,
      "variety": 5641,
      "traditional": 5642,
      "narrow": 5643,
      "2w1": 5644,
      "##well": 5645,
      "##esth": 5646,
      "staring": 5647,
      "factors": 5648,
      "introspect": 5649,
      "projects": 5650,
      "machine": 5651,
      "phrase": 5652,
      "contradict": 5653,
      "hint": 5654,
      "##inge": 5655,
      "##ingu": 5656,
      "##lement": 5657,
      "adop": 5658,
      "esfps": 5659,
      "polite": 5660,
      "journal": 5661,
      "liberal": 5662,
      "overwhelming": 5663,
      "chicken": 5664,
      "paragraph": 5665,
      "00": 5666,
      "##ield": 5667,
      "seven": 5668,
      "genre": 5669,
      "drug": 5670,
      "##ostic": 5671,
      "silent": 5672,
      "effects": 5673,
      "perceived": 5674,
      "hiding": 5675,
      "##ov": 5676,
      "spring": 5677,
      "wont": 5678,
      "robot": 5679,
      "econom": 5680,
      "congratulations": 5681,
      "hence": 5682,
      "beer": 5683,
      "stars": 5684,
      "gosh": 5685,
      "##oses": 5686,
      "buying": 5687,
      "sadness": 5688,
      "homework": 5689,
      "responsibility": 5690,
      "responding": 5691,
      "teenager": 5692,
      "ninja": 5693,
      "tall": 5694,
      "##bra": 5695,
      "##sc": 5696,
      "abuse": 5697,
      "shar": 5698,
      "access": 5699,
      "humour": 5700,
      "paid": 5701,
      "regularly": 5702,
      "##ett": 5703,
      "cars": 5704,
      "figuring": 5705,
      "estab": 5706,
      "technically": 5707,
      "surface": 5708,
      "schedule": 5709,
      "sly": 5710,
      "tons": 5711,
      "hah": 5712,
      "infin": 5713,
      "embra": 5714,
      "commitment": 5715,
      "strategy": 5716,
      "intuitives": 5717,
      "##bling": 5718,
      "##asks": 5719,
      "##entic": 5720,
      "difficul": 5721,
      "blah": 5722,
      "listed": 5723,
      "patience": 5724,
      "films": 5725,
      "initial": 5726,
      "epic": 5727,
      "vulnerable": 5728,
      "tattoo": 5729,
      "difficulty": 5730,
      "000": 5731,
      "pal": 5732,
      "##boy": 5733,
      "##itty": 5734,
      "typology": 5735,
      "syn": 5736,
      "literature": 5737,
      "legal": 5738,
      "astrol": 5739,
      "cell": 5740,
      "##iled": 5741,
      "##irts": 5742,
      "ages": 5743,
      "##odes": 5744,
      "strict": 5745,
      "appropriate": 5746,
      "##appe": 5747,
      "presence": 5748,
      "growth": 5749,
      "sincerely": 5750,
      "tumblr": 5751,
      "##era": 5752,
      "doesnt": 5753,
      "defined": 5754,
      "confusion": 5755,
      "showed": 5756,
      "copy": 5757,
      "clarify": 5758,
      "overwhelmed": 5759,
      "questionnaire": 5760,
      "zero": 5761,
      "beach": 5762,
      "arr": 5763,
      "spark": 5764,
      "incor": 5765,
      "observe": 5766,
      "included": 5767,
      "manipulation": 5768,
      "congrats": 5769,
      "murder": 5770,
      "2nd": 5771,
      "hook": 5772,
      "nons": 5773,
      "##olar": 5774,
      "indust": 5775,
      "developing": 5776,
      "assumed": 5777,
      "lin": 5778,
      "##inated": 5779,
      "select": 5780,
      "##izes": 5781,
      "smiling": 5782,
      "hole": 5783,
      "countries": 5784,
      "walls": 5785,
      "6w7": 5786,
      "lect": 5787,
      "uk": 5788,
      "##nown": 5789,
      "##idge": 5790,
      "##ades": 5791,
      "swed": 5792,
      "##onym": 5793,
      "subtle": 5794,
      "dates": 5795,
      "lunch": 5796,
      "##ios": 5797,
      "cancer": 5798,
      "granted": 5799,
      "motivated": 5800,
      "trolling": 5801,
      "rejection": 5802,
      "volunt": 5803,
      "cowork": 5804,
      "screen": 5805,
      "document": 5806,
      "civil": 5807,
      "xs": 5808,
      "##uous": 5809,
      "##60": 5810,
      "##oms": 5811,
      "facial": 5812,
      "held": 5813,
      "texting": 5814,
      "innocent": 5815,
      "compassion": 5816,
      "##64": 5817,
      "integr": 5818,
      "chann": 5819,
      "actively": 5820,
      "concepts": 5821,
      "technology": 5822,
      "guilt": 5823,
      "strengths": 5824,
      "intentions": 5825,
      "##ulting": 5826,
      "chances": 5827,
      "display": 5828,
      "applic": 5829,
      "##iac": 5830,
      "morals": 5831,
      "psychopath": 5832,
      "idealistic": 5833,
      "28": 5834,
      "ou": 5835,
      "##reg": 5836,
      "##ara": 5837,
      "##irm": 5838,
      "goodness": 5839,
      "partners": 5840,
      "scores": 5841,
      "laughed": 5842,
      "valu": 5843,
      "clever": 5844,
      "finan": 5845,
      "preferences": 5846,
      "refuse": 5847,
      "treated": 5848,
      "surrounded": 5849,
      "symbol": 5850,
      "fro": 5851,
      "##ey": 5852,
      "##gers": 5853,
      "urge": 5854,
      "fac": 5855,
      "disney": 5856,
      "highs": 5857,
      "cris": 5858,
      "artists": 5859,
      "ideals": 5860,
      "images": 5861,
      "links": 5862,
      "request": 5863,
      "demon": 5864,
      "consciousness": 5865,
      "morality": 5866,
      "category": 5867,
      "pizz": 5868,
      "vib": 5869,
      "##pha": 5870,
      "realizing": 5871,
      "applies": 5872,
      "tips": 5873,
      "shitty": 5874,
      "exception": 5875,
      "experiencing": 5876,
      "grammar": 5877,
      "agnostic": 5878,
      "ixt": 5879,
      "rage": 5880,
      "##fx": 5881,
      "intended": 5882,
      "##urd": 5883,
      "emph": 5884,
      "statements": 5885,
      "reactions": 5886,
      "responsible": 5887,
      "philosophical": 5888,
      "therapist": 5889,
      "glasses": 5890,
      "controlling": 5891,
      "heaven": 5892,
      "ness": 5893,
      "##ji": 5894,
      "loose": 5895,
      "poster": 5896,
      "shower": 5897,
      "subst": 5898,
      "romantically": 5899,
      "includes": 5900,
      "ignorant": 5901,
      "received": 5902,
      "heavily": 5903,
      "entertaining": 5904,
      "adventure": 5905,
      "dynamic": 5906,
      "luc": 5907,
      "##bits": 5908,
      "##ault": 5909,
      "heck": 5910,
      "quiz": 5911,
      "assign": 5912,
      "listened": 5913,
      "preferred": 5914,
      "leading": 5915,
      "discussions": 5916,
      "parad": 5917,
      "apartment": 5918,
      "mysterious": 5919,
      "8w7": 5920,
      "eight": 5921,
      "##rd": 5922,
      "stone": 5923,
      "chea": 5924,
      "pray": 5925,
      "behave": 5926,
      "35": 5927,
      "##orical": 5928,
      "trau": 5929,
      "offense": 5930,
      "purple": 5931,
      "practically": 5932,
      "frustration": 5933,
      "debating": 5934,
      "failure": 5935,
      "journey": 5936,
      "oblig": 5937,
      "cruel": 5938,
      "##oly": 5939,
      "##la": 5940,
      "##ators": 5941,
      "forms": 5942,
      "evening": 5943,
      "##claw": 5944,
      "naive": 5945,
      "thorough": 5946,
      "unknown": 5947,
      "ax": 5948,
      "gal": 5949,
      "##atory": 5950,
      "mac": 5951,
      "unha": 5952,
      "precis": 5953,
      "realised": 5954,
      "questioning": 5955,
      "restaur": 5956,
      "jeans": 5957,
      "witty": 5958,
      "caut": 5959,
      "lu": 5960,
      "xst": 5961,
      "yellow": 5962,
      "##fast": 5963,
      "beings": 5964,
      "##osp": 5965,
      "fucked": 5966,
      "incomp": 5967,
      "biology": 5968,
      "hitler": 5969,
      "milk": 5970,
      "##yyyy": 5971,
      "periods": 5972,
      "nerd": 5973,
      "distracted": 5974,
      "paranoid": 5975,
      "inspired": 5976,
      "pizza": 5977,
      "dirty": 5978,
      "ring": 5979,
      "##ls": 5980,
      "##70": 5981,
      "##oned": 5982,
      "##itivity": 5983,
      "began": 5984,
      "justice": 5985,
      "nostal": 5986,
      "unw": 5987,
      "compreh": 5988,
      "reasonable": 5989,
      "patient": 5990,
      "focusing": 5991,
      "incredible": 5992,
      "semester": 5993,
      "addicted": 5994,
      "automatically": 5995,
      "dim": 5996,
      "goss": 5997,
      "nowad": 5998,
      "offic": 5999,
      "##ogical": 6000,
      "ultimate": 6001,
      "superficial": 6002,
      "ain": 6003,
      "austr": 6004,
      "mask": 6005,
      "##20": 6006,
      "doors": 6007,
      "sites": 6008,
      "effective": 6009,
      "pleasant": 6010,
      "articles": 6011,
      "productive": 6012,
      "elementary": 6013,
      "##ste": 6014,
      "##iders": 6015,
      "##char": 6016,
      "offend": 6017,
      "attrib": 6018,
      "brit": 6019,
      "endless": 6020,
      "nights": 6021,
      "suggested": 6022,
      "checked": 6023,
      "required": 6024,
      "balanced": 6025,
      "trees": 6026,
      "massive": 6027,
      "panic": 6028,
      "slyther": 6029,
      "nostalg": 6030,
      "nowadays": 6031,
      "99": 6032,
      "oops": 6033,
      "ponder": 6034,
      "pushing": 6035,
      "##oved": 6036,
      "##18": 6037,
      "shell": 6038,
      "friday": 6039,
      "evolution": 6040,
      "bip": 6041,
      "##cast": 6042,
      "##esy": 6043,
      "player": 6044,
      "conclusions": 6045,
      "miles": 6046,
      "virgin": 6047,
      "austral": 6048,
      "##lin": 6049,
      "stream": 6050,
      "spread": 6051,
      "believing": 6052,
      "appeal": 6053,
      "inclined": 6054,
      "suggestion": 6055,
      "##aaaaaaaa": 6056,
      "skept": 6057,
      "conservative": 6058,
      "##rated": 6059,
      "##95": 6060,
      "##arm": 6061,
      "allows": 6062,
      "##rap": 6063,
      "enem": 6064,
      "contra": 6065,
      "technical": 6066,
      "cynical": 6067,
      "mathemat": 6068,
      "ravenclaw": 6069,
      "bs": 6070,
      "gf": 6071,
      "ppl": 6072,
      "##ique": 6073,
      "dismiss": 6074,
      "disappe": 6075,
      "scar": 6076,
      "bias": 6077,
      "fond": 6078,
      "susp": 6079,
      "afterwards": 6080,
      "##ship": 6081,
      "demand": 6082,
      "babies": 6083,
      "authentic": 6084,
      "strikes": 6085,
      "unusual": 6086,
      "emphas": 6087,
      "75": 6088,
      "bite": 6089,
      "##iqu": 6090,
      "##vin": 6091,
      "unb": 6092,
      "courage": 6093,
      "manipulate": 6094,
      "##writing": 6095,
      "bang": 6096,
      "vivid": 6097,
      "clock": 6098,
      "sometime": 6099,
      "believed": 6100,
      "##heart": 6101,
      "killed": 6102,
      "grandm": 6103,
      "judgement": 6104,
      "immediate": 6105,
      "optimistic": 6106,
      "##ulsive": 6107,
      "slytherin": 6108,
      "gard": 6109,
      "hates": 6110,
      "##onnect": 6111,
      "##etch": 6112,
      "##ateful": 6113,
      "disg": 6114,
      "official": 6115,
      "twist": 6116,
      "memor": 6117,
      "err": 6118,
      "ignoring": 6119,
      "gossip": 6120,
      "##enced": 6121,
      "pee": 6122,
      "faster": 6123,
      "burst": 6124,
      "bands": 6125,
      "rainb": 6126,
      "divor": 6127,
      "chaos": 6128,
      "contribute": 6129,
      "ahh": 6130,
      "native": 6131,
      "alt": 6132,
      "alpha": 6133,
      "nose": 6134,
      "spa": 6135,
      "##ressed": 6136,
      "brothers": 6137,
      "greatly": 6138,
      "coinc": 6139,
      "police": 6140,
      "location": 6141,
      "chaotic": 6142,
      "victim": 6143,
      "irrelevant": 6144,
      "##lings": 6145,
      "##78": 6146,
      "##oop": 6147,
      "intr": 6148,
      "frame": 6149,
      "giant": 6150,
      "resources": 6151,
      "establish": 6152,
      "sooo": 6153,
      "##ye": 6154,
      "##agon": 6155,
      "teens": 6156,
      "testing": 6157,
      "##ucks": 6158,
      "boat": 6159,
      "worrying": 6160,
      "walked": 6161,
      "spoken": 6162,
      "relaxed": 6163,
      "cookies": 6164,
      "purely": 6165,
      "accidentally": 6166,
      "bipolar": 6167,
      "aqu": 6168,
      "east": 6169,
      "named": 6170,
      "rush": 6171,
      "magn": 6172,
      "thrill": 6173,
      "brows": 6174,
      "insert": 6175,
      "expressed": 6176,
      "initiate": 6177,
      "confirm": 6178,
      "floor": 6179,
      "lonel": 6180,
      "encourage": 6181,
      "intimidating": 6182,
      "hesit": 6183,
      "dump": 6184,
      "myth": 6185,
      "unne": 6186,
      "##anda": 6187,
      "##ables": 6188,
      "senior": 6189,
      "miser": 6190,
      "versus": 6191,
      "cleaning": 6192,
      "programming": 6193,
      "mystery": 6194,
      "consistent": 6195,
      "clingy": 6196,
      "##of": 6197,
      "##ca": 6198,
      "island": 6199,
      "neur": 6200,
      "expensive": 6201,
      "offensive": 6202,
      "whereas": 6203,
      "buddy": 6204,
      "bon": 6205,
      "hill": 6206,
      "sjs": 6207,
      "##pa": 6208,
      "##utions": 6209,
      "##ested": 6210,
      "chart": 6211,
      "##udes": 6212,
      "understands": 6213,
      "mindset": 6214,
      "generation": 6215,
      "depressing": 6216,
      "affirm": 6217,
      "breakfast": 6218,
      "avoiding": 6219,
      "les": 6220,
      "ooo": 6221,
      "##ura": 6222,
      "clim": 6223,
      "seemingly": 6224,
      "teeth": 6225,
      "bubb": 6226,
      "processes": 6227,
      "##inese": 6228,
      "obsession": 6229,
      "##iliary": 6230,
      "harmony": 6231,
      "spectrum": 6232,
      "disgust": 6233,
      "33": 6234,
      "oce": 6235,
      "##uri": 6236,
      "##itter": 6237,
      "intens": 6238,
      "##ffle": 6239,
      "tax": 6240,
      "pointed": 6241,
      "lapt": 6242,
      "brand": 6243,
      "secondary": 6244,
      "ignored": 6245,
      "##wwww": 6246,
      "auxiliary": 6247,
      "catholic": 6248,
      "1st": 6249,
      "tune": 6250,
      "vo": 6251,
      "vast": 6252,
      "##ald": 6253,
      "##aming": 6254,
      "exch": 6255,
      "enlight": 6256,
      "##eria": 6257,
      "species": 6258,
      "edge": 6259,
      "incons": 6260,
      "stands": 6261,
      "medical": 6262,
      "noticing": 6263,
      "lacking": 6264,
      "bringing": 6265,
      "primarily": 6266,
      "acknowledge": 6267,
      "reveal": 6268,
      "astrology": 6269,
      "ip": 6270,
      "mild": 6271,
      "##ipp": 6272,
      "height": 6273,
      "chinese": 6274,
      "disci": 6275,
      "playful": 6276,
      "charge": 6277,
      "assumptions": 6278,
      "pisses": 6279,
      "highschool": 6280,
      "unnecess": 6281,
      "3rd": 6282,
      "##list": 6283,
      "review": 6284,
      "efficient": 6285,
      "##attered": 6286,
      "jumping": 6287,
      "violence": 6288,
      "woke": 6289,
      "nap": 6290,
      "##bul": 6291,
      "##icism": 6292,
      "stom": 6293,
      "guide": 6294,
      "arms": 6295,
      "defense": 6296,
      "highest": 6297,
      "apath": 6298,
      "concert": 6299,
      "promise": 6300,
      "banned": 6301,
      "hungry": 6302,
      "inspiration": 6303,
      "obliv": 6304,
      "encoura": 6305,
      "credit": 6306,
      "powers": 6307,
      "32": 6308,
      "nine": 6309,
      "national": 6310,
      "pics": 6311,
      "##ba": 6312,
      "##ato": 6313,
      "rely": 6314,
      "shift": 6315,
      "heal": 6316,
      "hardest": 6317,
      "bitter": 6318,
      "remembered": 6319,
      "absurd": 6320,
      "##azz": 6321,
      "appreciation": 6322,
      "uncle": 6323,
      "##hahahaha": 6324,
      "biased": 6325,
      "confirmed": 6326,
      "adopt": 6327,
      "unhappy": 6328,
      "cards": 6329,
      "ju": 6330,
      "lem": 6331,
      "mm": 6332,
      "vice": 6333,
      "##bur": 6334,
      "##65": 6335,
      "##ilst": 6336,
      "canada": 6337,
      "sund": 6338,
      "chuck": 6339,
      "sounded": 6340,
      "root": 6341,
      "socializing": 6342,
      "drinks": 6343,
      "##acity": 6344,
      "fixed": 6345,
      "hobby": 6346,
      "survive": 6347,
      "channel": 6348,
      "dare": 6349,
      "lun": 6350,
      "##bble": 6351,
      "##look": 6352,
      "whilst": 6353,
      "isnt": 6354,
      "##olol": 6355,
      "##ums": 6356,
      "clothing": 6357,
      "##agger": 6358,
      "annoys": 6359,
      "walks": 6360,
      "dramatic": 6361,
      "gigg": 6362,
      "##hi": 6363,
      "##gy": 6364,
      "thin": 6365,
      "stable": 6366,
      "lover": 6367,
      "thoughtful": 6368,
      "kindness": 6369,
      "consum": 6370,
      "talkative": 6371,
      "instantly": 6372,
      "advance": 6373,
      "invent": 6374,
      "messed": 6375,
      "##hold": 6376,
      "ooh": 6377,
      "bun": 6378,
      "flying": 6379,
      "mmm": 6380,
      "pess": 6381,
      "rate": 6382,
      "rings": 6383,
      "sales": 6384,
      "vary": 6385,
      "##night": 6386,
      "##inity": 6387,
      "##ica": 6388,
      "somed": 6389,
      "aband": 6390,
      "noise": 6391,
      "unex": 6392,
      "arri": 6393,
      "sacri": 6394,
      "conform": 6395,
      "security": 6396,
      "assumption": 6397,
      "detailed": 6398,
      "responded": 6399,
      "split": 6400,
      "nonsense": 6401,
      "boun": 6402,
      "ix92": 6403,
      "rose": 6404,
      "##zzy": 6405,
      "##xious": 6406,
      "quant": 6407,
      "applied": 6408,
      "imaginary": 6409,
      "ladies": 6410,
      "dragon": 6411,
      "spontaneous": 6412,
      "volunte": 6413,
      "laptop": 6414,
      "dual": 6415,
      "ie": 6416,
      "rig": 6417,
      "##af": 6418,
      "##fly": 6419,
      "##yth": 6420,
      "storm": 6421,
      "adjust": 6422,
      "counts": 6423,
      "mistaken": 6424,
      "choosing": 6425,
      "foreign": 6426,
      "laws": 6427,
      "determined": 6428,
      "methods": 6429,
      "temperament": 6430,
      "withdraw": 6431,
      "##ram": 6432,
      "##13": 6433,
      "queen": 6434,
      "clash": 6435,
      "##osexual": 6436,
      "grateful": 6437,
      "obno": 6438,
      "cared": 6439,
      "advoc": 6440,
      "##ensitive": 6441,
      "detect": 6442,
      "envy": 6443,
      "steps": 6444,
      "replied": 6445,
      "reached": 6446,
      "secretly": 6447,
      "fingers": 6448,
      "acquaintances": 6449,
      "loneliness": 6450,
      "sacrif": 6451,
      "cig": 6452,
      "vamp": 6453,
      "##nat": 6454,
      "sold": 6455,
      "sugar": 6456,
      "pointing": 6457,
      "schiz": 6458,
      "lists": 6459,
      "maturity": 6460,
      "solving": 6461,
      "involve": 6462,
      "legend": 6463,
      "management": 6464,
      "jerk": 6465,
      "comedy": 6466,
      "55": 6467,
      "eld": 6468,
      "fle": 6469,
      "##pet": 6470,
      "asper": 6471,
      "chess": 6472,
      "worries": 6473,
      "spin": 6474,
      "##ished": 6475,
      "longest": 6476,
      "degrees": 6477,
      "perspectives": 6478,
      "princess": 6479,
      "george": 6480,
      "associate": 6481,
      "consistently": 6482,
      "interviews": 6483,
      "infinite": 6484,
      "discipl": 6485,
      "someday": 6486,
      "obnoxious": 6487,
      "nurt": 6488,
      "wine": 6489,
      "##pan": 6490,
      "##power": 6491,
      "ham": 6492,
      "sole": 6493,
      "##ami": 6494,
      "prem": 6495,
      "awake": 6496,
      "flash": 6497,
      "terribly": 6498,
      "handed": 6499,
      "opened": 6500,
      "interacting": 6501,
      "hopeless": 6502,
      "ignorance": 6503,
      "observations": 6504,
      "siblings": 6505,
      "crisis": 6506,
      "dang": 6507,
      "latter": 6508,
      "habits": 6509,
      "mob": 6510,
      "unic": 6511,
      "saving": 6512,
      "cheer": 6513,
      "touching": 6514,
      "objects": 6515,
      "intimate": 6516,
      "##x92s": 6517,
      "deleted": 6518,
      "weaknesses": 6519,
      "assertive": 6520,
      "precisely": 6521,
      "dich": 6522,
      "##200": 6523,
      "anth": 6524,
      "relation": 6525,
      "disli": 6526,
      "cock": 6527,
      "invis": 6528,
      "ironic": 6529,
      "raise": 6530,
      "medium": 6531,
      "profession": 6532,
      "traveling": 6533,
      "throwing": 6534,
      "benefits": 6535,
      "bottle": 6536,
      "satisfied": 6537,
      "graduate": 6538,
      "pessim": 6539,
      "row": 6540,
      "##ivers": 6541,
      "##100": 6542,
      "##iced": 6543,
      "feat": 6544,
      "ord": 6545,
      "exe": 6546,
      "knock": 6547,
      "persona": 6548,
      "overcome": 6549,
      "existential": 6550,
      "unconscious": 6551,
      "directed": 6552,
      "involves": 6553,
      "error": 6554,
      "magical": 6555,
      "##iiii": 6556,
      "statistics": 6557,
      "receiving": 6558,
      "ease": 6559,
      "##boo": 6560,
      "##rome": 6561,
      "##zed": 6562,
      "##isc": 6563,
      "forest": 6564,
      "shown": 6565,
      "##arded": 6566,
      "relating": 6567,
      "manager": 6568,
      "makeup": 6569,
      "sentences": 6570,
      "fitting": 6571,
      "provided": 6572,
      "intimacy": 6573,
      "alike": 6574,
      "roles": 6575,
      "narcissistic": 6576,
      "leadership": 6577,
      "bread": 6578,
      "tasks": 6579,
      "x93": 6580,
      "##uro": 6581,
      "##zen": 6582,
      "##22": 6583,
      "##96": 6584,
      "##ini": 6585,
      "##ids": 6586,
      "chest": 6587,
      "outward": 6588,
      "unst": 6589,
      "comprom": 6590,
      "flav": 6591,
      "badass": 6592,
      "mush": 6593,
      "brave": 6594,
      "meaningless": 6595,
      "checking": 6596,
      "western": 6597,
      "stomach": 6598,
      "snea": 6599,
      "##men": 6600,
      "##core": 6601,
      "##icing": 6602,
      "shap": 6603,
      "wash": 6604,
      "whoever": 6605,
      "dial": 6606,
      "bless": 6607,
      "##achel": 6608,
      "scare": 6609,
      "believes": 6610,
      "worlds": 6611,
      "committed": 6612,
      "##phere": 6613,
      "closely": 6614,
      "depart": 6615,
      "debates": 6616,
      "supposedly": 6617,
      "insights": 6618,
      "strike": 6619,
      "daydreaming": 6620,
      "##stein": 6621,
      "##esc": 6622,
      "##enom": 6623,
      "##alu": 6624,
      "##ashing": 6625,
      "##iche": 6626,
      "exploring": 6627,
      "hund": 6628,
      "addition": 6629,
      "boredom": 6630,
      "texts": 6631,
      "interpretation": 6632,
      "mechanism": 6633,
      "dedic": 6634,
      "observing": 6635,
      "comparison": 6636,
      "contrast": 6637,
      "lou": 6638,
      "yog": 6639,
      "##aff": 6640,
      "##den": 6641,
      "##ora": 6642,
      "ital": 6643,
      "dece": 6644,
      "flight": 6645,
      "hahah": 6646,
      "instant": 6647,
      "skype": 6648,
      "hearts": 6649,
      "smarter": 6650,
      "replying": 6651,
      "theres": 6652,
      "apologies": 6653,
      "receive": 6654,
      "football": 6655,
      "grandmother": 6656,
      "dichot": 6657,
      "nur": 6658,
      "finds": 6659,
      "rights": 6660,
      "cheating": 6661,
      "##ords": 6662,
      "creatures": 6663,
      "potentially": 6664,
      "villain": 6665,
      "34": 6666,
      "hosp": 6667,
      "##mber": 6668,
      "##rs": 6669,
      "##iber": 6670,
      "##orp": 6671,
      "crash": 6672,
      "##llll": 6673,
      "logically": 6674,
      "driver": 6675,
      "picky": 6676,
      "bullied": 6677,
      "procrastination": 6678,
      "nuts": 6679,
      "pokemon": 6680,
      "embrace": 6681,
      "ocean": 6682,
      "naked": 6683,
      "##ality": 6684,
      "shirts": 6685,
      "##olve": 6686,
      "diet": 6687,
      "schools": 6688,
      "charl": 6689,
      "handwriting": 6690,
      "lights": 6691,
      "linked": 6692,
      "photography": 6693,
      "claims": 6694,
      "chemical": 6695,
      "hundred": 6696,
      "36": 6697,
      "##ena": 6698,
      "proven": 6699,
      "firm": 6700,
      "specul": 6701,
      "##orders": 6702,
      "admitted": 6703,
      "acceptable": 6704,
      "forgotten": 6705,
      "sympt": 6706,
      "devil": 6707,
      "episodes": 6708,
      "camera": 6709,
      "settle": 6710,
      "theoretical": 6711,
      "2w3": 6712,
      "pushed": 6713,
      "##nes": 6714,
      "##yl": 6715,
      "##olved": 6716,
      "compos": 6717,
      "##izations": 6718,
      "grasp": 6719,
      "importance": 6720,
      "maths": 6721,
      "tastes": 6722,
      "previously": 6723,
      "embarrassed": 6724,
      "incorrect": 6725,
      "47": 6726,
      "hous": 6727,
      "tight": 6728,
      "##cist": 6729,
      "assist": 6730,
      "sorta": 6731,
      "senses": 6732,
      "tied": 6733,
      "##retch": 6734,
      "smaller": 6735,
      "horse": 6736,
      "occasions": 6737,
      "consciously": 6738,
      "rejected": 6739,
      "semi": 6740,
      "adults": 6741,
      "candy": 6742,
      "consequences": 6743,
      "wolf": 6744,
      "cheap": 6745,
      "64": 6746,
      "65": 6747,
      "ms": 6748,
      "ocd": 6749,
      "rp": 6750,
      "wat": 6751,
      "##rit": 6752,
      "##ipping": 6753,
      "##80": 6754,
      "reward": 6755,
      "##etics": 6756,
      "stalk": 6757,
      "army": 6758,
      "apple": 6759,
      "breaks": 6760,
      "darkness": 6761,
      "holiday": 6762,
      "teenage": 6763,
      "ts": 6764,
      "ze": 6765,
      "##ino": 6766,
      "soph": 6767,
      "abusive": 6768,
      "excess": 6769,
      "everytime": 6770,
      "confuse": 6771,
      "fluff": 6772,
      "crime": 6773,
      "remembering": 6774,
      "sensory": 6775,
      "cave": 6776,
      "movement": 6777,
      "fancy": 6778,
      "smooth": 6779,
      "peaceful": 6780,
      "opportunities": 6781,
      "witness": 6782,
      "valuable": 6783,
      "aka": 6784,
      "jew": 6785,
      "sig": 6786,
      "whis": 6787,
      "reck": 6788,
      "##isters": 6789,
      "partly": 6790,
      "enjoyable": 6791,
      "brains": 6792,
      "souls": 6793,
      "oddly": 6794,
      "challenging": 6795,
      "##eeeeeeee": 6796,
      "nickn": 6797,
      "compatible": 6798,
      "44": 6799,
      "kitty": 6800,
      "##uce": 6801,
      "##lam": 6802,
      "##iat": 6803,
      "##sexual": 6804,
      "##hael": 6805,
      "spam": 6806,
      "talent": 6807,
      "overthink": 6808,
      "##odies": 6809,
      "##pected": 6810,
      "expressions": 6811,
      "admin": 6812,
      "numer": 6813,
      "illogical": 6814,
      "styles": 6815,
      "surroundings": 6816,
      "##coming": 6817,
      "attachment": 6818,
      "judgmental": 6819,
      "vacation": 6820,
      "lucid": 6821,
      "fed": 6822,
      "james": 6823,
      "##rim": 6824,
      "##enn": 6825,
      "map": 6826,
      "persons": 6827,
      "prevent": 6828,
      "##ssss": 6829,
      "tele": 6830,
      "subs": 6831,
      "fallen": 6832,
      "versa": 6833,
      "delicious": 6834,
      "paul": 6835,
      "scientist": 6836,
      "vegetarian": 6837,
      "unicorn": 6838,
      "29": 6839,
      "dict": 6840,
      "dub": 6841,
      "jun": 6842,
      "nav": 6843,
      "ol": 6844,
      "woo": 6845,
      "##15": 6846,
      "exagger": 6847,
      "chee": 6848,
      "fran": 6849,
      "betray": 6850,
      "smith": 6851,
      "expressive": 6852,
      "idealist": 6853,
      "causing": 6854,
      "##x92t": 6855,
      "lifesty": 6856,
      "tolerate": 6857,
      "##bled": 6858,
      "##ife": 6859,
      "##tra": 6860,
      "##kin": 6861,
      "##jud": 6862,
      "##uted": 6863,
      "anonym": 6864,
      "alter": 6865,
      "##idal": 6866,
      "abilities": 6867,
      "percept": 6868,
      "default": 6869,
      "thrown": 6870,
      "crimin": 6871,
      "articul": 6872,
      "lessons": 6873,
      "planned": 6874,
      "psychologist": 6875,
      "identified": 6876,
      "##airs": 6877,
      "capacity": 6878,
      "spoke": 6879,
      "deny": 6880,
      "repeated": 6881,
      "procrastinate": 6882,
      "loyalty": 6883,
      "cautious": 6884,
      "8w9": 6885,
      "mas": 6886,
      "shake": 6887,
      "dise": 6888,
      "bits": 6889,
      "##aaa": 6890,
      "refres": 6891,
      "mentality": 6892,
      "succeed": 6893,
      "covered": 6894,
      "prepared": 6895,
      "surprisingly": 6896,
      "##natural": 6897,
      "gry": 6898,
      "##down": 6899,
      "##vis": 6900,
      "pron": 6901,
      "worker": 6902,
      "twin": 6903,
      "violent": 6904,
      "buddh": 6905,
      "finger": 6906,
      "batman": 6907,
      "intensity": 6908,
      "unnecessary": 6909,
      "gree": 6910,
      "hits": 6911,
      "##arks": 6912,
      "stating": 6913,
      "##asty": 6914,
      "spider": 6915,
      "phenom": 6916,
      "##lessly": 6917,
      "sexually": 6918,
      "orient": 6919,
      "affected": 6920,
      "sources": 6921,
      "latest": 6922,
      "melancholy": 6923,
      "oblivious": 6924,
      "38": 6925,
      "fb": 6926,
      "jk": 6927,
      "kore": 6928,
      "rat": 6929,
      "##ras": 6930,
      "##38": 6931,
      "reven": 6932,
      "##idays": 6933,
      "los": 6934,
      "comic": 6935,
      "needing": 6936,
      "dependent": 6937,
      "formul": 6938,
      "uncertain": 6939,
      "occup": 6940,
      "severe": 6941,
      "communicating": 6942,
      "deliver": 6943,
      "cycle": 6944,
      "swimming": 6945,
      "ration": 6946,
      "wings": 6947,
      "##puff": 6948,
      "thro": 6949,
      "##itarian": 6950,
      "##ained": 6951,
      "spell": 6952,
      "perman": 6953,
      "defend": 6954,
      "skip": 6955,
      "indecis": 6956,
      "researching": 6957,
      "empathetic": 6958,
      "attempting": 6959,
      "##craft": 6960,
      "salt": 6961,
      "libert": 6962,
      "loner": 6963,
      "bathroom": 6964,
      "gryff": 6965,
      "dread": 6966,
      "honey": 6967,
      "il": 6968,
      "##wood": 6969,
      "target": 6970,
      "peers": 6971,
      "sums": 6972,
      "knight": 6973,
      "whoa": 6974,
      "##action": 6975,
      "spelling": 6976,
      "diss": 6977,
      "monster": 6978,
      "rape": 6979,
      "reflection": 6980,
      "wasting": 6981,
      "moderate": 6982,
      "hypoth": 6983,
      "54": 6984,
      "95": 6985,
      "pi": 6986,
      "##uary": 6987,
      "##ancy": 6988,
      "youth": 6989,
      "##eter": 6990,
      "##rove": 6991,
      "##istically": 6992,
      "evalu": 6993,
      "irony": 6994,
      "behaviors": 6995,
      "cultural": 6996,
      "software": 6997,
      "tort": 6998,
      "scenarios": 6999,
      "michael": 7000,
      "intentionally": 7001,
      "intriguing": 7002,
      "detached": 7003,
      "restaurant": 7004,
      "bud": 7005,
      "tun": 7006,
      "##ju": 7007,
      "##´t": 7008,
      "##elly": 7009,
      "saved": 7010,
      "prison": 7011,
      "imagining": 7012,
      "larger": 7013,
      "tempor": 7014,
      "pets": 7015,
      "tempt": 7016,
      "##pie": 7017,
      "pros": 7018,
      "grass": 7019,
      "joining": 7020,
      "recover": 7021,
      "huffle": 7022,
      "stayed": 7023,
      "winning": 7024,
      "dropped": 7025,
      "##ivalent": 7026,
      "lurking": 7027,
      "frankly": 7028,
      "greetings": 7029,
      "miserable": 7030,
      "gryffind": 7031,
      "bb": 7032,
      "groc": 7033,
      "jane": 7034,
      "ped": 7035,
      "pool": 7036,
      "##och": 7037,
      "##hen": 7038,
      "##iters": 7039,
      "notion": 7040,
      "##osphere": 7041,
      "attend": 7042,
      "oldest": 7043,
      "deciding": 7044,
      "childish": 7045,
      "disconnect": 7046,
      "lesson": 7047,
      "##lix": 7048,
      "engaged": 7049,
      "psychiat": 7050,
      "formal": 7051,
      "##hahaha": 7052,
      "complaining": 7053,
      "fights": 7054,
      "opposites": 7055,
      "satur": 7056,
      "universal": 7057,
      "scenes": 7058,
      "ethics": 7059,
      "torn": 7060,
      "inevit": 7061,
      "mountain": 7062,
      "affirmation": 7063,
      "grocery": 7064,
      "vot": 7065,
      "##mes": 7066,
      "##ko": 7067,
      "moves": 7068,
      "shru": 7069,
      "ate": 7070,
      "##osen": 7071,
      "##ache": 7072,
      "##cycl": 7073,
      "imagin": 7074,
      "england": 7075,
      "excite": 7076,
      "essay": 7077,
      "gifted": 7078,
      "graduated": 7079,
      "unfair": 7080,
      "derail": 7081,
      "fortun": 7082,
      "utterly": 7083,
      "zombie": 7084,
      "financial": 7085,
      "cash": 7086,
      "fra": 7087,
      "gross": 7088,
      "nu": 7089,
      "##amental": 7090,
      "justify": 7091,
      "anytime": 7092,
      "##osis": 7093,
      "funn": 7094,
      "waking": 7095,
      "observed": 7096,
      "runs": 7097,
      "falls": 7098,
      "accurately": 7099,
      "amounts": 7100,
      "windows": 7101,
      "flowers": 7102,
      "scratch": 7103,
      "australia": 7104,
      "lifestyle": 7105,
      "hufflepuff": 7106,
      "hating": 7107,
      "beast": 7108,
      "whe": 7109,
      "##the": 7110,
      "exhib": 7111,
      "##urb": 7112,
      "workers": 7113,
      "gray": 7114,
      "##aker": 7115,
      "indul": 7116,
      "charism": 7117,
      "advanced": 7118,
      "addiction": 7119,
      "draining": 7120,
      "singer": 7121,
      "acceptance": 7122,
      "appealing": 7123,
      "struggled": 7124,
      "hypothet": 7125,
      "gryffindor": 7126,
      "ii": 7127,
      "##iate": 7128,
      "##flix": 7129,
      "outcome": 7130,
      "acted": 7131,
      "comparing": 7132,
      "##uded": 7133,
      "struck": 7134,
      "##irect": 7135,
      "##claim": 7136,
      "effici": 7137,
      "fairy": 7138,
      "biological": 7139,
      "deliber": 7140,
      "impressed": 7141,
      "relaxing": 7142,
      "introduced": 7143,
      "demonstr": 7144,
      "##cyclop": 7145,
      "egg": 7146,
      "ears": 7147,
      "sisters": 7148,
      "tip": 7149,
      "ven": 7150,
      "ancient": 7151,
      "##imes": 7152,
      "##illa": 7153,
      "chap": 7154,
      "encyclop": 7155,
      "clin": 7156,
      "manga": 7157,
      "trapped": 7158,
      "discussed": 7159,
      "bike": 7160,
      "worthy": 7161,
      "touched": 7162,
      "holidays": 7163,
      "pulled": 7164,
      "portray": 7165,
      "pretending": 7166,
      "contrary": 7167,
      "netflix": 7168,
      "prepare": 7169,
      "gaming": 7170,
      "aesth": 7171,
      "##box": 7172,
      "##porate": 7173,
      "##lim": 7174,
      "##cel": 7175,
      "##hil": 7176,
      "muse": 7177,
      "disres": 7178,
      "##ifies": 7179,
      "flag": 7180,
      "sensitivity": 7181,
      "godd": 7182,
      "bob": 7183,
      "supportive": 7184,
      "electronic": 7185,
      "dys": 7186,
      "jan": 7187,
      "nom": 7188,
      "nasty": 7189,
      "thumb": 7190,
      "aloof": 7191,
      "stretch": 7192,
      "##thy": 7193,
      "##irl": 7194,
      "##cking": 7195,
      "hardcore": 7196,
      "keys": 7197,
      "cheated": 7198,
      "caff": 7199,
      "quoted": 7200,
      "cere": 7201,
      "gest": 7202,
      "toxic": 7203,
      "##arant": 7204,
      "##stream": 7205,
      "stab": 7206,
      "defe": 7207,
      "##umps": 7208,
      "##cience": 7209,
      "##ounds": 7210,
      "relates": 7211,
      "##izar": 7212,
      "robert": 7213,
      "##place": 7214,
      "finishing": 7215,
      "similarities": 7216,
      "passing": 7217,
      "grace": 7218,
      "luckily": 7219,
      "combined": 7220,
      "embarrassing": 7221,
      "release": 7222,
      "sharp": 7223,
      "vibes": 7224,
      "sunday": 7225,
      "gas": 7226,
      "##oke": 7227,
      "##kers": 7228,
      "inability": 7229,
      "beg": 7230,
      "items": 7231,
      "stock": 7232,
      "##antic": 7233,
      "prec": 7234,
      "needy": 7235,
      "happily": 7236,
      "legs": 7237,
      "societ": 7238,
      "##grad": 7239,
      "explos": 7240,
      "adding": 7241,
      "affectionate": 7242,
      "irritated": 7243,
      "neighbor": 7244,
      "quirky": 7245,
      "incompet": 7246,
      "4th": 7247,
      "52": 7248,
      "bout": 7249,
      "bass": 7250,
      "##jo": 7251,
      "##inging": 7252,
      "intend": 7253,
      "proceed": 7254,
      "afterno": 7255,
      "careers": 7256,
      "valent": 7257,
      "computers": 7258,
      "occasional": 7259,
      "grandma": 7260,
      "ridiculously": 7261,
      "flawed": 7262,
      "venting": 7263,
      "medication": 7264,
      "exhausted": 7265,
      "emoji": 7266,
      "atmosphere": 7267,
      "unexpected": 7268,
      "revenge": 7269,
      "cope": 7270,
      "##iel": 7271,
      "##vy": 7272,
      "##itect": 7273,
      "unrel": 7274,
      "happier": 7275,
      "disorders": 7276,
      "firstly": 7277,
      "imply": 7278,
      "humble": 7279,
      "entit": 7280,
      "curse": 7281,
      "repet": 7282,
      "wishes": 7283,
      "20s": 7284,
      "hitting": 7285,
      "affects": 7286,
      "amongst": 7287,
      "rolling": 7288,
      "tradition": 7289,
      "arrogance": 7290,
      "golden": 7291,
      "nightmare": 7292,
      "garden": 7293,
      "hospital": 7294,
      "jim": 7295,
      "junk": 7296,
      "jazz": 7297,
      "mc": 7298,
      "##ket": 7299,
      "##hop": 7300,
      "##utter": 7301,
      "chosen": 7302,
      "pregn": 7303,
      "shoulder": 7304,
      "drown": 7305,
      "consideration": 7306,
      "dreamer": 7307,
      "cheat": 7308,
      "synd": 7309,
      "afford": 7310,
      "failing": 7311,
      "wasted": 7312,
      "peter": 7313,
      "attacks": 7314,
      "birds": 7315,
      "unreal": 7316,
      "aunt": 7317,
      "cure": 7318,
      "dull": 7319,
      "lame": 7320,
      "neck": 7321,
      "poems": 7322,
      "usa": 7323,
      "ups": 7324,
      "subty": 7325,
      "distinct": 7326,
      "##umbled": 7327,
      "earn": 7328,
      "burning": 7329,
      "##ruction": 7330,
      "competition": 7331,
      "crushes": 7332,
      "misunderstanding": 7333,
      "procrastinating": 7334,
      "survival": 7335,
      "architect": 7336,
      "unlikely": 7337,
      "inherently": 7338,
      "industry": 7339,
      "cough": 7340,
      "cents": 7341,
      "flex": 7342,
      "pier": 7343,
      "witch": 7344,
      "##pm": 7345,
      "##py": 7346,
      "##77": 7347,
      "##icit": 7348,
      "reass": 7349,
      "##illy": 7350,
      "exter": 7351,
      "weigh": 7352,
      "conven": 7353,
      "posters": 7354,
      "deser": 7355,
      "glob": 7356,
      "profound": 7357,
      "obsessive": 7358,
      "largely": 7359,
      "centered": 7360,
      "fields": 7361,
      "balls": 7362,
      "controlled": 7363,
      "terrified": 7364,
      "exchange": 7365,
      "italian": 7366,
      "fox": 7367,
      "kat": 7368,
      "pity": 7369,
      "rab": 7370,
      "sequ": 7371,
      "asian": 7372,
      "##ogue": 7373,
      "crave": 7374,
      "douche": 7375,
      "grab": 7376,
      "connecting": 7377,
      "stupidity": 7378,
      "##bby": 7379,
      "motives": 7380,
      "forgetting": 7381,
      "analytical": 7382,
      "insecurity": 7383,
      "categor": 7384,
      "##iffer": 7385,
      "wedding": 7386,
      "invisible": 7387,
      "libertarian": 7388,
      "afternoon": 7389,
      "bomb": 7390,
      "dust": 7391,
      "oct": 7392,
      "rot": 7393,
      "inqu": 7394,
      "rein": 7395,
      "##etime": 7396,
      "stal": 7397,
      "##urs": 7398,
      "enne": 7399,
      "reliable": 7400,
      "applying": 7401,
      "carefully": 7402,
      "organization": 7403,
      "##obia": 7404,
      "tools": 7405,
      "assessment": 7406,
      "saturday": 7407,
      "##arius": 7408,
      "fruit": 7409,
      "outs": 7410,
      "que": 7411,
      "unint": 7412,
      "subfor": 7413,
      "distin": 7414,
      "damage": 7415,
      "killer": 7416,
      "snap": 7417,
      "presented": 7418,
      "destruct": 7419,
      "sexuality": 7420,
      "perfectionist": 7421,
      "metaphor": 7422,
      "clouds": 7423,
      "owl": 7424,
      "officially": 7425,
      "caffe": 7426,
      "alex": 7427,
      "##ients": 7428,
      "ina": 7429,
      "##elie": 7430,
      "##ette": 7431,
      "guarant": 7432,
      "implying": 7433,
      "indiffer": 7434,
      "nicely": 7435,
      "exams": 7436,
      "mistype": 7437,
      "convent": 7438,
      "chatting": 7439,
      "##comes": 7440,
      "intrigued": 7441,
      "graphic": 7442,
      "ashamed": 7443,
      "46": 7444,
      "rise": 7445,
      "##days": 7446,
      "##eds": 7447,
      "shout": 7448,
      "org": 7449,
      "##active": 7450,
      "impulsive": 7451,
      "guessed": 7452,
      "insensitive": 7453,
      "sentimental": 7454,
      "commonly": 7455,
      "holds": 7456,
      "idealism": 7457,
      "ruin": 7458,
      "spoil": 7459,
      "bully": 7460,
      "germany": 7461,
      "bolded": 7462,
      "hatred": 7463,
      "mobile": 7464,
      "excitement": 7465,
      "encyclopedia": 7466,
      "cit": 7467,
      "rar": 7468,
      "ren": 7469,
      "##nie": 7470,
      "##16": 7471,
      "##sty": 7472,
      "alas": 7473,
      "ens": 7474,
      "##ortion": 7475,
      "speaks": 7476,
      "desires": 7477,
      "genres": 7478,
      "##iforn": 7479,
      "##phones": 7480,
      "waves": 7481,
      "dealt": 7482,
      "uncomm": 7483,
      "retur": 7484,
      "doubts": 7485,
      "illustr": 7486,
      "criticize": 7487,
      "instinctual": 7488,
      "ethical": 7489,
      "houses": 7490,
      "pronoun": 7491,
      "unrelated": 7492,
      "gem": 7493,
      "kitch": 7494,
      "tan": 7495,
      "tie": 7496,
      "##han": 7497,
      "##eral": 7498,
      "tow": 7499,
      "##orious": 7500,
      "##sters": 7501,
      "##oops": 7502,
      "polic": 7503,
      "relat": 7504,
      "resent": 7505,
      "designed": 7506,
      "brut": 7507,
      "remark": 7508,
      "insulting": 7509,
      "easiest": 7510,
      "laz": 7511,
      "collection": 7512,
      "extraversion": 7513,
      "pathetic": 7514,
      "sending": 7515,
      "pursuing": 7516,
      "ambi": 7517,
      "improvement": 7518,
      "##nnnn": 7519,
      "##cending": 7520,
      "russian": 7521,
      "absorbed": 7522,
      "011": 7523,
      "42": 7524,
      "53": 7525,
      "bast": 7526,
      "lion": 7527,
      "oil": 7528,
      "river": 7529,
      "##ril": 7530,
      "##otyp": 7531,
      "##entric": 7532,
      "##ilies": 7533,
      "conce": 7534,
      "trash": 7535,
      "pref": 7536,
      "##ossy": 7537,
      "reads": 7538,
      "partially": 7539,
      "remove": 7540,
      "download": 7541,
      "bugs": 7542,
      "sketch": 7543,
      "californ": 7544,
      "troubles": 7545,
      "bedroom": 7546,
      "goofy": 7547,
      "instrument": 7548,
      "sympathy": 7549,
      "british": 7550,
      "cigare": 7551,
      "discipline": 7552,
      "department": 7553,
      "bc": 7554,
      "cab": 7555,
      "##bal": 7556,
      "##off": 7557,
      "##rict": 7558,
      "##58": 7559,
      "##urance": 7560,
      "interrupt": 7561,
      "blond": 7562,
      "extended": 7563,
      "definitions": 7564,
      "guesses": 7565,
      "command": 7566,
      "insan": 7567,
      "march": 7568,
      "gods": 7569,
      "##ublic": 7570,
      "internally": 7571,
      "sucked": 7572,
      "steam": 7573,
      "fascinated": 7574,
      "cookie": 7575,
      "woah": 7576,
      "screwed": 7577,
      "sincere": 7578,
      "exhausting": 7579,
      "enthusiasm": 7580,
      "counselor": 7581,
      "minimal": 7582,
      "thoroughly": 7583,
      "rainbow": 7584,
      "bubbly": 7585,
      "global": 7586,
      "fans": 7587,
      "punk": 7588,
      "tid": 7589,
      "##mark": 7590,
      "##hand": 7591,
      "##gue": 7592,
      "wouldnt": 7593,
      "vegan": 7594,
      "##arts": 7595,
      "saf": 7596,
      "infx": 7597,
      "bell": 7598,
      "scares": 7599,
      "commer": 7600,
      "laught": 7601,
      "charm": 7602,
      "hugging": 7603,
      "court": 7604,
      "miscon": 7605,
      "mainstream": 7606,
      "polar": 7607,
      "discovering": 7608,
      "frequent": 7609,
      "robots": 7610,
      "xnfp": 7611,
      "disturbing": 7612,
      "puzzle": 7613,
      "features": 7614,
      "symptoms": 7615,
      "ein": 7616,
      "kar": 7617,
      "##ees": 7618,
      "##icate": 7619,
      "lift": 7620,
      "align": 7621,
      "pock": 7622,
      "print": 7623,
      "twil": 7624,
      "flip": 7625,
      "esp": 7626,
      "youngest": 7627,
      "##resp": 7628,
      "motivations": 7629,
      "autism": 7630,
      "attempts": 7631,
      "privacy": 7632,
      "athlet": 7633,
      "engineer": 7634,
      "idiots": 7635,
      "introduce": 7636,
      "verbally": 7637,
      "desperate": 7638,
      "skeptical": 7639,
      "disease": 7640,
      "37": 7641,
      "aha": 7642,
      "eu": 7643,
      "hind": 7644,
      "hood": 7645,
      "soo": 7646,
      "thick": 7647,
      "##edly": 7648,
      "rechar": 7649,
      "invite": 7650,
      "mini": 7651,
      "solutions": 7652,
      "transform": 7653,
      "pulling": 7654,
      "poorly": 7655,
      "hypocr": 7656,
      "influenced": 7657,
      "digital": 7658,
      "skinny": 7659,
      "punish": 7660,
      "audience": 7661,
      "novels": 7662,
      "tolerance": 7663,
      "loads": 7664,
      "fundamental": 7665,
      "entertainment": 7666,
      "##iques": 7667,
      "vampire": 7668,
      "yoga": 7669,
      "disrespect": 7670,
      "66": 7671,
      "jam": 7672,
      "ox": 7673,
      "wishing": 7674,
      "##bid": 7675,
      "suits": 7676,
      "lovers": 7677,
      "chase": 7678,
      "writers": 7679,
      "genes": 7680,
      "lasted": 7681,
      "musician": 7682,
      "stops": 7683,
      "invited": 7684,
      "creates": 7685,
      "admir": 7686,
      "suggesting": 7687,
      "neglect": 7688,
      "straw": 7689,
      "closet": 7690,
      "seasons": 7691,
      "electric": 7692,
      "twilight": 7693,
      "48": 7694,
      "mond": 7695,
      "pit": 7696,
      "##isation": 7697,
      "intx": 7698,
      "dex": 7699,
      "sum": 7700,
      "chair": 7701,
      "defensive": 7702,
      "smiles": 7703,
      "keir": 7704,
      "sounding": 7705,
      "bubble": 7706,
      "register": 7707,
      "openly": 7708,
      "analogy": 7709,
      "##ifications": 7710,
      "touchy": 7711,
      "moods": 7712,
      "filter": 7713,
      "purposes": 7714,
      "replace": 7715,
      "christianity": 7716,
      "jungian": 7717,
      "##hhhhhhhh": 7718,
      "grounded": 7719,
      "darn": 7720,
      "academic": 7721,
      "paradox": 7722,
      "throat": 7723,
      "caffeine": 7724,
      "kitchen": 7725,
      "i´": 7726,
      "pace": 7727,
      "##ku": 7728,
      "##wa": 7729,
      "theat": 7730,
      "##real": 7731,
      "youre": 7732,
      "sto": 7733,
      "weap": 7734,
      "cher": 7735,
      "mail": 7736,
      "underlying": 7737,
      "conspir": 7738,
      "learnt": 7739,
      "slam": 7740,
      "advise": 7741,
      "wave": 7742,
      "medi": 7743,
      "creation": 7744,
      "matches": 7745,
      "instincts": 7746,
      "vocal": 7747,
      "wander": 7748,
      "participate": 7749,
      "duty": 7750,
      "gorge": 7751,
      "yell": 7752,
      "##bi": 7753,
      "##nis": 7754,
      "thom": 7755,
      "sticking": 7756,
      "##umble": 7757,
      "##iger": 7758,
      "plant": 7759,
      "expand": 7760,
      "talented": 7761,
      "resem": 7762,
      "impat": 7763,
      "implies": 7764,
      "trail": 7765,
      "socialize": 7766,
      "distingu": 7767,
      "sciences": 7768,
      "silver": 7769,
      "processing": 7770,
      "energetic": 7771,
      "literal": 7772,
      "retarded": 7773,
      "intellectually": 7774,
      "##forward": 7775,
      "prag": 7776,
      "principles": 7777,
      "mathematics": 7778,
      "unstable": 7779,
      "laughter": 7780,
      "lic": 7781,
      "sau": 7782,
      "##eve": 7783,
      "toy": 7784,
      "##uts": 7785,
      "lil": 7786,
      "stem": 7787,
      "##umn": 7788,
      "unem": 7789,
      "mund": 7790,
      "ade": 7791,
      "defining": 7792,
      "couch": 7793,
      "mates": 7794,
      "secure": 7795,
      "serve": 7796,
      "president": 7797,
      "strangely": 7798,
      "limits": 7799,
      "disagre": 7800,
      "protective": 7801,
      "util": 7802,
      "clicked": 7803,
      "settings": 7804,
      "gathering": 7805,
      "captain": 7806,
      "rip": 7807,
      "##ev": 7808,
      "##fall": 7809,
      "whatso": 7810,
      "##amele": 7811,
      "sheep": 7812,
      "soundtra": 7813,
      "indie": 7814,
      "accent": 7815,
      "strongest": 7816,
      "raw": 7817,
      "motor": 7818,
      "##aware": 7819,
      "straightforward": 7820,
      "inconsist": 7821,
      "uncommon": 7822,
      "jon": 7823,
      "##aps": 7824,
      "##gen": 7825,
      "##vable": 7826,
      "##yer": 7827,
      "##you": 7828,
      "lied": 7829,
      "united": 7830,
      "decl": 7831,
      "openness": 7832,
      "sets": 7833,
      "positions": 7834,
      "##archy": 7835,
      "empathize": 7836,
      "richard": 7837,
      "fulfilling": 7838,
      "relief": 7839,
      "oooh": 7840,
      "numerous": 7841,
      "syndrome": 7842,
      "eggs": 7843,
      "fest": 7844,
      "mort": 7845,
      "##ban": 7846,
      "##pire": 7847,
      "##father": 7848,
      "threw": 7849,
      "##orter": 7850,
      "##icy": 7851,
      "doom": 7852,
      "##opher": 7853,
      "prejud": 7854,
      "##icked": 7855,
      "keen": 7856,
      "removed": 7857,
      "basket": 7858,
      "headed": 7859,
      "psychic": 7860,
      "religions": 7861,
      "darker": 7862,
      "cutting": 7863,
      "combo": 7864,
      "discovery": 7865,
      "intensely": 7866,
      "secrets": 7867,
      "suicidal": 7868,
      "dynamics": 7869,
      "withdrawn": 7870,
      "##interp": 7871,
      "trigger": 7872,
      "ixfp": 7873,
      "destructive": 7874,
      "mundane": 7875,
      "eternal": 7876,
      "ny": 7877,
      "rising": 7878,
      "tut": 7879,
      "xx": 7880,
      "##mo": 7881,
      "##da": 7882,
      "##gl": 7883,
      "##oration": 7884,
      "shes": 7885,
      "upload": 7886,
      "dies": 7887,
      "##udge": 7888,
      "scri": 7889,
      "triv": 7890,
      "submiss": 7891,
      "skim": 7892,
      "judged": 7893,
      "paral": 7894,
      "treatment": 7895,
      "hypothes": 7896,
      "spirituality": 7897,
      "micro": 7898,
      "investig": 7899,
      "woods": 7900,
      "disappear": 7901,
      "advocate": 7902,
      "whatsoever": 7903,
      "43": 7904,
      "56": 7905,
      "diction": 7906,
      "pour": 7907,
      "ry": 7908,
      "neuro": 7909,
      "ambit": 7910,
      "unaware": 7911,
      "##earing": 7912,
      "actor": 7913,
      "dile": 7914,
      "spiders": 7915,
      "disreg": 7916,
      "perpet": 7917,
      "desig": 7918,
      "scorp": 7919,
      "##ormal": 7920,
      "##eee": 7921,
      "##aze": 7922,
      "trusting": 7923,
      "shyness": 7924,
      "conflicts": 7925,
      "misunderstand": 7926,
      "jealousy": 7927,
      "exclusive": 7928,
      "recip": 7929,
      "enemy": 7930,
      "emphasis": 7931,
      "ec": 7932,
      "sf": 7933,
      "u200": 7934,
      "##cil": 7935,
      "##icle": 7936,
      "lips": 7937,
      "forcing": 7938,
      "shr": 7939,
      "heat": 7940,
      "prol": 7941,
      "guid": 7942,
      "price": 7943,
      "afric": 7944,
      "##angel": 7945,
      "##ifting": 7946,
      "insist": 7947,
      "asshol": 7948,
      "##while": 7949,
      "buff": 7950,
      "survey": 7951,
      "figures": 7952,
      "incap": 7953,
      "viewpoint": 7954,
      "bloody": 7955,
      "medicine": 7956,
      "xntp": 7957,
      "isolated": 7958,
      "coworkers": 7959,
      "california": 7960,
      "rum": 7961,
      "##uation": 7962,
      "##elle": 7963,
      "telev": 7964,
      "nihil": 7965,
      "republic": 7966,
      "courses": 7967,
      "drift": 7968,
      "existed": 7969,
      "misinterp": 7970,
      "kills": 7971,
      "strive": 7972,
      "performance": 7973,
      "confession": 7974,
      "cuddle": 7975,
      "slept": 7976,
      "masters": 7977,
      "solely": 7978,
      "asexual": 7979,
      "pse": 7980,
      "##uto": 7981,
      "##asy": 7982,
      "atle": 7983,
      "chamele": 7984,
      "##cif": 7985,
      "realization": 7986,
      "effectively": 7987,
      "circles": 7988,
      "##nov": 7989,
      "hopes": 7990,
      "sunsh": 7991,
      "despise": 7992,
      "elements": 7993,
      "trek": 7994,
      "repeating": 7995,
      "indicate": 7996,
      "equivalent": 7997,
      "judgment": 7998,
      "locked": 7999,
      "compromise": 8000,
      "distinction": 8001,
      "dexter": 8002,
      "gorgeous": 8003,
      "pseud": 8004,
      "ahhh": 8005,
      "ditt": 8006,
      "jaw": 8007,
      "melt": 8008,
      "wre": 8009,
      "yum": 8010,
      "##ean": 8011,
      "##col": 8012,
      "##fa": 8013,
      "##aded": 8014,
      "sus": 8015,
      "knife": 8016,
      "girly": 8017,
      "##isms": 8018,
      "completed": 8019,
      "cheesy": 8020,
      "psycho": 8021,
      "functional": 8022,
      "supernatural": 8023,
      "suggests": 8024,
      "impressive": 8025,
      "validation": 8026,
      "2000": 8027,
      "##rrrr": 8028,
      "breathe": 8029,
      "medications": 8030,
      "enthusiastic": 8031,
      "voices": 8032,
      "62": 8033,
      "aug": 8034,
      "bizar": 8035,
      "cities": 8036,
      "pil": 8037,
      "serial": 8038,
      "##top": 8039,
      "##cup": 8040,
      "##wing": 8041,
      "sess": 8042,
      "forces": 8043,
      "stead": 8044,
      "convey": 8045,
      "willi": 8046,
      "heroes": 8047,
      "offered": 8048,
      "leo": 8049,
      "scott": 8050,
      "consens": 8051,
      "enjoys": 8052,
      "crappy": 8053,
      "slip": 8054,
      "follows": 8055,
      "avoidant": 8056,
      "organize": 8057,
      "historical": 8058,
      "rocks": 8059,
      "clubs": 8060,
      "nerdy": 8061,
      "bullying": 8062,
      "capitalism": 8063,
      "dishes": 8064,
      "encountered": 8065,
      "subscri": 8066,
      "ditto": 8067,
      "gt": 8068,
      "gear": 8069,
      "gap": 8070,
      "til": 8071,
      "##oom": 8072,
      "##lor": 8073,
      "##fish": 8074,
      "toile": 8075,
      "inch": 8076,
      "stability": 8077,
      "##unction": 8078,
      "##eable": 8079,
      "faced": 8080,
      "nevermind": 8081,
      "##fulness": 8082,
      "newb": 8083,
      "dreamed": 8084,
      "rave": 8085,
      "profiles": 8086,
      "steal": 8087,
      "condes": 8088,
      "holes": 8089,
      "dressed": 8090,
      "roller": 8091,
      "gained": 8092,
      "deserves": 8093,
      "keirsey": 8094,
      "dilemm": 8095,
      "bizarre": 8096,
      "31": 8097,
      "fright": 8098,
      "pig": 8099,
      "wiz": 8100,
      "##uits": 8101,
      "##rey": 8102,
      "##ari": 8103,
      "##ancing": 8104,
      "##rier": 8105,
      "##road": 8106,
      "##berry": 8107,
      "tease": 8108,
      "dreamy": 8109,
      "corporate": 8110,
      "hmmmm": 8111,
      "foods": 8112,
      "approaching": 8113,
      "objectively": 8114,
      "politic": 8115,
      "century": 8116,
      "nerves": 8117,
      "satisfying": 8118,
      "lifetime": 8119,
      "folk": 8120,
      "celebrity": 8121,
      "tricky": 8122,
      "colours": 8123,
      "ironically": 8124,
      "lecture": 8125,
      "divorce": 8126,
      "criminal": 8127,
      "phenomen": 8128,
      "sunshine": 8129,
      "bachel": 8130,
      "drew": 8131,
      "jul": 8132,
      "sink": 8133,
      "deem": 8134,
      "tail": 8135,
      "empir": 8136,
      "flick": 8137,
      "thankful": 8138,
      "psycholog": 8139,
      "mission": 8140,
      "uncon": 8141,
      "halfway": 8142,
      "retreat": 8143,
      "accuracy": 8144,
      "challenges": 8145,
      "comforting": 8146,
      "directions": 8147,
      "revolution": 8148,
      "blend": 8149,
      "inspiring": 8150,
      "screaming": 8151,
      "concerns": 8152,
      "cosm": 8153,
      "junior": 8154,
      "hypothetical": 8155,
      "dab": 8156,
      "ech": 8157,
      "ecc": 8158,
      "nag": 8159,
      "ron": 8160,
      "rice": 8161,
      "##oning": 8162,
      "##anth": 8163,
      "inapp": 8164,
      "##cha": 8165,
      "##ado": 8166,
      "washing": 8167,
      "nec": 8168,
      "##urities": 8169,
      "##osc": 8170,
      "advert": 8171,
      "##agers": 8172,
      "league": 8173,
      "brush": 8174,
      "cringe": 8175,
      "imagined": 8176,
      "visiting": 8177,
      "placed": 8178,
      "labels": 8179,
      "conditions": 8180,
      "clarity": 8181,
      "represents": 8182,
      "adventur": 8183,
      "marketing": 8184,
      "customer": 8185,
      "economics": 8186,
      "fluffy": 8187,
      "entitled": 8188,
      "subforum": 8189,
      "television": 8190,
      "63": 8191,
      "ara": 8192,
      "bush": 8193,
      "bank": 8194,
      "fer": 8195,
      "fri": 8196,
      "fate": 8197,
      "ns": 8198,
      "pir": 8199,
      "pump": 8200,
      "tour": 8201,
      "##house": 8202,
      "##ns": 8203,
      "##nam": 8204,
      "##inger": 8205,
      "whim": 8206,
      "stumbled": 8207,
      "china": 8208,
      "infat": 8209,
      "teasing": 8210,
      "implic": 8211,
      "traff": 8212,
      "suppress": 8213,
      "seriousness": 8214,
      "engaging": 8215,
      "functioning": 8216,
      "solitude": 8217,
      "speaker": 8218,
      "dominance": 8219,
      "cultures": 8220,
      "unfortunate": 8221,
      "reaching": 8222,
      "environmental": 8223,
      "essence": 8224,
      "boxes": 8225,
      "insecurities": 8226,
      "network": 8227,
      "escap": 8228,
      "pairing": 8229,
      "latin": 8230,
      "increase": 8231,
      "platonic": 8232,
      "european": 8233,
      "thousands": 8234,
      "documentary": 8235,
      "nostalgia": 8236,
      "browsing": 8237,
      "execut": 8238,
      "anonymous": 8239,
      "ambivert": 8240,
      "monday": 8241,
      "58": 8242,
      "horm": 8243,
      "ot": 8244,
      "xxx": 8245,
      "zod": 8246,
      "anna": 8247,
      "##rix": 8248,
      "quart": 8249,
      "infp": 8250,
      "thankfully": 8251,
      "##isexual": 8252,
      "elsewhere": 8253,
      "accused": 8254,
      "honor": 8255,
      "bug": 8256,
      "preferably": 8257,
      "reput": 8258,
      "meds": 8259,
      "2010": 8260,
      "solved": 8261,
      "sweat": 8262,
      "identifying": 8263,
      "smiley": 8264,
      "bothering": 8265,
      "sooner": 8266,
      "companies": 8267,
      "claiming": 8268,
      "petty": 8269,
      "pengu": 8270,
      "homosexual": 8271,
      "narcissism": 8272,
      "candid": 8273,
      "rebell": 8274,
      "freshman": 8275,
      "mountains": 8276,
      "melancholic": 8277,
      "rigid": 8278,
      "articulate": 8279,
      "einstein": 8280,
      "conspiracy": 8281,
      "assholes": 8282,
      "500": 8283,
      "mile": 8284,
      "##kk": 8285,
      "seat": 8286,
      "liqu": 8287,
      "##ille": 8288,
      "france": 8289,
      "trade": 8290,
      "tag": 8291,
      "##osh": 8292,
      "twenty": 8293,
      "monkey": 8294,
      "obsc": 8295,
      "doub": 8296,
      "quietly": 8297,
      "aliens": 8298,
      "independence": 8299,
      "square": 8300,
      "wandering": 8301,
      "desperately": 8302,
      "nightmares": 8303,
      "repetitive": 8304,
      "inacc": 8305,
      "atleast": 8306,
      "zodiac": 8307,
      "buck": 8308,
      "fet": 8309,
      "naz": 8310,
      "##wich": 8311,
      "mexic": 8312,
      "ship": 8313,
      "shakes": 8314,
      "devi": 8315,
      "relatives": 8316,
      "scroll": 8317,
      "branch": 8318,
      "indirect": 8319,
      "explode": 8320,
      "apoc": 8321,
      "families": 8322,
      "soup": 8323,
      "variant": 8324,
      "holmes": 8325,
      "interpersonal": 8326,
      "homes": 8327,
      "satisfaction": 8328,
      "introduction": 8329,
      "route": 8330,
      "counseling": 8331,
      "maxim": 8332,
      "coworker": 8333,
      "##cafe": 8334,
      "outwardly": 8335,
      "refreshing": 8336,
      "unrealistic": 8337,
      "cert": 8338,
      "mere": 8339,
      "##ek": 8340,
      "##parent": 8341,
      "##fit": 8342,
      "##55": 8343,
      "##91": 8344,
      "##oral": 8345,
      "meal": 8346,
      "alarm": 8347,
      "##ulated": 8348,
      "##rain": 8349,
      "enxp": 8350,
      "facing": 8351,
      "overl": 8352,
      "blat": 8353,
      "##pleas": 8354,
      "decade": 8355,
      "terror": 8356,
      "creator": 8357,
      "publish": 8358,
      "demanding": 8359,
      "##obic": 8360,
      "bullet": 8361,
      "cooper": 8362,
      "minority": 8363,
      "##uuuuuuuu": 8364,
      "concentrate": 8365,
      "volunteer": 8366,
      "greek": 8367,
      "hr": 8368,
      "lust": 8369,
      "wra": 8370,
      "##pd": 8371,
      "##liness": 8372,
      "##vity": 8373,
      "androg": 8374,
      "hamm": 8375,
      "##owing": 8376,
      "stance": 8377,
      "stark": 8378,
      "##ulate": 8379,
      "##inder": 8380,
      "outdo": 8381,
      "##ander": 8382,
      "preach": 8383,
      "reader": 8384,
      "spare": 8385,
      "##oster": 8386,
      "territ": 8387,
      "mari": 8388,
      "handful": 8389,
      "drained": 8390,
      "edited": 8391,
      "racist": 8392,
      "criteria": 8393,
      "stephen": 8394,
      "allowing": 8395,
      "feminism": 8396,
      "##rooms": 8397,
      "websites": 8398,
      "smells": 8399,
      "breathing": 8400,
      "guns": 8401,
      "isolation": 8402,
      "comprehend": 8403,
      "coincidence": 8404,
      "sacrifice": 8405,
      "dictionary": 8406,
      "aust": 8407,
      "lam": 8408,
      "rere": 8409,
      "wond": 8410,
      "##ration": 8411,
      "##rick": 8412,
      "##zer": 8413,
      "thri": 8414,
      "##itor": 8415,
      "inj": 8416,
      "albe": 8417,
      "stood": 8418,
      "socc": 8419,
      "##osing": 8420,
      "spr": 8421,
      "meanings": 8422,
      "##beat": 8423,
      "specially": 8424,
      "highlight": 8425,
      "##life": 8426,
      "absent": 8427,
      "burden": 8428,
      "central": 8429,
      "convincing": 8430,
      "portion": 8431,
      "concerning": 8432,
      "sandwich": 8433,
      "selling": 8434,
      "charlie": 8435,
      "orientation": 8436,
      "psychiatrist": 8437,
      "traffic": 8438,
      "soccer": 8439,
      "fold": 8440,
      "sust": 8441,
      "yelling": 8442,
      "##mat": 8443,
      "##nia": 8444,
      "##itute": 8445,
      "beating": 8446,
      "feature": 8447,
      "chris": 8448,
      "poison": 8449,
      "pert": 8450,
      "hier": 8451,
      "thrones": 8452,
      "definately": 8453,
      "trap": 8454,
      "monog": 8455,
      "considerate": 8456,
      "buzz": 8457,
      "carl": 8458,
      "gravit": 8459,
      "noneth": 8460,
      "riding": 8461,
      "butterfly": 8462,
      "introspection": 8463,
      "application": 8464,
      "reciproc": 8465,
      "incapable": 8466,
      "albeit": 8467,
      "nonetheless": 8468,
      "bodies": 8469,
      "os": 8470,
      "pitch": 8471,
      "ties": 8472,
      "##kind": 8473,
      "##uting": 8474,
      "station": 8475,
      "##roid": 8476,
      "allerg": 8477,
      "persu": 8478,
      "cliche": 8479,
      "grat": 8480,
      "blast": 8481,
      "imper": 8482,
      "simil": 8483,
      "generous": 8484,
      "laughs": 8485,
      "horribly": 8486,
      "varies": 8487,
      "eyebr": 8488,
      "models": 8489,
      "treating": 8490,
      "fuzzy": 8491,
      "violin": 8492,
      "innate": 8493,
      "##works": 8494,
      "mechanical": 8495,
      "nails": 8496,
      "hallow": 8497,
      "tattoos": 8498,
      "illeg": 8499,
      "citiz": 8500,
      "script": 8501,
      "trivial": 8502,
      "eccentric": 8503,
      "67": 8504,
      "cod": 8505,
      "dw": 8506,
      "narr": 8507,
      "sab": 8508,
      "##rot": 8509,
      "##iance": 8510,
      "##42": 8511,
      "##x85": 8512,
      "alice": 8513,
      "chronic": 8514,
      "plastic": 8515,
      "exposed": 8516,
      "hiking": 8517,
      "definitive": 8518,
      "flower": 8519,
      "viewed": 8520,
      "restrict": 8521,
      "amazon": 8522,
      "moody": 8523,
      "awkwardness": 8524,
      "demean": 8525,
      "fourth": 8526,
      "slightest": 8527,
      "anticip": 8528,
      "extraverts": 8529,
      "beneficial": 8530,
      "astron": 8531,
      "crossed": 8532,
      "switched": 8533,
      "constructive": 8534,
      "principle": 8535,
      "hipster": 8536,
      "introspective": 8537,
      "swedish": 8538,
      "trauma": 8539,
      "encouraging": 8540,
      "##books": 8541,
      "precise": 8542,
      "inaccur": 8543,
      "aid": 8544,
      "bust": 8545,
      "pix": 8546,
      "rick": 8547,
      "sque": 8548,
      "york": 8549,
      "##pal": 8550,
      "##ups": 8551,
      "##ham": 8552,
      "sel": 8553,
      "##aroo": 8554,
      "income": 8555,
      "innov": 8556,
      "##storm": 8557,
      "wealth": 8558,
      "loath": 8559,
      "chain": 8560,
      "poly": 8561,
      "undergrad": 8562,
      "leon": 8563,
      "schem": 8564,
      "fiance": 8565,
      "craw": 8566,
      "cheers": 8567,
      "hearted": 8568,
      "sleepy": 8569,
      "rac": 8570,
      "profit": 8571,
      "photograph": 8572,
      "smoked": 8573,
      "girlfriends": 8574,
      "agreement": 8575,
      "scientists": 8576,
      "papers": 8577,
      "portra": 8578,
      "irritating": 8579,
      "translation": 8580,
      "duh": 8581,
      "calculus": 8582,
      "premise": 8583,
      "dedicated": 8584,
      "indecisive": 8585,
      "valentine": 8586,
      "condescending": 8587,
      "dilemma": 8588,
      "rang": 8589,
      "##pher": 8590,
      "##´s": 8591,
      "##itting": 8592,
      "stole": 8593,
      "mold": 8594,
      "suited": 8595,
      "mand": 8596,
      "sav": 8597,
      "grin": 8598,
      "impul": 8599,
      "foundation": 8600,
      "classmates": 8601,
      "irish": 8602,
      "meme": 8603,
      "mentioning": 8604,
      "visited": 8605,
      "redu": 8606,
      "fails": 8607,
      "struggles": 8608,
      "odds": 8609,
      "improving": 8610,
      "midnight": 8611,
      "intimidated": 8612,
      "acquaintance": 8613,
      "compatibility": 8614,
      "teddy": 8615,
      "goddam": 8616,
      "safety": 8617,
      "recharge": 8618,
      "bac": 8619,
      "fo": 8620,
      "ky": 8621,
      "lingu": 8622,
      "wound": 8623,
      "yess": 8624,
      "##lines": 8625,
      "##esting": 8626,
      "##ella": 8627,
      "tril": 8628,
      "precious": 8629,
      "##fect": 8630,
      "sociable": 8631,
      "bridge": 8632,
      "trained": 8633,
      "instances": 8634,
      "farm": 8635,
      "existing": 8636,
      "##ashed": 8637,
      "signals": 8638,
      "soulmate": 8639,
      "skilled": 8640,
      "americans": 8641,
      "penis": 8642,
      "albums": 8643,
      "confrontation": 8644,
      "percentage": 8645,
      "minimum": 8646,
      "galax": 8647,
      "established": 8648,
      "incompetent": 8649,
      "blonde": 8650,
      "disregard": 8651,
      "68": 8652,
      "bore": 8653,
      "bars": 8654,
      "duck": 8655,
      "drove": 8656,
      "mouse": 8657,
      "##atoes": 8658,
      "bend": 8659,
      "haw": 8660,
      "lip": 8661,
      "##ads": 8662,
      "chasing": 8663,
      "sword": 8664,
      "immense": 8665,
      "##rence": 8666,
      "##acle": 8667,
      "begins": 8668,
      "recommended": 8669,
      "ambig": 8670,
      "audio": 8671,
      "insults": 8672,
      "superiority": 8673,
      "unpred": 8674,
      "contemplating": 8675,
      "hunter": 8676,
      "integrity": 8677,
      "ought": 8678,
      "permanent": 8679,
      "consensus": 8680,
      "similarly": 8681,
      "bum": 8682,
      "bossy": 8683,
      "gle": 8684,
      "hunt": 8685,
      "las": 8686,
      "sps": 8687,
      "##uate": 8688,
      "##uity": 8689,
      "##gic": 8690,
      "theor": 8691,
      "toys": 8692,
      "##alid": 8693,
      "##ita": 8694,
      "##step": 8695,
      "whoops": 8696,
      "reverse": 8697,
      "##umsy": 8698,
      "dipl": 8699,
      "clumsy": 8700,
      "genetic": 8701,
      "backwards": 8702,
      "indian": 8703,
      "difficulties": 8704,
      "amazed": 8705,
      "illusion": 8706,
      "autistic": 8707,
      "hehehe": 8708,
      "categories": 8709,
      "mixt": 8710,
      "priority": 8711,
      "strictly": 8712,
      "hooked": 8713,
      "ix92m": 8714,
      "december": 8715,
      "chapter": 8716,
      "submissive": 8717,
      "august": 8718,
      "inappropriate": 8719,
      "adventurous": 8720,
      "monogam": 8721,
      "unpredict": 8722,
      "ahaha": 8723,
      "aries": 8724,
      "mary": 8725,
      "ye": 8726,
      "##bag": 8727,
      "##bage": 8728,
      "##ae": 8729,
      "##field": 8730,
      "##vol": 8731,
      "##jack": 8732,
      "##32": 8733,
      "##arn": 8734,
      "##alf": 8735,
      "havent": 8736,
      "feely": 8737,
      "poker": 8738,
      "une": 8739,
      "disclaim": 8740,
      "contest": 8741,
      "obt": 8742,
      "##mmmm": 8743,
      "personalitycafe": 8744,
      "invalid": 8745,
      "plane": 8746,
      "oneself": 8747,
      "trusted": 8748,
      "burned": 8749,
      "projecting": 8750,
      "pleased": 8751,
      "programs": 8752,
      "device": 8753,
      "educated": 8754,
      "denial": 8755,
      "hunger": 8756,
      "settled": 8757,
      "schedul": 8758,
      "ixtj": 8759,
      "disgusting": 8760,
      "dichotomy": 8761,
      "pragmatic": 8762,
      "androgyn": 8763,
      "signed": 8764,
      "yu": 8765,
      "##zs": 8766,
      "sept": 8767,
      "meg": 8768,
      "healing": 8769,
      "##illing": 8770,
      "##ussy": 8771,
      "uninter": 8772,
      "actors": 8773,
      "sac": 8774,
      "##uding": 8775,
      "genetics": 8776,
      "joe": 8777,
      "certainty": 8778,
      "depri": 8779,
      "norms": 8780,
      "boost": 8781,
      "motion": 8782,
      "breakup": 8783,
      "worthless": 8784,
      "sunny": 8785,
      "impressions": 8786,
      "autumn": 8787,
      "fantasies": 8788,
      "kissing": 8789,
      "structured": 8790,
      "billion": 8791,
      "economy": 8792,
      "geek": 8793,
      "fluent": 8794,
      "reinfor": 8795,
      "reputation": 8796,
      "diplom": 8797,
      "85": 8798,
      "dy": 8799,
      "upper": 8800,
      "##kins": 8801,
      "##win": 8802,
      "toast": 8803,
      "toss": 8804,
      "sticks": 8805,
      "canad": 8806,
      "atl": 8807,
      "outlook": 8808,
      "##umber": 8809,
      "prev": 8810,
      "blown": 8811,
      "twitter": 8812,
      "phleg": 8813,
      "drum": 8814,
      "##veloped": 8815,
      "format": 8816,
      "breakdown": 8817,
      "1000": 8818,
      "practicing": 8819,
      "eaten": 8820,
      "involving": 8821,
      "collective": 8822,
      "##working": 8823,
      "pillow": 8824,
      "inspire": 8825,
      "masturb": 8826,
      "cartoon": 8827,
      "suspicious": 8828,
      "##burst": 8829,
      "bunny": 8830,
      "nurture": 8831,
      "pessimistic": 8832,
      "laziness": 8833,
      "impatient": 8834,
      "prejudice": 8835,
      "androgynous": 8836,
      "39": 8837,
      "ber": 8838,
      "cro": 8839,
      "lg": 8840,
      "##function": 8841,
      "##inations": 8842,
      "##rep": 8843,
      "##eline": 8844,
      "##icting": 8845,
      "stro": 8846,
      "stores": 8847,
      "whatnot": 8848,
      "agend": 8849,
      "clu": 8850,
      "hipp": 8851,
      "explicit": 8852,
      "ideally": 8853,
      "discrim": 8854,
      "eachother": 8855,
      "surg": 8856,
      "wished": 8857,
      "exceptions": 8858,
      "##ganized": 8859,
      "positively": 8860,
      "magaz": 8861,
      "prince": 8862,
      "clarification": 8863,
      "kicked": 8864,
      "cuddly": 8865,
      "southern": 8866,
      "castle": 8867,
      "triggered": 8868,
      "hunting": 8869,
      "nostalgic": 8870,
      "lesb": 8871,
      "apathy": 8872,
      "repeatedly": 8873,
      "clinical": 8874,
      "trilogy": 8875,
      "57": 8876,
      "aura": 8877,
      "dorm": 8878,
      "iv": 8879,
      "tension": 8880,
      "##enance": 8881,
      "noted": 8882,
      "socks": 8883,
      "shel": 8884,
      "heels": 8885,
      "exfp": 8886,
      "reluct": 8887,
      "underest": 8888,
      "offering": 8889,
      "remains": 8890,
      "muslim": 8891,
      "craft": 8892,
      "glance": 8893,
      "breed": 8894,
      "animated": 8895,
      "roman": 8896,
      "##aneously": 8897,
      "negat": 8898,
      "textbook": 8899,
      "essential": 8900,
      "floating": 8901,
      "invested": 8902,
      "##worthy": 8903,
      "perfectionism": 8904,
      "grip": 8905,
      "increasing": 8906,
      "praise": 8907,
      "acknowled": 8908,
      "asperger": 8909,
      "pregnant": 8910,
      "punishment": 8911,
      "toilet": 8912,
      "iam": 8913,
      "ixx": 8914,
      "pile": 8915,
      "##itudes": 8916,
      "lik": 8917,
      "##irk": 8918,
      "amused": 8919,
      "outer": 8920,
      "sheer": 8921,
      "##asses": 8922,
      "bliss": 8923,
      "understandable": 8924,
      "coast": 8925,
      "marvel": 8926,
      "stopping": 8927,
      "boot": 8928,
      "transfer": 8929,
      "fixing": 8930,
      "christians": 8931,
      "privile": 8932,
      "influences": 8933,
      "atheism": 8934,
      "vocab": 8935,
      "exclus": 8936,
      "dollars": 8937,
      "compassionate": 8938,
      "authenticity": 8939,
      "overthinking": 8940,
      "bbc": 8941,
      "shrug": 8942,
      "imaginative": 8943,
      "frag": 8944,
      "subtype": 8945,
      "policy": 8946,
      "scorpio": 8947,
      "doubting": 8948,
      "halloween": 8949,
      "clueless": 8950,
      "dot": 8951,
      "fired": 8952,
      "gig": 8953,
      "hed": 8954,
      "hunch": 8955,
      "##bot": 8956,
      "##rust": 8957,
      "##cat": 8958,
      "abroad": 8959,
      "pean": 8960,
      "deals": 8961,
      "someones": 8962,
      "converse": 8963,
      "amy": 8964,
      "outburst": 8965,
      "plants": 8966,
      "typings": 8967,
      "lee": 8968,
      "##aper": 8969,
      "##ibilities": 8970,
      "headphones": 8971,
      "niet": 8972,
      "morally": 8973,
      "depressive": 8974,
      "director": 8975,
      "warmth": 8976,
      "fuel": 8977,
      "validity": 8978,
      "crowds": 8979,
      "adventures": 8980,
      "##ttes": 8981,
      "texas": 8982,
      "zombies": 8983,
      "subconsciously": 8984,
      "resonate": 8985,
      "contradictory": 8986,
      "indifferent": 8987,
      "conventional": 8988,
      "misinterpret": 8989,
      "bant": 8990,
      "era": 8991,
      "tay": 8992,
      "zen": 8993,
      "##sis": 8994,
      "theater": 8995,
      "##lear": 8996,
      "##entious": 8997,
      "##opes": 8998,
      "shed": 8999,
      "shiny": 9000,
      "amuse": 9001,
      "truck": 9002,
      "unpleas": 9003,
      "manual": 9004,
      "theirs": 9005,
      "##ago": 9006,
      "blush": 9007,
      "simult": 9008,
      "downs": 9009,
      "paste": 9010,
      "2011": 9011,
      "misle": 9012,
      "organizing": 9013,
      "presentation": 9014,
      "travelling": 9015,
      "puppy": 9016,
      "homeless": 9017,
      "quoting": 9018,
      "digging": 9019,
      "atheists": 9020,
      "suspected": 9021,
      "narcissist": 9022,
      "costs": 9023,
      "garbage": 9024,
      "terrifying": 9025,
      "produce": 9026,
      "loser": 9027,
      "rabbit": 9028,
      "gemini": 9029,
      "72": 9030,
      "ari": 9031,
      "dood": 9032,
      "fw": 9033,
      "gau": 9034,
      "mim": 9035,
      "pff": 9036,
      "tu": 9037,
      "##oons": 9038,
      "##ointing": 9039,
      "##oured": 9040,
      "##encing": 9041,
      "##itution": 9042,
      "inxp": 9043,
      "beard": 9044,
      "wasnt": 9045,
      "debt": 9046,
      "champ": 9047,
      "pod": 9048,
      "noises": 9049,
      "persist": 9050,
      "##osure": 9051,
      "##osition": 9052,
      "##ours": 9053,
      "implement": 9054,
      "##verted": 9055,
      "esxp": 9056,
      "worded": 9057,
      "matt": 9058,
      "april": 9059,
      "finn": 9060,
      "eyed": 9061,
      "curs": 9062,
      "angle": 9063,
      "supervis": 9064,
      "countless": 9065,
      "horrif": 9066,
      "potato": 9067,
      "respectful": 9068,
      "redd": 9069,
      "hitch": 9070,
      "retail": 9071,
      "judgemental": 9072,
      "sticky": 9073,
      "pupp": 9074,
      "beside": 9075,
      "nailed": 9076,
      "translate": 9077,
      "instruments": 9078,
      "dimens": 9079,
      "##juana": 9080,
      "stalking": 9081,
      "soundtrack": 9082,
      "goddamn": 9083,
      "font": 9084,
      "fried": 9085,
      "ls": 9086,
      "pale": 9087,
      "ss": 9088,
      "vag": 9089,
      "yah": 9090,
      "##oia": 9091,
      "##ocial": 9092,
      "##cu": 9093,
      "##nic": 9094,
      "##gi": 9095,
      "##inent": 9096,
      "revel": 9097,
      "##etically": 9098,
      "alge": 9099,
      "stages": 9100,
      "##ader": 9101,
      "##urus": 9102,
      "yourselves": 9103,
      "pepper": 9104,
      "conqu": 9105,
      "comics": 9106,
      "diam": 9107,
      "twent": 9108,
      "contain": 9109,
      "obama": 9110,
      "questioned": 9111,
      "crushing": 9112,
      "##pled": 9113,
      "indu": 9114,
      "craving": 9115,
      "editing": 9116,
      "solo": 9117,
      "informed": 9118,
      "dominate": 9119,
      "respected": 9120,
      "approached": 9121,
      "ruined": 9122,
      "humorous": 9123,
      "pleasing": 9124,
      "keyboard": 9125,
      "products": 9126,
      "cuddling": 9127,
      "shooting": 9128,
      "accomplished": 9129,
      "arrange": 9130,
      "substance": 9131,
      "assignment": 9132,
      "anthrop": 9133,
      "admittedly": 9134,
      "perceptions": 9135,
      "distinguish": 9136,
      "echo": 9137,
      "marijuana": 9138,
      "bacon": 9139,
      "galaxy": 9140,
      "phlegmatic": 9141,
      "algebra": 9142,
      "bone": 9143,
      "merc": 9144,
      "trem": 9145,
      "veri": 9146,
      "##bor": 9147,
      "##rous": 9148,
      "##rors": 9149,
      "##tle": 9150,
      "##watch": 9151,
      "##3000": 9152,
      "##onent": 9153,
      "beats": 9154,
      "##ida": 9155,
      "worn": 9156,
      "emerg": 9157,
      "##agram": 9158,
      "workplace": 9159,
      "realm": 9160,
      "##berg": 9161,
      "selfless": 9162,
      "hopeful": 9163,
      "sensation": 9164,
      "sentiment": 9165,
      "counting": 9166,
      "pops": 9167,
      "nfp": 9168,
      "delight": 9169,
      "perceiver": 9170,
      "continued": 9171,
      "grandfather": 9172,
      "handsome": 9173,
      "significantly": 9174,
      "campus": 9175,
      "xntj": 9176,
      "manifests": 9177,
      "sweden": 9178,
      "rpg": 9179,
      "navig": 9180,
      "efficiency": 9181,
      "ambitious": 9182,
      "phenomenon": 9183,
      "inaccurate": 9184,
      "disclaimer": 9185,
      "apt": 9186,
      "dwell": 9187,
      "kitten": 9188,
      "ri": 9189,
      "tad": 9190,
      "tiger": 9191,
      "wet": 9192,
      "wicked": 9193,
      "##bon": 9194,
      "##oqu": 9195,
      "##flies": 9196,
      "##gian": 9197,
      "##♥♥": 9198,
      "##ata": 9199,
      "tol": 9200,
      "inxj": 9201,
      "stir": 9202,
      "abn": 9203,
      "shorter": 9204,
      "##illed": 9205,
      "themes": 9206,
      "tack": 9207,
      "clip": 9208,
      "resort": 9209,
      "underw": 9210,
      "desert": 9211,
      "blur": 9212,
      "blues": 9213,
      "wherever": 9214,
      "phd": 9215,
      "playlist": 9216,
      "insom": 9217,
      "awesom": 9218,
      "excuses": 9219,
      "prescri": 9220,
      "democr": 9221,
      "##apping": 9222,
      "catching": 9223,
      "frequency": 9224,
      "weekends": 9225,
      "initiative": 9226,
      "snowfl": 9227,
      "puns": 9228,
      "maintaining": 9229,
      "meditate": 9230,
      "opera": 9231,
      "pondering": 9232,
      "twisted": 9233,
      "enlighten": 9234,
      "fortunately": 9235,
      "sauce": 9236,
      "4s": 9237,
      "71": 9238,
      "hors": 9239,
      "lit": 9240,
      "ros": 9241,
      "##uated": 9242,
      "##cr": 9243,
      "##inator": 9244,
      "##rene": 9245,
      "##oric": 9246,
      "##elve": 9247,
      "staff": 9248,
      "sham": 9249,
      "don´t": 9250,
      "outright": 9251,
      "##oler": 9252,
      "##aren": 9253,
      "clown": 9254,
      "talents": 9255,
      "grump": 9256,
      "players": 9257,
      "colored": 9258,
      "accid": 9259,
      "trips": 9260,
      "repress": 9261,
      "grain": 9262,
      "presum": 9263,
      "movements": 9264,
      "supporting": 9265,
      "improved": 9266,
      "favourites": 9267,
      "##ductive": 9268,
      "melody": 9269,
      "sample": 9270,
      "operate": 9271,
      "trends": 9272,
      "tangible": 9273,
      "virtual": 9274,
      "errors": 9275,
      "luna": 9276,
      "dialogue": 9277,
      "temporary": 9278,
      "wheel": 9279,
      "deliberately": 9280,
      "cigarettes": 9281,
      "hypothesis": 9282,
      "designer": 9283,
      "illegal": 9284,
      "racism": 9285,
      "taylor": 9286,
      "unpleasant": 9287,
      "fart": 9288,
      "gro": 9289,
      "kim": 9290,
      "mall": 9291,
      "nuc": 9292,
      "por": 9293,
      "sid": 9294,
      "sane": 9295,
      "tent": 9296,
      "tiring": 9297,
      "zoo": 9298,
      "##vo": 9299,
      "inxx": 9300,
      "bee": 9301,
      "##eli": 9302,
      "ane": 9303,
      "stun": 9304,
      "chic": 9305,
      "adam": 9306,
      "spar": 9307,
      "##anged": 9308,
      "##aches": 9309,
      "##ocra": 9310,
      "craz": 9311,
      "slap": 9312,
      "boots": 9313,
      "incident": 9314,
      "psyched": 9315,
      "server": 9316,
      "lacks": 9317,
      "delay": 9318,
      "techniques": 9319,
      "recognized": 9320,
      "explanations": 9321,
      "mutually": 9322,
      "##bye": 9323,
      "diagnosis": 9324,
      "suitable": 9325,
      "stimulating": 9326,
      "sanity": 9327,
      "legitimate": 9328,
      "hints": 9329,
      "frozen": 9330,
      "assignments": 9331,
      "xstj": 9332,
      "neurotic": 9333,
      "disconnected": 9334,
      "i´m": 9335,
      "mixture": 9336,
      "fence": 9337,
      "ga": 9338,
      "hsp": 9339,
      "niss": 9340,
      "pis": 9341,
      "ray": 9342,
      "##oken": 9343,
      "##rical": 9344,
      "##ala": 9345,
      "##aline": 9346,
      "##anny": 9347,
      "befriend": 9348,
      "aspir": 9349,
      "##rial": 9350,
      "abused": 9351,
      "worship": 9352,
      "##ppers": 9353,
      "outcomes": 9354,
      "guest": 9355,
      "kinderg": 9356,
      "##athers": 9357,
      "ohh": 9358,
      "elli": 9359,
      "agreeing": 9360,
[...]
