{
  "version": "1.0",
  "truncation": null,
  "padding": null,
  "added_tokens": [
    {
      "id": 0,
      "content": "__pad__",
      "single_word": false,
      "lstrip": false,
      "rstrip": false,
      "normalized": false,
      "special": true
    },
    {
      "id": 1,
      "content": "__url__",
      "single_word": false,
      "lstrip": false,
      "rstrip": false,
      "normalized": false,
      "special": true
    },
    {
      "id": 2,
      "content": "__sep__",
      "single_word": false,
      "lstrip": false,
      "rstrip": false,
      "normalized": false,
      "special": true
    },
    {
      "id": 3,
      "content": "__tar__",
      "single_word": false,
      "lstrip": false,
      "rstrip": false,
      "normalized": false,
      "special": true
    },
    {
      "id": 4,
      "content": "__unk__",
      "single_word": false,
      "lstrip": false,
      "rstrip": false,
      "normalized": false,
      "special": true
    }
  ],
  "normalizer": {
    "type": "BertNormalizer",
    "clean_text": true,
    "handle_chinese_chars": true,
    "strip_accents": null,
    "lowercase": true
  },
  "pre_tokenizer": {
    "type": "BertPreTokenizer"
  },
  "post_processor": null,
  "decoder": null,
  "model": {
    "type": "WordPiece",
    "unk_token": "__unk__",
    "continuing_subword_prefix": "##",
    "max_input_chars_per_word": 100,
    "vocab": {
      "__pad__": 0,
      "__url__": 1,
      "__sep__": 2,
      "__tar__": 3,
      "__unk__": 4,
      "!": 5,
      "#": 6,
      "$": 7,
      "%": 8,
      "&": 9,
      "'": 10,
      "(": 11,
      ")": 12,
      "*": 13,
      "+": 14,
      ",": 15,
      "-": 16,
      ".": 17,
      "/": 18,
      "0": 19,
      "1": 20,
      "2": 21,
      "3": 22,
      "4": 23,
      "5": 24,
      "6": 25,
      "7": 26,
      "8": 27,
      "9": 28,
      ":": 29,
      ";": 30,
      "<": 31,
      "=": 32,
      ">": 33,
      "?": 34,
      "@": 35,
      "[": 36,
      "]": 37,
      "^": 38,
      "_": 39,
      "`": 40,
      "a": 41,
      "b": 42,
      "c": 43,
      "d": 44,
      "e": 45,
      "f": 46,
      "g": 47,
      "h": 48,
      "i": 49,
      "j": 50,
      "k": 51,
      "l": 52,
      "m": 53,
      "n": 54,
      "o": 55,
      "p": 56,
      "q": 57,
      "r": 58,
      "s": 59,
      "t": 60,
      "u": 61,
      "v": 62,
      "w": 63,
      "x": 64,
      "y": 65,
      "z": 66,
      "{": 67,
      "|": 68,
      "}": 69,
      "~": 70,
      "¡": 71,
      "¢": 72,
      "£": 73,
      "¤": 74,
      "¨": 75,
      "©": 76,
      "«": 77,
      "¬": 78,
      "®": 79,
      "¯": 80,
      "°": 81,
      "²": 82,
      "³": 83,
      "´": 84,
      "µ": 85,
      "¶": 86,
      "·": 87,
      "¸": 88,
      "¹": 89,
      "º": 90,
      "»": 91,
      "½": 92,
      "¾": 93,
      "¿": 94,
      "×": 95,
      "ß": 96,
      "æ": 97,
      "ð": 98,
      "÷": 99,
      "ø": 100,
      "đ": 101,
      "ı": 102,
      "ł": 103,
      "œ": 104,
      "ə": 105,
      "ɛ": 106,
      "ɪ": 107,
      "ʊ": 108,
      "ʒ": 109,
      "ʖ": 110,
      "ʘ": 111,
      "˂": 112,
      "˃": 113,
      "ˆ": 114,
      "ˈ": 115,
      "ˌ": 116,
      "ː": 117,
      "˙": 118,
      "˝": 119,
      "˶": 120,
      "α": 121,
      "β": 122,
      "γ": 123,
      "δ": 124,
      "ε": 125,
      "η": 126,
      "θ": 127,
      "ι": 128,
      "κ": 129,
      "λ": 130,
      "μ": 131,
      "ν": 132,
      "ο": 133,
      "π": 134,
      "ρ": 135,
      "ς": 136,
      "σ": 137,
      "τ": 138,
      "υ": 139,
      "φ": 140,
      "ψ": 141,
      "ω": 142,
      "а": 143,
      "б": 144,
      "в": 145,
      "д": 146,
      "е": 147,
      "ж": 148,
      "з": 149,
      "и": 150,
      "к": 151,
      "л": 152,
      "м": 153,
      "н": 154,
      "о": 155,
      "п": 156,
      "р": 157,
      "с": 158,
      "т": 159,
      "у": 160,
      "ф": 161,
      "х": 162,
      "ц": 163,
      "щ": 164,
      "ъ": 165,
      "ы": 166,
      "ь": 167,
      "ю": 168,
      "я": 169,
      "ћ": 170,
      "҉": 171,
      "א": 172,
      "ו": 173,
      "י": 174,
      "פ": 175,
      "ר": 176,
      "،": 177,
      "ا": 178,
      "ب": 179,
      "ة": 180,
      "ت": 181,
      "ث": 182,
      "ج": 183,
      "ح": 184,
      "د": 185,
      "ر": 186,
      "ز": 187,
      "س": 188,
      "ش": 189,
      "ع": 190,
      "غ": 191,
      "ك": 192,
      "ل": 193,
      "م": 194,
      "ن": 195,
      "ه": 196,
      "و": 197,
      "ي": 198,
      "٩": 199,
      "ک": 200,
      "گ": 201,
      "ی": 202,
      "۶": 203,
      "ஐ": 204,
      "ಠ": 205,
      "ರ": 206,
      "ೃ": 207,
      "ง": 208,
      "๑": 209,
      "ຈ": 210,
      "༼": 211,
      "༽": 212,
      "ᄅ": 213,
      "ᄉ": 214,
      "ᅡ": 215,
      "ᆺ": 216,
      "ᆼ": 217,
      "–": 218,
      "—": 219,
      "―": 220,
      "‘": 221,
      "’": 222,
      "‚": 223,
      "“": 224,
      "”": 225,
      "„": 226,
      "•": 227,
      "…": 228,
      "′": 229,
      "‽": 230,
      "‿": 231,
      "⁎": 232,
      "€": 233,
      "™": 234,
      "↑": 235,
      "→": 236,
      "↔": 237,
      "⇑": 238,
      "⇩": 239,
      "∀": 240,
      "−": 241,
      "∙": 242,
      "√": 243,
      "∞": 244,
      "≡": 245,
      "≥": 246,
      "⊃": 247,
      "─": 248,
      "━": 249,
      "┻": 250,
      "╥": 251,
      "╯": 252,
      "■": 253,
      "□": 254,
      "▬": 255,
      "△": 256,
      "▽": 257,
      "●": 258,
      "◡": 259,
      "★": 260,
      "☆": 261,
      "☺": 262,
      "☼": 263,
      "♡": 264,
      "♥": 265,
      "♪": 266,
      "♫": 267,
      "✌": 268,
      "✓": 269,
      "✝": 270,
      "✧": 271,
      "❤": 272,
      "、": 273,
      "。": 274,
      "あ": 275,
      "い": 276,
      "う": 277,
      "え": 278,
      "お": 279,
      "か": 280,
      "く": 281,
      "こ": 282,
      "さ": 283,
      "し": 284,
      "す": 285,
      "せ": 286,
      "そ": 287,
      "た": 288,
      "ち": 289,
      "つ": 290,
      "て": 291,
      "と": 292,
      "な": 293,
      "に": 294,
      "の": 295,
      "は": 296,
      "ほ": 297,
      "ま": 298,
      "め": 299,
      "も": 300,
      "ゃ": 301,
      "よ": 302,
      "ら": 303,
      "り": 304,
      "る": 305,
      "れ": 306,
      "ろ": 307,
      "わ": 308,
      "を": 309,
      "ん": 310,
      "゜": 311,
      "ア": 312,
      "ク": 313,
      "サ": 314,
      "シ": 315,
      "ッ": 316,
      "ツ": 317,
      "ト": 318,
      "ニ": 319,
      "ミ": 320,
      "メ": 321,
      "モ": 322,
      "ュ": 323,
      "ラ": 324,
      "レ": 325,
      "ヮ": 326,
      "ン": 327,
      "・": 328,
      "ー": 329,
      "ヽ": 330,
      "ㅿ": 331,
      "一": 332,
      "不": 333,
      "中": 334,
      "人": 335,
      "会": 336,
      "但": 337,
      "你": 338,
      "像": 339,
      "光": 340,
      "勇": 341,
      "吉": 342,
      "吗": 343,
      "吞": 344,
      "国": 345,
      "地": 346,
      "大": 347,
      "天": 348,
      "好": 349,
      "如": 350,
      "実": 351,
      "小": 352,
      "就": 353,
      "我": 354,
      "才": 355,
      "把": 356,
      "拿": 357,
      "日": 358,
      "是": 359,
      "智": 360,
      "曉": 361,
      "本": 362,
      "欢": 363,
      "気": 364,
      "汉": 365,
      "的": 366,
      "祥": 367,
      "笑": 368,
      "美": 369,
      "聖": 370,
      "見": 371,
      "語": 372,
      "语": 373,
      "说": 374,
      "迎": 375,
      "違": 376,
      "陰": 377,
      "陽": 378,
      "髒": 379,
      "龍": 380,
      "︵": 381,
      "﹏": 382,
      "！": 383,
      "％": 384,
      "＇": 385,
      "（": 386,
      "）": 387,
      "，": 388,
      "－": 389,
      "０": 390,
      "１": 391,
      "：": 392,
      "？": 393,
      "＠": 394,
      "｀": 395,
      "ａ": 396,
      "ｃ": 397,
      "ｄ": 398,
      "ｅ": 399,
      "ｆ": 400,
      "ｇ": 401,
      "ｈ": 402,
      "ｉ": 403,
      "ｌ": 404,
      "ｍ": 405,
      "ｎ": 406,
      "ｏ": 407,
      "ｐ": 408,
      "ｒ": 409,
      "ｓ": 410,
      "ｔ": 411,
      "ｕ": 412,
      "ｖ": 413,
      "ｗ": 414,
      "ｘ": 415,
      "ｙ": 416,
      "｡": 417,
      "･": 418,
      "ｧ": 419,
      "ｩ": 420,
      "ｫ": 421,
      "ｬ": 422,
      "ﾉ": 423,
      "ﾞ": 424,
      "ﾟ": 425,
      "￣": 426,
      "🏼": 427,
      "👌": 428,
      "😁": 429,
      "😂": 430,
      "😄": 431,
      "😇": 432,
      "😉": 433,
      "😊": 434,
      "😋": 435,
      "😐": 436,
      "😝": 437,
      "😡": 438,
      "😱": 439,
      "🦄": 440,
      "##m": 441,
      "##e": 442,
      "##t": 443,
      "##o": 444,
      "##n": 445,
      "##f": 446,
      "##u": 447,
      "##s": 448,
      "##i": 449,
      "##y": 450,
      "##g": 451,
      "##p": 452,
      "##h": 453,
      "##a": 454,
      "##2": 455,
      "##3": 456,
      "##6": 457,
      "##5": 458,
      "##0": 459,
      "##w": 460,
      "##l": 461,
      "##d": 462,
      "##c": 463,
      "##r": 464,
      "##k": 465,
      "##v": 466,
      "##b": 467,
      "##x": 468,
      "##9": 469,
      "##q": 470,
      "##j": 471,
      "##8": 472,
      "##1": 473,
      "##7": 474,
      "##4": 475,
      "##z": 476,
      "##ø": 477,
      "##®": 478,
      "##´": 479,
      "##¯": 480,
      "##り": 481,
      "##か": 482,
      "##と": 483,
      "##う": 484,
      "##こ": 485,
      "##さ": 486,
      "##い": 487,
      "##ま": 488,
      "##す": 489,
      "##ト": 490,
      "##レ": 491,
      "##ー": 492,
      "##ニ": 493,
      "##ん": 494,
      "##ﾟ": 495,
      "##▽": 496,
      "##з": 497,
      "##ы": 498,
      "##к": 499,
      "##а": 500,
      "##ｅ": 501,
      "##ｓ": 502,
      "##ｔ": 503,
      "##ｐ": 504,
      "##≥": 505,
      "##ν": 506,
      "##η": 507,
      "##μ": 508,
      "##ο": 509,
      "##σ": 510,
      "##υ": 511,
      "##д": 512,
      "##｀": 513,
      "##о": 514,
      "##б": 515,
      "##р": 516,
      "##˝": 517,
      "##ａ": 518,
      "##ｏ": 519,
      "##ｒ": 520,
      "##ｗ": 521,
      "##ｖ": 522,
      "##ｄ": 523,
      "##°": 524,
      "##ｃ": 525,
      "##ｫ": 526,
      "##ｬ": 527,
      "##ｩ": 528,
      "##ｧ": 529,
      "##し": 530,
      "##め": 531,
      "##て": 532,
      "##よ": 533,
      "##せ": 534,
      "##た": 535,
      "##ي": 536,
      "##د": 537,
      "##え": 538,
      "##£": 539,
      "##ت": 540,
      "##ح": 541,
      "##ث": 542,
      "##∀": 543,
      "##ل": 544,
      "##ه": 545,
      "##ˈ": 546,
      "##ə": 547,
      "##π": 548,
      "##µ": 549,
      "##у": 550,
      "##с": 551,
      "##и": 552,
      "##❤": 553,
      "##ｍ": 554,
      "##ｉ": 555,
      "##ｎ": 556,
      "##ｇ": 557,
      "##™": 558,
      "##★": 559,
      "##¸": 560,
      "##х": 561,
      "##√": 562,
      "##あ": 563,
      "##な": 564,
      "##は": 565,
      "##ð": 566,
      "##ε": 567,
      "##✧": 568,
      "##ß": 569,
      "##⊃": 570,
      "##わ": 571,
      "##ˆ": 572,
      "##♡": 573,
      "##ی": 574,
      "##□": 575,
      "##に": 576,
      "##ち": 577,
      "##☆": 578,
      "##α": 579,
      "##ع": 580,
      "##ر": 581,
      "##ب": 582,
      "##ة": 583,
      "##─": 584,
      "##¾": 585,
      "##³": 586,
      "##€": 587,
      "##æ": 588,
      "##🏼": 589,
      "##😂": 590,
      "##м": 591,
      "##￣": 592,
      "##س": 593,
      "##÷": 594,
      "##و": 595,
      "##τ": 596,
      "##ι": 597,
      "##κ": 598,
      "##ς": 599,
      "##ъ": 600,
      "##т": 601,
      "##н": 602,
      "##в": 603,
      "##ا": 604,
      "##ｈ": 605,
      "##½": 606,
      "##л": 607,
      "##ψ": 608,
      "##γ": 609,
      "##ｕ": 610,
      "##ｘ": 611,
      "##ｌ": 612,
      "##ｙ": 613,
      "##ك": 614,
      "##י": 615,
      "##פ": 616,
      "##ו": 617,
      "##ר": 618,
      "##ж": 619,
      "##е": 620,
      "##ن": 621,
      "##گ": 622,
      "##п": 623,
      "##ア": 624,
      "##メ": 625,
      "##を": 626,
      "##θ": 627,
      "##━": 628,
      "##┻": 629,
      "##º": 630,
      "##¹": 631,
      "##ћ": 632,
      "##ﾞ": 633,
      "##ф": 634,
      "##ː": 635,
      "##ɪ": 636,
      "##ೃ": 637,
      "##ω": 638,
      "##ﾉ": 639,
      "##œ": 640,
      "##²": 641,
      "##モ": 642,
      "##ン": 643,
      "##の": 644,
      "##ɛ": 645,
      "##≡": 646,
      "##ຈ": 647,
      "##れ": 648,
      "##ら": 649,
      "##♥": 650,
      "##ρ": 651,
      "##φ": 652,
      "##゜": 653,
      "##ь": 654,
      "##ش": 655,
      "##ほ": 656,
      "##く": 657,
      "##ㅿ": 658,
      "##ц": 659,
      "##ｆ": 660,
      "##β": 661,
      "##０": 662,
      "##¢": 663,
      "##ʊ": 664,
      "##ˌ": 665,
      "##҉": 666,
      "##ᅡ": 667,
      "##ᄅ": 668,
      "##ᆼ": 669,
      "##ز": 670,
      "##ʒ": 671,
      "##ᆺ": 672,
      "##˂": 673,
      "##ю": 674,
      "##щ": 675,
      "##■": 676,
      "##ゃ": 677,
      "##˙": 678,
      "##ラ": 679,
      "##غ": 680,
      "##ろ": 681,
      "##ک": 682,
      "##¤": 683,
      "##ュ": 684,
      "##シ": 685,
      "##ッ": 686,
      "##ク": 687,
      "##そ": 688,
      "##¨": 689,
      "##م": 690,
      "##¬": 691,
      "th": 692,
      "##in": 693,
      "##er": 694,
      "##ou": 695,
      "se": 696,
      "##at": 697,
      "##on": 698,
      "the": 699,
      "##ing": 700,
      "sep": 701,
      "##nd": 702,
      "to": 703,
      "##es": 704,
      "##re": 705,
      "##ar": 706,
      "##en": 707,
      "##al": 708,
      "##it": 709,
      "##or": 710,
      "##an": 711,
      "you": 712,
      "##ly": 713,
      "and": 714,
      "in": 715,
      "##st": 716,
      "##ed": 717,
      "##om": 718,
      "of": 719,
      "be": 720,
      "it": 721,
      "wh": 722,
      "##ve": 723,
      "##ot": 724,
      "##le": 725,
      "##el": 726,
      "##ut": 727,
      "ha": 728,
      "that": 729,
      "##is": 730,
      "is": 731,
      "##ic": 732,
      "##ow": 733,
      "my": 734,
      "re": 735,
      "##ion": 736,
      "##ay": 737,
      "on": 738,
      "##et": 739,
      "##as": 740,
      "an": 741,
      "li": 742,
      "##ke": 743,
      "for": 744,
      "me": 745,
      "##gh": 746,
      "tar": 747,
      "al": 748,
      "##ct": 749,
      "##se": 750,
      "##ver": 751,
      "##ld": 752,
      "##ith": 753,
      "but": 754,
      "##ally": 755,
      "st": 756,
      "with": 757,
      "##id": 758,
      "##oo": 759,
      "##ent": 760,
      "##im": 761,
      "##ch": 762,
      "have": 763,
      "not": 764,
      "##ad": 765,
      "do": 766,
      "as": 767,
      "##il": 768,
      "som": 769,
      "##ere": 770,
      "so": 771,
      "##op": 772,
      "are": 773,
      "this": 774,
      "##th": 775,
      "like": 776,
      "mo": 777,
      "##ri": 778,
      "##ce": 779,
      "##ust": 780,
      "##ould": 781,
      "##est": 782,
      "##ink": 783,
      "sh": 784,
      "ab": 785,
      "##ir": 786,
      "##am": 787,
      "was": 788,
      "##ess": 789,
      "##ers": 790,
      "int": 791,
      "##ro": 792,
      "he": 793,
      "fe": 794,
      "don": 795,
      "think": 796,
      "or": 797,
      "what": 798,
      "##pe": 799,
      "can": 800,
      "##out": 801,
      "if": 802,
      "just": 803,
      "##ght": 804,
      "ne": 805,
      "ex": 806,
      "we": 807,
      "at": 808,
      "your": 809,
      "su": 810,
      "##ant": 811,
      "pe": 812,
      "de": 813,
      "about": 814,
      "some": 815,
      "peop": 816,
      "##ell": 817,
      "people": 818,
      "##ur": 819,
      "##ul": 820,
      "when": 821,
      "con": 822,
      "kn": 823,
      "lo": 824,
      "##ation": 825,
      "com": 826,
      "##ate": 827,
      "##au": 828,
      "##one": 829,
      "all": 830,
      "know": 831,
      "##ind": 832,
      "##ra": 833,
      "##ill": 834,
      "they": 835,
      "##end": 836,
      "ch": 837,
      "##ck": 838,
      "get": 839,
      "po": 840,
      "wor": 841,
      "would": 842,
      "ma": 843,
      "see": 844,
      "##ive": 845,
      "am": 846,
      "go": 847,
      "##pp": 848,
      "how": 849,
      "en": 850,
      "feel": 851,
      "one": 852,
      "##un": 853,
      "any": 854,
      "out": 855,
      "bec": 856,
      "tr": 857,
      "fr": 858,
      "more": 859,
      "##ight": 860,
      "really": 861,
      "thing": 862,
      "##us": 863,
      "tim": 864,
      "ve": 865,
      "##ough": 866,
      "##art": 867,
      "##ause": 868,
      "##ge": 869,
      "than": 870,
      "##ol": 871,
      "##um": 872,
      "##ff": 873,
      "there": 874,
      "##ea": 875,
      "##ong": 876,
      "ever": 877,
      "pro": 878,
      "##ter": 879,
      "##ble": 880,
      "##ci": 881,
      "##king": 882,
      "us": 883,
      "ty": 884,
      "because": 885,
      "up": 886,
      "##ood": 887,
      "oth": 888,
      "from": 889,
      "somet": 890,
      "who": 891,
      "pers": 892,
      "##ity": 893,
      "ur": 894,
      "no": 895,
      "qu": 896,
      "##ite": 897,
      "##riend": 898,
      "##ound": 899,
      "##ist": 900,
      "url": 901,
      "##hing": 902,
      "time": 903,
      "them": 904,
      "say": 905,
      "##her": 906,
      "##ous": 907,
      "##ery": 908,
      "person": 909,
      "##ain": 910,
      "##ard": 911,
      "##ven": 912,
      "want": 913,
      "##sel": 914,
      "very": 915,
      "##are": 916,
      "##ps": 917,
      "too": 918,
      "##way": 919,
      "un": 920,
      "##and": 921,
      "friend": 922,
      "##ear": 923,
      "##ually": 924,
      "##ig": 925,
      "fa": 926,
      "every": 927,
      "##ie": 928,
      "mu": 929,
      "##ame": 930,
      "well": 931,
      "much": 932,
      "being": 933,
      "##self": 934,
      "gu": 935,
      "ar": 936,
      "act": 937,
      "most": 938,
      "pre": 939,
      "##ions": 940,
      "other": 941,
      "##ort": 942,
      "ag": 943,
      "way": 944,
      "inter": 945,
      "she": 946,
      "##ks": 947,
      "##fe": 948,
      "ta": 949,
      "love": 950,
      "good": 951,
      "pl": 952,
      "by": 953,
      "been": 954,
      "im": 955,
      "di": 956,
      "##ue": 957,
      "rel": 958,
      "##ore": 959,
      "will": 960,
      "things": 961,
      "##ha": 962,
      "cl": 963,
      "##all": 964,
      "##ure": 965,
      "##so": 966,
      "did": 967,
      "man": 968,
      "something": 969,
      "##pt": 970,
      "##nt": 971,
      "##ack": 972,
      "##ine": 973,
      "had": 974,
      "##eri": 975,
      "##ry": 976,
      "exp": 977,
      "only": 978,
      "also": 979,
      "##ence": 980,
      "then": 981,
      "lot": 982,
      "type": 983,
      "does": 984,
      "##ose": 985,
      "##ab": 986,
      "loo": 987,
      "has": 988,
      "could": 989,
      "##ep": 990,
      "##os": 991,
      "##ice": 992,
      "##ies": 993,
      "##ways": 994,
      "even": 995,
      "now": 996,
      "##ast": 997,
      "sa": 998,
      "##ty": 999,
      "here": 1000,
      "may": 1001,
      "##ving": 1002,
      "comp": 1003,
      "##ome": 1004,
      "##ations": 1005,
      "her": 1006,
      "try": 1007,
      "ad": 1008,
      "make": 1009,
      "always": 1010,
      "fun": 1011,
      "##ud": 1012,
      "##em": 1013,
      "##act": 1014,
      "someone": 1015,
      "##thing": 1016,
      "##read": 1017,
      "read": 1018,
      "##ide": 1019,
      "seem": 1020,
      "sp": 1021,
      "##ree": 1022,
      "why": 1023,
      "need": 1024,
      "##nder": 1025,
      "find": 1026,
      "their": 1027,
      "##ought": 1028,
      "never": 1029,
      "tal": 1030,
      "##ich": 1031,
      "em": 1032,
      "##ip": 1033,
      "myself": 1034,
      "over": 1035,
      "happ": 1036,
      "life": 1037,
      "##iz": 1038,
      "dis": 1039,
      "res": 1040,
      "post": 1041,
      "##ting": 1042,
      "though": 1043,
      "mean": 1044,
      "##ress": 1045,
      "##ect": 1046,
      "bet": 1047,
      "##ful": 1048,
      "diff": 1049,
      "under": 1050,
      "id": 1051,
      "interest": 1052,
      "##ag": 1053,
      "##reat": 1054,
      "year": 1055,
      "##be": 1056,
      "##ment": 1057,
      "thought": 1058,
      "##oy": 1059,
      "into": 1060,
      "##our": 1061,
      "friends": 1062,
      "part": 1063,
      "ll": 1064,
      "him": 1065,
      "##kes": 1066,
      "wr": 1067,
      "off": 1068,
      "##ical": 1069,
      "##ond": 1070,
      "which": 1071,
      "actually": 1072,
      "##ile": 1073,
      "pret": 1074,
      "fir": 1075,
      "pr": 1076,
      "sure": 1077,
      "work": 1078,
      "##og": 1079,
      "right": 1080,
      "first": 1081,
      "##ool": 1082,
      "##int": 1083,
      "going": 1084,
      "per": 1085,
      "spe": 1086,
      "got": 1087,
      "##other": 1088,
      "##ish": 1089,
      "##ass": 1090,
      "typ": 1091,
      "##itt": 1092,
      "yes": 1093,
      "pretty": 1094,
      "##ys": 1095,
      "inf": 1096,
      "hi": 1097,
      "##ated": 1098,
      "kind": 1099,
      "gr": 1100,
      "day": 1101,
      "ac": 1102,
      "real": 1103,
      "same": 1104,
      "def": 1105,
      "##ick": 1106,
      "differ": 1107,
      "hel": 1108,
      "##able": 1109,
      "##iv": 1110,
      "feeling": 1111,
      "were": 1112,
      "##ss": 1113,
      "le": 1114,
      "des": 1115,
      "bl": 1116,
      "underst": 1117,
      "af": 1118,
      "where": 1119,
      "still": 1120,
      "##od": 1121,
      "his": 1122,
      "##js": 1123,
      "##ably": 1124,
      "thread": 1125,
      "tw": 1126,
      "##age": 1127,
      "start": 1128,
      "said": 1129,
      "should": 1130,
      "##ang": 1131,
      "back": 1132,
      "bel": 1133,
      "##ual": 1134,
      "gen": 1135,
      "##ating": 1136,
      "str": 1137,
      "personal": 1138,
      "sen": 1139,
      "##oth": 1140,
      "ph": 1141,
      "quest": 1142,
      "understand": 1143,
      "##own": 1144,
      "##ach": 1145,
      "sm": 1146,
      "sc": 1147,
      "prob": 1148,
      "jo": 1149,
      "##ult": 1150,
      "long": 1151,
      "##ily": 1152,
      "aw": 1153,
      "yea": 1154,
      "take": 1155,
      "te": 1156,
      "thr": 1157,
      "op": 1158,
      "many": 1159,
      "sometim": 1160,
      "##ber": 1161,
      "##ever": 1162,
      "att": 1163,
      "probably": 1164,
      "##ire": 1165,
      "tell": 1166,
      "lol": 1167,
      "ext": 1168,
      "our": 1169,
      "best": 1170,
      "##wn": 1171,
      "sometimes": 1172,
      "stu": 1173,
      "help": 1174,
      "relations": 1175,
      "around": 1176,
      "look": 1177,
      "cont": 1178,
      "##vert": 1179,
      "##if": 1180,
      "point": 1181,
      "##ious": 1182,
      "maybe": 1183,
      "imp": 1184,
      "##ance": 1185,
      "defin": 1186,
      "ke": 1187,
      "relationsh": 1188,
      "##ely": 1189,
      "yeah": 1190,
      "##pect": 1191,
      "##ath": 1192,
      "emot": 1193,
      "app": 1194,
      "sound": 1195,
      "##ade": 1196,
      "after": 1197,
      "ob": 1198,
      "hard": 1199,
      "cons": 1200,
      "anything": 1201,
      "those": 1202,
      "let": 1203,
      "mind": 1204,
      "##ak": 1205,
      "lea": 1206,
      "##atch": 1207,
      "##ase": 1208,
      "didn": 1209,
      "doesn": 1210,
      "years": 1211,
      "##ple": 1212,
      "belie": 1213,
      "soci": 1214,
      "##ict": 1215,
      "bit": 1216,
      "different": 1217,
      "##ittle": 1218,
      "br": 1219,
      "##fore": 1220,
      "sim": 1221,
      "little": 1222,
      "usually": 1223,
      "sch": 1224,
      "##ces": 1225,
      "##ason": 1226,
      "sin": 1227,
      "rem": 1228,
      "better": 1229,
      "new": 1230,
      "talk": 1231,
      "while": 1232,
      "##ically": 1233,
      "two": 1234,
      "##bt": 1235,
      "thanks": 1236,
      "##ory": 1237,
      "##ten": 1238,
      "great": 1239,
      "##ves": 1240,
      "##orm": 1241,
      "use": 1242,
      "##ace": 1243,
      "##ert": 1244,
      "few": 1245,
      "fl": 1246,
      "conf": 1247,
      "##ap": 1248,
      "oh": 1249,
      "might": 1250,
      "these": 1251,
      "el": 1252,
      "seems": 1253,
      "fi": 1254,
      "care": 1255,
      "play": 1256,
      "both": 1257,
      "before": 1258,
      "##ning": 1259,
      "high": 1260,
      "##ary": 1261,
      "makes": 1262,
      "own": 1263,
      "##vel": 1264,
      "guess": 1265,
      "through": 1266,
      "others": 1267,
      "everyone": 1268,
      "world": 1269,
      "its": 1270,
      "##cept": 1271,
      "haha": 1272,
      "bad": 1273,
      "##mm": 1274,
      "rec": 1275,
      "##blem": 1276,
      "bas": 1277,
      "##ather": 1278,
      "##rovert": 1279,
      "##ved": 1280,
      "##irl": 1281,
      "agree": 1282,
      "problem": 1283,
      "since": 1284,
      "##we": 1285,
      "ro": 1286,
      "down": 1287,
      "thinking": 1288,
      "experi": 1289,
      "reason": 1290,
      "sit": 1291,
      "test": 1292,
      "gener": 1293,
      "##vers": 1294,
      "school": 1295,
      "tend": 1296,
      "trying": 1297,
      "##ction": 1298,
      "es": 1299,
      "dr": 1300,
      "thank": 1301,
      "girl": 1302,
      "##ild": 1303,
      "definite": 1304,
      "##gg": 1305,
      "cou": 1306,
      "ask": 1307,
      "types": 1308,
      "doing": 1309,
      "quite": 1310,
      "##qu": 1311,
      "##uck": 1312,
      "comm": 1313,
      "interesting": 1314,
      "made": 1315,
      "come": 1316,
      "list": 1317,
      "question": 1318,
      "definitely": 1319,
      "end": 1320,
      "##ics": 1321,
      "happen": 1322,
      "##ise": 1323,
      "sel": 1324,
      "everything": 1325,
      "put": 1326,
      "co": 1327,
      "lear": 1328,
      "##let": 1329,
      "happy": 1330,
      "again": 1331,
      "give": 1332,
      "##itive": 1333,
      "##iss": 1334,
      "having": 1335,
      "lau": 1336,
      "##ward": 1337,
      "relationship": 1338,
      "ins": 1339,
      "eas": 1340,
      "guys": 1341,
      "word": 1342,
      "##cri": 1343,
      "##ale": 1344,
      "##day": 1345,
      "believe": 1346,
      "##less": 1347,
      "often": 1348,
      "##ject": 1349,
      "##sw": 1350,
      "##cess": 1351,
      "##00": 1352,
      "used": 1353,
      "##pl": 1354,
      "last": 1355,
      "##ness": 1356,
      "##ook": 1357,
      "##ope": 1358,
      "call": 1359,
      "personality": 1360,
      "ass": 1361,
      "seri": 1362,
      "##ract": 1363,
      "show": 1364,
      "mus": 1365,
      "ent": 1366,
      "mom": 1367,
      "old": 1368,
      "answ": 1369,
      "##ange": 1370,
      "##gr": 1371,
      "cr": 1372,
      "##ible": 1373,
      "dec": 1374,
      "self": 1375,
      "ind": 1376,
      "keep": 1377,
      "laugh": 1378,
      "##joy": 1379,
      "col": 1380,
      "##ither": 1381,
      "hum": 1382,
      "##per": 1383,
      "ok": 1384,
      "enjoy": 1385,
      "##oc": 1386,
      "##ib": 1387,
      "anyone": 1388,
      "times": 1389,
      "##ost": 1390,
      "forum": 1391,
      "##ional": 1392,
      "cra": 1393,
      "else": 1394,
      "##ider": 1395,
      "watch": 1396,
      "##come": 1397,
      "##ream": 1398,
      "##xt": 1399,
      "another": 1400,
      "enough": 1401,
      "##fer": 1402,
      "descri": 1403,
      "hate": 1404,
      "##onder": 1405,
      "##ize": 1406,
      "poss": 1407,
      "##cl": 1408,
      "mbt": 1409,
      "fact": 1410,
      "##ian": 1411,
      "acc": 1412,
      "##ether": 1413,
      "wel": 1414,
      "mbti": 1415,
      "expl": 1416,
      "tra": 1417,
      "nice": 1418,
      "hon": 1419,
      "getting": 1420,
      "exact": 1421,
      "talking": 1422,
      "##ll": 1423,
      "mat": 1424,
      "mon": 1425,
      "isn": 1426,
      "##ention": 1427,
      "true": 1428,
      "##olog": 1429,
      "char": 1430,
      "##ody": 1431,
      "big": 1432,
      "met": 1433,
      "##ia": 1434,
      "inst": 1435,
      "idea": 1436,
      "sense": 1437,
      "social": 1438,
      "such": 1439,
      "hu": 1440,
      "wonder": 1441,
      "sounds": 1442,
      "least": 1443,
      "ap": 1444,
      "stuff": 1445,
      "##ative": 1446,
      "sor": 1447,
      "honest": 1448,
      "##der": 1449,
      "##pend": 1450,
      "either": 1451,
      "##ertain": 1452,
      "consider": 1453,
      "tri": 1454,
      "##arly": 1455,
      "sl": 1456,
      "welcome": 1457,
      "nothing": 1458,
      "yourself": 1459,
      "sorry": 1460,
      "music": 1461,
      "once": 1462,
      "##ism": 1463,
      "art": 1464,
      "fam": 1465,
      "wrong": 1466,
      "ter": 1467,
      "hand": 1468,
      "ev": 1469,
      "##zy": 1470,
      "serious": 1471,
      "##cially": 1472,
      "certain": 1473,
      "resp": 1474,
      "adv": 1475,
      "##ition": 1476,
      "far": 1477,
      "found": 1478,
      "##wh": 1479,
      "head": 1480,
      "guy": 1481,
      "answer": 1482,
      "hell": 1483,
      "sec": 1484,
      "supp": 1485,
      "mar": 1486,
      "without": 1487,
      "situ": 1488,
      "complet": 1489,
      "##ee": 1490,
      "sub": 1491,
      "disc": 1492,
      "espe": 1493,
      "##ned": 1494,
      "wa": 1495,
      "##ween": 1496,
      "especially": 1497,
      "##ons": 1498,
      "##ph": 1499,
      "however": 1500,
      "experience": 1501,
      "##ans": 1502,
      "between": 1503,
      "##ently": 1504,
      "##iting": 1505,
      "##ember": 1506,
      "##ird": 1507,
      "##ull": 1508,
      "reading": 1509,
      "rather": 1510,
      "introvert": 1511,
      "wom": 1512,
      "ide": 1513,
      "remember": 1514,
      "bu": 1515,
      "##ens": 1516,
      "cle": 1517,
      "done": 1518,
      "fav": 1519,
      "##ner": 1520,
      "feelings": 1521,
      "##na": 1522,
      "##ately": 1523,
      "car": 1524,
      "ni": 1525,
      "##most": 1526,
      "class": 1527,
      "val": 1528,
      "child": 1529,
      "##fort": 1530,
      "close": 1531,
      "##ny": 1532,
      "sex": 1533,
      "saying": 1534,
      "job": 1535,
      "each": 1536,
      "top": 1537,
      "wee": 1538,
      "fin": 1539,
      "exactly": 1540,
      "less": 1541,
      "live": 1542,
      "##ents": 1543,
      "sur": 1544,
      "##ng": 1545,
      "hope": 1546,
      "##ced": 1547,
      "ti": 1548,
      "ple": 1549,
      "away": 1550,
      "##ft": 1551,
      "stop": 1552,
      "almost": 1553,
      "looking": 1554,
      "##ctions": 1555,
      "##its": 1556,
      "strong": 1557,
      "##ities": 1558,
      "che": 1559,
      "sk": 1560,
      "depend": 1561,
      "##ors": 1562,
      "exam": 1563,
      "##ign": 1564,
      "stud": 1565,
      "nat": 1566,
      "fem": 1567,
      "##ilar": 1568,
      "##iew": 1569,
      "listen": 1570,
      "sens": 1571,
      "##arent": 1572,
      "tur": 1573,
      "add": 1574,
      "comes": 1575,
      "speci": 1576,
      "gl": 1577,
      "##li": 1578,
      "wouldn": 1579,
      "la": 1580,
      "ago": 1581,
      "av": 1582,
      "dom": 1583,
      "ho": 1584,
      "kid": 1585,
      "sort": 1586,
      "##he": 1587,
      "prefer": 1588,
      "yet": 1589,
      "##als": 1590,
      "haven": 1591,
      "##icul": 1592,
      "unt": 1593,
      "##ail": 1594,
      "##oll": 1595,
      "cool": 1596,
      "tot": 1597,
      "##sy": 1598,
      "dep": 1599,
      "##ready": 1600,
      "already": 1601,
      "laughing": 1602,
      "making": 1603,
      "ey": 1604,
      "si": 1605,
      "reg": 1606,
      "cu": 1607,
      "##led": 1608,
      "##rect": 1609,
      "##ility": 1610,
      "rep": 1611,
      "wanted": 1612,
      "past": 1613,
      "cur": 1614,
      "inv": 1615,
      "##ark": 1616,
      "##gin": 1617,
      "##ush": 1618,
      "mov": 1619,
      "##iet": 1620,
      "##ord": 1621,
      "abs": 1622,
      "open": 1623,
      "##ates": 1624,
      "##cy": 1625,
      "dream": 1626,
      "##hh": 1627,
      "##les": 1628,
      "family": 1629,
      "##ial": 1630,
      "place": 1631,
      "whole": 1632,
      "sy": 1633,
      "song": 1634,
      "relate": 1635,
      "month": 1636,
      "gi": 1637,
      "general": 1638,
      "##ues": 1639,
      "convers": 1640,
      "functions": 1641,
      "told": 1642,
      "cor": 1643,
      "change": 1644,
      "##ings": 1645,
      "able": 1646,
      "wish": 1647,
      "until": 1648,
      "##ote": 1649,
      "alone": 1650,
      "charact": 1651,
      "cour": 1652,
      "interested": 1653,
      "##ute": 1654,
      "fre": 1655,
      "et": 1656,
      "night": 1657,
      "god": 1658,
      "fig": 1659,
      "completely": 1660,
      "enf": 1661,
      "##lect": 1662,
      "##gram": 1663,
      "##ub": 1664,
      "##vious": 1665,
      "dra": 1666,
      "opin": 1667,
      "fuck": 1668,
      "face": 1669,
      "started": 1670,
      "alth": 1671,
      "words": 1672,
      "ang": 1673,
      "bre": 1674,
      "##alth": 1675,
      "although": 1676,
      "won": 1677,
      "today": 1678,
      "##elt": 1679,
      "##red": 1680,
      "##oud": 1681,
      "min": 1682,
      "##az": 1683,
      "det": 1684,
      "##leep": 1685,
      "##ying": 1686,
      "arg": 1687,
      "ed": 1688,
      "##ized": 1689,
      "bo": 1690,
      "##ater": 1691,
      "hey": 1692,
      "seen": 1693,
      "meet": 1694,
      "weird": 1695,
      "##body": 1696,
      "##ences": 1697,
      "explain": 1698,
      "##ude": 1699,
      "##ips": 1700,
      "crazy": 1701,
      "favor": 1702,
      "imag": 1703,
      "log": 1704,
      "dri": 1705,
      "using": 1706,
      "eff": 1707,
      "sad": 1708,
      "situation": 1709,
      "inc": 1710,
      "etc": 1711,
      "vide": 1712,
      "forg": 1713,
      "along": 1714,
      "deep": 1715,
      "phys": 1716,
      "iss": 1717,
      "bra": 1718,
      "second": 1719,
      "wasn": 1720,
      "emotional": 1721,
      "mor": 1722,
      "bor": 1723,
      "hear": 1724,
      "ann": 1725,
      "young": 1726,
      "##uth": 1727,
      "super": 1728,
      "eng": 1729,
      "import": 1730,
      "awes": 1731,
      "home": 1732,
      "deal": 1733,
      "grou": 1734,
      "similar": 1735,
      "function": 1736,
      "funny": 1737,
      "creat": 1738,
      "tea": 1739,
      "book": 1740,
      "hur": 1741,
      "##rem": 1742,
      "##alk": 1743,
      "course": 1744,
      "must": 1745,
      "days": 1746,
      "pass": 1747,
      "##ored": 1748,
      "felt": 1749,
      "personally": 1750,
      "based": 1751,
      "stand": 1752,
      "perfe": 1753,
      "awesome": 1754,
      "mostly": 1755,
      "psy": 1756,
      "##rent": 1757,
      "##uss": 1758,
      "##yp": 1759,
      "totally": 1760,
      "##gs": 1761,
      "please": 1762,
      "ir": 1763,
      "##ock": 1764,
      "obs": 1765,
      "dist": 1766,
      "become": 1767,
      "plan": 1768,
      "likely": 1769,
      "run": 1770,
      "##ount": 1771,
      "sw": 1772,
      "thoughts": 1773,
      "psych": 1774,
      "went": 1775,
      "##ret": 1776,
      "##olut": 1777,
      "exc": 1778,
      "sleep": 1779,
      "important": 1780,
      "example": 1781,
      "took": 1782,
      "figure": 1783,
      "human": 1784,
      "10": 1785,
      "emotions": 1786,
      "opp": 1787,
      "means": 1788,
      "shit": 1789,
      "##istic": 1790,
      "sci": 1791,
      "##ars": 1792,
      "ones": 1793,
      "##ower": 1794,
      "sent": 1795,
      "##iness": 1796,
      "view": 1797,
      "aren": 1798,
      "##ouse": 1799,
      "current": 1800,
      "hour": 1801,
      "##cc": 1802,
      "##ken": 1803,
      "##osed": 1804,
      "##friend": 1805,
      "##selves": 1806,
      "##ames": 1807,
      "##aut": 1808,
      "questions": 1809,
      "##nect": 1810,
      "##dd": 1811,
      "dont": 1812,
      "##used": 1813,
      "express": 1814,
      "extrem": 1815,
      "term": 1816,
      "side": 1817,
      "matter": 1818,
      "heart": 1819,
      "dou": 1820,
      "okay": 1821,
      "foll": 1822,
      "norm": 1823,
      "annoy": 1824,
      "name": 1825,
      "##reci": 1826,
      "intjs": 1827,
      "intu": 1828,
      "set": 1829,
      "##velop": 1830,
      "possible": 1831,
      "pict": 1832,
      "##oid": 1833,
      "intern": 1834,
      "gra": 1835,
      "##ied": 1836,
      "tog": 1837,
      "ra": 1838,
      "advice": 1839,
      "colle": 1840,
      "whatever": 1841,
      "boy": 1842,
      "small": 1843,
      "follow": 1844,
      "hmm": 1845,
      "curi": 1846,
      "mess": 1847,
      "working": 1848,
      "recently": 1849,
      "learn": 1850,
      "appreci": 1851,
      "together": 1852,
      "jud": 1853,
      "tong": 1854,
      "form": 1855,
      "fall": 1856,
      "favorite": 1857,
      "##ogn": 1858,
      "women": 1859,
      "##aa": 1860,
      "count": 1861,
      "tongue": 1862,
      "##nea": 1863,
      "miss": 1864,
      "depends": 1865,
      "sing": 1866,
      "female": 1867,
      "uni": 1868,
      "wow": 1869,
      "share": 1870,
      "mem": 1871,
      "##ives": 1872,
      "mine": 1873,
      "pain": 1874,
      "##lic": 1875,
      "##vi": 1876,
      "##ology": 1877,
      "##ption": 1878,
      "stay": 1879,
      "expect": 1880,
      "came": 1881,
      "xd": 1882,
      "develop": 1883,
      "foc": 1884,
      "prof": 1885,
      "##aking": 1886,
      "extrovert": 1887,
      "taking": 1888,
      "##line": 1889,
      "attract": 1890,
      "20": 1891,
      "##ited": 1892,
      "const": 1893,
      "easy": 1894,
      "perfect": 1895,
      "##ew": 1896,
      "##ash": 1897,
      "anyway": 1898,
      "##ling": 1899,
      "depress": 1900,
      "free": 1901,
      "pur": 1902,
      "obvious": 1903,
      "room": 1904,
      "war": 1905,
      "pos": 1906,
      "couple": 1907,
      "##where": 1908,
      "##ead": 1909,
      "exist": 1910,
      "infps": 1911,
      "seriously": 1912,
      "case": 1913,
      "generally": 1914,
      "##aring": 1915,
      "beha": 1916,
      "connect": 1917,
      "##ont": 1918,
      "months": 1919,
      "rom": 1920,
      "unless": 1921,
      "mention": 1922,
      "##oney": 1923,
      "##ments": 1924,
      "commun": 1925,
      "##wards": 1926,
      "hello": 1927,
      "common": 1928,
      "##ier": 1929,
      "med": 1930,
      "parent": 1931,
      "mis": 1932,
      "##uct": 1933,
      "hurt": 1934,
      "state": 1935,
      "##iter": 1936,
      "group": 1937,
      "##ump": 1938,
      "##ked": 1939,
      "anim": 1940,
      "##uring": 1941,
      "gre": 1942,
      "next": 1943,
      "result": 1944,
      "spend": 1945,
      "gets": 1946,
      "sign": 1947,
      "##ational": 1948,
      "inform": 1949,
      "beaut": 1950,
      "honestly": 1951,
      "##pid": 1952,
      "whether": 1953,
      "writing": 1954,
      "##erg": 1955,
      "tried": 1956,
      "assum": 1957,
      "dad": 1958,
      "particul": 1959,
      "aff": 1960,
      "boo": 1961,
      "video": 1962,
      "teach": 1963,
      "ennea": 1964,
      "opinion": 1965,
      "##haha": 1966,
      "lead": 1967,
      "moment": 1968,
      "##ired": 1969,
      "relationships": 1970,
      "##althy": 1971,
      "male": 1972,
      "##erv": 1973,
      "fit": 1974,
      "looks": 1975,
      "absolut": 1976,
      "possib": 1977,
      "##gn": 1978,
      "stress": 1979,
      "short": 1980,
      "main": 1981,
      "fair": 1982,
      "enneagram": 1983,
      "pres": 1984,
      "house": 1985,
      "##ised": 1986,
      "story": 1987,
      "##ross": 1988,
      "subject": 1989,
      "says": 1990,
      "##ister": 1991,
      "discuss": 1992,
      "##ures": 1993,
      "##tern": 1994,
      "specif": 1995,
      "level": 1996,
      "##ried": 1997,
      "write": 1998,
      "stupid": 1999,
      "conversation": 2000,
      "game": 2001,
      "except": 2002,
      "age": 2003,
      "maj": 2004,
      "trust": 2005,
      "##cing": 2006,
      "ear": 2007,
      "turn": 2008,
      "##ense": 2009,
      "##rist": 2010,
      "ideas": 2011,
      "absolutely": 2012,
      "##ellig": 2013,
      "contro": 2014,
      "sol": 2015,
      "instead": 2016,
      "mother": 2017,
      "##ah": 2018,
      "adm": 2019,
      "rand": 2020,
      "college": 2021,
      "ori": 2022,
      "##fortable": 2023,
      "called": 2024,
      "##umb": 2025,
      "##pr": 2026,
      "##haps": 2027,
      "emotion": 2028,
      "hal": 2029,
      "left": 2030,
      "money": 2031,
      "##ined": 2032,
      "intellig": 2033,
      "infjs": 2034,
      "cry": 2035,
      "order": 2036,
      "saw": 2037,
      "anal": 2038,
      "##oice": 2039,
      "natur": 2040,
      "goes": 2041,
      "perhaps": 2042,
      "heard": 2043,
      "dear": 2044,
      "accept": 2045,
      "##ne": 2046,
      "par": 2047,
      "pol": 2048,
      "##icult": 2049,
      "unc": 2050,
      "relig": 2051,
      "##man": 2052,
      "conc": 2053,
      "break": 2054,
      "posts": 2055,
      "enfps": 2056,
      "random": 2057,
      "##ustr": 2058,
      "##ental": 2059,
      "amaz": 2060,
      "difficult": 2061,
      "dam": 2062,
      "introverted": 2063,
      "feels": 2064,
      "movie": 2065,
      "major": 2066,
      "bus": 2067,
      "notic": 2068,
      "##ats": 2069,
      "men": 2070,
      "pop": 2071,
      "ca": 2072,
      "##antly": 2073,
      "pick": 2074,
      "rest": 2075,
      "domin": 2076,
      "##gan": 2077,
      "intps": 2078,
      "chang": 2079,
      "kinda": 2080,
      "week": 2081,
      "##ply": 2082,
      "lack": 2083,
      "kill": 2084,
      "mot": 2085,
      "incl": 2086,
      "simply": 2087,
      "curious": 2088,
      "character": 2089,
      "basically": 2090,
      "check": 2091,
      "pat": 2092,
      "appe": 2093,
      "##oooo": 2094,
      "easily": 2095,
      "mist": 2096,
      "asking": 2097,
      "behavi": 2098,
      "move": 2099,
      "speak": 2100,
      "imm": 2101,
      "dark": 2102,
      "##ories": 2103,
      "brain": 2104,
      "entps": 2105,
      "themselves": 2106,
      "##av": 2107,
      "bro": 2108,
      "##angu": 2109,
      "cal": 2110,
      "information": 2111,
      "##bb": 2112,
      "parents": 2113,
      "half": 2114,
      "topic": 2115,
      "cause": 2116,
      "happens": 2117,
      "ways": 2118,
      "occ": 2119,
      "vis": 2120,
      "sugg": 2121,
      "suggest": 2122,
      "100": 2123,
      "inde": 2124,
      "pot": 2125,
      "cre": 2126,
      "##ts": 2127,
      "##ific": 2128,
      "avoid": 2129,
      "process": 2130,
      "##ared": 2131,
      "asked": 2132,
      "perc": 2133,
      "rare": 2134,
      "outs": 2135,
      "problems": 2136,
      "##sh": 2137,
      "##ouch": 2138,
      "ref": 2139,
      "eyes": 2140,
      "full": 2141,
      "##iful": 2142,
      "##not": 2143,
      "seeing": 2144,
      "hor": 2145,
      "three": 2146,
      "realize": 2147,
      "books": 2148,
      "sou": 2149,
      "##ove": 2150,
      "towards": 2151,
      "couldn": 2152,
      "##ided": 2153,
      "mid": 2154,
      "math": 2155,
      "##up": 2156,
      "hours": 2157,
      "meaning": 2158,
      "quick": 2159,
      "bi": 2160,
      "sil": 2161,
      "##ren": 2162,
      "needs": 2163,
      "est": 2164,
      "energ": 2165,
      "extremely": 2166,
      "##ane": 2167,
      "meant": 2168,
      "respect": 2169,
      "argum": 2170,
      "entire": 2171,
      "watching": 2172,
      "playing": 2173,
      "sister": 2174,
      "necess": 2175,
      "coming": 2176,
      "langu": 2177,
      "beautiful": 2178,
      "grow": 2179,
      "##ivid": 2180,
      "attention": 2181,
      "har": 2182,
      "works": 2183,
      "understanding": 2184,
      "drink": 2185,
      "hold": 2186,
      "stere": 2187,
      "neg": 2188,
      "focus": 2189,
      "##ify": 2190,
      "##ident": 2191,
      "swe": 2192,
      "knew": 2193,
      "posted": 2194,
      "touch": 2195,
      "ist": 2196,
      "##ines": 2197,
      "##aw": 2198,
      "truth": 2199,
      "glad": 2200,
      "theory": 2201,
      "regard": 2202,
      "red": 2203,
      "stereot": 2204,
      "ign": 2205,
      "wait": 2206,
      "proud": 2207,
      "fine": 2208,
      "games": 2209,
      "var": 2210,
      "dating": 2211,
      "##lish": 2212,
      "power": 2213,
      "black": 2214,
      "non": 2215,
      "##ination": 2216,
      "##ern": 2217,
      "sever": 2218,
      "pract": 2219,
      "romant": 2220,
      "living": 2221,
      "amazing": 2222,
      "light": 2223,
      "appreciate": 2224,
      "bored": 2225,
      "noticed": 2226,
      "##oph": 2227,
      "##ellow": 2228,
      "##cious": 2229,
      "ident": 2230,
      "currently": 2231,
      "food": 2232,
      "girls": 2233,
      "hang": 2234,
      "online": 2235,
      "quiet": 2236,
      "known": 2237,
      "wants": 2238,
      "surpr": 2239,
      "liter": 2240,
      "picture": 2241,
      "compl": 2242,
      "worth": 2243,
      "leave": 2244,
      "brother": 2245,
      "eat": 2246,
      "fut": 2247,
      "direct": 2248,
      "physical": 2249,
      "happened": 2250,
      "deb": 2251,
      "suck": 2252,
      "extra": 2253,
      "sn": 2254,
      "##unch": 2255,
      "anx": 2256,
      "sx": 2257,
      "##ave": 2258,
      "learning": 2259,
      "hit": 2260,
      "##rible": 2261,
      "stra": 2262,
      "react": 2263,
      "##ides": 2264,
      "##ma": 2265,
      "##oss": 2266,
      "##right": 2267,
      "##ages": 2268,
      "liked": 2269,
      "##stem": 2270,
      "christ": 2271,
      "aware": 2272,
      "##ances": 2273,
      "##use": 2274,
      "system": 2275,
      "outside": 2276,
      "fear": 2277,
      "frustr": 2278,
      "body": 2279,
      "interact": 2280,
      "cogn": 2281,
      "##ming": 2282,
      "##arc": 2283,
      "loved": 2284,
      "##fully": 2285,
      "intro": 2286,
      "woman": 2287,
      "decis": 2288,
      "pay": 2289,
      "##ene": 2290,
      "angry": 2291,
      "during": 2292,
      "link": 2293,
      "##ging": 2294,
      "wink": 2295,
      "##ety": 2296,
      "##br": 2297,
      "communic": 2298,
      "##ugg": 2299,
      "##arily": 2300,
      "##erior": 2301,
      "appro": 2302,
      "wondering": 2303,
      "##io": 2304,
      "##onse": 2305,
      "given": 2306,
      "imagine": 2307,
      "due": 2308,
      "fight": 2309,
      "later": 2310,
      "choo": 2311,
      "internet": 2312,
      "##ung": 2313,
      "takes": 2314,
      "remind": 2315,
      "death": 2316,
      "crit": 2317,
      "##over": 2318,
      "##ac": 2319,
      "individ": 2320,
      "taken": 2321,
      "nf": 2322,
      "##izing": 2323,
      "affect": 2324,
      "response": 2325,
      "mood": 2326,
      "sty": 2327,
      "##like": 2328,
      "hair": 2329,
      "qual": 2330,
      "clos": 2331,
      "normal": 2332,
      "cold": 2333,
      "kids": 2334,
      "cau": 2335,
      "lost": 2336,
      "clear": 2337,
      "begin": 2338,
      "correct": 2339,
      "future": 2340,
      "pri": 2341,
      "against": 2342,
      "##iety": 2343,
      "control": 2344,
      "##ptions": 2345,
      "difference": 2346,
      "cannot": 2347,
      "##ists": 2348,
      "ill": 2349,
      "smart": 2350,
      "issue": 2351,
      "nature": 2352,
      "late": 2353,
      "##idence": 2354,
      "num": 2355,
      "##ledge": 2356,
      "ret": 2357,
      "##ake": 2358,
      "science": 2359,
      "##dle": 2360,
      "describ": 2361,
      "##ank": 2362,
      "##ster": 2363,
      "fail": 2364,
      "lots": 2365,
      "value": 2366,
      "ideal": 2367,
      "origin": 2368,
      "##ows": 2369,
      "worry": 2370,
      "bring": 2371,
      "individual": 2372,
      "respons": 2373,
      "comput": 2374,
      "cognitive": 2375,
      "##hip": 2376,
      "text": 2377,
      "oppos": 2378,
      "phil": 2379,
      "accur": 2380,
      "doubt": 2381,
      "learned": 2382,
      "above": 2383,
      "simple": 2384,
      "##ix": 2385,
      "damn": 2386,
      "win": 2387,
      "requ": 2388,
      "reasons": 2389,
      "trou": 2390,
      "confused": 2391,
      "detail": 2392,
      "##atic": 2393,
      "mod": 2394,
      "dominant": 2395,
      "draw": 2396,
      "##air": 2397,
      "smile": 2398,
      "gon": 2399,
      "bother": 2400,
      "older": 2401,
      "issues": 2402,
      "##go": 2403,
      "##res": 2404,
      "##uly": 2405,
      "inside": 2406,
      "invol": 2407,
      "##more": 2408,
      "low": 2409,
      "boyfriend": 2410,
      "single": 2411,
      "energy": 2412,
      "##orn": 2413,
      "several": 2414,
      "typing": 2415,
      "romantic": 2416,
      "##path": 2417,
      "##unk": 2418,
      "quote": 2419,
      "reply": 2420,
      "##ering": 2421,
      "sweet": 2422,
      "comfortable": 2423,
      "eye": 2424,
      "wi": 2425,
      "##bs": 2426,
      "##kward": 2427,
      "##ining": 2428,
      "gonna": 2429,
      "vi": 2430,
      "##irt": 2431,
      "movies": 2432,
      "awkward": 2433,
      "language": 2434,
      "giving": 2435,
      "forget": 2436,
      "env": 2437,
      "##earch": 2438,
      "date": 2439,
      "cute": 2440,
      "##lex": 2441,
      "bur": 2442,
      "uns": 2443,
      "research": 2444,
      "cir": 2445,
      "description": 2446,
      "across": 2447,
      "##itch": 2448,
      "isf": 2449,
      "listening": 2450,
      "hot": 2451,
      "##ular": 2452,
      "huge": 2453,
      "##eless": 2454,
      "##ature": 2455,
      "younger": 2456,
      "##eld": 2457,
      "rid": 2458,
      "##eric": 2459,
      "telling": 2460,
      "respond": 2461,
      "wal": 2462,
      "##ime": 2463,
      "walk": 2464,
      "lar": 2465,
      "mental": 2466,
      "trans": 2467,
      "##ivity": 2468,
      "cut": 2469,
      "boring": 2470,
      "fil": 2471,
      "vers": 2472,
      "prop": 2473,
      "straight": 2474,
      "tem": 2475,
      "conv": 2476,
      "suppose": 2477,
      "##ency": 2478,
      "object": 2479,
      "del": 2480,
      "decided": 2481,
      "bed": 2482,
      "deg": 2483,
      "truly": 2484,
      "tests": 2485,
      "english": 2486,
      "stre": 2487,
      "early": 2488,
      "##ively": 2489,
      "##ising": 2490,
      "luck": 2491,
      "likes": 2492,
      "event": 2493,
      "logic": 2494,
      "lim": 2495,
      "##rib": 2496,
      "society": 2497,
      "certainly": 2498,
      "##ork": 2499,
      "##ger": 2500,
      "##asc": 2501,
      "cat": 2502,
      "shy": 2503,
      "choose": 2504,
      "pub": 2505,
      "##set": 2506,
      "organ": 2507,
      "support": 2508,
      "situations": 2509,
      "negative": 2510,
      "er": 2511,
      "perspect": 2512,
      "##ential": 2513,
      "effect": 2514,
      "constantly": 2515,
      "##uc": 2516,
      "mentioned": 2517,
      "beh": 2518,
      "##ient": 2519,
      "finally": 2520,
      "##ony": 2521,
      "soon": 2522,
      "motiv": 2523,
      "sat": 2524,
      "project": 2525,
      "helps": 2526,
      "supposed": 2527,
      "##gress": 2528,
      "##arch": 2529,
      "annoying": 2530,
      "notice": 2531,
      "results": 2532,
      "approach": 2533,
      "comment": 2534,
      "knowledge": 2535,
      "number": 2536,
      "skill": 2537,
      "##row": 2538,
      "speaking": 2539,
      "philos": 2540,
      "##yn": 2541,
      "reality": 2542,
      "argument": 2543,
      "space": 2544,
      "ah": 2545,
      "cap": 2546,
      "fant": 2547,
      "amount": 2548,
      "fix": 2549,
      "computer": 2550,
      "obviously": 2551,
      "hop": 2552,
      "##que": 2553,
      "nt": 2554,
      "step": 2555,
      "summ": 2556,
      "comb": 2557,
      "perce": 2558,
      "rock": 2559,
      "specific": 2560,
      "##etic": 2561,
      "dem": 2562,
      "special": 2563,
      "thats": 2564,
      "##unt": 2565,
      "dead": 2566,
      "anymore": 2567,
      "describe": 2568,
      "19": 2569,
      "##wise": 2570,
      "tech": 2571,
      "contact": 2572,
      "ste": 2573,
      "gave": 2574,
      "##ially": 2575,
      "experiences": 2576,
      "logical": 2577,
      "##raid": 2578,
      "realized": 2579,
      "weeks": 2580,
      "fan": 2581,
      "##omm": 2582,
      "apparent": 2583,
      "style": 2584,
      "party": 2585,
      "soul": 2586,
      "refer": 2587,
      "finding": 2588,
      "characters": 2589,
      "##no": 2590,
      "##how": 2591,
      "somewhere": 2592,
      "whenever": 2593,
      "strugg": 2594,
      "bab": 2595,
      "##ester": 2596,
      "hist": 2597,
      "middle": 2598,
      "four": 2599,
      "afraid": 2600,
      "literally": 2601,
      "anxiety": 2602,
      "fore": 2603,
      "tap": 2604,
      "##ili": 2605,
      "edit": 2606,
      "positive": 2607,
      "starting": 2608,
      "smo": 2609,
      "circ": 2610,
      "slight": 2611,
      "trouble": 2612,
      "nor": 2613,
      "ru": 2614,
      "##ype": 2615,
      "gif": 2616,
      "##usion": 2617,
      "related": 2618,
      "law": 2619,
      "init": 2620,
      "points": 2621,
      "fucking": 2622,
      "je": 2623,
      "lately": 2624,
      "knows": 2625,
      "knowing": 2626,
      "americ": 2627,
      "##astic": 2628,
      "strange": 2629,
      "phone": 2630,
      "vs": 2631,
      "purp": 2632,
      "phot": 2633,
      "tit": 2634,
      "##ended": 2635,
      "study": 2636,
      "natural": 2637,
      "opposite": 2638,
      "finish": 2639,
      "cult": 2640,
      "father": 2641,
      "goo": 2642,
      "##ped": 2643,
      "line": 2644,
      "##ru": 2645,
      "pie": 2646,
      "##ms": 2647,
      "easier": 2648,
      "behavior": 2649,
      "odd": 2650,
      "stereotyp": 2651,
      "philosoph": 2652,
      "##ler": 2653,
      "forums": 2654,
      "analy": 2655,
      "##utes": 2656,
      "weak": 2657,
      "obsess": 2658,
      "##ins": 2659,
      "##att": 2660,
      "particular": 2661,
      "##book": 2662,
      "includ": 2663,
      "accurate": 2664,
      "##oot": 2665,
      "considered": 2666,
      "polit": 2667,
      "concept": 2668,
      "terms": 2669,
      "aut": 2670,
      "slow": 2671,
      "##aim": 2672,
      "blue": 2673,
      "inferior": 2674,
      "children": 2675,
      "within": 2676,
      "##roll": 2677,
      "##tu": 2678,
      "##ales": 2679,
      "becom": 2680,
      "disag": 2681,
      "possibly": 2682,
      "healthy": 2683,
      "sensitive": 2684,
      "occas": 2685,
      "avat": 2686,
      "behind": 2687,
      "kitt": 2688,
      "##ipul": 2689,
      "grad": 2690,
      "leg": 2691,
      "##what": 2692,
      "##du": 2693,
      "suc": 2694,
      "site": 2695,
      "wear": 2696,
      "build": 2697,
      "ep": 2698,
      "morning": 2699,
      "present": 2700,
      "ability": 2701,
      "manipul": 2702,
      "answers": 2703,
      "impress": 2704,
      "incred": 2705,
      "##ax": 2706,
      "30": 2707,
      "hahaha": 2708,
      "bar": 2709,
      "repl": 2710,
      "humor": 2711,
      "##iction": 2712,
      "intuitive": 2713,
      "mad": 2714,
      "white": 2715,
      "##iment": 2716,
      "somewhat": 2717,
      "##sing": 2718,
      "##app": 2719,
      "ant": 2720,
      "treat": 2721,
      "somehow": 2722,
      "worked": 2723,
      "effort": 2724,
      "profess": 2725,
      "otherwise": 2726,
      "gotten": 2727,
      "insight": 2728,
      "##ries": 2729,
      "shows": 2730,
      "watched": 2731,
      "tired": 2732,
      "om": 2733,
      "##lt": 2734,
      "gone": 2735,
      "needed": 2736,
      "fellow": 2737,
      "##ring": 2738,
      "intel": 2739,
      "choice": 2740,
      "fast": 2741,
      "##atalk": 2742,
      "sun": 2743,
      "values": 2744,
      "perspective": 2745,
      "tapatalk": 2746,
      "particularly": 2747,
      "##anna": 2748,
      "hug": 2749,
      "concl": 2750,
      "##ards": 2751,
      "attracted": 2752,
      "##eh": 2753,
      "##erm": 2754,
      "##ott": 2755,
      "contin": 2756,
      "##version": 2757,
      "dreams": 2758,
      "emotionally": 2759,
      "necessarily": 2760,
      "ful": 2761,
      "##yy": 2762,
      "unhe": 2763,
      "youtu": 2764,
      "##ets": 2765,
      "##ants": 2766,
      "chance": 2767,
      "enter": 2768,
      "spir": 2769,
      "threads": 2770,
      "intelligence": 2771,
      "tv": 2772,
      "##verse": 2773,
      "desp": 2774,
      "degree": 2775,
      "##ateg": 2776,
      "##ushed": 2777,
      "15": 2778,
      "compan": 2779,
      "die": 2780,
      "##ones": 2781,
      "prov": 2782,
      "wrote": 2783,
      "##ters": 2784,
      "##spect": 2785,
      "traits": 2786,
      "envir": 2787,
      "12": 2788,
      "discover": 2789,
      "extroverted": 2790,
      "joke": 2791,
      "religion": 2792,
      "intellect": 2793,
      "worst": 2794,
      "##fortun": 2795,
      "youtube": 2796,
      "##ze": 2797,
      "##amp": 2798,
      "##ode": 2799,
      "married": 2800,
      "##co": 2801,
      "allow": 2802,
      "posting": 2803,
      "country": 2804,
      "actual": 2805,
      "da": 2806,
      "##view": 2807,
      "hands": 2808,
      "large": 2809,
      "public": 2810,
      "techn": 2811,
      "spot": 2812,
      "##ww": 2813,
      "itself": 2814,
      "evil": 2815,
      "avatar": 2816,
      "unhealthy": 2817,
      "50": 2818,
      "tom": 2819,
      "fairly": 2820,
      "rarely": 2821,
      "apparently": 2822,
      "environ": 2823,
      "wast": 2824,
      "##lev": 2825,
      "belief": 2826,
      "admit": 2827,
      "rul": 2828,
      "empath": 2829,
      "note": 2830,
      "grand": 2831,
      "##empt": 2832,
      "dislike": 2833,
      "interests": 2834,
      "mult": 2835,
      "##ites": 2836,
      "##ender": 2837,
      "unfortun": 2838,
      "intuition": 2839,
      "dog": 2840,
      "experien": 2841,
      "clearly": 2842,
      "##bit": 2843,
      "shock": 2844,
      "match": 2845,
      "##x9": 2846,
      "##ther": 2847,
      "purpose": 2848,
      "songs": 2849,
      "business": 2850,
      "appear": 2851,
      "pla": 2852,
      "sport": 2853,
      "drive": 2854,
      "forgot": 2855,
      "depressed": 2856,
      "gives": 2857,
      "wall": 2858,
      "buy": 2859,
      "depression": 2860,
      "water": 2861,
      "##erve": 2862,
      "soc": 2863,
      "girlfriend": 2864,
      "piss": 2865,
      "career": 2866,
      "cas": 2867,
      "tast": 2868,
      "auth": 2869,
      "voice": 2870,
      "travel": 2871,
      "thinks": 2872,
      "helpful": 2873,
      "seemed": 2874,
      "minutes": 2875,
      "##aught": 2876,
      "partner": 2877,
      "highly": 2878,
      "univers": 2879,
      "##ley": 2880,
      "front": 2881,
      "spent": 2882,
      "emb": 2883,
      "conversations": 2884,
      "##raph": 2885,
      "looked": 2886,
      "##oun": 2887,
      "##irth": 2888,
      "coff": 2889,
      "passion": 2890,
      "bal": 2891,
      "intelligent": 2892,
      "##ator": 2893,
      "upon": 2894,
      "pleas": 2895,
      "##hood": 2896,
      "creative": 2897,
      "cent": 2898,
      "mil": 2899,
      "wanna": 2900,
      "lazy": 2901,
      "unsure": 2902,
      "plus": 2903,
      "##itten": 2904,
      "series": 2905,
      "clean": 2906,
      "original": 2907,
      "born": 2908,
      "##med": 2909,
      "##oint": 2910,
      "stuck": 2911,
      "bri": 2912,
      "assume": 2913,
      "##verage": 2914,
      "history": 2915,
      "##ho": 2916,
      "mix": 2917,
      "environment": 2918,
      "indeed": 2919,
      "##rel": 2920,
      "suff": 2921,
      "##ror": 2922,
      "attempt": 2923,
      "irr": 2924,
      "##lict": 2925,
      "stick": 2926,
      "lose": 2927,
      "loud": 2928,
      "lives": 2929,
      "decide": 2930,
      "coffee": 2931,
      "ya": 2932,
      "search": 2933,
      "willing": 2934,
      "ath": 2935,
      "dan": 2936,
      "entjs": 2937,
      "disagree": 2938,
      "##w6": 2939,
      "##ered": 2940,
      "worse": 2941,
      "enc": 2942,
      "opinions": 2943,
      "birth": 2944,
      "hus": 2945,
      "##inct": 2946,
      "typed": 2947,
      "##allen": 2948,
      "lad": 2949,
      "yep": 2950,
      "##band": 2951,
      "##udd": 2952,
      "impro": 2953,
      "conscious": 2954,
      "##w5": 2955,
      "##aining": 2956,
      "##ii": 2957,
      "##ording": 2958,
      "warm": 2959,
      "istps": 2960,
      "extravert": 2961,
      "##tw": 2962,
      "dev": 2963,
      "challen": 2964,
      "useful": 2965,
      "dru": 2966,
      "complete": 2967,
      "bull": 2968,
      "action": 2969,
      "terrible": 2970,
      "developed": 2971,
      "##bo": 2972,
      "sym": 2973,
      "quickly": 2974,
      "aspect": 2975,
      "upset": 2976,
      "compet": 2977,
      "priv": 2978,
      "shouldn": 2979,
      "debate": 2980,
      "##ilities": 2981,
      "hugs": 2982,
      "16": 2983,
      "wanting": 2984,
      "prot": 2985,
      "ther": 2986,
      "color": 2987,
      "genu": 2988,
      "conflict": 2989,
      "putting": 2990,
      "ele": 2991,
      "fur": 2992,
      "##yr": 2993,
      "##zz": 2994,
      "friendship": 2995,
      "##anger": 2996,
      "dude": 2997,
      "pull": 2998,
      "intim": 2999,
      "throw": 3000,
      "##ibly": 3001,
      "apart": 3002,
      "judge": 3003,
      "teacher": 3004,
      "naturally": 3005,
      "lab": 3006,
      "intense": 3007,
      "husband": 3008,
      "##ama": 3009,
      "kitteh": 3010,
      "success": 3011,
      "none": 3012,
      "rational": 3013,
      "program": 3014,
      "##acy": 3015,
      "##xx": 3016,
      "##atter": 3017,
      "##using": 3018,
      "longer": 3019,
      "bene": 3020,
      "##11": 3021,
      "claim": 3022,
      "written": 3023,
      "prom": 3024,
      "descriptions": 3025,
      "connection": 3026,
      "peri": 3027,
      "##ots": 3028,
      "esf": 3029,
      "##cra": 3030,
      "##rew": 3031,
      "desire": 3032,
      "fire": 3033,
      "pen": 3034,
      "tre": 3035,
      "##ta": 3036,
      "##uing": 3037,
      "moving": 3038,
      "##con": 3039,
      "average": 3040,
      "reach": 3041,
      "unfortunately": 3042,
      "##pir": 3043,
      "earth": 3044,
      "hol": 3045,
      "sarc": 3046,
      "star": 3047,
      "sharing": 3048,
      "eventually": 3049,
      "##rop": 3050,
      "lie": 3051,
      "apolog": 3052,
      "critic": 3053,
      "##ented": 3054,
      "identify": 3055,
      "title": 3056,
      "genuine": 3057,
      "pa": 3058,
      "##ability": 3059,
      "ended": 3060,
      "##onic": 3061,
      "##lying": 3062,
      "stri": 3063,
      "gender": 3064,
      "handle": 3065,
      "helped": 3066,
      "wonderful": 3067,
      "christian": 3068,
      "rules": 3069,
      "prim": 3070,
      "enfjs": 3071,
      "poor": 3072,
      "changed": 3073,
      "##form": 3074,
      "##edi": 3075,
      "account": 3076,
      "##head": 3077,
      "##ices": 3078,
      "secret": 3079,
      "period": 3080,
      "18": 3081,
      "pet": 3082,
      "##duct": 3083,
      "attractive": 3084,
      "create": 3085,
      "socion": 3086,
      "ton": 3087,
      "wind": 3088,
      "near": 3089,
      "sexual": 3090,
      "moral": 3091,
      "guil": 3092,
      "drop": 3093,
      "##iving": 3094,
      "##ping": 3095,
      "recomm": 3096,
      "involved": 3097,
      "##land": 3098,
      "somebody": 3099,
      "nobody": 3100,
      "agre": 3101,
      "convin": 3102,
      "ess": 3103,
      "described": 3104,
      "##ensive": 3105,
      "message": 3106,
      "religious": 3107,
      "dest": 3108,
      "##ples": 3109,
      "##ged": 3110,
      "##ays": 3111,
      "loc": 3112,
      "favour": 3113,
      "running": 3114,
      "air": 3115,
      "bunch": 3116,
      "eq": 3117,
      "facebook": 3118,
      "pattern": 3119,
      "##ric": 3120,
      "##pped": 3121,
      "artic": 3122,
      "##ese": 3123,
      "peace": 3124,
      "according": 3125,
      "##els": 3126,
      "##ses": 3127,
      "##asm": 3128,
      "studying": 3129,
      "ver": 3130,
      "##uu": 3131,
      "9w": 3132,
      "alot": 3133,
      "##dden": 3134,
      "##itude": 3135,
      "spirit": 3136,
      "dry": 3137,
      "summer": 3138,
      "incredibly": 3139,
      "jump": 3140,
      "following": 3141,
      "socionics": 3142,
      "##under": 3143,
      "##ral": 3144,
      "fill": 3145,
      "##ky": 3146,
      "cant": 3147,
      "##cial": 3148,
      "psychology": 3149,
      "##w2": 3150,
      "##rog": 3151,
      "recogn": 3152,
      "determ": 3153,
      "silly": 3154,
      "places": 3155,
      "band": 3156,
      "ce": 3157,
      "cook": 3158,
      "##erc": 3159,
      "sudden": 3160,
      "pu": 3161,
      "mag": 3162,
      "five": 3163,
      "calm": 3164,
      "confident": 3165,
      "considering": 3166,
      "potential": 3167,
      "drunk": 3168,
      "pictures": 3169,
      "animals": 3170,
      "disor": 3171,
      "baby": 3172,
      "image": 3173,
      "##ization": 3174,
      "nope": 3175,
      "##esh": 3176,
      "coun": 3177,
      "scient": 3178,
      "skills": 3179,
      "goog": 3180,
      "pic": 3181,
      "page": 3182,
      "##arr": 3183,
      "inse": 3184,
      "##enty": 3185,
      "##gest": 3186,
      "stories": 3187,
      "omg": 3188,
      "meth": 3189,
      "discussion": 3190,
      "talked": 3191,
      "introverts": 3192,
      "turned": 3193,
      "company": 3194,
      "eating": 3195,
      "##lu": 3196,
      "forward": 3197,
      "dress": 3198,
      "sick": 3199,
      "##ob": 3200,
      "##esterday": 3201,
      "fu": 3202,
      "troll": 3203,
      "yesterday": 3204,
      "played": 3205,
      "slightly": 3206,
      "11": 3207,
      "score": 3208,
      "box": 3209,
      "ach": 3210,
      "##ding": 3211,
      "shocked": 3212,
      "##ape": 3213,
      "##ution": 3214,
      "##ney": 3215,
      "wife": 3216,
      "##erved": 3217,
      "##ital": 3218,
      "relax": 3219,
      "walking": 3220,
      "##put": 3221,
      "##hol": 3222,
      "femin": 3223,
      "surprised": 3224,
      "confidence": 3225,
      "among": 3226,
      "crap": 3227,
      "alright": 3228,
      "shut": 3229,
      "scen": 3230,
      "waiting": 3231,
      "specifically": 3232,
      "details": 3233,
      "14": 3234,
      "catch": 3235,
      "sour": 3236,
      "complex": 3237,
      "teen": 3238,
      "anger": 3239,
      "quality": 3240,
      "##work": 3241,
      "##lo": 3242,
      "health": 3243,
      "everybody": 3244,
      "actions": 3245,
      "crush": 3246,
      "crying": 3247,
      "btw": 3248,
      "typical": 3249,
      "entirely": 3250,
      "responses": 3251,
      "busy": 3252,
      "immedi": 3253,
      "sitting": 3254,
      "##iding": 3255,
      "##soci": 3256,
      "uncom": 3257,
      "version": 3258,
      "multip": 3259,
      "moved": 3260,
      "scared": 3261,
      "##ological": 3262,
      "meeting": 3263,
      "decision": 3264,
      "interp": 3265,
      "classes": 3266,
      "philosophy": 3267,
      "##x92": 3268,
      "cop": 3269,
      "proper": 3270,
      "##hhhh": 3271,
      "figured": 3272,
      "ignor": 3273,
      "pap": 3274,
      "stat": 3275,
      "cond": 3276,
      "temper": 3277,
      "occasion": 3278,
      "##hn": 3279,
      "##akes": 3280,
      "##w4": 3281,
      "hobb": 3282,
      "beginning": 3283,
      "fantas": 3284,
      "rain": 3285,
      "manag": 3286,
      "push": 3287,
      "##othes": 3288,
      "attack": 3289,
      "frustrating": 3290,
      "##iliar": 3291,
      "heav": 3292,
      "consist": 3293,
      "##ngth": 3294,
      "dated": 3295,
      "dumb": 3296,
      "feed": 3297,
      "depending": 3298,
      "judging": 3299,
      "##underst": 3300,
      "city": 3301,
      "hilar": 3302,
      "normally": 3303,
      "benef": 3304,
      "fasc": 3305,
      "##to": 3306,
      "became": 3307,
      "lean": 3308,
      "strength": 3309,
      "recommend": 3310,
      "tough": 3311,
      "spo": 3312,
      "prin": 3313,
      "mainly": 3314,
      "communication": 3315,
      "##ius": 3316,
      "##iculous": 3317,
      "ignore": 3318,
      "despite": 3319,
      "##inating": 3320,
      "definition": 3321,
      "field": 3322,
      "rob": 3323,
      "childhood": 3324,
      "frequ": 3325,
      "green": 3326,
      "hom": 3327,
      "path": 3328,
      "chat": 3329,
      "blushed": 3330,
      "position": 3331,
      "jung": 3332,
      "send": 3333,
      "area": 3334,
      "educ": 3335,
      "intellectual": 3336,
      "moder": 3337,
      "chem": 3338,
      "caring": 3339,
      "growing": 3340,
      "previous": 3341,
      "##ception": 3342,
      "excited": 3343,
      "hilarious": 3344,
      "pure": 3345,
      "aggress": 3346,
      "##room": 3347,
      "##phone": 3348,
      "harm": 3349,
      "university": 3350,
      "dat": 3351,
      "##ux": 3352,
      "loves": 3353,
      "##eeee": 3354,
      "horrible": 3355,
      "uncomfortable": 3356,
      "press": 3357,
      "shall": 3358,
      "dig": 3359,
      "doct": 3360,
      "higher": 3361,
      "decisions": 3362,
      "ball": 3363,
      "soft": 3364,
      "friendly": 3365,
      "hyp": 3366,
      "##ased": 3367,
      "##ires": 3368,
      "neither": 3369,
      "seek": 3370,
      "argue": 3371,
      "isfps": 3372,
      "lone": 3373,
      "season": 3374,
      "lived": 3375,
      "##lier": 3376,
      "statement": 3377,
      "##itions": 3378,
      "instinct": 3379,
      "majority": 3380,
      "##ises": 3381,
      "rece": 3382,
      "##ified": 3383,
      "method": 3384,
      "boss": 3385,
      "interview": 3386,
      "double": 3387,
      "sports": 3388,
      "beat": 3389,
      "##eth": 3390,
      "congr": 3391,
      "quot": 3392,
      "##ured": 3393,
      "perfectly": 3394,
      "insec": 3395,
      "##oes": 3396,
      "save": 3397,
      "parts": 3398,
      "biggest": 3399,
      "misunderst": 3400,
      "athe": 3401,
      "typically": 3402,
      "bes": 3403,
      "hy": 3404,
      "##ext": 3405,
      "##ruct": 3406,
      "myst": 3407,
      "##oof": 3408,
      "comfort": 3409,
      "driving": 3410,
      "sucks": 3411,
      "##levant": 3412,
      "##iest": 3413,
      "sem": 3414,
      "goal": 3415,
      "john": 3416,
      "closest": 3417,
      "roll": 3418,
      "##rum": 3419,
      "imposs": 3420,
      "bitch": 3421,
      "purs": 3422,
      "##ball": 3423,
      "inner": 3424,
      "comments": 3425,
      "influ": 3426,
      "engine": 3427,
      "##cul": 3428,
      "##back": 3429,
      "##itar": 3430,
      "bey": 3431,
      "##otic": 3432,
      "observ": 3433,
      "profile": 3434,
      "fully": 3435,
      "clar": 3436,
      "club": 3437,
      "mark": 3438,
      "istjs": 3439,
      "repe": 3440,
      "himself": 3441,
      "fits": 3442,
      "##33": 3443,
      "##isf": 3444,
      "viol": 3445,
      "experienced": 3446,
      "##round": 3447,
      "##icial": 3448,
      "trad": 3449,
      "understood": 3450,
      "key": 3451,
      "kept": 3452,
      "tested": 3453,
      "achie": 3454,
      "##for": 3455,
      "##w3": 3456,
      "sup": 3457,
      "##een": 3458,
      "dealing": 3459,
      "disorder": 3460,
      "multiple": 3461,
      "den": 3462,
      "dun": 3463,
      "##iny": 3464,
      "videos": 3465,
      "##ience": 3466,
      "##ka": 3467,
      "associ": 3468,
      "shop": 3469,
      "##agn": 3470,
      "context": 3471,
      "ridiculous": 3472,
      "force": 3473,
      "##ived": 3474,
      "##ishing": 3475,
      "##w7": 3476,
      "input": 3477,
      "hehe": 3478,
      "sensing": 3479,
      "author": 3480,
      "ult": 3481,
      "reject": 3482,
      "door": 3483,
      "ready": 3484,
      "join": 3485,
      "mass": 3486,
      "wild": 3487,
      "master": 3488,
      "anyways": 3489,
      "surround": 3490,
      "various": 3491,
      "circum": 3492,
      "##eren": 3493,
      "liber": 3494,
      "plenty": 3495,
      "struggle": 3496,
      "further": 3497,
      "##cer": 3498,
      "yours": 3499,
      "minded": 3500,
      "##ggs": 3501,
      "humans": 3502,
      "earlier": 3503,
      "port": 3504,
      "user": 3505,
      "plans": 3506,
      "forever": 3507,
      "piece": 3508,
      "impossible": 3509,
      "mut": 3510,
      "##eps": 3511,
      "##erely": 3512,
      "selfish": 3513,
      "strongly": 3514,
      "bott": 3515,
      "cats": 3516,
      "ris": 3517,
      "##elf": 3518,
      "stressed": 3519,
      "popular": 3520,
      "birthday": 3521,
      "##urity": 3522,
      "procra": 3523,
      "differences": 3524,
      "team": 3525,
      "valid": 3526,
      "procrast": 3527,
      "core": 3528,
      "##ton": 3529,
      "##com": 3530,
      "nearly": 3531,
      "reminds": 3532,
      "13": 3533,
      "rad": 3534,
      "##mate": 3535,
      "tells": 3536,
      "preference": 3537,
      "entert": 3538,
      "favourite": 3539,
      "200": 3540,
      "ge": 3541,
      "ive": 3542,
      "##get": 3543,
      "##ppy": 3544,
      "keeping": 3545,
      "total": 3546,
      "##aaaa": 3547,
      "creep": 3548,
      "ten": 3549,
      "##uff": 3550,
      "jobs": 3551,
      "beyond": 3552,
      "jack": 3553,
      "ner": 3554,
      "ut": 3555,
      "wit": 3556,
      "pred": 3557,
      "##ortun": 3558,
      "explan": 3559,
      "##ternal": 3560,
      "taste": 3561,
      "lonely": 3562,
      "idi": 3563,
      "news": 3564,
      "annoyed": 3565,
      "protect": 3566,
      "kiss": 3567,
      "product": 3568,
      "offer": 3569,
      "signific": 3570,
      "grew": 3571,
      "analys": 3572,
      "independ": 3573,
      "lyr": 3574,
      "therefore": 3575,
      "acting": 3576,
      "universe": 3577,
      "rule": 3578,
      "american": 3579,
      "circumst": 3580,
      "##ains": 3581,
      "div": 3582,
      "blood": 3583,
      "socially": 3584,
      "flow": 3585,
      "opportun": 3586,
      "google": 3587,
      "##ison": 3588,
      "##ask": 3589,
      "extreme": 3590,
      "compliment": 3591,
      "bul": 3592,
      "happiness": 3593,
      "enjoyed": 3594,
      "culture": 3595,
      "dance": 3596,
      "webs": 3597,
      "ast": 3598,
      "##rr": 3599,
      "fake": 3600,
      "dire": 3601,
      "flaw": 3602,
      "memory": 3603,
      "concer": 3604,
      "extraverted": 3605,
      "cha": 3606,
      "jokes": 3607,
      "##ibility": 3608,
      "exerc": 3609,
      "##aint": 3610,
      "ground": 3611,
      "grade": 3612,
      "attach": 3613,
      "cross": 3614,
      "helping": 3615,
      "mel": 3616,
      "sj": 3617,
      "##light": 3618,
      "##10": 3619,
      "users": 3620,
      "pretend": 3621,
      "views": 3622,
      "tear": 3623,
      "##fp": 3624,
      "##ooo": 3625,
      "##istics": 3626,
      "practical": 3627,
      "including": 3628,
      "epis": 3629,
      "conclusion": 3630,
      "narc": 3631,
      "##ges": 3632,
      "##ann": 3633,
      "##kend": 3634,
      "neut": 3635,
      "##ograph": 3636,
      "##ground": 3637,
      "becoming": 3638,
      "iphone": 3639,
      "##ued": 3640,
      "loving": 3641,
      "reaction": 3642,
      "25": 3643,
      "eth": 3644,
      "##ox": 3645,
      "##den": 3646,
      "##93": 3647,
      "ali": 3648,
      "shad": 3649,
      "##raction": 3650,
      "brought": 3651,
      "physically": 3652,
      "eh": 3653,
      "sal": 3654,
      "##whel": 3655,
      "article": 3656,
      "gay": 3657,
      "##nch": 3658,
      "manage": 3659,
      "ourselves": 3660,
      "familiar": 3661,
      "repres": 3662,
      "freak": 3663,
      "anime": 3664,
      "##orate": 3665,
      "adult": 3666,
      "commit": 3667,
      "hmmm": 3668,
      "focused": 3669,
      "besides": 3670,
      "##xp": 3671,
      "##orrow": 3672,
      "click": 3673,
      "weekend": 3674,
      "satisf": 3675,
      "drugs": 3676,
      "jour": 3677,
      "mr": 3678,
      "##my": 3679,
      "abst": 3680,
      "basic": 3681,
      "tomorrow": 3682,
      "waste": 3683,
      "elect": 3684,
      "land": 3685,
      "contr": 3686,
      "ment": 3687,
      "##ulation": 3688,
      "regardless": 3689,
      "##igh": 3690,
      "##yal": 3691,
      "overwhel": 3692,
      "role": 3693,
      "finished": 3694,
      "private": 3695,
      "therap": 3696,
      "aud": 3697,
      "content": 3698,
      "moments": 3699,
      "initi": 3700,
      "##dy": 3701,
      "flir": 3702,
      "unique": 3703,
      "isfjs": 3704,
      "iq": 3705,
      "wise": 3706,
      "##ina": 3707,
      "clothes": 3708,
      "pan": 3709,
      "##by": 3710,
      "suspect": 3711,
      "tendency": 3712,
      "behaviour": 3713,
      "king": 3714,
      "##anced": 3715,
      "amb": 3716,
      "mature": 3717,
      "stopped": 3718,
      "groups": 3719,
      "##cohol": 3720,
      "mou": 3721,
      "loyal": 3722,
      "twice": 3723,
      "facts": 3724,
      "student": 3725,
      "continue": 3726,
      "agreed": 3727,
      "17": 3728,
      "thus": 3729,
      "##alous": 3730,
      "alcohol": 3731,
      "##opath": 3732,
      "##rage": 3733,
      "gotta": 3734,
      "hopefully": 3735,
      "skin": 3736,
      "planning": 3737,
      "doctor": 3738,
      "bare": 3739,
      "stereotypes": 3740,
      "daily": 3741,
      "guilty": 3742,
      "neutral": 3743,
      "ban": 3744,
      "lay": 3745,
      "rol": 3746,
      "##elling": 3747,
      "evidence": 3748,
      "regarding": 3749,
      "beliefs": 3750,
      "##ug": 3751,
      "##ym": 3752,
      "depth": 3753,
      "stereotype": 3754,
      "categ": 3755,
      "mill": 3756,
      "whom": 3757,
      "changes": 3758,
      "broke": 3759,
      "weren": 3760,
      "##amm": 3761,
      "##ians": 3762,
      "animal": 3763,
      "ultim": 3764,
      "##bers": 3765,
      "##aries": 3766,
      "##usive": 3767,
      "##osity": 3768,
      "film": 3769,
      "paper": 3770,
      "arrog": 3771,
      "define": 3772,
      "marri": 3773,
      "deeply": 3774,
      "impression": 3775,
      "##ores": 3776,
      "##icks": 3777,
      "necessary": 3778,
      "introdu": 3779,
      "gift": 3780,
      "opt": 3781,
      "##ef": 3782,
      "##iant": 3783,
      "##ker": 3784,
      "##edom": 3785,
      "##urn": 3786,
      "##une": 3787,
      "disapp": 3788,
      "hide": 3789,
      "hung": 3790,
      "##ior": 3791,
      "##iven": 3792,
      "lady": 3793,
      "##lies": 3794,
      "goals": 3795,
      "switch": 3796,
      "excell": 3797,
      "empathy": 3798,
      "##pping": 3799,
      "idk": 3800,
      "setting": 3801,
      "turns": 3802,
      "suddenly": 3803,
      "40": 3804,
      "squ": 3805,
      "##mas": 3806,
      "third": 3807,
      "tor": 3808,
      "everyday": 3809,
      "overall": 3810,
      "gain": 3811,
      "mir": 3812,
      "nah": 3813,
      "option": 3814,
      "faith": 3815,
      "##ague": 3816,
      "##ogy": 3817,
      "recent": 3818,
      "road": 3819,
      "calling": 3820,
      "trait": 3821,
      "advent": 3822,
      "glass": 3823,
      "possibility": 3824,
      "visual": 3825,
      "narciss": 3826,
      "upd": 3827,
      "hasn": 3828,
      "apply": 3829,
      "accom": 3830,
      "estps": 3831,
      "interpret": 3832,
      "bill": 3833,
      "vol": 3834,
      "##cis": 3835,
      "diagn": 3836,
      "internal": 3837,
      "ahead": 3838,
      "prep": 3839,
      "lines": 3840,
      "alb": 3841,
      "intent": 3842,
      "chill": 3843,
      "invest": 3844,
      "interaction": 3845,
      "jealous": 3846,
      "mic": 3847,
      "net": 3848,
      "##time": 3849,
      "weight": 3850,
      "##ural": 3851,
      "changing": 3852,
      "wo": 3853,
      "moon": 3854,
      "##cies": 3855,
      "snow": 3856,
      "circumstances": 3857,
      "mouth": 3858,
      "marriage": 3859,
      "coo": 3860,
      "hated": 3861,
      "pun": 3862,
      "yay": 3863,
      "kinds": 3864,
      "smell": 3865,
      "happening": 3866,
      "minute": 3867,
      "physics": 3868,
      "subjective": 3869,
      "hoping": 3870,
      "21": 3871,
      "dar": 3872,
      "##ament": 3873,
      "activ": 3874,
      "town": 3875,
      "mach": 3876,
      "anybody": 3877,
      "safe": 3878,
      "acqu": 3879,
      "strang": 3880,
      "scary": 3881,
      "keeps": 3882,
      "cover": 3883,
      "##ploy": 3884,
      "hm": 3885,
      "##iver": 3886,
      "##omb": 3887,
      "smil": 3888,
      "attitude": 3889,
      "drawing": 3890,
      "verb": 3891,
      "lyrics": 3892,
      "na": 3893,
      "##edia": 3894,
      "perform": 3895,
      "contrib": 3896,
      "arguments": 3897,
      "caught": 3898,
      "fash": 3899,
      "gut": 3900,
      "nerv": 3901,
      "forced": 3902,
      "##amed": 3903,
      "prove": 3904,
      "active": 3905,
      "wake": 3906,
      "require": 3907,
      "rude": 3908,
      "inn": 3909,
      "##entially": 3910,
      "crow": 3911,
      "medic": 3912,
      "dunno": 3913,
      "analysis": 3914,
      "equ": 3915,
      "##ana": 3916,
      "##asing": 3917,
      "altern": 3918,
      "personalities": 3919,
      "indic": 3920,
      "freedom": 3921,
      "data": 3922,
      "7w6": 3923,
      "ble": 3924,
      "##w9": 3925,
      "habit": 3926,
      "store": 3927,
      "##chan": 3928,
      "anywhere": 3929,
      "showing": 3930,
      "correl": 3931,
      "created": 3932,
      "sleeping": 3933,
      "missed": 3934,
      "aggressive": 3935,
      "##iveness": 3936,
      "24": 3937,
      "numb": 3938,
      "##vent": 3939,
      "rev": 3940,
      "overly": 3941,
      "track": 3942,
      "examples": 3943,
      "distance": 3944,
      "introversion": 3945,
      "political": 3946,
      "abstract": 3947,
      "excellent": 3948,
      "90": 3949,
      "rant": 3950,
      "ugh": 3951,
      "yup": 3952,
      "##miss": 3953,
      "arch": 3954,
      "nervous": 3955,
      "budd": 3956,
      "obl": 3957,
      "gradu": 3958,
      "##ray": 3959,
      "##eness": 3960,
      "extent": 3961,
      "irrit": 3962,
      "cow": 3963,
      "ger": 3964,
      "gather": 3965,
      "uh": 3966,
      "##aks": 3967,
      "##ki": 3968,
      "metal": 3969,
      "six": 3970,
      "excuse": 3971,
      "extroverts": 3972,
      "bullsh": 3973,
      "occasionally": 3974,
      "bound": 3975,
      "dogs": 3976,
      "starts": 3977,
      "sensors": 3978,
      "regret": 3979,
      "hanging": 3980,
      "becomes": 3981,
      "separ": 3982,
      "bear": 3983,
      "relative": 3984,
      "assuming": 3985,
      "mistake": 3986,
      "affection": 3987,
      "fashion": 3988,
      "din": 3989,
      "rout": 3990,
      "awful": 3991,
      "leaving": 3992,
      "drinking": 3993,
      "practice": 3994,
      "embarr": 3995,
      "esfjs": 3996,
      "serv": 3997,
      "##olate": 3998,
      "uses": 3999,
      "compared": 4000,
      "missing": 4001,
      "challenge": 4002,
      "scenar": 4003,
      "vent": 4004,
      "##sp": 4005,
      "##dream": 4006,
      "topics": 4007,
      "distract": 4008,
      "obsessed": 4009,
      "80": 4010,
      "##istry": 4011,
      "bullshit": 4012,
      "fiction": 4013,
      "mum": 4014,
      "tool": 4015,
      "curiosity": 4016,
      "directly": 4017,
      "album": 4018,
      "cam": 4019,
      "maint": 4020,
      "span": 4021,
      "huh": 4022,
      "equal": 4023,
      "achieve": 4024,
      "breat": 4025,
      "hers": 4026,
      "##te": 4027,
      "##ushing": 4028,
      "sinc": 4029,
      "inspir": 4030,
      "improve": 4031,
      "embarrass": 4032,
      "cand": 4033,
      "jap": 4034,
      "pair": 4035,
      "wing": 4036,
      "##ront": 4037,
      "##key": 4038,
      "enth": 4039,
      "progress": 4040,
      "cele": 4041,
      "4w5": 4042,
      "um": 4043,
      "##aling": 4044,
      "##anch": 4045,
      "gold": 4046,
      "##itted": 4047,
      "reflect": 4048,
      "##load": 4049,
      "japan": 4050,
      "kick": 4051,
      "##ium": 4052,
      "tends": 4053,
      "motivation": 4054,
      "##son": 4055,
      "##itional": 4056,
      "onto": 4057,
      "##ift": 4058,
      "members": 4059,
      "communicate": 4060,
      "immediately": 4061,
      "lying": 4062,
      "##urb": 4063,
      "offended": 4064,
      "judg": 4065,
      "##going": 4066,
      "fantasy": 4067,
      "website": 4068,
      "ego": 4069,
      "parties": 4070,
      "letting": 4071,
      "basis": 4072,
      "esc": 4073,
      "addict": 4074,
      "expression": 4075,
      "fat": 4076,
      "##icient": 4077,
      "lif": 4078,
      "complic": 4079,
      "office": 4080,
      "awh": 4081,
      "artist": 4082,
      "cafe": 4083,
      "##ners": 4084,
      "##wor": 4085,
      "info": 4086,
      "screw": 4087,
      "french": 4088,
      "drawn": 4089,
      "combination": 4090,
      "balance": 4091,
      "briggs": 4092,
      "dancing": 4093,
      "ser": 4094,
      "##ds": 4095,
      "##inate": 4096,
      "harder": 4097,
      "##aph": 4098,
      "surv": 4099,
      "community": 4100,
      "primary": 4101,
      "concerned": 4102,
      "wearing": 4103,
      "hardly": 4104,
      "##play": 4105,
      "breaking": 4106,
      "board": 4107,
      "professional": 4108,
      "masc": 4109,
      "##irm": 4110,
      "choc": 4111,
      "fresh": 4112,
      "cost": 4113,
      "events": 4114,
      "imagination": 4115,
      "beauty": 4116,
      "lucky": 4117,
      "tonight": 4118,
      "##14": 4119,
      "chick": 4120,
      "gover": 4121,
      "flo": 4122,
      "trip": 4123,
      "sexy": 4124,
      "christmas": 4125,
      "vibe": 4126,
      "criticism": 4127,
      "fol": 4128,
      "ps": 4129,
      "##fj": 4130,
      "##ron": 4131,
      "external": 4132,
      "everywhere": 4133,
      "background": 4134,
      "collect": 4135,
      "controll": 4136,
      "objective": 4137,
      "rap": 4138,
      "##xual": 4139,
      "cho": 4140,
      "##olic": 4141,
      "lovely": 4142,
      "hahahaha": 4143,
      "development": 4144,
      "possibilities": 4145,
      "organized": 4146,
      "ice": 4147,
      "##etry": 4148,
      "feeler": 4149,
      "minor": 4150,
      "##hole": 4151,
      "aux": 4152,
      "ba": 4153,
      "mer": 4154,
      "struct": 4155,
      "differently": 4156,
      "nut": 4157,
      "myers": 4158,
      "##rif": 4159,
      "##urch": 4160,
      "guitar": 4161,
      "imo": 4162,
      "blunt": 4163,
      "strateg": 4164,
      "spending": 4165,
      "significant": 4166,
      "optim": 4167,
      "##erson": 4168,
      "load": 4169,
      "drama": 4170,
      "sigh": 4171,
      "broken": 4172,
      "celebr": 4173,
      "60": 4174,
      "##zing": 4175,
      "theories": 4176,
      "##omy": 4177,
      "mechan": 4178,
      "losing": 4179,
      "holy": 4180,
      "occur": 4181,
      "qualities": 4182,
      "limited": 4183,
      "##ropri": 4184,
      "foot": 4185,
      "pink": 4186,
      "reb": 4187,
      "aside": 4188,
      "sake": 4189,
      "flirt": 4190,
      "materi": 4191,
      "females": 4192,
      "existence": 4193,
      "mode": 4194,
      "replies": 4195,
      "explanation": 4196,
      "nar": 4197,
      "toler": 4198,
      "ine": 4199,
      "intention": 4200,
      "fault": 4201,
      "##izz": 4202,
      "lets": 4203,
      "frustrated": 4204,
      "closer": 4205,
      "exercise": 4206,
      "22": 4207,
      "cy": 4208,
      "vul": 4209,
      "##icip": 4210,
      "phr": 4211,
      "confusing": 4212,
      "decent": 4213,
      "kidding": 4214,
      "expected": 4215,
      "flirting": 4216,
      "awhile": 4217,
      "manner": 4218,
      "exper": 4219,
      "##ival": 4220,
      "raised": 4221,
      "intimid": 4222,
      "accompl": 4223,
      "mur": 4224,
      "##hips": 4225,
      "##ingly": 4226,
      "##ares": 4227,
      "##oted": 4228,
      "usern": 4229,
      "insult": 4230,
      "expectations": 4231,
      "teachers": 4232,
      "german": 4233,
      "wis": 4234,
      "delet": 4235,
      "passive": 4236,
      "weakness": 4237,
      "feminine": 4238,
      "base": 4239,
      "##dom": 4240,
      "daydream": 4241,
      "reasoning": 4242,
      "swear": 4243,
      "genuinely": 4244,
      "frequently": 4245,
      "education": 4246,
      "via": 4247,
      "meas": 4248,
      "thinker": 4249,
      "church": 4250,
      "novel": 4251,
      "constant": 4252,
      "9w1": 4253,
      "barely": 4254,
      "son": 4255,
      "##itary": 4256,
      "##icious": 4257,
      "crack": 4258,
      "slowly": 4259,
      "discovered": 4260,
      "encou": 4261,
      "fing": 4262,
      "##now": 4263,
      "##fl": 4264,
      "##iff": 4265,
      "##anted": 4266,
      "##olute": 4267,
      "useless": 4268,
      "falling": 4269,
      "individuals": 4270,
      "apologize": 4271,
      "strangers": 4272,
      "lord": 4273,
      "pages": 4274,
      "##sed": 4275,
      "ish": 4276,
      "##ases": 4277,
      "trity": 4278,
      "##ously": 4279,
      "fell": 4280,
      "rough": 4281,
      "rich": 4282,
      "und": 4283,
      "##ech": 4284,
      "##cle": 4285,
      "##orable": 4286,
      "##icking": 4287,
      "libr": 4288,
      "##rig": 4289,
      "design": 4290,
      "throughout": 4291,
      "hearing": 4292,
      "mistyp": 4293,
      "fantastic": 4294,
      "danger": 4295,
      "##ceed": 4296,
      "worried": 4297,
      "table": 4298,
      "perception": 4299,
      "media": 4300,
      "sna": 4301,
      "##iday": 4302,
      "sentence": 4303,
      "bothered": 4304,
      "capable": 4305,
      "patterns": 4306,
      "username": 4307,
      "dyn": 4308,
      "gam": 4309,
      "confess": 4310,
      "sarcasm": 4311,
      "spiritual": 4312,
      "fascinating": 4313,
      "##eng": 4314,
      "relevant": 4315,
      "scored": 4316,
      "surf": 4317,
      "sky": 4318,
      "exists": 4319,
      "casual": 4320,
      "direction": 4321,
      "bright": 4322,
      "nail": 4323,
      "##eem": 4324,
      "letters": 4325,
      "##olution": 4326,
      "heavy": 4327,
      "tm": 4328,
      "##inary": 4329,
      "##arian": 4330,
      "##iments": 4331,
      "trick": 4332,
      "blind": 4333,
      "matters": 4334,
      "jer": 4335,
      "nts": 4336,
      "sam": 4337,
      "lies": 4338,
      "joking": 4339,
      "absolute": 4340,
      "solution": 4341,
      "source": 4342,
      "chemistry": 4343,
      "creepy": 4344,
      "chose": 4345,
      "##usi": 4346,
      "carry": 4347,
      "immature": 4348,
      "dynam": 4349,
      "fool": 4350,
      "pin": 4351,
      "##ga": 4352,
      "elab": 4353,
      "##onscious": 4354,
      "prior": 4355,
      "govern": 4356,
      "bag": 4357,
      "##encies": 4358,
      "##ume": 4359,
      "##ager": 4360,
      "assert": 4361,
      "perfection": 4362,
      "harry": 4363,
      "autom": 4364,
      "pissed": 4365,
      "chocolate": 4366,
      "voc": 4367,
      "##ja": 4368,
      "##inc": 4369,
      "shot": 4370,
      "weed": 4371,
      "trump": 4372,
      "usual": 4373,
      "quit": 4374,
      "genius": 4375,
      "ends": 4376,
      "america": 4377,
      "disappoint": 4378,
      "##cd": 4379,
      "##oring": 4380,
      "email": 4381,
      "employ": 4382,
      "##gging": 4383,
      "instance": 4384,
      "drag": 4385,
      "deeper": 4386,
      "##oooooooo": 4387,
      "meh": 4388,
      "loop": 4389,
      "picked": 4390,
      "aspects": 4391,
      "element": 4392,
      "mascul": 4393,
      "70": 4394,
      "batt": 4395,
      "xn": 4396,
      "##ilt": 4397,
      "##roc": 4398,
      "include": 4399,
      "allowed": 4400,
      "material": 4401,
      "lon": 4402,
      "vill": 4403,
      "##ems": 4404,
      "##000": 4405,
      "asshole": 4406,
      "cares": 4407,
      "classic": 4408,
      "mistakes": 4409,
      "anti": 4410,
      "passionate": 4411,
      "herself": 4412,
      "cred": 4413,
      "##94": 4414,
      "stated": 4415,
      "letter": 4416,
      "daught": 4417,
      "##gu": 4418,
      "##ening": 4419,
      "border": 4420,
      "south": 4421,
      "enthusi": 4422,
      "taught": 4423,
      "##tt": 4424,
      "##ik": 4425,
      "bold": 4426,
      "street": 4427,
      "##uls": 4428,
      "attraction": 4429,
      "cru": 4430,
      "accident": 4431,
      "transl": 4432,
      "building": 4433,
      "insecure": 4434,
      "atheist": 4435,
      "engineering": 4436,
      "lat": 4437,
      "scream": 4438,
      "smoke": 4439,
      "provide": 4440,
      "superior": 4441,
      "shadow": 4442,
      "card": 4443,
      "hall": 4444,
      "nur": 4445,
      "tert": 4446,
      "west": 4447,
      "##apt": 4448,
      "toward": 4449,
      "##omp": 4450,
      "##ops": 4451,
      "speech": 4452,
      "block": 4453,
      "brown": 4454,
      "honesty": 4455,
      "##ification": 4456,
      "contrad": 4457,
      "econ": 4458,
      "joy": 4459,
      "zone": 4460,
      "##fill": 4461,
      "stim": 4462,
      "stare": 4463,
      "##rol": 4464,
      "##hhh": 4465,
      "referring": 4466,
      "recognize": 4467,
      "risk": 4468,
      "complicated": 4469,
      "camp": 4470,
      "code": 4471,
      "vague": 4472,
      "unf": 4473,
      "empt": 4474,
      "speed": 4475,
      "minds": 4476,
      "paran": 4477,
      "surprise": 4478,
      "destro": 4479,
      "scientific": 4480,
      "mentally": 4481,
      "mate": 4482,
      "vict": 4483,
      "##12": 4484,
      "##aly": 4485,
      "butter": 4486,
      "friendships": 4487,
      "standards": 4488,
      "medit": 4489,
      "levels": 4490,
      "activities": 4491,
      "##ropriate": 4492,
      "jes": 4493,
      "names": 4494,
      "sand": 4495,
      "states": 4496,
      "blame": 4497,
      "below": 4498,
      "irl": 4499,
      "surprising": 4500,
      "anxious": 4501,
      "##mao": 4502,
      "accomplish": 4503,
      "bat": 4504,
      "park": 4505,
      "##matic": 4506,
      "alive": 4507,
      "shoot": 4508,
      "subt": 4509,
      "reserved": 4510,
      "oper": 4511,
      "brill": 4512,
      "record": 4513,
      "colour": 4514,
      "sensor": 4515,
      "hurts": 4516,
      "counter": 4517,
      "independent": 4518,
      "6w5": 4519,
      "bird": 4520,
      "hat": 4521,
      "sides": 4522,
      "tho": 4523,
      "train": 4524,
      "sett": 4525,
      "romance": 4526,
      "admire": 4527,
      "complain": 4528,
      "convinced": 4529,
      "gh": 4530,
      "vir": 4531,
      "##old": 4532,
      "##rom": 4533,
      "intrig": 4534,
      "comed": 4535,
      "poll": 4536,
      "died": 4537,
      "blog": 4538,
      "painting": 4539,
      "sarcastic": 4540,
      "1w2": 4541,
      "##bl": 4542,
      "heh": 4543,
      "##cles": 4544,
      "advant": 4545,
      "explained": 4546,
      "concern": 4547,
      "pressure": 4548,
      "5w4": 4549,
      "cous": 4550,
      "liking": 4551,
      "##che": 4552,
      "frank": 4553,
      "leader": 4554,
      "subjects": 4555,
      "esteem": 4556,
      "return": 4557,
      "failed": 4558,
      "acquaint": 4559,
      "dinner": 4560,
      "service": 4561,
      "vulner": 4562,
      "der": 4563,
      "section": 4564,
      "unlike": 4565,
      "##anding": 4566,
      "##aging": 4567,
      "confront": 4568,
      "member": 4569,
      "nfs": 4570,
      "photos": 4571,
      "5w6": 4572,
      "bought": 4573,
      "pill": 4574,
      "excl": 4575,
      "deserve": 4576,
      "scene": 4577,
      "guessing": 4578,
      "address": 4579,
      "appreciated": 4580,
      "stressful": 4581,
      "broad": 4582,
      "wik": 4583,
      "feedback": 4584,
      "4w3": 4585,
      "gent": 4586,
      "##gar": 4587,
      "##50": 4588,
      "stage": 4589,
      "shirt": 4590,
      "capt": 4591,
      "languages": 4592,
      "misunderstood": 4593,
      "ack": 4594,
      "males": 4595,
      "ran": 4596,
      "##dra": 4597,
      "emo": 4598,
      "answered": 4599,
      "holding": 4600,
      "##rupt": 4601,
      "represent": 4602,
      "23": 4603,
      "lmao": 4604,
      "vote": 4605,
      "##ule": 4606,
      "##bed": 4607,
      "##ero": 4608,
      "sched": 4609,
      "critical": 4610,
      "local": 4611,
      "tritype": 4612,
      "till": 4613,
      "pride": 4614,
      "greatest": 4615,
      "explaining": 4616,
      "expressing": 4617,
      "shared": 4618,
      "memories": 4619,
      "roommate": 4620,
      "model": 4621,
      "arrogant": 4622,
      "cos": 4623,
      "du": 4624,
      "hes": 4625,
      "lower": 4626,
      "##egr": 4627,
      "##nal": 4628,
      "##iable": 4629,
      "##ris": 4630,
      "suic": 4631,
      "circle": 4632,
      "opportunity": 4633,
      "3w2": 4634,
      "##point": 4635,
      "outgoing": 4636,
      "manif": 4637,
      "metaph": 4638,
      "gun": 4639,
      "nin": 4640,
      "feet": 4641,
      "scr": 4642,
      "solve": 4643,
      "oriented": 4644,
      "visit": 4645,
      "photo": 4646,
      "analyze": 4647,
      "irrational": 4648,
      "label": 4649,
      "manifest": 4650,
      "fal": 4651,
      "##tical": 4652,
      "threat": 4653,
      "##ened": 4654,
      "shame": 4655,
      "activity": 4656,
      "belong": 4657,
      "pointless": 4658,
      "paint": 4659,
      "paying": 4660,
      "eur": 4661,
      "##inting": 4662,
      "##ustom": 4663,
      "stubb": 4664,
      "questionna": 4665,
      "regul": 4666,
      "percent": 4667,
      "originally": 4668,
      "perceive": 4669,
      "tmlt": 4670,
      "cast": 4671,
      "pm": 4672,
      "tb": 4673,
      "##gy": 4674,
      "adapt": 4675,
      "scale": 4676,
      "cheese": 4677,
      "forgive": 4678,
      "ded": 4679,
      "hars": 4680,
      "ow": 4681,
      "exha": 4682,
      "##aged": 4683,
      "tex": 4684,
      "badly": 4685,
      "insane": 4686,
      "arguing": 4687,
      "teaching": 4688,
      "solid": 4689,
      "powerful": 4690,
      "exhaust": 4691,
      "27": 4692,
      "tries": 4693,
      "politics": 4694,
      "daughter": 4695,
      "ske": 4696,
      "##por": 4697,
      "##wr": 4698,
      "##atically": 4699,
      "gramm": 4700,
      "awww": 4701,
      "calcul": 4702,
      "mixed": 4703,
      "lur": 4704,
      "wood": 4705,
      "peoples": 4706,
      "enjoying": 4707,
      "arts": 4708,
      "gifts": 4709,
      "cases": 4710,
      "leaning": 4711,
      "7w": 4712,
      "dick": 4713,
      "sig": 4714,
      "##aur": 4715,
      "##13": 4716,
      "##leg": 4717,
      "##adem": 4718,
      "doc": 4719,
      "blow": 4720,
      "careful": 4721,
      "signs": 4722,
      "leaders": 4723,
      "reference": 4724,
      "##leyes": 4725,
      "fict": 4726,
      "mi": 4727,
      "pian": 4728,
      "##here": 4729,
      "acts": 4730,
      "stereotypical": 4731,
      "hyper": 4732,
      "update": 4733,
      "numbers": 4734,
      "ted": 4735,
      "##orge": 4736,
      "loss": 4737,
      "poetry": 4738,
      "unp": 4739,
      "instrum": 4740,
      "laid": 4741,
      "humanity": 4742,
      "rolleyes": 4743,
      "crowd": 4744,
      "bump": 4745,
      "ram": 4746,
      "round": 4747,
      "adorable": 4748,
      "academ": 4749,
      "##ension": 4750,
      "doms": 4751,
      "creativity": 4752,
      "perceiving": 4753,
      "modern": 4754,
      "episode": 4755,
      "harsh": 4756,
      "fly": 4757,
      "van": 4758,
      "wide": 4759,
      "##itives": 4760,
      "asks": 4761,
      "realise": 4762,
      "calls": 4763,
      "regular": 4764,
      "drives": 4765,
      "sadly": 4766,
      "creating": 4767,
      "construct": 4768,
      "patience": 4769,
      "burn": 4770,
      "diagnosed": 4771,
      "options": 4772,
      "pra": 4773,
      "wand": 4774,
      "##iary": 4775,
      "asleep": 4776,
      "talks": 4777,
      "bigger": 4778,
      "heads": 4779,
      "hobbies": 4780,
      "entertain": 4781,
      "elaborate": 4782,
      "europe": 4783,
      "sle": 4784,
      "tick": 4785,
      "##xic": 4786,
      "##16": 4787,
      "##ada": 4788,
      "didnt": 4789,
      "insp": 4790,
      "sorts": 4791,
      "staying": 4792,
      "accepted": 4793,
      "killing": 4794,
      "9w8": 4795,
      "jesus": 4796,
      "acknow": 4797,
      "stubborn": 4798,
      "gri": 4799,
      "mount": 4800,
      "nick": 4801,
      "task": 4802,
      "##lock": 4803,
      "withdra": 4804,
      "compat": 4805,
      "writer": 4806,
      "colors": 4807,
      "##ologist": 4808,
      "stronger": 4809,
      "fulfill": 4810,
      "symb": 4811,
      "trend": 4812,
      "properly": 4813,
      "mutual": 4814,
      "library": 4815,
      "hid": 4816,
      "size": 4817,
      "hero": 4818,
      "prone": 4819,
      "stranger": 4820,
      "brings": 4821,
      "marry": 4822,
      "final": 4823,
      "report": 4824,
      "seconds": 4825,
      "discussing": 4826,
      "illness": 4827,
      "influence": 4828,
      "7w8": 4829,
      "fictional": 4830,
      "pack": 4831,
      "xnt": 4832,
      "##ex": 4833,
      "##ision": 4834,
      "stack": 4835,
      "##ils": 4836,
      "shoes": 4837,
      "ending": 4838,
      "students": 4839,
      "wont": 4840,
      "driven": 4841,
      "vision": 4842,
      "systems": 4843,
      "fighting": 4844,
      "limit": 4845,
      "##74": 4846,
      "suit": 4847,
      "compare": 4848,
      "dram": 4849,
      "answering": 4850,
      "signature": 4851,
      "potter": 4852,
      "##yyyy": 4853,
      "managed": 4854,
      "predict": 4855,
      "##ography": 4856,
      "government": 4857,
      "cried": 4858,
      "ride": 4859,
      "range": 4860,
      "rub": 4861,
      "sees": 4862,
      "arm": 4863,
      "resour": 4864,
      "flu": 4865,
      "charming": 4866,
      "##ailable": 4867,
      "followed": 4868,
      "singing": 4869,
      "##ribly": 4870,
      "successful": 4871,
      "bottom": 4872,
      "advantage": 4873,
      "mellow": 4874,
      "##just": 4875,
      "##imate": 4876,
      "areas": 4877,
      "##uses": 4878,
      "quir": 4879,
      "particip": 4880,
      "blank": 4881,
      "silence": 4882,
      "interactions": 4883,
      "tertiary": 4884,
      "wikip": 4885,
      "tbh": 4886,
      "mart": 4887,
      "##tf": 4888,
      "##hd": 4889,
      "##cend": 4890,
      "atm": 4891,
      "##elled": 4892,
      "unre": 4893,
      "dish": 4894,
      "aww": 4895,
      "engage": 4896,
      "population": 4897,
      "attached": 4898,
      "masculine": 4899,
      "empty": 4900,
      "brilliant": 4901,
      "wikipedia": 4902,
      "ug": 4903,
      "##sequ": 4904,
      "mast": 4905,
      "feelers": 4906,
      "##others": 4907,
      "artistic": 4908,
      "mistyped": 4909,
      "dying": 4910,
      "fish": 4911,
      "vac": 4912,
      "thor": 4913,
      "##inter": 4914,
      "compass": 4915,
      "spont": 4916,
      "incre": 4917,
      "psychological": 4918,
      "warning": 4919,
      "magic": 4920,
      "tears": 4921,
      "scenario": 4922,
      "3w4": 4923,
      "mal": 4924,
      "##78": 4925,
      "##vey": 4926,
      "##cks": 4927,
      "seeking": 4928,
      "tact": 4929,
      "proof": 4930,
      "trigg": 4931,
      "reminded": 4932,
      "causes": 4933,
      "manipulative": 4934,
      "appearance": 4935,
      "quotes": 4936,
      "alternative": 4937,
      "##ength": 4938,
      "piano": 4939,
      "custom": 4940,
      "gar": 4941,
      "hip": 4942,
      "##bert": 4943,
      "cup": 4944,
      "opposed": 4945,
      "graph": 4946,
      "pleasure": 4947,
      "princi": 4948,
      "congrat": 4949,
      "sincerely": 4950,
      "folks": 4951,
      "false": 4952,
      "45": 4953,
      "bf": 4954,
      "web": 4955,
      "weather": 4956,
      "produ": 4957,
      "cling": 4958,
      "adhd": 4959,
      "leads": 4960,
      "characteristics": 4961,
      "appears": 4962,
      "vari": 4963,
      "requires": 4964,
      "pieces": 4965,
      "military": 4966,
      "wisdom": 4967,
      "pc": 4968,
      "##mer": 4969,
      "##ici": 4970,
      "##pper": 4971,
      "##ement": 4972,
      "joined": 4973,
      "terrif": 4974,
      "planet": 4975,
      "##rete": 4976,
      "market": 4977,
      "bath": 4978,
      "doll": 4979,
      "grown": 4980,
      "extro": 4981,
      "recall": 4982,
      "factor": 4983,
      "superf": 4984,
      "obser": 4985,
      "million": 4986,
      "innoc": 4987,
      "gentle": 4988,
      "cyn": 4989,
      "##ai": 4990,
      "##cut": 4991,
      "rele": 4992,
      "disp": 4993,
      "##mental": 4994,
      "caused": 4995,
      "describes": 4996,
      "congrats": 4997,
      "idiot": 4998,
      "gym": 4999,
      "soooo": 5000,
      "tiny": 5001,
      "##mon": 5002,
      "##w1": 5003,
      "##99": 5004,
      "contem": 5005,
      "leaves": 5006,
      "plays": 5007,
      "##lied": 5008,
      "corner": 5009,
      "irre": 5010,
      "parag": 5011,
      "capital": 5012,
      "hun": 5013,
      "##mates": 5014,
      "##chool": 5015,
      "##think": 5016,
      "##ulations": 5017,
      "puts": 5018,
      "studies": 5019,
      "standing": 5020,
      "cake": 5021,
      "estjs": 5022,
      "winter": 5023,
      "filled": 5024,
      "fund": 5025,
      "ultimately": 5026,
      "pow": 5027,
      "##othing": 5028,
      "##imin": 5029,
      "heck": 5030,
      "hadn": 5031,
      "turning": 5032,
      "connected": 5033,
      "mirror": 5034,
      "cart": 5035,
      "gee": 5036,
      "##ov": 5037,
      "shape": 5038,
      "assess": 5039,
      "opening": 5040,
      "freaking": 5041,
      "grades": 5042,
      "status": 5043,
      "temperament": 5044,
      "benefit": 5045,
      "spontane": 5046,
      "tang": 5047,
      "##me": 5048,
      "##stal": 5049,
      "thinkers": 5050,
      "##aked": 5051,
      "exciting": 5052,
      "boys": 5053,
      "grey": 5054,
      "##ounter": 5055,
      "center": 5056,
      "searching": 5057,
      "repeat": 5058,
      "utter": 5059,
      "japanese": 5060,
      "sir": 5061,
      "tone": 5062,
      "yo": 5063,
      "notes": 5064,
      "scre": 5065,
      "remain": 5066,
      "bothers": 5067,
      "studied": 5068,
      "standard": 5069,
      "##hahahaha": 5070,
      "encounter": 5071,
      "spanish": 5072,
      "bond": 5073,
      "gig": 5074,
      "##oon": 5075,
      "##pes": 5076,
      "##rated": 5077,
      "reve": 5078,
      "fort": 5079,
      "##sey": 5080,
      "compar": 5081,
      "minim": 5082,
      "##board": 5083,
      "borderline": 5084,
      "cousin": 5085,
      "questionnaire": 5086,
      "6w7": 5087,
      "8w7": 5088,
      "bible": 5089,
      "##oe": 5090,
      "##uit": 5091,
      "##bles": 5092,
      "##xj": 5093,
      "##ji": 5094,
      "##atives": 5095,
      "butt": 5096,
      "sto": 5097,
      "orange": 5098,
      "max": 5099,
      "quiz": 5100,
      "clue": 5101,
      "realistic": 5102,
      "simpl": 5103,
      "wondered": 5104,
      "meaningful": 5105,
      "compliments": 5106,
      "correctly": 5107,
      "describing": 5108,
      "experiencing": 5109,
      "determine": 5110,
      "dut": 5111,
      "led": 5112,
      "porn": 5113,
      "tree": 5114,
      "##fy": 5115,
      "##ware": 5116,
      "hea": 5117,
      "##ury": 5118,
      "##ending": 5119,
      "smoking": 5120,
      "brief": 5121,
      "sympath": 5122,
      "mysteri": 5123,
      "cooking": 5124,
      "destroy": 5125,
      "ben": 5126,
      "ix": 5127,
      "merely": 5128,
      "punch": 5129,
      "rh": 5130,
      "virt": 5131,
      "##bits": 5132,
      "typology": 5133,
      "##gged": 5134,
      "painful": 5135,
      "concrete": 5136,
      "variety": 5137,
      "extroversion": 5138,
      "paragraph": 5139,
      "2w1": 5140,
      "hiding": 5141,
      "##pha": 5142,
      "##asp": 5143,
      "chea": 5144,
      "unk": 5145,
      "regards": 5146,
      "observation": 5147,
      "choices": 5148,
      "##ersonal": 5149,
      "experiment": 5150,
      "sher": 5151,
      "plot": 5152,
      "spl": 5153,
      "##odes": 5154,
      "flat": 5155,
      "tendencies": 5156,
      "training": 5157,
      "built": 5158,
      "passed": 5159,
      "iron": 5160,
      "former": 5161,
      "connections": 5162,
      "esfps": 5163,
      "morality": 5164,
      "race": 5165,
      "sight": 5166,
      "##nn": 5167,
      "##18": 5168,
      "##70": 5169,
      "forth": 5170,
      "lock": 5171,
      "##aster": 5172,
      "conserv": 5173,
      "subc": 5174,
      "detach": 5175,
      "distant": 5176,
      "mathem": 5177,
      "introspect": 5178,
      "picking": 5179,
      "strengths": 5180,
      "robot": 5181,
      "sib": 5182,
      "wed": 5183,
      "##inity": 5184,
      "button": 5185,
      "##iring": 5186,
      "poke": 5187,
      "expert": 5188,
      "spect": 5189,
      "explore": 5190,
      "famous": 5191,
      "buying": 5192,
      "angel": 5193,
      "expecting": 5194,
      "links": 5195,
      "responsible": 5196,
      "drug": 5197,
      "battle": 5198,
      "cudd": 5199,
      "dav": 5200,
      "hence": 5201,
      "##ipped": 5202,
      "##rees": 5203,
      "whose": 5204,
      "nowhere": 5205,
      "##ifying": 5206,
      "classical": 5207,
      "identity": 5208,
      "awareness": 5209,
      "initially": 5210,
      "analyzing": 5211,
      "separate": 5212,
      "murder": 5213,
      "disappointed": 5214,
      "##ield": 5215,
      "faces": 5216,
      "agn": 5217,
      "musical": 5218,
      "explains": 5219,
      "relatively": 5220,
      "ugly": 5221,
      "aim": 5222,
      "lect": 5223,
      "##ronic": 5224,
      "##ams": 5225,
      "neigh": 5226,
      "closed": 5227,
      "suggestions": 5228,
      "legit": 5229,
      "equally": 5230,
      "routine": 5231,
      "00": 5232,
      "tall": 5233,
      "##90": 5234,
      "##98": 5235,
      "integr": 5236,
      "##olar": 5237,
      "sociopath": 5238,
      "humour": 5239,
      "factors": 5240,
      "favorites": 5241,
      "accepting": 5242,
      "manipulation": 5243,
      "pursue": 5244,
      "docum": 5245,
      "host": 5246,
      "length": 5247,
      "pants": 5248,
      "##boy": 5249,
      "thous": 5250,
      "theore": 5251,
      "##reh": 5252,
      "ing": 5253,
      "inher": 5254,
      "greater": 5255,
      "listed": 5256,
      "developing": 5257,
      "flaws": 5258,
      "category": 5259,
      "contradict": 5260,
      "grammar": 5261,
      "thousand": 5262,
      "cell": 5263,
      "cream": 5264,
      "wtf": 5265,
      "plain": 5266,
      "spring": 5267,
      "granted": 5268,
      "access": 5269,
      "polite": 5270,
      "perceived": 5271,
      "therapy": 5272,
      "26": 5273,
      "nic": 5274,
      "russ": 5275,
      "sly": 5276,
      "##well": 5277,
      "##vit": 5278,
      "##15": 5279,
      "##usions": 5280,
      "offense": 5281,
      "impact": 5282,
      "##aken": 5283,
      "randomly": 5284,
      "motivated": 5285,
      "paid": 5286,
      "puzz": 5287,
      "hidden": 5288,
      "neighb": 5289,
      "ixt": 5290,
      "oo": 5291,
      "zomb": 5292,
      "##mind": 5293,
      "##imental": 5294,
      "theme": 5295,
      "guard": 5296,
      "plat": 5297,
      "adore": 5298,
      "##ocr": 5299,
      "literature": 5300,
      "counsel": 5301,
      "authority": 5302,
      "liberal": 5303,
      "overwhelming": 5304,
      "stimul": 5305,
      "1w9": 5306,
      "san": 5307,
      "tatt": 5308,
      "##sc": 5309,
      "##val": 5310,
      "select": 5311,
      "##entic": 5312,
      "##irty": 5313,
      "whats": 5314,
      "unable": 5315,
      "clever": 5316,
      "convince": 5317,
      "agnost": 5318,
      "vib": 5319,
      "zero": 5320,
      "##95": 5321,
      "##ara": 5322,
      "##lement": 5323,
      "consequ": 5324,
      "loose": 5325,
      "available": 5326,
      "greet": 5327,
      "silent": 5328,
      "films": 5329,
      "professor": 5330,
      "ninja": 5331,
      "bow": 5332,
      "##port": 5333,
      "##irts": 5334,
      "cloud": 5335,
      "desig": 5336,
      "whereas": 5337,
      "figuring": 5338,
      "assumed": 5339,
      "projects": 5340,
      "heavily": 5341,
      "shallow": 5342,
      "smiling": 5343,
      "oblig": 5344,
      "distracted": 5345,
      "sherlock": 5346,
      "ponder": 5347,
      "umm": 5348,
      "##mit": 5349,
      "##ey": 5350,
      "##bing": 5351,
      "##idge": 5352,
      "##esty": 5353,
      "chann": 5354,
      "doesnt": 5355,
      "desk": 5356,
      "reasonable": 5357,
      "valu": 5358,
      "disturb": 5359,
      "insightful": 5360,
      "essentially": 5361,
      "condition": 5362,
      "astrol": 5363,
      "journal": 5364,
      "adventure": 5365,
      "alpha": 5366,
      "resist": 5367,
      "surely": 5368,
      "coll": 5369,
      "possess": 5370,
      "absor": 5371,
      "exception": 5372,
      "struggling": 5373,
      "competitive": 5374,
      "trolling": 5375,
      "machine": 5376,
      "measure": 5377,
      "regularly": 5378,
      "tattoo": 5379,
      "cath": 5380,
      "lin": 5381,
      "hah": 5382,
      "##ading": 5383,
      "##ades": 5384,
      "ash": 5385,
      "shar": 5386,
      "fac": 5387,
      "facial": 5388,
      "actively": 5389,
      "blah": 5390,
      "tips": 5391,
      "correlation": 5392,
      "delete": 5393,
      "paranoid": 5394,
      "hates": 5395,
      "wars": 5396,
      "##era": 5397,
      "meat": 5398,
      "neat": 5399,
      "chances": 5400,
      "ages": 5401,
      "##ogical": 5402,
      "desper": 5403,
      "incor": 5404,
      "hurting": 5405,
      "horror": 5406,
      "reactions": 5407,
      "includes": 5408,
      "entertaining": 5409,
      "alien": 5410,
      "maintain": 5411,
      "structure": 5412,
      "econom": 5413,
      "hint": 5414,
      "wol": 5415,
      "##34": 5416,
      "##60": 5417,
      "##bra": 5418,
      "isol": 5419,
      "reci": 5420,
      "reson": 5421,
      "incomp": 5422,
      "observe": 5423,
      "swed": 5424,
      "failure": 5425,
      "semester": 5426,
      "melanch": 5427,
      "ghost": 5428,
      "compassion": 5429,
      "congratulations": 5430,
      "hook": 5431,
      "##ique": 5432,
      "##bre": 5433,
      "##bling": 5434,
      "##ators": 5435,
      "##lection": 5436,
      "gosh": 5437,
      "dismiss": 5438,
      "added": 5439,
      "messy": 5440,
      "concent": 5441,
      "suffering": 5442,
      "boundaries": 5443,
      "escape": 5444,
      "surface": 5445,
      "subtle": 5446,
      "superficial": 5447,
      "bs": 5448,
      "civ": 5449,
      "##rate": 5450,
      "##reg": 5451,
      "##ett": 5452,
      "scar": 5453,
      "hole": 5454,
      "efficient": 5455,
      "intuitives": 5456,
      "copy": 5457,
      "shopping": 5458,
      "massive": 5459,
      "commitment": 5460,
      "narrow": 5461,
      "eight": 5462,
      "hill": 5463,
      "##of": 5464,
      "beer": 5465,
      "##rap": 5466,
      "disney": 5467,
      "appropriate": 5468,
      "laughed": 5469,
      "homework": 5470,
      "inclined": 5471,
      "radio": 5472,
      "verbal": 5473,
      "conservative": 5474,
      "david": 5475,
      "nons": 5476,
      "tons": 5477,
      "##22": 5478,
      "stars": 5479,
      "##ulting": 5480,
      "amusing": 5481,
      "##cient": 5482,
      "##osp": 5483,
      "applic": 5484,
      "morals": 5485,
      "presence": 5486,
      "demon": 5487,
      "initial": 5488,
      "guilt": 5489,
      "chaos": 5490,
      "strategy": 5491,
      "contempl": 5492,
      "uk": 5493,
      "##ya": 5494,
      "##de": 5495,
      "##atory": 5496,
      "staring": 5497,
      "chess": 5498,
      "spread": 5499,
      "display": 5500,
      "assign": 5501,
      "cars": 5502,
      "bias": 5503,
      "frustration": 5504,
      "responsibility": 5505,
      "walls": 5506,
      "rainb": 5507,
      "witty": 5508,
      "phrase": 5509,
      "suicide": 5510,
      "agnostic": 5511,
      "2w3": 5512,
      "lunch": 5513,
      "oops": 5514,
      "##und": 5515,
      "urge": 5516,
      "arr": 5517,
      "poster": 5518,
      "confir": 5519,
      "finan": 5520,
      "psychopath": 5521,
      "messages": 5522,
      "romantically": 5523,
      "debating": 5524,
      "responding": 5525,
      "incredible": 5526,
      "traditional": 5527,
      "caut": 5528,
      "eg": 5529,
      "##esth": 5530,
      "##iles": 5531,
      "unus": 5532,
      "spark": 5533,
      "showed": 5534,
      "subst": 5535,
      "##phas": 5536,
      "preferred": 5537,
      "edge": 5538,
      "swim": 5539,
      "discussions": 5540,
      "practically": 5541,
      "philosophical": 5542,
      "consistent": 5543,
      "cowork": 5544,
      "dangerous": 5545,
      "28": 5546,
      "bip": 5547,
      "ju": 5548,
      "pal": 5549,
      "rage": 5550,
      "##lr": 5551,
      "seven": 5552,
      "##oned": 5553,
      "habits": 5554,
      "##asks": 5555,
      "stone": 5556,
      "##oop": 5557,
      "pray": 5558,
      "phase": 5559,
      "defined": 5560,
      "greatly": 5561,
      "confusion": 5562,
      "cris": 5563,
      "##iac": 5564,
      "growth": 5565,
      "associated": 5566,
      "controlling": 5567,
      "cruel": 5568,
      "screen": 5569,
      "document": 5570,
      "dual": 5571,
      "lu": 5572,
      "##do": 5573,
      "justice": 5574,
      "partners": 5575,
      "playful": 5576,
      "required": 5577,
      "treated": 5578,
      "embra": 5579,
      "clarify": 5580,
      "initiate": 5581,
      "##ulsive": 5582,
      "2nd": 5583,
      "35": 5584,
      "dates": 5585,
      "pics": 5586,
      "##nown": 5587,
      "##fast": 5588,
      "##pa": 5589,
      "##hib": 5590,
      "##66": 5591,
      "##list": 5592,
      "##char": 5593,
      "countries": 5594,
      "behave": 5595,
      "request": 5596,
      "jeans": 5597,
      "suffer": 5598,
      "schedule": 5599,
      "xs": 5600,
      "##uous": 5601,
      "##inated": 5602,
      "##itty": 5603,
      "poem": 5604,
      "goss": 5605,
      "ups": 5606,
      "realizing": 5607,
      "strict": 5608,
      "##appe": 5609,
      "cock": 5610,
      "shower": 5611,
      "raven": 5612,
      "leading": 5613,
      "refuse": 5614,
      "focusing": 5615,
      "effective": 5616,
      "balanced": 5617,
      "programming": 5618,
      "location": 5619,
      "teenager": 5620,
      "ignorant": 5621,
      "overwhelmed": 5622,
      "intentions": 5623,
      "naive": 5624,
      "addicted": 5625,
      "symbol": 5626,
      "subconscious": 5627,
      "xst": 5628,
      "intended": 5629,
      "mac": 5630,
      "adop": 5631,
      "##mmmm": 5632,
      "sell": 5633,
      "indust": 5634,
      "statements": 5635,
      "processes": 5636,
      "biology": 5637,
      "err": 5638,
      "primarily": 5639,
      "surrounded": 5640,
      "narcissistic": 5641,
      "elementary": 5642,
      "99": 5643,
      "austr": 5644,
      "named": 5645,
      "sooo": 5646,
      "##ios": 5647,
      "##ica": 5648,
      "fears": 5649,
      "trau": 5650,
      "held": 5651,
      "attrib": 5652,
      "contra": 5653,
      "hardest": 5654,
      "artists": 5655,
      "nightm": 5656,
      "sadness": 5657,
      "hitler": 5658,
      "idealistic": 5659,
      "included": 5660,
      "##attered": 5661,
      "breath": 5662,
      "heaven": 5663,
      "mysterious": 5664,
      "mathemat": 5665,
      "##ault": 5666,
      "sea": 5667,
      "##ald": 5668,
      "chart": 5669,
      "##ief": 5670,
      "##oses": 5671,
      "official": 5672,
      "skype": 5673,
      "preferences": 5674,
      "cuz": 5675,
      "incons": 5676,
      "effects": 5677,
      "north": 5678,
      "legal": 5679,
      "immediate": 5680,
      "productive": 5681,
      "auxili": 5682,
      "bipolar": 5683,
      "bon": 5684,
      "bang": 5685,
      "ring": 5686,
      "tune": 5687,
      "##ye": 5688,
      "##30": 5689,
      "##ingu": 5690,
      "pee": 5691,
      "unb": 5692,
      "talkative": 5693,
      "affirm": 5694,
      "concepts": 5695,
      "apartment": 5696,
      "promise": 5697,
      "rejection": 5698,
      "chicken": 5699,
      "automatically": 5700,
      "vulnerable": 5701,
      "thorough": 5702,
      "irrelevant": 5703,
      "austral": 5704,
      "auxiliary": 5705,
      "voted": 5706,
      "cancer": 5707,
      "scores": 5708,
      "highs": 5709,
      "cheer": 5710,
      "technical": 5711,
      "window": 5712,
      "contribute": 5713,
      "encourage": 5714,
      "dynamic": 5715,
      "credit": 5716,
      "skept": 5717,
      "tumb": 5718,
      "shift": 5719,
      "abuse": 5720,
      "friday": 5721,
      "queen": 5722,
      "unne": 5723,
      "clothing": 5724,
      "spa": 5725,
      "emphas": 5726,
      "realised": 5727,
      "applies": 5728,
      "checked": 5729,
      "bike": 5730,
      "milk": 5731,
      "##x92s": 5732,
      "manager": 5733,
      "received": 5734,
      "associate": 5735,
      "therapist": 5736,
      "innocent": 5737,
      "000": 5738,
      "gf": 5739,
      "les": 5740,
      "##inge": 5741,
      "##itory": 5742,
      "##ilst": 5743,
      "allows": 5744,
      "veget": 5745,
      "disg": 5746,
      "understands": 5747,
      "pointed": 5748,
      "questioning": 5749,
      "security": 5750,
      "fucked": 5751,
      "breakfast": 5752,
      "epic": 5753,
      "authentic": 5754,
      "##iiii": 5755,
      "ignoring": 5756,
      "purely": 5757,
      "intimidating": 5758,
      "accidentally": 5759,
      "dramatic": 5760,
      "unknown": 5761,
      "gossip": 5762,
      "ahh": 5763,
      "pushing": 5764,
      "pizz": 5765,
      "x93": 5766,
      "##ato": 5767,
      "whilst": 5768,
      "hahah": 5769,
      "testing": 5770,
      "medical": 5771,
      "restaur": 5772,
      "suggested": 5773,
      "laws": 5774,
      "manipulate": 5775,
      "jumping": 5776,
      "hobby": 5777,
      "panic": 5778,
      "virgin": 5779,
      "civil": 5780,
      "ain": 5781,
      "boun": 5782,
      "lem": 5783,
      "ness": 5784,
      "ooo": 5785,
      "sjs": 5786,
      "yellow": 5787,
      "##58": 5788,
      "##cast": 5789,
      "##rd": 5790,
      "began": 5791,
      "##iced": 5792,
      "unw": 5793,
      "faster": 5794,
      "beings": 5795,
      "tax": 5796,
      "difficul": 5797,
      "apath": 5798,
      "dreaming": 5799,
      "syn": 5800,
      "nights": 5801,
      "memor": 5802,
      "avoiding": 5803,
      "estab": 5804,
      "drinks": 5805,
      "bringing": 5806,
      "demand": 5807,
      "judgement": 5808,
      "nerd": 5809,
      "difficulty": 5810,
      "ix92": 5811,
      "##ca": 5812,
      "##ram": 5813,
      "##ration": 5814,
      "##17": 5815,
      "##inite": 5816,
      "beach": 5817,
      "nostal": 5818,
      "clim": 5819,
      "seemingly": 5820,
      "firm": 5821,
      "brothers": 5822,
      "secondary": 5823,
      "assumption": 5824,
      "parad": 5825,
      "uncle": 5826,
      "patient": 5827,
      "suggestion": 5828,
      "##onym": 5829,
      "fixed": 5830,
      "technology": 5831,
      "theres": 5832,
      "volunt": 5833,
      "victim": 5834,
      "slyther": 5835,
      "unnecess": 5836,
      "pizza": 5837,
      "gal": 5838,
      "ou": 5839,
      "alt": 5840,
      "believed": 5841,
      "brit": 5842,
      "##ucks": 5843,
      "socializing": 5844,
      "driver": 5845,
      "shitty": 5846,
      "messed": 5847,
      "killed": 5848,
      "determined": 5849,
      "consistently": 5850,
      "interviews": 5851,
      "powers": 5852,
      "spectrum": 5853,
      "ax": 5854,
      "bun": 5855,
      "native": 5856,
      "rush": 5857,
      "##64": 5858,
      "##ba": 5859,
      "susp": 5860,
      "nowad": 5861,
      "player": 5862,
      "giant": 5863,
      "##inese": 5864,
      "replied": 5865,
      "chaotic": 5866,
      "management": 5867,
      "buddy": 5868,
      "texting": 5869,
      "leadership": 5870,
      "clingy": 5871,
      "astrology": 5872,
      "tumblr": 5873,
      "nostalg": 5874,
      "east": 5875,
      "vary": 5876,
      "##oly": 5877,
      "##icing": 5878,
      "##iling": 5879,
      "shell": 5880,
      "##ateful": 5881,
      "##ums": 5882,
      "precis": 5883,
      "overl": 5884,
      "insert": 5885,
      "listened": 5886,
      "detect": 5887,
      "boat": 5888,
      "images": 5889,
      "##ship": 5890,
      "technically": 5891,
      "periods": 5892,
      "relaxed": 5893,
      "benefits": 5894,
      "floor": 5895,
      "acquaintances": 5896,
      "acknowledge": 5897,
      "cheap": 5898,
      "channel": 5899,
      "011": 5900,
      "1st": 5901,
      "ip": 5902,
      "vast": 5903,
      "##iqu": 5904,
      "##97": 5905,
      "sole": 5906,
      "sugar": 5907,
      "chinese": 5908,
      "arri": 5909,
      "goodness": 5910,
      "offic": 5911,
      "schiz": 5912,
      "badass": 5913,
      "lists": 5914,
      "annoys": 5915,
      "touching": 5916,
      "conclusions": 5917,
      "methods": 5918,
      "observations": 5919,
      "meditation": 5920,
      "resources": 5921,
      "nowadays": 5922,
      "##oved": 5923,
      "##bul": 5924,
      "##iders": 5925,
      "worries": 5926,
      "compreh": 5927,
      "thoughtful": 5928,
      "believing": 5929,
      "evolution": 5930,
      "objects": 5931,
      "hungry": 5932,
      "survive": 5933,
      "dedic": 5934,
      "disgust": 5935,
      "flying": 5936,
      "ie": 5937,
      "##ino": 5938,
      "##oms": 5939,
      "##utions": 5940,
      "chuck": 5941,
      "##izes": 5942,
      "thrill": 5943,
      "afterwards": 5944,
      "flav": 5945,
      "lapt": 5946,
      "police": 5947,
      "appeal": 5948,
      "harmony": 5949,
      "episodes": 5950,
      "journey": 5951,
      "75": 5952,
      "dim": 5953,
      "dich": 5954,
      "dirty": 5955,
      "mild": 5956,
      "##gers": 5957,
      "##bble": 5958,
      "##82": 5959,
      "##ste": 5960,
      "myth": 5961,
      "shake": 5962,
      "intr": 5963,
      "disappe": 5964,
      "twist": 5965,
      "teens": 5966,
      "mindset": 5967,
      "generation": 5968,
      "raise": 5969,
      "debates": 5970,
      "foreign": 5971,
      "articles": 5972,
      "spoken": 5973,
      "glasses": 5974,
      "scratch": 5975,
      "inspired": 5976,
      "slytherin": 5977,
      "8w9": 5978,
      "cards": 5979,
      "fro": 5980,
      "##ls": 5981,
      "##ini": 5982,
      "##onnect": 5983,
      "stream": 5984,
      "mob": 5985,
      "wash": 5986,
      "unha": 5987,
      "arms": 5988,
      "clash": 5989,
      "offend": 5990,
      "sometime": 5991,
      "flash": 5992,
      "sites": 5993,
      "coinc": 5994,
      "assist": 5995,
      "ideals": 5996,
      "remembered": 5997,
      "species": 5998,
      "brand": 5999,
      "appreciation": 6000,
      "boredom": 6001,
      "wasting": 6002,
      "cleaning": 6003,
      "cookies": 6004,
      "woke": 6005,
      "jerk": 6006,
      "vacation": 6007,
      "observing": 6008,
      "gigg": 6009,
      "crisis": 6010,
      "55": 6011,
      "bite": 6012,
      "eld": 6013,
      "mask": 6014,
      "nine": 6015,
      "##100": 6016,
      "stable": 6017,
      "exch": 6018,
      "##cipl": 6019,
      "quant": 6020,
      "##anda": 6021,
      "sacri": 6022,
      "offensive": 6023,
      "conform": 6024,
      "endless": 6025,
      "charism": 6026,
      "opened": 6027,
      "interacting": 6028,
      "grandm": 6029,
      "optimistic": 6030,
      "hesit": 6031,
      "47": 6032,
      "dump": 6033,
      "groc": 6034,
      "hosp": 6035,
      "ms": 6036,
      "national": 6037,
      "##vin": 6038,
      "##bur": 6039,
      "##84": 6040,
      "##enced": 6041,
      "doors": 6042,
      "magn": 6043,
      "enem": 6044,
      "frame": 6045,
      "##olol": 6046,
      "dial": 6047,
      "##ables": 6048,
      "##ressed": 6049,
      "brows": 6050,
      "exploring": 6051,
      "charge": 6052,
      "finishing": 6053,
      "addition": 6054,
      "logically": 6055,
      "biased": 6056,
      "detailed": 6057,
      "obsession": 6058,
      "pleasant": 6059,
      "trees": 6060,
      "divor": 6061,
      "candy": 6062,
      "withdraw": 6063,
      "29": 6064,
      "fond": 6065,
      "pess": 6066,
      "ppl": 6067,
      "##power": 6068,
      "aband": 6069,
      "exe": 6070,
      "ate": 6071,
      "enlight": 6072,
      "persona": 6073,
      "grasp": 6074,
      "senior": 6075,
      "bubb": 6076,
      "miser": 6077,
      "babies": 6078,
      "pisses": 6079,
      "ladies": 6080,
      "##uuuu": 6081,
      "princess": 6082,
      "comedy": 6083,
      "emoji": 6084,
      "aqu": 6085,
      "gard": 6086,
      "##62": 6087,
      "##lings": 6088,
      "whis": 6089,
      "ham": 6090,
      "##icism": 6091,
      "review": 6092,
      "ord": 6093,
      "chest": 6094,
      "guide": 6095,
      "finds": 6096,
      "applied": 6097,
      "sorta": 6098,
      "forms": 6099,
      "depressing": 6100,
      "concert": 6101,
      "error": 6102,
      "hopeless": 6103,
      "violence": 6104,
      "ultimate": 6105,
      "obliv": 6106,
      "embarrassed": 6107,
      "assertive": 6108,
      "unusual": 6109,
      "sacrif": 6110,
      "latter": 6111,
      "rig": 6112,
      "##92": 6113,
      "##85": 6114,
      "##erous": 6115,
      "##ura": 6116,
      "lover": 6117,
      "unex": 6118,
      "relation": 6119,
      "expensive": 6120,
      "adjust": 6121,
      "##udes": 6122,
      "genre": 6123,
      "longest": 6124,
      "##llll": 6125,
      "terribly": 6126,
      "childish": 6127,
      "##heart": 6128,
      "potentially": 6129,
      "texts": 6130,
      "envy": 6131,
      "burst": 6132,
      "semi": 6133,
      "satisfied": 6134,
      "fingers": 6135,
      "36": 6136,
      "rings": 6137,
      "##night": 6138,
      "##arm": 6139,
      "anth": 6140,
      "sold": 6141,
      "moves": 6142,
      "##urd": 6143,
      "##ffle": 6144,
      "unst": 6145,
      "instantly": 6146,
      "skip": 6147,
      "invent": 6148,
      "stands": 6149,
      "expressions": 6150,
      "purple": 6151,
      "directed": 6152,
      "illogical": 6153,
      "replying": 6154,
      "tastes": 6155,
      "throwing": 6156,
      "strikes": 6157,
      "cynical": 6158,
      "spontaneous": 6159,
      "confirmed": 6160,
      "highschool": 6161,
      "laptop": 6162,
      "dichot": 6163,
      "3rd": 6164,
      "nav": 6165,
      "rate": 6166,
      "wine": 6167,
      "##hi": 6168,
      "island": 6169,
      "##ested": 6170,
      "height": 6171,
      "org": 6172,
      "canada": 6173,
      "evening": 6174,
      "rights": 6175,
      "teeth": 6176,
      "##ords": 6177,
      "counts": 6178,
      "existential": 6179,
      "lacking": 6180,
      "checking": 6181,
      "##acity": 6182,
      "worrying": 6183,
      "involve": 6184,
      "responded": 6185,
      "walks": 6186,
      "bands": 6187,
      "surroundings": 6188,
      "george": 6189,
      "opportunities": 6190,
      "batman": 6191,
      "dict": 6192,
      "eu": 6193,
      "thin": 6194,
      "##esy": 6195,
      "##edly": 6196,
      "whe": 6197,
      "shirts": 6198,
      "##aming": 6199,
      "pointing": 6200,
      "reliable": 6201,
      "comprom": 6202,
      "##agon": 6203,
      "##achel": 6204,
      "##claw": 6205,
      "##ensitive": 6206,
      "sentences": 6207,
      "expressed": 6208,
      "assumptions": 6209,
      "##lished": 6210,
      "choosing": 6211,
      "styles": 6212,
      "versus": 6213,
      "degrees": 6214,
      "##nox": 6215,
      "##hold": 6216,
      "devil": 6217,
      "sources": 6218,
      "libert": 6219,
      "loyalty": 6220,
      "inspiration": 6221,
      "reveal": 6222,
      "contrast": 6223,
      "pessim": 6224,
      "65": 6225,
      "bread": 6226,
      "dare": 6227,
      "fed": 6228,
      "row": 6229,
      "sf": 6230,
      "##rs": 6231,
      "##kin": 6232,
      "##zed": 6233,
      "##enn": 6234,
      "##ena": 6235,
      "rely": 6236,
      "discipl": 6237,
      "defense": 6238,
      "highest": 6239,
      "##ensity": 6240,
      "sensory": 6241,
      "depart": 6242,
      "rape": 6243,
      "ignored": 6244,
      "mystery": 6245,
      "catholic": 6246,
      "32": 6247,
      "lun": 6248,
      "nap": 6249,
      "tun": 6250,
      "vivid": 6251,
      "##nat": 6252,
      "##fly": 6253,
      "##rome": 6254,
      "##isc": 6255,
      "##ids": 6256,
      "asper": 6257,
      "##ros": 6258,
      "sund": 6259,
      "betray": 6260,
      "grateful": 6261,
      "committed": 6262,
      "instant": 6263,
      "advance": 6264,
      "bob": 6265,
      "steps": 6266,
      "oddly": 6267,
      "receiving": 6268,
      "##coming": 6269,
      "banned": 6270,
      "graduate": 6271,
      "finger": 6272,
      "nickn": 6273,
      "split": 6274,
      "valuable": 6275,
      "nonsense": 6276,
      "##noxious": 6277,
      "cig": 6278,
      "jk": 6279,
      "vo": 6280,
      "##ture": 6281,
      "##200": 6282,
      "##itivity": 6283,
      "##omach": 6284,
      "##ashing": 6285,
      "shown": 6286,
      "knock": 6287,
      "outward": 6288,
      "##olved": 6289,
      "whoever": 6290,
      "##arded": 6291,
      "army": 6292,
      "prem": 6293,
      "##osexual": 6294,
      "funn": 6295,
      "spam": 6296,
      "spell": 6297,
      "overthink": 6298,
      "kindness": 6299,
      "obnoxious": 6300,
      "confirm": 6301,
      "crime": 6302,
      "runs": 6303,
      "smaller": 6304,
      "##aaa": 6305,
      "causing": 6306,
      "delicious": 6307,
      "perspectives": 6308,
      "##box": 6309,
      "camera": 6310,
      "weaknesses": 6311,
      "villain": 6312,
      "ooh": 6313,
      "ravenclaw": 6314,
      "64": 6315,
      "jun": 6316,
      "lou": 6317,
      "vamp": 6318,
      "##la": 6319,
      "##core": 6320,
      "##77": 6321,
      "isnt": 6322,
      "##etics": 6323,
      "map": 6324,
      "clock": 6325,
      "##agger": 6326,
      "perman": 6327,
      "adding": 6328,
      "acceptable": 6329,
      "mistaken": 6330,
      "##airs": 6331,
      "walked": 6332,
      "legend": 6333,
      "miles": 6334,
      "consciousness": 6335,
      "bullied": 6336,
      "claims": 6337,
      "peaceful": 6338,
      "chemical": 6339,
      "procrastination": 6340,
      "dragon": 6341,
      "lonel": 6342,
      "bathroom": 6343,
      "incorrect": 6344,
      "mm": 6345,
      "ts": 6346,
      "tight": 6347,
      "##orical": 6348,
      "makeup": 6349,
      "spelling": 6350,
      "infinite": 6351,
      "fluff": 6352,
      "internally": 6353,
      "smooth": 6354,
      "provided": 6355,
      "intimate": 6356,
      "spoil": 6357,
      "bottle": 6358,
      "witness": 6359,
      "intentionally": 6360,
      "encoura": 6361,
      "theoretical": 6362,
      "vibes": 6363,
      "bb": 6364,
      "james": 6365,
      "luc": 6366,
      "wings": 6367,
      "##pet": 6368,
      "##itter": 6369,
      "##uted": 6370,
      "##umps": 6371,
      "noise": 6372,
      "saving": 6373,
      "percept": 6374,
      "scare": 6375,
      "oldest": 6376,
      "charl": 6377,
      "absurd": 6378,
      "hearts": 6379,
      "fitting": 6380,
      "linked": 6381,
      "traveling": 6382,
      "apologies": 6383,
      "##eeeeeeee": 6384,
      "receive": 6385,
      "football": 6386,
      "34": 6387,
      "dang": 6388,
      "hous": 6389,
      "rp": 6390,
      "snea": 6391,
      "sales": 6392,
      "##och": 6393,
      "##uce": 6394,
      "##ora": 6395,
      "stalk": 6396,
      "stomach": 6397,
      "##ami": 6398,
      "neur": 6399,
      "##urt": 6400,
      "outl": 6401,
      "confuse": 6402,
      "root": 6403,
      "schools": 6404,
      "##phere": 6405,
      "cheating": 6406,
      "planned": 6407,
      "discussed": 6408,
      "noticing": 6409,
      "complaining": 6410,
      "fights": 6411,
      "involves": 6412,
      "combined": 6413,
      "fancy": 6414,
      "consciously": 6415,
      "prepared": 6416,
      "nuts": 6417,
      "latest": 6418,
      "settle": 6419,
      "quirky": 6420,
      "volunte": 6421,
      "aka": 6422,
      "fle": 6423,
      "jew": 6424,
      "tasks": 6425,
      "yog": 6426,
      "##uri": 6427,
      "##pan": 6428,
      "##vis": 6429,
      "##zzy": 6430,
      "##the": 6431,
      "overcome": 6432,
      "tele": 6433,
      "apple": 6434,
      "courage": 6435,
      "mush": 6436,
      "maturity": 6437,
      "advoc": 6438,
      "closely": 6439,
      "sexually": 6440,
      "brave": 6441,
      "excite": 6442,
      "medium": 6443,
      "picky": 6444,
      "horse": 6445,
      "profession": 6446,
      "compatible": 6447,
      "comparison": 6448,
      "unnecessary": 6449,
      "33": 6450,
      "95": 6451,
      "dy": 6452,
      "honey": 6453,
      "##nes": 6454,
      "##ipping": 6455,
      "##zen": 6456,
      "##ality": 6457,
      "dece": 6458,
      "proven": 6459,
      "clin": 6460,
      "talent": 6461,
      "thrown": 6462,
      "sounded": 6463,
      "ironic": 6464,
      "##retch": 6465,
      "communicating": 6466,
      "secretly": 6467,
      "ignorance": 6468,
      "surprisingly": 6469,
      "frankly": 6470,
      "incompet": 6471,
      "precisely": 6472,
      "flex": 6473,
      "gree": 6474,
      "##mber": 6475,
      "##ipp": 6476,
      "##lin": 6477,
      "##ras": 6478,
      "##orp": 6479,
      "outcome": 6480,
      "nose": 6481,
      "##istically": 6482,
      "everytime": 6483,
      "compos": 6484,
      "##iche": 6485,
      "##ished": 6486,
      "consum": 6487,
      "crimin": 6488,
      "deciding": 6489,
      "monster": 6490,
      "addiction": 6491,
      "effici": 6492,
      "solving": 6493,
      "behaviors": 6494,
      "maths": 6495,
      "luckily": 6496,
      "supportive": 6497,
      "intimacy": 6498,
      "##writing": 6499,
      "siblings": 6500,
      "unhappy": 6501,
      "dub": 6502,
      "ocd": 6503,
      "##ole": 6504,
      "##iat": 6505,
      "##pm": 6506,
      "##´t": 6507,
      "##etch": 6508,
      "target": 6509,
      "storm": 6510,
      "abilities": 6511,
      "abusive": 6512,
      "##cist": 6513,
      "whoa": 6514,
      "prevent": 6515,
      "comparing": 6516,
      "spin": 6517,
      "twin": 6518,
      "keys": 6519,
      "cared": 6520,
      "enjoyable": 6521,
      "articul": 6522,
      "repet": 6523,
      "##azz": 6524,
      "similarities": 6525,
      "observed": 6526,
      "##hahaha": 6527,
      "biological": 6528,
      "deliver": 6529,
      "repeated": 6530,
      "pokemon": 6531,
      "adopt": 6532,
      "alex": 6533,
      "ease": 6534,
      "junk": 6535,
      "oce": 6536,
      "pushed": 6537,
      "##aff": 6538,
      "##20": 6539,
      "##bled": 6540,
      "reck": 6541,
      "reward": 6542,
      "##imes": 6543,
      "feat": 6544,
      "bitter": 6545,
      "flight": 6546,
      "easiest": 6547,
      "tied": 6548,
      "senses": 6549,
      "accurately": 6550,
      "satur": 6551,
      "occasional": 6552,
      "holiday": 6553,
      "interpretation": 6554,
      "embarrassing": 6555,
      "western": 6556,
      "cautious": 6557,
      "naked": 6558,
      "rat": 6559,
      "vice": 6560,
      "##men": 6561,
      "##hen": 6562,
      "##esc": 6563,
      "##orious": 6564,
      "forest": 6565,
      "worker": 6566,
      "bless": 6567,
      "smith": 6568,
      "handed": 6569,
      "##orders": 6570,
      "breaks": 6571,
      "imagin": 6572,
      "psychologist": 6573,
      "fallen": 6574,
      "identified": 6575,
      "affects": 6576,
      "souls": 6577,
      "cultural": 6578,
      "occasions": 6579,
      "strike": 6580,
      "statistics": 6581,
      "attachment": 6582,
      "tolerate": 6583,
      "mountain": 6584,
      "demonst": 6585,
      "affirmation": 6586,
      "jam": 6587,
      "jane": 6588,
      "mmm": 6589,
      "ol": 6590,
      "wat": 6591,
      "##uation": 6592,
      "##ivers": 6593,
      "##boo": 6594,
      "##iters": 6595,
      "ina": 6596,
      "neu": 6597,
      "##ortion": 6598,
      "diet": 6599,
      "##action": 6600,
      "partly": 6601,
      "specul": 6602,
      "defend": 6603,
      "believes": 6604,
      "recover": 6605,
      "crash": 6606,
      "expressive": 6607,
      "succeed": 6608,
      "reached": 6609,
      "software": 6610,
      "adults": 6611,
      "loneliness": 6612,
      "pets": 6613,
      "##af": 6614,
      "##cha": 6615,
      "asian": 6616,
      "soph": 6617,
      "##thy": 6618,
      "trash": 6619,
      "##olve": 6620,
      "persons": 6621,
      "##hael": 6622,
      "spider": 6623,
      "struck": 6624,
      "##place": 6625,
      "lessons": 6626,
      "dependent": 6627,
      "importance": 6628,
      "creatures": 6629,
      "##respect": 6630,
      "filter": 6631,
      "grandma": 6632,
      "attempting": 6633,
      "scientist": 6634,
      "violent": 6635,
      "detached": 6636,
      "consequences": 6637,
      "greetings": 6638,
      "embrace": 6639,
      "grandmother": 6640,
      "aesth": 6641,
      "bod": 6642,
      "gest": 6643,
      "i´": 6644,
      "jim": 6645,
      "lame": 6646,
      "woo": 6647,
      "##oke": 6648,
      "##yth": 6649,
      "##jud": 6650,
      "##inction": 6651,
      "##stream": 6652,
      "ital": 6653,
      "reass": 6654,
      "comic": 6655,
      "chee": 6656,
      "##eria": 6657,
      "needing": 6658,
      "resent": 6659,
      "awake": 6660,
      "attend": 6661,
      "##cycl": 6662,
      "orient": 6663,
      "indecis": 6664,
      "reflection": 6665,
      "worthy": 6666,
      "opposites": 6667,
      "paul": 6668,
      "previously": 6669,
      "judgmental": 6670,
      "mechanism": 6671,
      "##stein": 6672,
      "cents": 6673,
      "fb": 6674,
      "ven": 6675,
      "##tra": 6676,
      "##uary": 6677,
      "##ife": 6678,
      "##iber": 6679,
      "##icy": 6680,
      "anonym": 6681,
      "##rove": 6682,
      "neck": 6683,
      "##isters": 6684,
      "##osis": 6685,
      "dise": 6686,
      "subty": 6687,
      "psycho": 6688,
      "fairy": 6689,
      "earn": 6690,
      "cave": 6691,
      "tempor": 6692,
      "ruin": 6693,
      "obsessive": 6694,
      "challenging": 6695,
      "pulled": 6696,
      "windows": 6697,
      "dropped": 6698,
      "spoke": 6699,
      "salt": 6700,
      "irritated": 6701,
      "gaming": 6702,
      "enthusiasm": 6703,
      "graphic": 6704,
      "wolf": 6705,
      "financial": 6706,
      "46": 6707,
      "il": 6708,
      "ped": 6709,
      "pier": 6710,
      "##uate": 6711,
      "##54": 6712,
      "##ju": 6713,
      "##80": 6714,
      "##ancy": 6715,
      "##idays": 6716,
      "shap": 6717,
      "##aus": 6718,
      "##illa": 6719,
      "encycl": 6720,
      "fran": 6721,
      "proceed": 6722,
      "usa": 6723,
      "##osen": 6724,
      "discl": 6725,
      "default": 6726,
      "remembering": 6727,
      "invis": 6728,
      "irony": 6729,
      "admitted": 6730,
      "calif": 6731,
      "##ifications": 6732,
      "tempt": 6733,
      "supposedly": 6734,
      "relaxing": 6735,
      "affectionate": 6736,
      "tools": 6737,
      "wedding": 6738,
      "saturday": 6739,
      "encyclop": 6740,
      "66": 6741,
      "bud": 6742,
      "cash": 6743,
      "pool": 6744,
      "stab": 6745,
      "notion": 6746,
      "mock": 6747,
      "##ounds": 6748,
      "unic": 6749,
      "unint": 6750,
      "muse": 6751,
      "acted": 6752,
      "##ogue": 6753,
      "definitions": 6754,
      "flip": 6755,
      "##grad": 6756,
      "charm": 6757,
      "hund": 6758,
      "lesson": 6759,
      "passing": 6760,
      "formal": 6761,
      "profound": 6762,
      "movement": 6763,
      "meaningless": 6764,
      "insights": 6765,
      "competition": 6766,
      "woah": 6767,
      "derail": 6768,
      "melancholy": 6769,
      "restaurant": 6770,
      "oblivious": 6771,
      "aunt": 6772,
      "bast": 6773,
      "tip": 6774,
      "##96": 6775,
      "beg": 6776,
      "rein": 6777,
      "weigh": 6778,
      "##inder": 6779,
      "anytime": 6780,
      "sheep": 6781,
      "saved": 6782,
      "disli": 6783,
      "workers": 6784,
      "shoulder": 6785,
      "joining": 6786,
      "imply": 6787,
      "impulsive": 6788,
      "hardcore": 6789,
      "psychiat": 6790,
      "20s": 6791,
      "afford": 6792,
      "stupidity": 6793,
      "brains": 6794,
      "snap": 6795,
      "affected": 6796,
      "winning": 6797,
      "##ruction": 6798,
      "instinctual": 6799,
      "arrogance": 6800,
      "daydreaming": 6801,
      "loner": 6802,
      "instrument": 6803,
      "jan": 6804,
      "kitty": 6805,
      "mas": 6806,
      "pi": 6807,
      "ze": 6808,
      "##mark": 6809,
      "##23": 6810,
      "##eral": 6811,
      "##arks": 6812,
      "##arius": 6813,
      "stumb": 6814,
      "heal": 6815,
      "##cience": 6816,
      "interrupt": 6817,
      "##soever": 6818,
      "##active": 6819,
      "happily": 6820,
      "disrespect": 6821,
      "leag": 6822,
      "advise": 6823,
      "draining": 6824,
      "rave": 6825,
      "uncertain": 6826,
      "darkness": 6827,
      "occup": 6828,
      "refres": 6829,
      "touched": 6830,
      "smarter": 6831,
      "computers": 6832,
      "larger": 6833,
      "amounts": 6834,
      "holidays": 6835,
      "##itarian": 6836,
      "alike": 6837,
      "roles": 6838,
      "michael": 6839,
      "controlled": 6840,
      "birds": 6841,
      "lurking": 6842,
      "academic": 6843,
      "hospital": 6844,
      "excitement": 6845,
      "californ": 6846,
      "hundred": 6847,
      "ii": 6848,
      "lion": 6849,
      "pity": 6850,
      "##mes": 6851,
      "##fa": 6852,
      "##down": 6853,
      "##jo": 6854,
      "youth": 6855,
      "##ette": 6856,
      "pregn": 6857,
      "relating": 6858,
      "relates": 6859,
      "##osphere": 6860,
      "##ifies": 6861,
      "##aker": 6862,
      "careers": 6863,
      "explos": 6864,
      "trail": 6865,
      "consideration": 6866,
      "falls": 6867,
      "president": 6868,
      "admin": 6869,
      "touchy": 6870,
      "researching": 6871,
      "capacity": 6872,
      "impressed": 6873,
      "##craft": 6874,
      "##x92t": 6875,
      "procrastinating": 6876,
      "procrastinate": 6877,
      "ethics": 6878,
      "introduced": 6879,
      "miserable": 6880,
      "bc": 6881,
      "lic": 6882,
      "rot": 6883,
      "rab": 6884,
      "soo": 6885,
      "##puff": 6886,
      "##lim": 6887,
      "##bid": 6888,
      "##icit": 6889,
      "alter": 6890,
      "intensity": 6891,
      "##roat": 6892,
      "excess": 6893,
      "exagger": 6894,
      "##urs": 6895,
      "gray": 6896,
      "energetic": 6897,
      "mentality": 6898,
      "analytical": 6899,
      "forgotten": 6900,
      "universal": 6901,
      "essay": 6902,
      "moderate": 6903,
      "buddh": 6904,
      "intriguing": 6905,
      "utterly": 6906,
      "zombie": 6907,
      "australia": 6908,
      "grocery": 6909,
      "##natural": 6910,
      "53": 6911,
      "63": 6912,
      "fox": 6913,
      "##cil": 6914,
      "##rot": 6915,
      "##ril": 6916,
      "toxic": 6917,
      "##elly": 6918,
      "reven": 6919,
      "aloof": 6920,
      "whatsoever": 6921,
      "defe": 6922,
      "##ulate": 6923,
      "##rag": 6924,
      "chase": 6925,
      "##uded": 6926,
      "##ssss": 6927,
      "societ": 6928,
      "##lessly": 6929,
      "entit": 6930,
      "trapped": 6931,
      "gods": 6932,
      "england": 6933,
      "polar": 6934,
      "matches": 6935,
      "scenes": 6936,
      "hypoth": 6937,
      "bully": 6938,
      "lifesty": 6939,
      "wander": 6940,
      "assessment": 6941,
      "ocean": 6942,
      "cough": 6943,
      "dys": 6944,
      "gry": 6945,
      "gem": 6946,
      "kore": 6947,
      "nu": 6948,
      "pig": 6949,
      "ren": 6950,
      "tan": 6951,
      "##pie": 6952,
      "##wood": 6953,
      "##atable": 6954,
      "##icle": 6955,
      "somed": 6956,
      "exter": 6957,
      "##antic": 6958,
      "peers": 6959,
      "pros": 6960,
      "##ained": 6961,
      "manga": 6962,
      "happier": 6963,
      "##izations": 6964,
      "deser": 6965,
      "bits": 6966,
      "flag": 6967,
      "insensitive": 6968,
      "disconnect": 6969,
      "cheat": 6970,
      "synd": 6971,
      "corp": 6972,
      "imaginary": 6973,
      "engaged": 6974,
      "sentimental": 6975,
      "grace": 6976,
      "motor": 6977,
      "##bby": 6978,
      "creation": 6979,
      "numerous": 6980,
      "versa": 6981,
      "magical": 6982,
      "boxes": 6983,
      "teenage": 6984,
      "jungian": 6985,
      "ambi": 6986,
      "medications": 6987,
      "scenarios": 6988,
      "inevit": 6989,
      "##ivalent": 6990,
      "deleted": 6991,
      "unicorn": 6992,
      "bomb": 6993,
      "fans": 6994,
      "nast": 6995,
      "ron": 6996,
      "ration": 6997,
      "##nam": 6998,
      "##hil": 6999,
      "##rim": 7000,
      "rechar": 7001,
      "stating": 7002,
      "justify": 7003,
      "prison": 7004,
      "afric": 7005,
      "phen": 7006,
      "carefully": 7007,
      "bask": 7008,
      "commer": 7009,
      "humble": 7010,
      "socialize": 7011,
      "triv": 7012,
      "slam": 7013,
      "subs": 7014,
      "exams": 7015,
      "stayed": 7016,
      "unconscious": 7017,
      "despise": 7018,
      "crushes": 7019,
      "quoted": 7020,
      "ridiculously": 7021,
      "pretending": 7022,
      "contrary": 7023,
      "unfair": 7024,
      "russian": 7025,
      "unexpect": 7026,
      "44": 7027,
      "cit": 7028,
      "rose": 7029,
      "witch": 7030,
      "inability": 7031,
      "ancient": 7032,
      "stem": 7033,
      "weap": 7034,
      "chosen": 7035,
      "##earing": 7036,
      "needy": 7037,
      "grass": 7038,
      "genres": 7039,
      "##ache": 7040,
      "eval": 7041,
      "imagining": 7042,
      "uncomm": 7043,
      "discovering": 7044,
      "largely": 7045,
      "sympt": 7046,
      "pulling": 7047,
      "balls": 7048,
      "rejected": 7049,
      "nerdy": 7050,
      "flawed": 7051,
      "indicate": 7052,
      "vocal": 7053,
      "unlikely": 7054,
      "houses": 7055,
      "someday": 7056,
      "4th": 7057,
      "bout": 7058,
      "jon": 7059,
      "oct": 7060,
      "##iate": 7061,
      "##you": 7062,
      "##vy": 7063,
      "##♥♥": 7064,
      "theat": 7065,
      "##inger": 7066,
      "##eter": 7067,
      "stal": 7068,
      "sums": 7069,
      "conven": 7070,
      "que": 7071,
      "print": 7072,
      "speaks": 7073,
      "invite": 7074,
      "youngest": 7075,
      "viewpoint": 7076,
      "mainstream": 7077,
      "motives": 7078,
      "suggesting": 7079,
      "holds": 7080,
      "hitting": 7081,
      "empathetic": 7082,
      "athlet": 7083,
      "rolling": 7084,
      "atmosphere": 7085,
      "release": 7086,
      "sunday": 7087,
      "encyclopedia": 7088,
      "hypothet": 7089,
      "gryff": 7090,
      "56": 7091,
      "54": 7092,
      "fright": 7093,
      "oil": 7094,
      "##ziness": 7095,
      "tow": 7096,
      "##sexual": 7097,
      "##urance": 7098,
      "unrel": 7099,
      "brut": 7100,
      "learnt": 7101,
      "enjoys": 7102,
      "huffle": 7103,
      "terr": 7104,
      "godd": 7105,
      "commonly": 7106,
      "trusting": 7107,
      "misunderstanding": 7108,
      "##forward": 7109,
      "clicked": 7110,
      "verbally": 7111,
      "sincere": 7112,
      "##iffer": 7113,
      "absorbed": 7114,
      "inconsist": 7115,
      "mobile": 7116,
      "hufflepuff": 7117,
      "pil": 7118,
      "rip": 7119,
      "tid": 7120,
      "tie": 7121,
      "vot": 7122,
      "xxx": 7123,
      "##nis": 7124,
      "##fli": 7125,
      "##py": 7126,
      "##etime": 7127,
      "alas": 7128,
      "stretch": 7129,
      "shout": 7130,
      "shru": 7131,
      "exhib": 7132,
      "los": 7133,
      "##indor": 7134,
      "disreg": 7135,
      "pron": 7136,
      "sounding": 7137,
      "remark": 7138,
      "advanced": 7139,
      "curse": 7140,
      "distinction": 7141,
      "grab": 7142,
      "silver": 7143,
      "straightforward": 7144,
      "goofy": 7145,
      "replace": 7146,
      "pengu": 7147,
      "cookie": 7148,
      "##hhhhhhhh": 7149,
      "tradition": 7150,
      "graduated": 7151,
      "captain": 7152,
      "fortun": 7153,
      "rainbow": 7154,
      "dread": 7155,
      "egg": 7156,
      "eternal": 7157,
      "gross": 7158,
      "kar": 7159,
      "rise": 7160,
      "##kers": 7161,
      "##vil": 7162,
      "##rey": 7163,
      "beast": 7164,
      "##entional": 7165,
      "knight": 7166,
      "##umn": 7167,
      "upload": 7168,
      "diss": 7169,
      "disorders": 7170,
      "legs": 7171,
      "telev": 7172,
      "keir": 7173,
      "afterno": 7174,
      "laught": 7175,
      "headed": 7176,
      "subfor": 7177,
      "waking": 7178,
      "cheated": 7179,
      "glob": 7180,
      "kills": 7181,
      "appealing": 7182,
      "photography": 7183,
      "wasted": 7184,
      "destruct": 7185,
      "amongst": 7186,
      "deny": 7187,
      "ethical": 7188,
      "audience": 7189,
      "introduce": 7190,
      "torn": 7191,
      "prepare": 7192,
      "netfli": 7193,
      "covered": 7194,
      "smiles": 7195,
      "cycle": 7196,
      "owl": 7197,
      "participate": 7198,
      "principles": 7199,
      "terrified": 7200,
      "sharp": 7201,
      "mathematics": 7202,
      "exchange": 7203,
      "unstable": 7204,
      "lifestyle": 7205,
      "netflix": 7206,
      "38": 7207,
      "42": 7208,
      "hood": 7209,
      "hits": 7210,
      "kat": 7211,
      "rum": 7212,
      "serve": 7213,
      "##father": 7214,
      "##wich": 7215,
      "##lor": 7216,
      "##sters": 7217,
      "##otyp": 7218,
      "##icate": 7219,
      "sticking": 7220,
      "sum": 7221,
      "cher": 7222,
      "chap": 7223,
      "expand": 7224,
      "talented": 7225,
      "posters": 7226,
      "partially": 7227,
      "offered": 7228,
      "impat": 7229,
      "worlds": 7230,
      "robert": 7231,
      "crave": 7232,
      "hugging": 7233,
      "##while": 7234,
      "secure": 7235,
      "courses": 7236,
      "creates": 7237,
      "miscon": 7238,
      "sucked": 7239,
      "moods": 7240,
      "doubts": 7241,
      "troubles": 7242,
      "deliber": 7243,
      "motivations": 7244,
      "chatting": 7245,
      "loads": 7246,
      "teddy": 7247,
      "masters": 7248,
      "duty": 7249,
      "sympathy": 7250,
      "lecture": 7251,
      "swimming": 7252,
      "british": 7253,
      "solely": 7254,
      "libertarian": 7255,
      "cud": 7256,
      "naz": 7257,
      "sisters": 7258,
      "##off": 7259,
      "##hop": 7260,
      "##lam": 7261,
      "sequ": 7262,
      "inqu": 7263,
      "items": 7264,
      "liqu": 7265,
      "lift": 7266,
      "stark": 7267,
      "conce": 7268,
      "wouldnt": 7269,
      "mail": 7270,
      "enne": 7271,
      "prec": 7272,
      "tail": 7273,
      "##ossy": 7274,
      "reads": 7275,
      "resem": 7276,
      "price": 7277,
      "firstly": 7278,
      "blond": 7279,
      "scares": 7280,
      "command": 7281,
      "insan": 7282,
      "nicely": 7283,
      "caff": 7284,
      "##aware": 7285,
      "severe": 7286,
      "lights": 7287,
      "transform": 7288,
      "limits": 7289,
      "secrets": 7290,
      "pursuing": 7291,
      "portray": 7292,
      "##comes": 7293,
      "protective": 7294,
      "independence": 7295,
      "improvement": 7296,
      "sandwich": 7297,
      "exclusive": 7298,
      "prag": 7299,
      "puzzle": 7300,
      "industry": 7301,
      "oooh": 7302,
      "##iques": 7303,
      "bubbly": 7304,
      "##200b": 7305,
      "california": 7306,
      "gryffindor": 7307,
      "afternoon": 7308,
      "laughter": 7309,
      "rar": 7310,
      "##nie": 7311,
      "##fx": 7312,
      "##iel": 7313,
      "##pher": 7314,
      "##da": 7315,
      "thumb": 7316,
      "##arant": 7317,
      "##eds": 7318,
      "anarch": 7319,
      "##ilight": 7320,
      "heat": 7321,
      "ambit": 7322,
      "##itect": 7323,
      "faced": 7324,
      "saf": 7325,
      "blast": 7326,
      "esp": 7327,
      "wave": 7328,
      "court": 7329,
      "douche": 7330,
      "collection": 7331,
      "singer": 7332,
      "bothering": 7333,
      "##resp": 7334,
      "riding": 7335,
      "autism": 7336,
      "disagre": 7337,
      "centered": 7338,
      "flowers": 7339,
      "bullet": 7340,
      "gifted": 7341,
      "performance": 7342,
      "architect": 7343,
      "venting": 7344,
      "tricky": 7345,
      "intrigued": 7346,
      "exhausting": 7347,
      "trigger": 7348,
      "neighbor": 7349,
      "thoroughly": 7350,
      "skeptical": 7351,
      "cigare": 7352,
      "nasty": 7353,
      "phenom": 7354,
      "basket": 7355,
      "uncommon": 7356,
      "unrelated": 7357,
      "television": 7358,
      "dust": 7359,
      "dull": 7360,
      "gap": 7361,
      "mc": 7362,
      "##ees": 7363,
      "##uity": 7364,
      "##yer": 7365,
      "##wa": 7366,
      "##cel": 7367,
      "##utter": 7368,
      "ens": 7369,
      "enxp": 7370,
      "##iger": 7371,
      "writers": 7372,
      "grud": 7373,
      "twilight": 7374,
      "guesses": 7375,
      "guessed": 7376,
      "downs": 7377,
      "insulting": 7378,
      "indiffer": 7379,
      "crappy": 7380,
      "handwriting": 7381,
      "openness": 7382,
      "wishes": 7383,
      "dealt": 7384,
      "medi": 7385,
      "acceptance": 7386,
      "damage": 7387,
      "extraversion": 7388,
      "rocks": 7389,
      "presented": 7390,
      "privacy": 7391,
      "peter": 7392,
      "fields": 7393,
      "instincts": 7394,
      "skinny": 7395,
      "golden": 7396,
      "cosm": 7397,
      "officially": 7398,
      "disease": 7399,
      "league": 7400,
      "revenge": 7401,
      "52": 7402,
      "bank": 7403,
      "cere": 7404,
      "eggs": 7405,
      "fer": 7406,
      "kitch": 7407,
      "sps": 7408,
      "##real": 7409,
      "##itor": 7410,
      "lied": 7411,
      "stock": 7412,
      "washing": 7413,
      "suits": 7414,
      "unaware": 7415,
      "##amele": 7416,
      "pref": 7417,
      "##osh": 7418,
      "spare": 7419,
      "hiking": 7420,
      "remove": 7421,
      "indie": 7422,
      "slip": 7423,
      "musician": 7424,
      "stops": 7425,
      "distinct": 7426,
      "connecting": 7427,
      "analogy": 7428,
      "paral": 7429,
      "mistype": 7430,
      "closet": 7431,
      "burning": 7432,
      "effectively": 7433,
      "combo": 7434,
      "attacks": 7435,
      "pathetic": 7436,
      "util": 7437,
      "micro": 7438,
      "medication": 7439,
      "survival": 7440,
      "germany": 7441,
      "##cending": 7442,
      "department": 7443,
      "48": 7444,
      "ec": 7445,
      "ga": 7446,
      "hating": 7447,
      "mort": 7448,
      "##hand": 7449,
      "##vable": 7450,
      "##bal": 7451,
      "youre": 7452,
      "##amental": 7453,
      "intend": 7454,
      "chair": 7455,
      "##arts": 7456,
      "infat": 7457,
      "defensive": 7458,
      "conspir": 7459,
      "waves": 7460,
      "bugs": 7461,
      "killer": 7462,
      "organization": 7463,
      "discovery": 7464,
      "elements": 7465,
      "criticize": 7466,
      "sexuality": 7467,
      "hypocr": 7468,
      "seasons": 7469,
      "##aaaaaaaa": 7470,
      "idiots": 7471,
      "grounded": 7472,
      "electric": 7473,
      "auditory": 7474,
      "narcissism": 7475,
      "tolerance": 7476,
      "ixfp": 7477,
      "recip": 7478,
      "junior": 7479,
      "greek": 7480,
      "syndrome": 7481,
      "trivial": 7482,
      "global": 7483,
      "aha": 7484,
      "aug": 7485,
      "gir": 7486,
      "jul": 7487,
      "jaw": 7488,
      "jazz": 7489,
      "melt": 7490,
      "rising": 7491,
      "##vity": 7492,
      "##inging": 7493,
      "beating": 7494,
      "meal": 7495,
      "align": 7496,
      "##illy": 7497,
      "##opher": 7498,
      "allerg": 7499,
      "polic": 7500,
      "prejud": 7501,
      "genes": 7502,
      "##irect": 7503,
      "applying": 7504,
      "soundtra": 7505,
      "removed": 7506,
      "download": 7507,
      "march": 7508,
      "##phones": 7509,
      "openly": 7510,
      "##shine": 7511,
      "retarded": 7512,
      "sooner": 7513,
      "trek": 7514,
      "frequent": 7515,
      "digital": 7516,
      "introduction": 7517,
      "investig": 7518,
      "cooper": 7519,
      "medicine": 7520,
      "screwed": 7521,
      "bolded": 7522,
      "european": 7523,
      "xntp": 7524,
      "##interp": 7525,
      "inherently": 7526,
      "italian": 7527,
      "bum": 7528,
      "buck": 7529,
      "gas": 7530,
      "mond": 7531,
      "pace": 7532,
      "pump": 7533,
      "##parent": 7534,
      "toy": 7535,
      "##uts": 7536,
      "guarant": 7537,
      "##icked": 7538,
      "implic": 7539,
      "serial": 7540,
      "accent": 7541,
      "buff": 7542,
      "bubble": 7543,
      "register": 7544,
      "raw": 7545,
      "mission": 7546,
      "religions": 7547,
      "hopes": 7548,
      "christianity": 7549,
      "sending": 7550,
      "misunderstand": 7551,
      "influenced": 7552,
      "represents": 7553,
      "electronic": 7554,
      "intimidated": 7555,
      "metaphor": 7556,
      "exhausted": 7557,
      "customer": 7558,
      "isolated": 7559,
      "garden": 7560,
      "vampire": 7561,
      "yoga": 7562,
      "caffe": 7563,
      "kitchen": 7564,
      "diction": 7565,
      "ein": 7566,
      "ears": 7567,
      "pour": 7568,
      "##ku": 7569,
      "##91": 7570,
      "##73": 7571,
      "doom": 7572,
      "##urities": 7573,
      "plant": 7574,
      "underlying": 7575,
      "infx": 7576,
      "scri": 7577,
      "scorp": 7578,
      "tease": 7579,
      "##ifting": 7580,
      "insist": 7581,
      "indul": 7582,
      "accused": 7583,
      "famil": 7584,
      "mini": 7585,
      "follows": 7586,
      "admir": 7587,
      "processing": 7588,
      "retur": 7589,
      "failing": 7590,
      "idealist": 7591,
      "burden": 7592,
      "cutting": 7593,
      "##nov": 7594,
      "sunshine": 7595,
      "convincing": 7596,
      "robots": 7597,
      "insecurity": 7598,
      "darn": 7599,
      "confession": 7600,
      "xnfp": 7601,
      "minimal": 7602,
      "disturbing": 7603,
      "ashamed": 7604,
      "paradox": 7605,
      "discipline": 7606,
      "inacc": 7607,
      "keirsey": 7608,
      "43": 7609,
      "cure": 7610,
      "ech": 7611,
      "narr": 7612,
      "pit": 7613,
      "ry": 7614,
      "sque": 7615,
      "tour": 7616,
      "##eve": 7617,
      "##ients": 7618,
      "##gl": 7619,
      "##po": 7620,
      "inapp": 7621,
      "whoo": 7622,
      "albe": 7623,
      "shakes": 7624,
      "chamele": 7625,
      "dile": 7626,
      "spr": 7627,
      "schem": 7628,
      "drown": 7629,
      "couch": 7630,
      "sensitivity": 7631,
      "invited": 7632,
      "functional": 7633,
      "distingu": 7634,
      "sweat": 7635,
      "straw": 7636,
      "forgetting": 7637,
      "circles": 7638,
      "bedroom": 7639,
      "poorly": 7640,
      "dressed": 7641,
      "condes": 7642,
      "insecurities": 7643,
      "atheism": 7644,
      "engineer": 7645,
      "categor": 7646,
      "settings": 7647,
      "gathering": 7648,
      "celebrity": 7649,
      "mechanical": 7650,
      "hallow": 7651,
      "unreal": 7652,
      "maxim": 7653,
      "coworkers": 7654,
      "lucid": 7655,
      "destructive": 7656,
      "ahhh": 7657,
      "gear": 7658,
      "nom": 7659,
      "ox": 7660,
      "wishing": 7661,
      "##han": 7662,
      "##´s": 7663,
      "thick": 7664,
      "threw": 7665,
      "sess": 7666,
      "##asion": 7667,
      "stability": 7668,
      "##ulated": 7669,
      "knife": 7670,
      "fruit": 7671,
      "ade": 7672,
      "bell": 7673,
      "newb": 7674,
      "mates": 7675,
      "cheers": 7676,
      "reput": 7677,
      "##redict": 7678,
      "drift": 7679,
      "psychic": 7680,
      "viewed": 7681,
      "hearted": 7682,
      "uncon": 7683,
      "soup": 7684,
      "quietly": 7685,
      "eyebr": 7686,
      "stephen": 7687,
      "treatment": 7688,
      "intellectually": 7689,
      "petty": 7690,
      "fascinated": 7691,
      "hypothes": 7692,
      "dynamics": 7693,
      "priority": 7694,
      "guns": 7695,
      "unpredict": 7696,
      "introspection": 7697,
      "compromise": 7698,
      "permanent": 7699,
      "incompetent": 7700,
      "pronoun": 7701,
      "albeit": 7702,
      "bass": 7703,
      "cope": 7704,
      "pir": 7705,
      "sink": 7706,
      "sau": 7707,
      "tut": 7708,
      "wra": 7709,
      "##ean": 7710,
      "##oom": 7711,
      "##ham": 7712,
      "##3000": 7713,
      "thri": 7714,
      "##storm": 7715,
      "forces": 7716,
      "##idal": 7717,
      "pock": 7718,
      "poems": 7719,
      "guid": 7720,
      "perpet": 7721,
      "grin": 7722,
      "desires": 7723,
      "phob": 7724,
      "phleg": 7725,
      "teasing": 7726,
      "##berry": 7727,
      "implying": 7728,
      "##ormal": 7729,
      "thankful": 7730,
      "##0000": 7731,
      "strongest": 7732,
      "edited": 7733,
      "imagined": 7734,
      "sciences": 7735,
      "misinterp": 7736,
      "breakup": 7737,
      "dominance": 7738,
      "approaching": 7739,
      "steam": 7740,
      "struggled": 7741,
      "purposes": 7742,
      "holes": 7743,
      "dropping": 7744,
      "essence": 7745,
      "clarity": 7746,
      "directions": 7747,
      "escap": 7748,
      "nails": 7749,
      "hunter": 7750,
      "encountered": 7751,
      "thousands": 7752,
      "economics": 7753,
      "emphasis": 7754,
      "repetitive": 7755,
      "deserves": 7756,
      "bust": 7757,
      "fest": 7758,
      "gt": 7759,
      "gorge": 7760,
      "pse": 7761,
      "river": 7762,
      "tay": 7763,
      "tension": 7764,
      "wiz": 7765,
      "xx": 7766,
      "##mo": 7767,
      "##cr": 7768,
      "##cat": 7769,
      "##rict": 7770,
      "##ban": 7771,
      "income": 7772,
      "##sty": 7773,
      "##asy": 7774,
      "##rix": 7775,
      "chris": 7776,
      "france": 7777,
      "prol": 7778,
      "persu": 7779,
      "mund": 7780,
      "willi": 7781,
      "nevermind": 7782,
      "blat": 7783,
      "extended": 7784,
      "##verted": 7785,
      "obt": 7786,
      "decl": 7787,
      "buzz": 7788,
      "surg": 7789,
      "suggests": 7790,
      "neglect": 7791,
      "illustr": 7792,
      "objectively": 7793,
      "challenges": 7794,
      "homosexual": 7795,
      "nerves": 7796,
      "punish": 7797,
      "judgment": 7798,
      "lifetime": 7799,
      "freshman": 7800,
      "entertainment": 7801,
      "dishes": 7802,
      "fluffy": 7803,
      "corporate": 7804,
      "pseud": 7805,
      "cab": 7806,
      "hind": 7807,
      "mile": 7808,
      "punk": 7809,
      "##uk": 7810,
      "##house": 7811,
      "##bi": 7812,
      "throat": 7813,
      "inch": 7814,
      "stood": 7815,
      "shr": 7816,
      "united": 7817,
      "manual": 7818,
      "##mma": 7819,
      "lasted": 7820,
      "traff": 7821,
      "monkey": 7822,
      "absent": 7823,
      "##aze": 7824,
      "judged": 7825,
      "profiles": 7826,
      "solutions": 7827,
      "parrot": 7828,
      "varies": 7829,
      "strangely": 7830,
      "politic": 7831,
      "improving": 7832,
      "strive": 7833,
      "magaz": 7834,
      "repeating": 7835,
      "2000": 7836,
      "concerning": 7837,
      "irritating": 7838,
      "colours": 7839,
      "fulfilling": 7840,
      "nightmare": 7841,
      "vegetarian": 7842,
      "sacrifice": 7843,
      "wheel": 7844,
      "criminal": 7845,
      "anonymous": 7846,
      "invisible": 7847,
      "subscri": 7848,
      "conspiracy": 7849,
      "ai": 7850,
      "cert": 7851,
      "fid": 7852,
      "lust": 7853,
      "mere": 7854,
      "rice": 7855,
      "yell": 7856,
      "##ns": 7857,
      "##win": 7858,
      "##zer": 7859,
      "##inations": 7860,
      "##ado": 7861,
      "##rier": 7862,
      "reader": 7863,
      "genetic": 7864,
      "implies": 7865,
      "##pleas": 7866,
      "decade": 7867,
      "##oster": 7868,
      "elsewhere": 7869,
      "bug": 7870,
      "valent": 7871,
      "skim": 7872,
      "speaker": 7873,
      "darker": 7874,
      "idealism": 7875,
      "smoked": 7876,
      "impressive": 7877,
      "attempts": 7878,
      "clubs": 7879,
      "##bye": 7880,
      "gained": 7881,
      "invested": 7882,
      "jealousy": 7883,
      "##working": 7884,
      "rebell": 7885,
      "novels": 7886,
      "enthusiastic": 7887,
      "increase": 7888,
      "articulate": 7889,
      "features": 7890,
      "inaccur": 7891,
      "mundane": 7892,
      "fold": 7893,
      "hunt": 7894,
      "lam": 7895,
      "yelling": 7896,
      "##uits": 7897,
      "##53": 7898,
      "##rust": 7899,
      "##atoes": 7900,
      "##oning": 7901,
      "##arn": 7902,
      "##uto": 7903,
      "lips": 7904,
      "forcing": 7905,
      "##ula": 7906,
      "vegan": 7907,
      "##umsy": 7908,
      "unem": 7909,
      "plastic": 7910,
      "clumsy": 7911,
      "advert": 7912,
      "##fulness": 7913,
      "defining": 7914,
      "ohh": 7915,
      "drum": 7916,
      "learner": 7917,
      "##eee": 7918,
      "submiss": 7919,
      "dreamer": 7920,
      "creator": 7921,
      "sets": 7922,
      "exceptions": 7923,
      "visiting": 7924,
      "practicing": 7925,
      "retreat": 7926,
      "fourth": 7927,
      "central": 7928,
      "papers": 7929,
      "satisfying": 7930,
      "ambition": 7931,
      "switched": 7932,
      "inspiring": 7933,
      "folk": 7934,
      "hatred": 7935,
      "concerns": 7936,
      "slept": 7937,
      "mountains": 7938,
      "withdrawn": 7939,
      "compatibility": 7940,
      "marketing": 7941,
      "designed": 7942,
      "dedicated": 7943,
      "outwardly": 7944,
      "i´m": 7945,
      "subtype": 7946,
      "psychiatrist": 7947,
      "stumbled": 7948,
      "entitled": 7949,
      "cuddle": 7950,
      "caffeine": 7951,
      "families": 7952,
      "ace": 7953,
      "bac": 7954,
      "cod": 7955,
      "cities": 7956,
      "ditt": 7957,
      "duck": 7958,
      "ny": 7959,
      "pix": 7960,
      "sab": 7961,
      "ye": 7962,
      "##cup": 7963,
      "##orter": 7964,
      "##uting": 7965,
      "##entric": 7966,
      "##unction": 7967,
      "dies": 7968,
      "dipl": 7969,
      "heroes": 7970,
      "pert": 7971,
      "keen": 7972,
      "branch": 7973,
      "thankfully": 7974,
      "handful": 7975,
      "preferably": 7976,
      "dreamed": 7977,
      "incap": 7978,
      "supernatural": 7979,
      "immense": 7980,
      "horribly": 7981,
      "foods": 7982,
      "fixing": 7983,
      "unfortunate": 7984,
      "environmental": 7985,
      "intensely": 7986,
      "beneficial": 7987,
      "satisfaction": 7988,
      "smells": 7989,
      "revolution": 7990,
      "constructive": 7991,
      "masturb": 7992,
      "introspective": 7993,
      "trauma": 7994,
      "browsing": 7995,
      "execut": 7996,
      "citiz": 7997,
      "disregard": 7998,
      "blonde": 7999,
      "halloween": 8000,
      "gorgeous": 8001,
      "ditto": 8002,
      "500": 8003,
      "67": 8004,
      "bush": 8005,
      "fo": 8006,
      "ls": 8007,
      "ns": 8008,
      "ot": 8009,
      "vid": 8010,
      "##liness": 8011,
      "##42": 8012,
      "##oration": 8013,
      "##isation": 8014,
      "##roid": 8015,
      "atle": 8016,
      "pean": 8017,
      "convey": 8018,
      "actor": 8019,
      "undergrad": 8020,
      "scroll": 8021,
      "consens": 8022,
      "simil": 8023,
      "explode": 8024,
      "cheesy": 8025,
      "sketch": 8026,
      "figures": 8027,
      "solved": 8028,
      "respected": 8029,
      "literal": 8030,
      "projecting": 8031,
      "photograph": 8032,
      "girlfriends": 8033,
      "device": 8034,
      "essential": 8035,
      "##3333": 8036,
      "denial": 8037,
      "equivalent": 8038,
      "woods": 8039,
      "tattoos": 8040,
      "flexible": 8041,
      "subforum": 8042,
      "einstein": 8043,
      "phlegmatic": 8044,
      "taylor": 8045,
      "traffic": 8046,
      "62": 8047,
      "aust": 8048,
      "bore": 8049,
      "bachel": 8050,
      "drew": 8051,
      "fri": 8052,
      "nag": 8053,
      "ri": 8054,
      "wre": 8055,
      "yess": 8056,
      "yum": 8057,
      "##gen": 8058,
      "##zs": 8059,
      "seat": 8060,
      "##ativity": 8061,
      "theor": 8062,
      "##elle": 8063,
      "##owing": 8064,
      "socc": 8065,
      "deem": 8066,
      "##rain": 8067,
      "quart": 8068,
      "##ander": 8069,
      "herm": 8070,
      "adren": 8071,
      "theirs": 8072,
      "##izar": 8073,
      "meanings": 8074,
      "typings": 8075,
      "realization": 8076,
      "definitive": 8077,
      "flower": 8078,
      "selling": 8079,
      "worded": 8080,
      "explicit": 8081,
      "marvel": 8082,
      "doub": 8083,
      "racist": 8084,
      "##ashed": 8085,
      "informative": 8086,
      "amazon": 8087,
      "halfway": 8088,
      "moody": 8089,
      "involving": 8090,
      "demanding": 8091,
      "struggles": 8092,
      "cultures": 8093,
      "placed": 8094,
      "fuel": 8095,
      "atheists": 8096,
      "validation": 8097,
      "bloody": 8098,
      "adventures": 8099,
      "breathing": 8100,
      "candid": 8101,
      "perfectionist": 8102,
      "confrontation": 8103,
      "counselor": 8104,
      "pondering": 8105,
      "compassionate": 8106,
      "imaginative": 8107,
      "unexpected": 8108,
      "hypothetical": 8109,
      "reciproc": 8110,
      "inappropriate": 8111,
      "dilemma": 8112,
      "diplom": 8113,
      "soccer": 8114,
      "ahaha": 8115,
      "aries": 8116,
      "hr": 8117,
      "lit": 8118,
      "pitch": 8119,
      "rang": 8120,
      "tony": 8121,
      "##mat": 8122,
      "##top": 8123,
      "##ups": 8124,
      "##yl": 8125,
      "##pd": 8126,
      "##83": 8127,
      "##86": 8128,
      "##onent": 8129,
      "theater": 8130,
      "##anth": 8131,
      "stro": 8132,
      "stance": 8133,
      "stead": 8134,
      "stages": 8135,
      "##urous": 8136,
      "chronic": 8137,
      "trade": 8138,
      "##eable": 8139,
      "agend": 8140,
      "relatives": 8141,
      "##osing": 8142,
      "obama": 8143,
      "instances": 8144,
      "foundation": 8145,
      "nihil": 8146,
      "eachother": 8147,
      "editing": 8148,
      "international": 8149,
      "existed": 8150,
      "potato": 8151,
      "hitch": 8152,
      "steal": 8153,
      "odds": 8154,
      "extraverts": 8155,
      "conditions": 8156,
      "##rooms": 8157,
      "blend": 8158,
      "schedul": 8159,
      "texas": 8160,
      "martial": 8161,
      "geek": 8162,
      "coworker": 8163,
      "galax": 8164,
      "bunny": 8165,
      "rigid": 8166,
      "repeatedly": 8167,
      "disclaim": 8168,
      "pregnant": 8169,
      "recharge": 8170,
      "monday": 8171,
      "condescending": 8172,
      "adrenal": 8173,
      "31": 8174,
      "dw": 8175,
      "dab": 8176,
      "gle": 8177,
      "til": 8178,
      "zod": 8179,
      "##wing": 8180,
      "toss": 8181,
      "##rep": 8182,
      "##ari": 8183,
      "##enance": 8184,
      "##alf": 8185,
      "innov": 8186,
      "##icting": 8187,
      "lil": 8188,
      "alarm": 8189,
      "mold": 8190,
      "shes": 8191,
      "feely": 8192,
      "tag": 8193,
      "diam": 8194,
      "adam": 8195,
      "joe": 8196,
      "definately": 8197,
      "trips": 8198,
      "certainty": 8199,
      "carl": 8200,
      "classmates": 8201,
      "laziness": 8202,
      "engaging": 8203,
      "norms": 8204,
      "1000": 8205,
      "identifying": 8206,
      "##acle": 8207,
      "illusion": 8208,
      "supporting": 8209,
      "autumn": 8210,
      "companies": 8211,
      "empathize": 8212,
      "comforting": 8213,
      "violin": 8214,
      "astron": 8215,
      "weekends": 8216,
      "billion": 8217,
      "latin": 8218,
      "signed": 8219,
      "dollars": 8220,
      "cartoon": 8221,
      "minimum": 8222,
      "desperate": 8223,
      "desperately": 8224,
      "lesb": 8225,
      "##cafe": 8226,
      "anthrop": 8227,
      "voices": 8228,
      "advocate": 8229,
      "efficiency": 8230,
      "reinfor": 8231,
      "symptoms": 8232,
      "unpredictable": 8233,
      "atleast": 8234,
      "similarly": 8235,
      "zodiac": 8236,
      "37": 8237,
      "aid": 8238,
      "dorm": 8239,
      "las": 8240,
      "tad": 8241,
      "##pire": 8242,
      "##kk": 8243,
      "##vol": 8244,
      "##itting": 8245,
      "androg": 8246,
      "inj": 8247,
      "reverse": 8248,
      "##aded": 8249,
      "##irk": 8250,
      "heels": 8251,
      "feature": 8252,
      "nec": 8253,
      "dex": 8254,
      "##illing": 8255,
      "truck": 8256,
      "##cif": 8257,
      "preach": 8258,
      "genetics": 8259,
      "brush": 8260,
      "##ublic": 8261,
      "breed": 8262,
      "supervis": 8263,
      "functioning": 8264,
      "distrib": 8265,
      "sleepy": 8266,
      "hmmmm": 8267,
      "roman": 8268,
      "mentioning": 8269,
      "boost": 8270,
      "trusted": 8271,
      "avoidant": 8272,
      "noneth": 8273,
      "pays": 8274,
      "accuracy": 8275,
      "smiley": 8276,
      "organize": 8277,
      "demean": 8278,
      "autistic": 8279,
      "allowing": 8280,
      "reaching": 8281,
      "traditions": 8282,
      "##rrrr": 8283,
      "kicked": 8284,
      "##worthy": 8285,
      "campus": 8286,
      "butterfly": 8287,
      "percentage": 8288,
      "inspire": 8289,
      "principle": 8290,
      "fundamental": 8291,
      "ironically": 8292,
      "clouds": 8293,
      "established": 8294,
      "ix92m": 8295,
      "charismatic": 8296,
      "divorce": 8297,
      "navig": 8298,
      "clinical": 8299,
      "bodies": 8300,
      "august": 8301,
      "dictionary": 8302,
      "script": 8303,
      "nonetheless": 8304,
      "drove": 8305,
      "fate": 8306,
      "fired": 8307,
      "tu": 8308,
      "tent": 8309,
      "##fall": 8310,
      "##kind": 8311,
      "socks": 8312,
      "intx": 8313,
      "sus": 8314,
      "lovers": 8315,
      "mand": 8316,
      "plants": 8317,
      "relie": 8318,
      "resort": 8319,
      "blush": 8320,
      "backwards": 8321,
      "imper": 8322,
      "sociable": 8323,
      "highlight": 8324,
      "coast": 8325,
      "trap": 8326,
      "matt": 8327,
      "seriousness": 8328,
      "niet": 8329,
      "incident": 8330,
      "irish": 8331,
      "swift": 8332,
      "meds": 8333,
      "avoidance": 8334,
      "delay": 8335,
      "slightest": 8336,
      "kitten": 8337,
      "presentation": 8338,
      "labels": 8339,
      "holmes": 8340,
      "scientists": 8341,
      "##holes": 8342,
      "feminism": 8343,
      "prince": 8344,
      "homes": 8345,
      "digging": 8346,
      "clarification": 8347,
      "hehehe": 8348,
      "explanations": 8349,
      "products": 8350,
      "square": 8351,
      "route": 8352,
      "albums": 8353,
      "accomplished": 8354,
      "acknowled": 8355,
      "stole": 8356,
      "locked": 8357,
      "application": 8358,
      "nostalgic": 8359,
      "disgusting": 8360,
      "charlie": 8361,
      "rpg": 8362,
      "orientation": 8363,
      "license": 8364,
      "penguin": 8365,
      "misinterpret": 8366,
      "39": 8367,
      "eag": 8368,
      "fw": 8369,
      "mary": 8370,
      "niss": 8371,
      "rick": 8372,
      "sant": 8373,
      "##xim": 8374,
      "##itute": 8375,
      "##omn": 8376,
      "##eline": 8377,
      "chasing": 8378,
      "veh": 8379,
      "precious": 8380,
      "clu": 8381,
      "##acking": 8382,
      "sav": 8383,
      "offering": 8384,
      "phones": 8385,
      "joker": 8386,
      "obst": 8387,
      "remains": 8388,
      "##ucky": 8389,
      "trained": 8390,
      "triple": 8391,
      "completed": 8392,
      "sword": 8393,
      "psycholog": 8394,
      "rac": 8395,
      "difficulties": 8396,
      "dominate": 8397,
      "burned": 8398,
      "shyness": 8399,
      "pleased": 8400,
      "recommended": 8401,
      "interpersonal": 8402,
      "johnny": 8403,
      "categories": 8404,
      "network": 8405,
      "translate": 8406,
      "screaming": 8407,
      "superiority": 8408,
      "economy": 8409,
      "vulnerability": 8410,
      "##yyyyyyyy": 8411,
      "fluent": 8412,
      "capitalism": 8413,
      "ixtj": 8414,
      "platonic": 8415,
      "counseling": 8416,
      "documentary": 8417,
      "nightmares": 8418,
      "apathetic": 8419,
      "suspicious": 8420,
      "disappear": 8421,
      "ordinary": 8422,
      "volunteer": 8423,
      "indecisive": 8424,
      "ambivert": 8425,
      "impatient": 8426,
      "basketball": 8427,
      "reputation": 8428,
      "bacon": 8429,
      "incapable": 8430,
      "dexter": 8431,
      "horm": 8432,
      "ky": 8433,
      "poo": 8434,
      "ties": 8435,
      "##col": 8436,
      "##bon": 8437,
      "##bor": 8438,
      "##bot": 8439,
      "##bag": 8440,
      "##inal": 8441,
      "##inent": 8442,
      "toast": 8443,
      "toile": 8444,
      "abn": 8445,
      "exfp": 8446,
      "##ella": 8447,
      "china": 8448,
      "poly": 8449,
      "tril": 8450,
      "##umble": 8451,
      "arc": 8452,
      "cliche": 8453,
      "exposed": 8454,
      "spiders": 8455,
      "tale": 8456,
      "empir": 8457,
      "##agram": 8458,
      "leo": 8459,
      "scott": 8460,
      "implement": 8461,
      "fiance": 8462,
      "muslim": 8463,
      "colored": 8464,
      "april": 8465,
      "##isms": 8466,
      "mari": 8467,
      "dreamy": 8468,
      "fucks": 8469,
      "obsc": 8470,
      "positions": 8471,
      "controvers": 8472,
      "##ganized": 8473,
      "brainstorm": 8474,
      "midnight": 8475,
      "##ynous": 8476,
      "##apping": 8477,
      "century": 8478,
      "claiming": 8479,
      "##ductive": 8480,
      "dressing": 8481,
      "keyboard": 8482,
      "crossed": 8483,
      "aliens": 8484,
      "ambig": 8485,
      "pairing": 8486,
      "##works": 8487,
      "##ttes": 8488,
      "mixt": 8489,
      "cuddly": 8490,
      "integrity": 8491,
      "ixtp": 8492,
      "swedish": 8493,
      "hooked": 8494,
      "ipad": 8495,
      "comprehend": 8496,
      "coincidence": 8497,
      "premise": 8498,
      "soundtrack": 8499,
      "disclaimer": 8500,
      "androgynous": 8501,
      "asexual": 8502,
      "fif": 8503,
      "merc": 8504,
      "nit": 8505,
      "pad": 8506,
      "pff": 8507,
      "##fish": 8508,
      "##uated": 8509,
      "##rick": 8510,
      "##inator": 8511,
      "##encing": 8512,
      "##itution": 8513,
      "befriend": 8514,
      "liar": 8515,
      "ship": 8516,
      "wealth": 8517,
      "comics": 8518,
      "chain": 8519,
      "##geon": 8520,
      "quad": 8521,
      "prev": 8522,
      "##osition": 8523,
      "grat": 8524,
      "twitch": 8525,
      "phd": 8526,
      "impul": 8527,
      "playlist": 8528,
      "rofl": 8529,
      "indu": 8530,
      "craft": 8531,
      "finn": 8532,
      "glance": 8533,
      "wished": 8534,
      "boot": 8535,
      "boards": 8536,
      "format": 8537,
      "2010": 8538,
      "signals": 8539,
      "amazed": 8540,
      "variant": 8541,
      "worthless": 8542,
      "begins": 8543,
      "awkwardness": 8544,
      "conventional": 8545,
      "delight": 8546,
      "motivate": 8547,
      "ntp": 8548,
      "barb": 8549,
      "warmth": 8550,
      "privile": 8551,
      "pencil": 8552,
      "treas": 8553,
      "christians": 8554,
      "agreement": 8555,
      "puppy": 8556,
      "quoting": 8557,
      "portion": 8558,
      "portra": 8559,
      "bullying": 8560,
      "diagnosis": 8561,
      "minority": 8562,
      "shooting": 8563,
      "castle": 8564,
      "praise": 8565,
      "dishon": 8566,
      "terrifying": 8567,
      "hunting": 8568,
      "authenticity": 8569,
      "nostalgia": 8570,
      "dichotomy": 8571,
      "temporary": 8572,
      "gemini": 8573,
      "goddam": 8574,
      "ambitious": 8575,
      "safety": 8576,
      "clueless": 8577,
      "trilogy": 8578,
      "4s": 8579,
      "dc": 8580,
      "fet": 8581,
      "fried": 8582,
      "hunch": 8583,
      "por": 8584,
      "pile": 8585,
      "rent": 8586,
      "ss": 8587,
      "##ocial": 8588,
      "##ointing": 8589,
      "##ae": 8590,
      "##55": 8591,
      "##rical": 8592,
      "##vo": 8593,
      "thom": 8594,
      "havent": 8595,
      "##ione": 8596,
      "alge": 8597,
      "##iled": 8598,
      "##opes": 8599,
      "donald": 8600,
      "deals": 8601,
      "amused": 8602,
      "outdo": 8603,
      "relief": 8604,
      "##abilities": 8605,
      "workplace": 8606,
      "##ogam": 8607,
      "realm": 8608,
      "lee": 8609,
      "blown": 8610,
      "twenty": 8611,
      "##anged": 8612,
      "awe": 8613,
      "bridge": 8614,
      "apoc": 8615,
      "considerate": 8616,
      "sla": 8617,
      "sensation": 8618,
      "##ails": 8619,
      "paste": 8620,
      "drained": 8621,
      "##veloped": 8622,
      "gravit": 8623,
      "messing": 8624,
      "existing": 8625,
      "animated": 8626,
      "informed": 8627,
      "solo": 8628,
      "visited": 8629,
      "##shell": 8630,
      "##rence": 8631,
      "redu": 8632,
      "textbook": 8633,
      "models": 8634,
      "anticip": 8635,
      "sufficient": 8636,
      "sticky": 8637,
      "conflicts": 8638,
      "eleph": 8639,
      "penis": 8640,
      "pupp": 8641,
      "fuzzy": 8642,
      "surrounding": 8643,
      "websites": 8644,
      "audio": 8645,
      "adventurous": 8646,
      "optimism": 8647,
      "blowing": 8648,
      "resource": 8649,
      "produce": 8650,
      "contradictory": 8651,
      "isolation": 8652,
      "enemy": 8653,
      "encouraging": 8654,
      "rabbit": 8655,
      "theatre": 8656,
      "shrug": 8657,
      "girly": 8658,
      "inaccurate": 8659,
      "consensus": 8660,
      "galaxy": 8661,
      "nietzs": 8662,
      "algebra": 8663,
      "72": 8664,
      "ara": 8665,
      "dwell": 8666,
      "fy": 8667,
      "hors": 8668,
      "mouse": 8669,
      "tiger": 8670,
      "u200b": 8671,
      "##uh": 8672,
      "##iw": 8673,
      "##anny": 8674,
      "inception": 8675,
      "bend": 8676,
      "hack": 8677,
      "devi": 8678,
      "outbur": 8679,
      "fridge": 8680,
      "une": 8681,
      "##igned": 8682,
      "reluct": 8683,
      "clip": 8684,
      "beta": 8685,
      "##asses": 8686,
      "shoulders": 8687,
      "string": 8688,
      "thrones": 8689,
      "interestingly": 8690,
      "indirect": 8691,
      "##ibilities": 8692,
      "honor": 8693,
      "mars": 8694,
      "##life": 8695,
      "inval": 8696,
      "profit": 8697,
      "shorts": 8698,
      "retail": 8699,
      "impressions": 8700,
      "treating": 8701,
      "provides": 8702,
      "providing": 8703,
      "educated": 8704,
      "puns": 8705,
      "maintenance": 8706,
      "breathe": 8707,
      "structured": 8708,
      "southern": 8709,
      "stimulation": 8710,
      "designer": 8711,
      "sweden": 8712,
      "apathy": 8713,
      "dumped": 8714,
      "overthinking": 8715,
      "bbc": 8716,
      "admittedly": 8717,
      "pragmatic": 8718,
      "unrealistic": 8719,
      "surgery": 8720,
      "85": 8721,
      "ari": 8722,
      "apt": 8723,
      "fart": 8724,
      "frag": 8725,
      "gag": 8726,
      "jar": 8727,
      "kim": 8728,
      "sust": 8729,
      "tl": 8730,
      "upper": 8731,
      "wicked": 8732,
      "xp": 8733,
      "yah": 8734,
      "york": 8735,
      "##nic": 8736,
      "##rion": 8737,
      "##ko": 8738,
      "##kins": 8739,
      "##vs": 8740,
      "thou": 8741,
      "##step": 8742,
      "beard": 8743,
      "##elie": 8744,
      "hamm": 8745,
      "shel": 8746,
      "wasnt": 8747,
      "champ": 8748,
      "persist": 8749,
      "noises": 8750,
      "##fect": 8751,
      "plate": 8752,
      "##acks": 8753,
      "spar": 8754,
      "underest": 8755,
      "specially": 8756,
      "leon": 8757,
      "generous": 8758,
      "personalitycafe": 8759,
      "assholes": 8760,
      "crushing": 8761,
      "additional": 8762,
      "republic": 8763,
      "enfor": 8764,
      "excuses": 8765,
      "oneself": 8766,
      "##ternally": 8767,
      "criteria": 8768,
      "perceiver": 8769,
      "americans": 8770,
      "techniques": 8771,
      "grandfather": 8772,
      "competent": 8773,
      "programs": 8774,
      "##xxxx": 8775,
      "robin": 8776,
      "roller": 8777,
      "initiative": 8778,
      "crowds": 8779,
      "alternate": 8780,
      "floating": 8781,
      "baseball": 8782,
      "nailed": 8783,
      "emails": 8784,
      "xntj": 8785,
      "concentrate": 8786,
      "contemplating": 8787,
      "assignments": 8788,
      "rainbows": 8789,
      "elder": 8790,
      "enemies": 8791,
      "dialogue": 8792,
      "precise": 8793,
      "prejudice": 8794,
      "whoops": 8795,
      "nietzsche": 8796,
      "58": 8797,
      "8s": 8798,
      "ber": 8799,
      "bant": 8800,
      "bars": 8801,
      "bossy": 8802,
      "dood": 8803,
      "holl": 8804,
      "rere": 8805,
      "sangu": 8806,
      "tank": 8807,
      "##oons": 8808,
      "##field": 8809,
      "##ata": 8810,
      "##ala": 8811,
      "##oral": 8812,
      "##orph": 8813,
      "inxj": 8814,
      "ane": 8815,
      "sticks": 8816,
      "##entious": 8817,
      "sham": 8818,
      "##amin": 8819,
      "##road": 8820,
      "don´t": 8821,
      "debt": 8822,
      "loath": 8823,
      "amen": 8824,
      "outlet": 8825,
      "##ussy": 8826,
      "themes": 8827,
      "unpleas": 8828,
      "clown": 8829,
      "##osc": 8830,
      "disaster": 8831,
      "perse": 8832,
      "desert": 8833,
      "scattered": 8834,
      "##aki": 8835,
      "##isexual": 8836,
      "laughs": 8837,
      "monogam": 8838,
      "farm": 8839,
      "suppress": 8840,
      "creature": 8841,
      "grain": 8842,
      "gravity": 8843,
      "2011": 8844,
      "misread": 8845,
      "breakdown": 8846,
      "soulmate": 8847,
      "analyse": 8848,
      "handsome": 8849,
      "homeless": 8850,
      "influences": 8851,
      "kissing": 8852,
      "performing": 8853,
      "costs": 8854,
      "celebrate": 8855,
      "xnfj": 8856,
      "wandering": 8857,
      "triggered": 8858,
      "tangible": 8859,
      "virtual": 8860,
      "resonate": 8861,
      "juice": 8862,
      "cocky": 8863,
      "subconsciously": 8864,
      "errors": 8865,
      "dimens": 8866,
      "refreshing": 8867,
      "echo": 8868,
      "eyebrows": 8869,
      "outburst": 8870,
      "ecc": 8871,
      "eager": 8872,
      "gang": 8873,
      "mim": 8874,
      "ros": 8875,
      "tj": 8876,
      "vit": 8877,
      "viv": 8878,
      "##face": 8879,
      "##pal": 8880,
      "##26": 8881,
      "##28": 8882,
      "##lines": 8883,
      "##roph": 8884,
      "##rene": 8885,
      "arent": 8886,
      "healing": 8887,
      "poker": 8888,
      "outright": 8889,
      "nod": 8890,
      "sag": 8891,
      "compelled": 8892,
      "##beat": 8893,
      "##ours": 8894,
      "blur": 8895,
      "sits": 8896,
      "esxp": 8897,
      "##quate": 8898,
      "laund": 8899,
      "selfless": 8900,
      "indian": 8901,
      "craw": 8902,
      "terror": 8903,
      "classroom": 8904,
      "studio": 8905,
      "angle": 8906,
      "boom": 8907,
      "swing": 8908,
      "psyched": 8909,
      "meme": 8910,
      "parks": 8911,
      "redd": 8912,
      "humorous": 8913,
      "##bob": 8914,
      "fantasies": 8915,
      "mutually": 8916,
      "significantly": 8917,
      "layers": 8918,
      "hunger": 8919,
      "correlate": 8920,
      "maintaining": 8921,
      "judgments": 8922,
      "hahahahaha": 8923,
      "settled": 8924,
      "suicidal": 8925,
      "calculus": 8926,
      "grip": 8927,
      "fluid": 8928,
      "increasing": 8929,
      "hipster": 8930,
      "sooooo": 8931,
      "cuddling": 8932,
      "zombies": 8933,
      "assignment": 8934,
      "strictly": 8935,
      "asperger": 8936,
      "nickname": 8937,
      "perceptions": 8938,
      "december": 8939,
      "illeg": 8940,
      "africa": 8941,
      "chapter": 8942,
      "phenomen": 8943,
      "punishment": 8944,
      "supervisor": 8945,
      "mixture": 8946,
      "69": 8947,
      "batter": 8948,
      "era": 8949,
      "ftw": 8950,
      "gau": 8951,
      "hoo": 8952,
      "kay": 8953,
      "ray": 8954,
      "sid": 8955,
      "tread": 8956,
      "wrap": 8957,
      "##girl": 8958,
      "##lan": 8959,
      "##rating": 8960,
      "##rates": 8961,
      "##oured": 8962,
      "##ancing": 8963,
      "##oman": 8964,
      "liz": 8965,
      "station": 8966,
      "##ida": 8967,
      "##imp": 8968,
      "noted": 8969,
      "##ader": 8970,
      "shiny": 8971,
      "pepper": 8972,
      "pose": 8973,
      "amuse": 8974,
      "##ppers": 8975,
      "uninter": 8976,
      "facing": 8977,
      "spouse": 8978,
      "talents": 8979,
      "overload": 8980,
      "hier": 8981,
      "hipp": 8982,
      "blues": 8983,
      "contest": 8984,
      "entrep": 8985,
      "##entionally": 8986,
      "stopping": 8987,
      "depri": 8988,
      "awesom": 8989,
      "2012": 8990,
      "##umpy": 8991,
      "solitude": 8992,
      "uncont": 8993,
      "restrict": 8994,
      "characteristic": 8995,
      "horrif": 8996,
      "##aneously": 8997,
      "respectful": 8998,
      "identical": 8999,
      "organic": 9000,
      "titles": 9001,
      "auto": 9002,
      "##x94": 9003,
      "accounting": 9004,
      "essays": 9005,
      "favourites": 9006,
      "catching": 9007,
      "consistency": 9008,
      "narcissist": 9009,
      "bills": 9010,
      "richard": 9011,
      "acquaintance": 9012,
      "pillow": 9013,
      "duh": 9014,
      "manifests": 9015,
      "hints": 9016,
      "schizoid": 9017,
      "frozen": 9018,
      "abandon": 9019,
      "enlighten": 9020,
      "cigarettes": 9021,
      "scorpio": 9022,
      "peanut": 9023,
      "doubting": 9024,
      "agenda": 9025,
      "eagle": 9026,
      "racism": 9027,
      "sanguine": 9028,
      "68": 9029,
      "aura": 9030,
      "bizar": 9031,
      "cp": 9032,
      "cue": 9033,
      "gall": 9034,
      "hog": 9035,
      "ixx": 9036,
      "jay": 9037,
      "len": 9038,
      "pause": 9039,
      "##tle": 9040,
      "##function": 9041,
      "##ials": 9042,
      "##any": 9043,
      "lip": 9044,
      "##sem": 9045,
      "conqu": 9046,
      "worship": 9047,
      "##gee": 9048,
      "##eries": 9049,
      "##uding": 9050,
      "emerg": 9051,
      "overd": 9052,
      "acid": 9053,
      "##aches": 9054,
      "flood": 9055,
      "##aper": 9056,
      "muscle": 9057,
      "mont": 9058,
      "headphones": 9059,
      "discrim": 9060,
      "ideally": 9061,
      "carried": 9062,
      "listener": 9063,
      "plane": 9064,
      "painfully": 9065,
      "misle": 9066,
      "household": 9067,
      "popped": 9068,
      "organizing": 9069,
      "combat": 9070,
      "positively": 9071,
      "titan": 9072,
      "suffered": 9073,
      "holly": 9074,
      "risks": 9075,
      "torture": 9076,
      "rebel": 9077,
      "ineff": 9078,
      "insults": 9079,
      "enthusiast": 9080,
      "instruments": 9081,
      "predictable": 9082,
      "concentration": 9083,
      "charisma": 9084,
      "dichotom": 9085,
      "pessimistic": 9086,
      "funniest": 9087,
      "neurotic": 9088,
      "january": 9089,
      "liquid": 9090,
      "indifferent": 9091,
      "squee": 9092,
      "chameleon": 9093,
      "goddamn": 9094,
      "unpleasant": 9095,
      "dow": 9096,
      "hed": 9097,
      "os": 9098,
      "oooo": 9099,
      "pis": 9100,
      "rut": 9101,
      "yard": 9102,
      "##eous": 9103,
      "##iance": 9104,
      "##gic": 9105,
      "##32": 9106,
      "toys": 9107,
      "##etically": 9108,
      "lik": 9109,
      "abused": 9110,
      "someones": 9111,
      "outer": 9112,
      "##uman": 9113,
      "##istical": 9114,
      "##aren": 9115,
      "spill": 9116,
      "##ondon": 9117,
      "##ogether": 9118,
      "hire": 9119,
      "desired": 9120,
      "extp": 9121,
      "elli": 9122,
      "##ceptive": 9123,
      "##ocra": 9124,
      "apology": 9125,
      "glo": 9126,
      "lake": 9127,
      "eyed": 9128,
      "borrow": 9129,
      "stays": 9130,
      "solitary": 9131,
      "patri": 9132,
      "immort": 9133,
      "negativity": 9134,
      "eaten": 9135,
      "director": 9136,
      "skilled": 9137,
      "mornings": 9138,
      "repla": 9139,
      "antis": 9140,
      "travelling": 9141,
      "pleasing": 9142,
      "improved": 9143,
      "kisses": 9144,
      "flirty": 9145,
      "interpreted": 9146,
      "occurs": 9147,
      "cycl": 9148,
      "roughly": 9149,
      "##oooooooooooooooo": 9150,
      "suitable": 9151,
      "stoic": 9152,
      "legitimate": 9153,
      "bowl": 9154,
      "arrange": 9155,
      "cheerful": 9156,
      "lemon": 9157,
      "flavor": 9158,
      "abandoned": 9159,
      "gestures": 9160,
      "##juana": 9161,
      "nazi": 9162,
      "rebellious": 9163,
      "invalid": 9164,
      "laundry": 9165,
      "bizarre": 9166,
      "downt": 9167,
      "300": 9168,
      "bone": 9169,
      "ck": 9170,
      "dur": 9171,
      "js": 9172,
      "lg": 9173,
      "mt": 9174,
      "mich": 9175,
      "sway": 9176,
      "vod": 9177,
      "##hu": 9178,
      "##rant": 9179,
      "##rous": 9180,
      "##va": 9181,
      "sedu": 9182,
      "toe": 9183,
      "bee": 9184,
      "##eli": 9185,
      "haw": 9186,
      "##etyp": 9187,
      "alice": 9188,
      "alert": 9189,
      "abortion": 9190,
      "##amine": 9191,
      "exfj": 9192,
      "wears": 9193,
      "##aunt": 9194,
      "poison": 9195,
      "enorm": 9196,
      "outf": 9197,
      "trance": 9198,
      "proving": 9199,
      "prospect": 9200,
      "whore": 9201,
      "guest": 9202,
      "arbit": 9203,
      "##abul": 9204,
      "compens": 9205,
      "happiest": 9206,
      "underne": 9207,
      "wrest": 9208,
      "wherever": 9209,
      "ours": 9210,
      "agreeing": 9211,
      "couples": 9212,
      "##pled": 9213,
      "cringe": 9214,
      "instruct": 9215,
      "slap": 9216,
      "sorted": 9217,
      "invented": 9218,
      "drain": 9219,
      "minus": 9220,
      "formed": 9221,
      "depressive": 9222,
      "caps": 9223,
      "motion": 9224,
      "movements": 9225,
      "beautifully": 9226,
      "snugg": 9227,
      "fails": 9228,
      "transition": 9229,
      "organised": 9230,
      "ruined": 9231,
      "improv": 9232,
      "promot": 9233,
      "filling": 9234,
      "recognized": 9235,
      "determining": 9236,
      "shops": 9237,
      "##cerity": 9238,
      "tennis": 9239,
      "disappointing": 9240,
      "tort": 9241,
      "innate": 9242,
      "phrases": 9243,
      "perfectionism": 9244,
      "automatic": 9245,
      "nurt": 9246,
      "nursing": 9247,
      "meditate": 9248,
      "operate": 9249,
      "paragraphs": 9250,
      "substance": 9251,
      "assistant": 9252,
      "eldest": 9253,
      "divorced": 9254,
      "##books": 9255,
      "bastard": 9256,
      "korean": 9257,
      "commercial": 9258,
      "stalking": 9259,
      "distinguish": 9260,
      "wreck": 9261,
      "lesbian": 9262,
      "marijuana": 9263,
      "fyi": 9264,
      "eccentric": 9265,
      "hierarch": 9266,
      "uncontroll": 9267,
      "antisocial": 9268,
      "arbitr": 9269,
      "underneath": 9270,
      "cer": 9271,
      "cri": 9272,
      "cus": 9273,
      "dot": 9274,
      "dil": 9275,
      "gah": 9276,
      "iv": 9277,
      "london": 9278,
      "roy": 9279,
      "sar": 9280,
      "veri": 9281,
      "wil": 9282,
      "wond": 9283,
      "##ford": 9284,
      "##side": 9285,
      "##iation": 9286,
[...]
