__url__
__sep__
__tar__
!
#
$
%
&
'
(
)
*
+
,
-
.
/
0
1
2
3
4
5
6
7
8
9
:
;
<
=
>
?
@
[
]
^
_
`
a
b
c
d
e
f
g
h
i
j
k
l
m
n
o
p
q
r
s
t
u
v
w
x
y
z
{
|
}
~
¡
¢
£
¤
§
¨
©
«
¬
®
¯
°
²
³
´
µ
¶
·
¸
¹
º
»
½
¾
¿
×
ß
æ
ð
÷
ø
þ
đ
ı
ł
œ
ǝ
ɐ
ɔ
ə
ɛ
ɟ
ɥ
ɪ
ɯ
ɹ
ʇ
ʌ
ʍ
ʎ
ʒ
ʖ
˂
˃
ˆ
ˈ
ˌ
ː
˘
˙
˝
˶
α
β
γ
δ
ε
η
θ
ι
κ
λ
μ
ν
ξ
ο
π
ρ
ς
σ
τ
υ
φ
ψ
ω
а
б
в
г
д
е
ж
з
и
к
л
м
н
о
п
р
с
т
у
ф
х
ц
ч
ш
щ
ъ
ы
ь
э
ю
я
ћ
҉
א
ב
ג
ד
ה
ו
ז
ח
י
ך
ל
ם
מ
ן
נ
ס
ע
פ
ץ
ר
ש
ת
؟
ا
ب
ت
ث
ح
د
ر
ز
س
ش
ظ
ع
غ
ف
ق
ك
ل
م
ن
ه
و
ي
٩
ک
گ
ی
۶
ः
त
म
र
ि
ஐ
௰
ಠ
ಡ
ಥ
ರ
ೃ
ฅ
ง
๑
ლ
ღ
ᄂ
ᄉ
ᄊ
ᄋ
ᄌ
ᄒ
ᅡ
ᅢ
ᅥ
ᅦ
ᅧ
ᅭ
ᅲ
ᅵ
ᆨ
ᆫ
ᆺ
ᆼ
ᴗ
–
—
―
‘
’
‚
“
”
„
•
…
′
‽
‿
⁎
₪
€
™
↑
→
∀
∇
∈
−
∙
√
∞
≈
≡
≥
≦
≧
⊃
⊙
⋆
⌒
⌣
─
━
┬
┻
╥
╬
╯
■
□
▬
△
▽
◇
●
◔
◕
◞
◠
◡
☂
★
☆
☺
☼
♉
♡
♢
♤
♥
♧
♪
♫
♬
✌
✍
✓
✔
✝
✧
✨
✿
❤
⸮
、
。
》
あ
い
う
え
お
か
き
く
こ
さ
し
す
せ
そ
た
ち
っ
つ
て
と
な
に
ね
の
は
ほ
ま
め
も
ゃ
や
よ
ら
り
る
れ
ろ
わ
を
ん
゜
ア
イ
ク
サ
シ
タ
ッ
ツ
ト
ニ
ノ
ミ
メ
モ
ュ
ラ
レ
ヮ
ワ
ン
・
ー
ヽ
ㅿ
一
上
不
中
之
习
了
事
人
仙
会
但
你
光
全
兴
冬
刀
到
勇
吉
同
吗
呢
喜
四
因
国
地
夜
夢
大
天
太
头
好
如
学
安
実
容
小
待
很
我
抜
掌
文
斎
斬
新
方
日
明
易
是
智
暗
望
本
柳
欢
気
汉
漫
為
然
爱
狼
王
白
的
益
眼
祥
私
組
美
聖
花
英
菀
見
語
语
说
迎
返
違
選
都
野
陰
陽
雪
馬
高
龍
︵
﹏
！
％
＇
（
）
＊
，
－
０
１
：
；
？
＠
｀
ａ
ｂ
ｃ
ｄ
ｅ
ｆ
ｇ
ｈ
ｉ
ｋ
ｌ
ｍ
ｎ
ｏ
ｐ
ｒ
ｓ
ｔ
ｕ
ｖ
ｗ
ｘ
ｙ
｡
･
ｧ
ｩ
ｫ
ｬ
ｼ
ﾉ
ﾞ
ﾟ
￣
🌹
🍄
🏼
👈
👋
👌
👍
👏
💎
💓
💖
💛
🔥
😀
😁
😂
😃
😄
😅
😆
😇
😉
😊
😋
😌
😍
😎
😏
😐
😓
😕
😘
😜
😝
😞
😡
😢
😣
😧
😫
😬
😮
😱
😳
😴
😺
🙋
🤓
🤔
🤗
🦄
##n
##r
##t
##o
##s
##p
##e
##c
##i
##u
##k
##y
##h
##l
##f
##a
##d
##g
##b
##w
##v
##j
##m
##3
##7
##0
##8
##z
##9
##5
##6
##4
##2
##1
##q
##ъ
##б
##о
##т
##и
##н
##в
##а
##x
##у
##с
##к
##х
##ə
##─
##┬
##ノ
##ν
##´
##°
##™
##🤗
##ᅡ
##ᄌ
##ᅥ
##ᄊ
##ᅵ
##せ
##わ
##に
##ｘ
##ａ
##ｃ
##ｔ
##ｌ
##ｙ
##ｅ
##ｓ
##ｐ
##æ
##ο
##ｍ
##ｉ
##ｄ
##ｒ
##ｎ
##ｇ
##い
##さ
##ø
##💓
##ن
##ی
##ا
##م
##د
##¢
##◠
##れ
##か
##ら
##®
##ש
##ר
##י
##∀
##｀
##♥
##ヮ
##♫
##♪
##е
##ф
##ｂ
##ｕ
##ｋ
##س
##ت
##р
##ב
##ל
##😜
##ɐ
##ˈ
##ي
##ف
##👌
##ð
##€
##り
##と
##う
##こ
##ま
##す
##ト
##レ
##ー
##ニ
##ん
##😂
##ι
##α
##θ
##ε
##σ
##μ
##η
##ɟ
##ı
##ן
##👍
##ы
##м
##ћ
##ж
##л
##ь
##ｈ
##ｏ
##ｆ
##ω
##■
##µ
##ɪ
##😧
##π
##ﾟ
##▽
##🏼
##ג
##מ
##ת
##÷
##て
##る
##و
##¯
##ɥ
##ɹ
##😄
##п
##￣
##❤
##º
##¹
##♧
##♤
##נ
##ו
##ೃ
##ß
##ｗ
##ｖ
##ᆺ
##˂
##♡
##ㅿ
##ち
##ろ
##ア
##メ
##を
##⌒
##√
##ظ
##😊
##ಡ
##ǝ
##た
##な
##゜
##ل
##ك
##♢
##★
##ʇ
##😌
##з
##£
##³
##گ
##ر
##д
##щ
##ł
##र
##ि
##म
##त
##ः
##◡
##◔
##し
##υ
##τ
##ψ
##≥
##😎
##א
##ח
##ז
##ه
##¸
##ˆ
##😁
##あ
##は
##よ
##ˌ
##ρ
##γ
##פ
##き
##つ
##✧
##ך
##👏
##ほ
##く
##ᅲ
##ᅢ
##ᄉ
##ᆨ
##ɯ
##め
##そ
##ラ
##¾
##ס
##ע
##غ
##˝
##œ
##½
##²
##ﾞ
##ɛ
##≡
##👈
##😞
##😳
##☆
##え
##☺
##¨
##ﾉ
##ч
##△
##✿
##😢
##⊙
##ಥ
##😱
##☼
##も
##タ
##イ
##ز
##□
##◕
##г
##😅
##҉
##😣
##😕
##や
##ワ
##の
##◇
##ː
##ｫ
##ｬ
##ｩ
##ｧ
##ю
##φ
##０
##δ
##β
##ς
##¬
##🔥
##¤
##🤔
##⊃
##ک
##ʌ
##˙
##ɔ
##ح
##ب
##ش
##ث
##λ
##κ
##ם
##˘
##⌣
##ღ
##ｼ
##₪
##≦
##ゃ
##ュ
##シ
##ッ
##ク
##ʍ
##😫
##✨
##ლ
##ц
##ד
##ה
##ʒ
##ץ
##モ
##ン
##ᆫ
##ᄂ
##ᅧ
##ᆼ
##ᄒ
##ᅦ
##ᄋ
##ᅭ
##━
##┻
##∇
th
##in
##er
##ou
se
##at
##on
the
##ing
sep
##nd
to
##es
##re
##ar
##en
##al
##it
##or
##an
##ly
you
and
in
##st
##ed
##om
of
be
it
wh
##ve
##ot
##le
##el
##ut
ha
that
##is
is
##ic
##ow
my
re
##ion
##ay
on
##as
##et
an
li
##ke
me
for
##gh
al
##se
##ct
tar
##ver
##ld
##ith
but
##ally
st
with
##id
##im
##ch
##oo
##ent
have
not
##ad
do
as
##il
som
##ere
so
##op
this
are
##th
like
mo
##ce
##ri
##ust
##ould
##ink
##est
ab
##ir
sh
##am
was
##ess
##ers
fe
int
think
##ro
he
don
or
what
##out
##ght
can
##pe
just
if
ne
ex
at
we
##ur
your
##ant
pe
de
about
some
peop
people
##ell
##ul
when
su
con
kn
lo
##ation
##ate
##one
com
##au
##ind
know
all
##ra
they
##ill
##end
ch
##ck
po
wor
would
am
ma
get
##ive
feel
see
##pp
go
one
any
how
fr
bec
##un
out
en
tr
##ight
really
more
##us
thing
ve
tim
##ough
##art
##ol
##ause
##ge
than
##ff
##um
there
ever
##ong
##ci
##ter
pro
##ble
##ea
##king
because
us
from
up
##ood
somet
oth
who
ur
ty
##ity
no
pers
##ite
url
qu
##ound
##ist
##riend
##ery
##ays
them
time
##hing
##ous
##her
##ain
person
##ven
##ard
want
very
##sel
too
##are
un
##ps
##and
##ear
say
friend
fa
##ually
##ie
##ig
mu
every
##ame
well
much
being
pre
##self
most
act
gu
ar
##fe
ag
love
other
##ions
##ort
pl
been
by
ta
##ks
di
inter
she
good
rel
im
##ore
##ue
things
will
##all
cl
##nt
##so
##ure
man
way
did
something
had
##pt
##ine
##ha
##ack
##ies
only
##ry
lot
exp
also
##ence
has
##ose
then
##ab
does
##ways
now
loo
##os
could
##eri
##ep
##ast
may
even
here
##ice
##ty
sa
type
##ving
comp
always
try
##ations
##em
ad
her
someone
##ud
##ome
make
read
##ide
find
fun
##act
##read
##ought
##thing
seem
##ree
sp
##nder
why
never
life
need
em
myself
happ
their
##ich
##iz
tal
over
##ip
post
id
##ting
res
diff
##ress
though
year
mean
##ag
dis
##reat
under
##be
##ect
thought
##ful
aw
bet
##ment
part
into
##our
##oy
wr
interest
friends
##ond
##kes
##ical
him
which
fir
##ile
off
pr
pret
actually
##og
inf
ll
right
work
first
sure
##ish
spe
##int
per
##itt
going
##ool
yes
##other
##ass
got
pretty
real
kind
hi
##ated
##ys
gr
typ
feeling
ac
differ
##ick
same
##iv
were
def
##able
##ss
des
hel
af
bl
le
where
still
underst
bel
his
##od
##js
tw
start
##ang
##age
##ably
thread
gen
str
said
should
ph
back
##ual
##ating
sen
many
##ach
##own
##oth
personal
sc
##ult
sm
sometim
understand
quest
##ber
##ire
long
##ily
prob
te
sometimes
thr
op
att
our
take
ext
##ever
best
##wn
maybe
jo
probably
tell
##ance
##ath
around
cont
relations
look
point
imp
help
stu
lol
##if
##pect
##ely
##ious
mind
yea
cons
after
hard
relationsh
emot
app
##ade
ke
defin
those
years
##vert
sound
##atch
belie
day
lea
anything
ob
##ittle
didn
different
##ak
let
##ase
little
##fore
##ict
soci
##ple
##ces
br
doesn
##ically
rem
bit
sim
##ason
while
new
sch
sin
few
yeah
usually
##ace
better
##ory
two
##ves
##ap
world
great
conf
talk
##ert
these
might
##ten
##bt
##orm
oh
fl
before
thanks
guess
el
its
##ning
own
both
high
##vel
makes
through
rec
seems
use
care
##ary
others
##ather
everyone
##lf
sit
bad
##ved
##blem
since
thank
reason
##cept
##we
problem
bas
gener
experi
fi
thinking
test
down
cou
agree
es
play
##vers
##mm
##ild
trying
gir
ro
##ction
tend
##rovert
school
quite
##gg
happen
come
##qu
doing
list
made
##ise
co
haha
end
again
definite
##let
##itive
question
comm
dr
##ics
put
ins
everything
types
happy
##uck
ask
interesting
##ness
believe
definitely
last
lear
having
##ook
##ange
##ream
##day
word
##ward
mus
##cri
##less
##iss
used
##ope
relationship
cr
give
old
##pl
##cess
lau
mom
often
eas
call
##ject
ass
personality
col
##ale
ind
self
##sw
##ract
hum
dec
guys
show
##ib
##ost
##oc
anyone
watch
##ible
times
answ
ok
##ither
##00
ent
keep
##joy
enjoy
##ider
laugh
##gr
##ional
##ian
girl
##ll
else
##onder
##fer
forum
tra
another
cra
##per
##ize
##xt
##cl
descri
hate
poss
acc
fact
enough
idea
##ia
##olog
talking
expl
##come
mat
mon
##ether
##ention
##ody
hon
big
such
least
exact
wonder
true
isn
getting
sense
nice
char
##ertain
wel
ap
social
mbt
music
met
mbti
consider
once
##ism
inst
stuff
hu
sor
##ative
##der
nothing
either
##cially
art
found
honest
##arly
fam
certain
sounds
##erious
sl
without
sorry
ev
##pend
tri
adv
far
ter
supp
situ
reading
wrong
mar
head
##wh
complet
resp
hand
yourself
##zy
welcome
ide
##ph
##ition
espe
##ons
especially
hell
##iting
sec
##ently
guy
##ween
##ned
##ember
fav
##ans
##ately
##ee
between
serious
answer
##ird
experience
sub
wa
remember
child
##ner
disc
however
rather
##ens
##ull
feelings
bu
##fort
val
##ng
##most
looking
wom
hope
ni
saying
cle
live
##ents
close
each
sur
##ny
wee
class
done
##ft
car
ple
introvert
fin
##na
away
exactly
job
##ced
almost
dream
sk
sex
##ors
less
listen
top
stop
ey
##ctions
gl
exam
##arent
##li
sort
##icul
stud
strong
nat
##ilar
##its
sens
##ign
##ities
speci
wouldn
dep
ago
yet
depend
ti
##als
comes
##sy
tur
che
ho
av
##oll
kid
unt
##ready
la
cu
add
already
mov
haven
prefer
fem
relate
place
##led
song
sy
##he
##ark
reg
##ush
##iew
##ail
cur
##ility
wanted
making
##iet
general
dom
##cy
open
tot
rep
family
whole
##ues
##ates
month
past
##rect
##les
##gin
si
inv
cor
night
laughing
gi
told
cool
change
able
alone
wish
god
abs
until
##ial
##elt
functions
##ub
##ord
convers
completely
cour
charact
dra
face
fre
##oud
##hh
using
##ote
##vious
interested
##az
words
fig
bra
##ized
favor
ang
et
##ences
##ater
##lect
started
##ute
alth
##ings
sad
hear
##way
although
today
##ips
##red
##leep
imag
##body
weird
##alk
situation
young
##alth
opin
eng
det
min
iss
seen
vide
log
deep
meet
##gram
forg
explain
won
ed
##ying
creat
bo
similar
felt
infps
days
must
along
eff
phys
##ude
emotional
fuck
##aa
crazy
book
##uth
second
perfe
etc
bre
mor
hey
##rem
inc
arg
thoughts
pass
deal
import
tea
psy
sent
course
wasn
dri
hur
home
mostly
plan
bor
##ames
psych
##ock
stand
function
funny
##ars
ann
awes
##rent
##gs
grou
personally
##aut
human
##ret
please
sw
based
dist
took
ir
ones
##yp
obs
##ount
super
##ored
heart
##istic
emotions
become
totally
intjs
enf
awesome
##osed
example
count
run
sci
went
aren
dou
##olut
##cc
sleep
##iness
important
##uss
##selves
exc
current
figure
##ollow
##ken
means
likely
opp
10
##nect
extrem
##dd
##used
##ogn
##ms
intern
mem
##ouse
sing
follow
uni
boy
hour
shit
express
mess
norm
##ower
fall
matter
favorite
colle
jud
name
depress
##lic
set
advice
##ied
learn
side
recently
okay
ra
share
intu
hmm
view
questions
small
working
pict
curi
##vi
whatever
##oid
##ology
dont
##velop
gra
perfect
pain
possible
wow
##ew
came
beaut
##reci
mine
expect
##ives
gre
const
war
tong
anim
anyway
pur
women
appreci
##ited
infjs
##ption
writing
free
exist
##aking
annoy
tongue
##aring
prof
hello
rom
med
##ised
attract
tog
extrovert
##uring
parent
months
##ling
develop
##line
xd
beha
particul
connect
together
##ked
obvious
somewh
mention
##ash
taking
##ired
whether
form
easy
boo
20
miss
##ont
pos
female
couple
assum
mis
generally
stay
common
seriously
##iter
video
depends
intps
hurt
room
ser
##nea
##uct
##ments
next
relationships
moment
honestly
foc
case
state
write
teach
##pid
spend
##ead
dad
result
##gn
##ump
sol
##erg
unless
commun
game
##ier
sign
##icult
##umb
conversation
tried
##wards
possib
mother
gets
group
##ried
##oney
ideas
cry
##haps
pres
difficult
##rist
##ures
perhaps
house
opinion
fair
rand
specif
##ister
movie
story
##ross
left
fit
aff
college
ear
adm
level
lead
brain
main
stupid
absolut
##ational
called
inform
##ense
says
heard
##ental
##pr
age
maj
##tern
unc
except
stress
contro
male
##ellig
notic
##althy
rest
accept
subject
##fortable
feels
pol
conc
amaz
turn
emotion
ori
##ah
##ustr
random
absolutely
pop
ennea
relig
intellig
##gan
trust
looks
##ats
##ories
hal
order
chang
eyes
men
##oice
natur
enneagram
saw
lack
dark
##ne
discuss
ca
goes
instead
##cing
##antly
short
##man
basically
speak
introverted
pick
appe
curious
bus
posts
money
anal
sou
par
week
major
dam
##ined
behavi
problems
parents
books
##iful
rare
incl
entire
dear
happens
cal
move
##bb
kill
vis
cre
asking
##angu
mist
kinda
domin
##ply
watching
character
##av
hor
pat
ref
imm
bro
mot
sil
##ific
easily
break
ways
meaning
simply
themselves
three
##not
##ts
beautiful
half
occ
##side
coming
##cious
##haha
couldn
games
##ared
##ggest
##oooo
extremely
suggest
check
##lish
##idd
##ided
avoid
seeing
process
##ane
topic
cause
pot
knew
asked
grow
##ivid
##ove
##ren
sever
##up
realize
information
full
100
inde
hold
theory
quick
langu
##ouch
perc
respect
##sh
necess
##ern
hours
math
living
energ
sister
anx
ign
##aw
non
light
attention
amazing
works
posted
est
neg
##ellow
##ify
truth
##oph
noticed
needs
swe
glad
happened
towards
fine
har
fear
black
lost
##stem
meant
regard
##ages
##ines
romant
playing
##ination
system
bi
red
##erv
##rible
surpr
cogn
internet
proud
understanding
entps
worth
enfps
ident
dating
fut
christ
touch
hit
currently
argum
power
picture
quiet
food
liter
stere
appreciate
during
##ident
liked
wait
pract
known
aware
ideal
loved
var
stereot
eat
leave
focus
##use
frustr
brother
online
drink
##friend
outside
girls
##ugg
sn
physical
##ides
##unch
extra
##ene
##ave
ret
suck
given
##io
direct
##ging
##arily
##ety
due
choo
hang
##right
crit
death
##ac
interact
##oss
deb
##over
react
bored
##iety
##ster
cognitive
##ances
individ
##path
intro
angry
##ung
remind
##ming
##izing
wants
imagine
compl
nf
body
##like
link
takes
stra
##fully
cannot
appro
against
fight
##arc
doubt
decis
##ists
##ptions
difference
woman
cold
learning
##br
##ma
##ows
clos
later
lots
issue
future
taken
control
hair
normal
##onse
nature
##erior
wondering
##idence
issues
fail
smart
phil
correct
kids
reasons
individual
##bs
##aught
confused
##ering
describ
affect
response
single
##ledge
communic
inside
worry
late
##uly
several
num
##hip
origin
younger
oppos
above
text
learned
draw
clear
##ake
mood
begin
respons
science
ill
##more
qual
sty
accur
wink
win
detail
##res
pri
##air
energy
simple
romantic
older
boyfriend
bring
comput
eye
bur
vi
invol
forget
listening
##kward
tap
##uc
##orn
smile
date
gon
##ix
ist
##ork
reality
english
value
vers
##earch
language
low
pay
respond
soul
walk
##ining
sweet
research
awkward
##ivity
wal
mod
##ular
movies
telling
giving
trou
requ
term
luck
suppose
mental
uns
reply
trans
certainly
##go
##ank
logic
gonna
##ively
fil
##atic
prop
fant
comfortable
##ency
damn
cut
sx
effect
truly
bother
sat
##raid
##eless
notice
beh
decided
huge
##itch
organ
cute
bed
dominant
##asc
supposed
society
lar
afraid
tests
##set
##eld
shy
strange
##ime
pub
constantly
mentioned
wi
##ester
##ger
quote
description
##yn
situations
##eric
##ature
conv
across
stre
env
choose
negative
deg
perspect
##irt
##ony
cat
del
##atalk
tapatalk
##row
soon
finally
dem
cir
philos
boring
father
##iddle
experiences
##how
anxiety
lately
tech
##ential
characters
##lex
space
typing
project
cap
##arch
ste
##unk
hot
##ising
anymore
special
lim
speaking
approach
##rib
obviously
knowing
comment
knowledge
strugg
specific
number
fan
support
weeks
##lt
ah
likes
dead
finding
object
##ially
skill
nor
whenever
##empt
hist
logical
##wise
apparent
results
##que
##omm
describe
dreams
phot
##no
refer
starting
straight
##gress
##unt
particular
er
early
##ient
amount
somewhere
realized
annoying
event
middle
##etic
##ins
points
##book
computer
spir
motiv
perce
four
finish
contact
phone
sensitive
behavior
19
children
step
helps
related
bab
##ww
knows
opposite
hop
smo
tired
natural
gave
empath
considered
pie
thats
becom
purp
behind
philosoph
fore
nt
rock
polit
je
##ped
##uu
odd
literally
##att
concept
rid
somehow
##ler
init
fix
##usion
slight
obsess
morning
positive
line
treat
contin
edit
cult
comb
##ended
party
style
summ
##aus
goo
##ru
blue
ability
weak
##itten
white
##iction
##aim
americ
##verse
easier
##ili
slow
sun
includ
grad
extroverted
##oot
accurate
argument
ep
##tu
values
##ones
emotionally
gif
study
tit
within
present
insight
avat
ant
vs
suc
possibly
circ
fucking
##ales
ful
##astic
##fortun
country
particularly
somewhat
##ype
##ets
terms
law
otherwise
site
##where
##ott
##udd
impress
build
fellow
forums
depression
##utes
watched
trouble
wear
occas
necessarily
aut
analy
##roll
disag
techn
wrote
##ites
profess
intelligence
ru
unfortun
30
attracted
gone
##app
allow
inferior
worked
perspective
##du
leg
religion
stereotyp
##ax
##amp
humor
worst
rarely
intuitive
youtu
healthy
##ring
answers
##ushed
bar
##ters
note
##ipul
##version
water
##co
discover
evil
married
die
shows
##iment
threads
##spect
##fjs
public
12
om
repl
needed
compan
incred
degree
##erm
concl
manipul
youtube
##eh
partner
songs
##ateg
##ther
##ants
chance
desp
belief
##ender
effort
##hood
pla
apparently
tv
##ards
actual
##ode
rul
posting
dislike
traits
prov
mad
univers
shock
avatar
50
##ries
gotten
girlf
intuition
15
choice
large
intel
enter
##anger
girlfriend
tom
suff
looked
depressed
##anna
spot
passion
highly
tem
wall
auth
bal
da
voice
dog
pleas
##w5
cent
mil
fast
wast
gives
hug
clearly
##land
kitt
##ze
creative
##med
fairly
conscious
travel
envir
purpose
##oun
##irth
career
appear
##92
match
##bit
series
loud
attempt
piss
##ror
cas
mult
##view
intellect
unhe
conversations
admit
##ob
clean
grand
hahaha
spent
hands
assume
judge
thinks
front
coff
forgot
environ
emb
lives
##raph
terrible
sym
business
itself
experien
written
helpful
lose
seemed
fur
history
##oint
prot
buy
lad
birth
unsure
16
unfortunately
unhealthy
enc
spirit
tast
ele
##pir
upon
decide
drive
stick
caus
##lict
impro
##band
lazy
lab
##yr
##lying
##using
warm
upset
complete
coffee
friendship
create
hus
quickly
intense
joke
changed
star
wanting
original
ther
##rew
longer
search
##edi
born
irr
mix
wind
aspect
sport
##onic
christian
##ley
interests
yester
##ilities
##ices
worse
bri
##ug
##acy
intelligent
critic
priv
##ho
nobody
minutes
yesterday
near
##cra
plus
peri
fantas
##inct
reach
disagree
color
##uing
intim
husband
claim
psychology
genu
##ator
success
conflict
opinions
useful
tre
##fps
##ged
descriptions
artic
wanna
soc
cond
shouldn
five
putting
wonderful
chall
stuck
##ording
kitteh
rational
##ama
mag
typed
ended
account
connection
indeed
##ii
teacher
earth
bene
##ots
stri
secret
##aining
apart
message
hol
pa
willing
developed
challen
##phone
environment
##sing
none
##con
##yy
##ered
prom
apolog
favour
genuine
eq
recomm
compet
rules
agre
lie
##aaaa
period
##verage
ya
program
##ibly
##head
surprised
pet
sarc
facebook
desire
##ples
band
##rel
fill
gender
pen
##lev
dev
guil
bull
dude
extravert
18
sick
peace
pull
action
##erve
debate
considering
##ta
##ability
ath
silly
identify
##tw
##ization
played
yep
throw
title
somebody
##ensive
walking
##ping
sharing
naturally
##ric
11
dan
ess
##rop
##under
dest
##ented
helped
described
##pped
crush
teen
##iving
involved
##atter
among
recogn
places
ton
##ral
5w
##form
calm
##els
running
convin
fire
air
##ese
scient
##xx
hugs
handle
determ
inse
moving
religious
poor
prim
##ital
coun
##dden
average
following
moral
sexual
animals
health
according
jump
attractive
##zz
##rog
cant
sudden
scared
green
pattern
##ky
score
immedi
##cial
entjs
pu
page
stories
catch
##work
##itude
##hol
sitting
potential
##gest
studying
company
ver
bunch
##ox
eventually
shocked
fu
##erc
lone
crying
dry
drop
details
childhood
ach
dress
eating
scen
anger
uncom
path
pictures
city
frustrating
normally
incredibly
##lu
##enty
9w
##11
fasc
pic
##ape
disor
talked
proper
goog
pap
spo
skills
actions
femin
doct
relax
baby
iphone
ignor
rain
confident
philosophy
cook
waiting
responses
moder
##lo
##asm
alot
complex
turned
growing
ce
##to
discussion
slightly
shall
interp
cop
##ution
##othes
confidence
enfjs
decision
socion
shut
educ
recommend
previous
##ney
entirely
stat
introverts
hom
##duct
despite
nope
##aged
##iculous
version
loc
became
typical
##ified
hyp
forward
field
quality
tough
mainly
bes
##ius
##soci
sour
##eth
everybody
##ological
omg
##cul
image
university
mel
##arr
judging
##inating
##esh
classes
meeting
summer
multip
14
chat
frequ
##underst
statement
uncomfortable
moved
specifically
alright
horrible
troll
feed
tested
box
ignore
occasion
myst
definition
press
beat
valid
busy
hy
rece
heav
hobb
benef
port
inner
excited
##ased
depending
##x92
engine
fully
dumb
##arian
##put
biggest
##lier
roll
##ux
area
prin
attack
perfectly
7w
meth
socionics
blushed
##iding
rob
insec
200
##ding
##ires
double
dat
jung
pure
comfort
caring
lonely
##ises
neither
position
crap
beginning
force
understood
push
btw
quot
parts
typically
##ngth
cats
send
bey
lean
mark
figured
##isf
aggress
clar
strength
wife
harm
ive
imposs
favourite
##ured
minded
kiss
drunk
closest
anime
viol
##iliar
##akes
reject
trad
dealing
13
##ison
door
misunderst
##hn
##itions
humans
ali
universe
anyways
himself
##room
influ
communication
chem
##ived
##oes
club
ridiculous
reminds
achie
##oof
den
lived
blood
master
fits
rad
sal
acting
##hhhh
dig
season
friendly
istps
forever
dated
##ruct
##ext
##ka
##iny
##erved
##otic
shop
memory
majority
experienced
further
seek
##ception
profile
sucks
news
ge
tear
##rum
soft
##w2
associ
pred
socially
repe
loves
user
purs
protect
##cer
ourselves
##eps
sup
##ains
earlier
ut
sports
##ball
observ
intellectual
ult
webs
ground
key
##eeee
popular
author
impossible
dun
instinct
beyond
ment
shad
##urity
##ager
consist
decisions
hilar
ast
ready
boss
bott
##light
##ishing
gay
congr
comments
procra
physically
procrast
ball
##get
nearly
goal
argue
eth
div
kept
piece
17
ten
sem
flow
higher
##ugs
john
disorder
multiple
yours
save
videos
hilarious
##back
##ppy
25
context
helping
##levant
lyr
##ina
happiness
##ograph
team
preference
continue
##round
##agn
hmmm
##elf
selfish
student
jour
wild
##10
differences
grew
circum
##erial
##iant
##icial
empathy
interview
extreme
method
##igh
##uff
article
##dream
struggle
mass
pretend
grade
therap
ner
liber
dire
creep
becoming
doctor
##fp
third
surround
strongly
driving
ris
total
stressed
concer
##for
##kend
##aint
##whel
##rr
flaw
explan
sensing
##ued
athe
jack
##ann
culture
plenty
various
mut
input
##ortun
core
##raction
plans
4w5
##ton
##iest
exerc
temper
suspect
##istics
overwhel
finished
cross
##imate
##ggs
moments
jobs
unique
besides
##een
manage
brought
enjoyed
taste
abst
idi
##ibility
entert
pan
views
signific
basic
##nch
join
##ternal
american
elect
##ask
jokes
opportun
independ
hehe
product
marri
stopped
wer
neut
weekend
paper
circumst
hide
##com
##bers
##orrow
loving
therefore
fake
##ground
planning
waste
##ym
attach
cover
satisf
cha
tomorrow
##rage
mir
wit
adult
animal
film
epis
google
##sp
##ki
contr
including
##ges
clothes
skin
mou
mid
net
smell
bitch
##lies
fantasy
dance
eh
drugs
glass
tm
offer
tells
agreed
##bo
##ulation
##cohol
alcohol
tendency
guilty
lines
rol
##my
spiritual
##mate
beliefs
private
##aries
annoyed
regardless
nerv
##xp
content
istjs
lay
##w3
relative
twice
wake
iq
##ores
focused
land
mill
wise
role
commit
evidence
bul
##opath
##urn
happening
practical
neutral
everyday
reaction
nervous
##ience
##erely
faith
facts
freak
conclusion
ban
##by
created
broke
birthday
marriage
##cis
familiar
deeply
24
21
##anced
analys
option
##mas
repres
weren
groups
switch
beauty
##orate
disapp
changes
gift
##time
##alous
whom
##icks
amb
safe
initi
mr
##ooo
kinds
hopefully
rule
extraverted
active
drawing
daily
indic
opt
weight
alb
arrog
breat
tor
##cies
gotta
keeping
users
daydream
bare
vol
##amm
strang
scary
lyrics
categ
##anch
moon
##olate
flir
mouth
40
##93
click
behaviour
theories
##pping
distance
ger
hung
setting
snow
##elling
accom
forced
mach
##usive
recent
metal
examples
introdu
lady
numb
squ
##ef
immediately
hm
##w7
inn
dogs
compliment
##iver
##ural
##ogy
define
extent
regret
interpret
narc
vent
##ior
regarding
complic
crow
minute
stereotype
##iven
##94
sj
##xual
##ana
##amed
##olic
overall
possibility
turns
arguments
impression
depth
suddenly
gain
mature
gradu
abstract
##omb
prep
##osity
trait
six
internal
improve
##fj
data
gut
##entially
##ague
necessary
jealous
equal
fash
pun
##edom
##etry
keeps
assuming
aud
budd
rev
upd
becomes
tmlt
thus
goals
anybody
hoping
verb
fiction
um
apply
delet
acqu
esc
track
na
wo
excell
visual
interaction
road
wearing
anywhere
##apan
introversion
vibe
raised
changing
##aks
maint
advent
scenar
japan
gover
balance
fashion
caught
dar
novel
hasn
##edia
correl
sleeping
website
ble
##aling
equ
yup
##ray
##ker
intent
choc
medic
cow
ugh
town
gather
##asing
altern
members
practice
yay
##eness
gold
##une
differently
collect
dunno
ahead
bound
rout
##itted
stereotypes
album
store
diagn
##son
lovely
calling
22
90
king
isfps
##chan
idk
##onscious
freedom
physics
political
occasionally
circumstances
##itional
##iveness
##vent
onto
missed
affection
##te
##oted
##iling
personalities
confir
expression
##aph
##ians
obsessed
inspir
subjective
mic
sake
##yal
lif
topics
hanging
education
coo
cho
prove
narciss
separ
##ploy
surv
extroverts
mistake
habit
contrib
french
lucky
##nn
arch
obl
showing
organized
german
artist
reflect
aggressive
concerned
din
uh
##ium
##inate
chill
awful
starts
excuse
existence
rude
##urch
##ushing
harder
serv
pair
##ds
aside
fault
##itar
screw
distract
community
possibilities
activ
##ival
sky
sigh
nah
loyal
span
esfjs
tends
irrit
##w9
##miss
##izz
struct
huh
hated
##ses
flo
invest
christmas
##erson
chick
manner
confusing
mum
##dom
##33
##aging
cy
danger
hers
spending
achieve
##ron
exper
attitude
require
mer
##ners
compared
80
##ront
##bed
tool
phr
events
drawn
curiosity
medit
directly
cam
foot
##rif
perform
drama
judg
cafe
excellent
cand
church
fell
##omy
missing
broken
ego
pages
rant
##icip
development
drinking
analysis
govern
rich
##wor
suic
##ems
letting
criticism
##load
strateg
##play
optim
lon
nar
parties
office
toler
basis
cost
complicated
wing
overly
hearing
communicate
motivation
leaving
addict
sentence
embarr
explanation
##ech
meas
progress
decent
weakness
bill
ice
wis
worried
confess
nut
background
fol
##going
9w1
strangers
ine
controll
combination
slowly
joy
names
##hips
uses
hardly
estps
capable
replies
usern
##eem
##key
external
unf
genius
perfection
expected
tonight
cele
vul
minds
alive
guitar
letter
sensors
##ropri
sam
voc
##istry
awh
design
instance
imagination
frustrated
##ares
##rig
board
discovered
encou
embarrass
bright
##iff
isfjs
reb
enth
occur
fascinating
chocolate
##inary
##ening
mechan
##ift
minor
falling
closer
briggs
aux
##ously
##olution
dyn
myers
accompl
pink
##bing
libr
reasoning
kick
##dy
expectations
bullsh
heavy
jes
lying
##iday
intention
offended
train
201
passionate
direction
##ases
source
exercise
gh
bear
below
brill
insult
sexy
teachers
frequently
mentally
##now
empt
trip
challenge
table
breaking
primary
username
cudd
nts
##icious
blunt
lets
crack
significant
masc
losing
anxious
flirting
camp
constant
fat
stated
##ament
trity
died
bold
professional
genuinely
dynam
sna
##cle
material
objective
bullshit
rough
son
##iments
##anted
scored
matters
passive
swear
intimid
60
toward
blind
memories
celebr
70
##icking
carry
admire
mode
anti
sarcasm
fool
##old
##zing
##orable
info
attraction
letters
visit
##hole
batt
len
taught
##uls
useless
throughout
drag
mur
##apt
everywhere
imo
surf
disappoint
barely
awhile
till
und
##fl
quit
sinc
kidding
##itary
##urt
solution
shadow
rap
ish
thinker
fresh
exists
west
record
engineering
jer
apologize
mi
email
speech
sett
limited
allowed
pressure
via
##cd
stim
scientific
bag
fing
##ja
##ened
chose
mistyp
label
ps
##ingly
##ilt
deeper
picked
smoke
poetry
romance
nail
##olute
scene
assert
esteem
building
##ceed
feeler
##gging
females
xn
media
transl
feminine
##lock
##icient
meh
oper
hahahaha
return
cous
section
##ification
patterns
creepy
stare
usual
classic
bought
lord
##85
lies
individuals
qualities
casual
insecure
chemistry
round
##encies
load
loop
ends
hurts
recognize
5w4
##inc
##iles
poll
##ume
perception
excl
cares
7w6
gam
hat
intrig
trick
##anding
accident
explaining
base
fal
vir
##ga
##wr
scream
flirt
holy
include
element
herself
hes
vill
reserved
insane
##hhh
border
autom
econ
##97
asleep
pride
referring
states
stranger
brown
immature
bothered
magic
##aly
shoot
##rol
cru
painting
politics
provide
relevant
butter
##imately
##haust
absolute
aspects
superior
lat
sides
friendships
dancing
contrad
wood
exhaust
##usi
standards
paran
failed
street
destro
independent
nin
subt
pissed
pian
solve
holding
nfs
photo
america
park
##ule
heh
blame
joking
humanity
5w6
vulner
pin
photos
##ropriate
jesus
du
vague
weed
sched
accomplish
##omp
##che
address
arguing
##gu
unlike
##igned
sarcastic
atheist
elab
honesty
##oooooooo
tritype
males
pill
liking
gent
vict
##oring
doc
shot
deserve
languages
convinced
risk
mascul
der
##rom
weather
speed
concern
south
##dra
fantastic
card
##tt
comed
tex
enthusi
daught
lur
##aur
##atically
block
asshole
enjoying
##uuuu
opportunity
episode
##fill
##mao
arrogant
employ
blog
metaph
solid
ack
sand
realise
member
irrational
cred
code
hall
##matic
##vey
careful
advant
cases
properly
##ography
acquaint
hars
##just
##cles
mistakes
##90
explained
capt
misunderstood
crowd
brilliant
fict
gri
##orge
colour
counter
bat
##here
##gar
##xic
tries
shared
tears
represent
activities
teaching
modern
dinner
threat
belong
confront
calcul
harry
surprising
##ris
trump
writer
service
government
bird
ske
zone
calls
final
subjects
frank
insp
creativity
model
piano
##point
hero
sensor
levels
vote
areas
##cend
shirt
suit
numbers
23
##nal
colors
critical
complain
fighting
limit
hyper
gun
##por
##ops
outgoing
creating
paying
harsh
van
##66
shame
##roc
web
##uses
connected
wik
lower
wand
##tical
##ero
##sequ
recall
leaning
fictional
rh
unre
scale
incre
planet
irl
cast
lmao
stage
prone
forgive
expressing
45
mellow
tho
oriented
predict
cyn
##ai
sell
didnt
guessing
##ension
regul
vision
surprise
false
4w3
6w5
withdra
##ustom
pointless
staying
silence
bump
##inting
appreciated
prior
##rupt
feedback
empty
options
##ils
cloud
reference
local
##mental
gifts
symb
ba
eur
mate
sle
managed
stressful
population
##ada
regular
sadly
systems
perceive
stereotypical
feet
loss
studies
broad
originally
nick
pm
acts
emo
##ologist
bigger
cup
singing
mutual
gar
greatest
instrum
fund
fly
##bl
badly
perceiving
causes
million
update
1w2
pra
tert
##tf
stack
##adem
feelers
report
favorites
hobbies
gee
mal
##ex
##ision
##elled
##ending
##others
##bert
##ailable
library
##val
##82
neigh
leader
burn
trend
market
adorable
particip
gramm
followed
pieces
circle
innoc
dick
##14
##chool
##igg
compare
contem
percent
entertain
ran
##leg
asks
marry
heads
intuit
##idden
analyze
##leyes
benefit
wisdom
ow
xnt
activity
laid
psychological
leaders
killing
illness
fulfill
bond
mount
##inter
sees
hadn
adapt
talks
academ
blow
answered
filled
congrat
rolleyes
tree
##stal
atm
##cks
arm
brings
grey
powerful
interactions
winter
successful
influence
acknow
neighb
tick
fort
proof
driven
construct
warning
vari
alternative
cried
ded
rub
wide
manif
scre
simpl
drives
accepted
pleasure
scenario
gym
range
rele
peoples
spont
boys
signs
gentle
manifest
##hd
##gth
hea
plat
aww
trigg
answering
subc
corner
daughter
porn
##mates
shoes
stubb
dram
arts
sorts
seconds
##ribly
mirror
diagnosed
europe
dav
ug
seeking
faces
expert
##000
potter
choices
cos
ram
size
meat
##sey
compass
remain
ending
cheese
graph
signature
appearance
mixed
determine
melanch
vac
thor
##ement
roommate
princi
soooo
##aster
##ipedia
students
paint
capital
host
##ici
compat
counsel
bottom
wikipedia
##uit
##74
inher
cling
coll
describes
searching
relatively
hip
pack
##egr
dish
joined
##ifying
artistic
##lied
caused
elaborate
##pper
opposed
sympath
japanese
advantage
ted
##ronic
reve
whats
##ulations
unp
spl
disp
terrif
angel
engage
quotes
27
fish
punch
tb
##ik
unable
leaves
questionna
minim
##rete
irre
discussing
custom
tone
##98
blank
wondered
mistyped
spontane
##mon
##mit
guard
resour
puts
standard
painful
military
##fy
##bles
##ware
clue
adhd
appears
spanish
tact
scr
##aked
turning
##w4
##mer
sher
desper
flu
famous
describing
utter
attached
tang
##imin
accepting
characteristics
experiment
sib
##vit
consequ
mast
meaningful
identity
reminded
smoking
therapy
##ersonal
orange
unk
freaking
requires
radio
suicide
docum
stubborn
eg
##50
##xj
forth
##entr
thinkers
plot
desk
##gged
regards
dangerous
stimul
cart
##62
plays
closed
built
brief
status
cousin
mart
##oon
doms
expecting
##ounter
folks
cream
ix
realistic
classical
compliments
struggling
encounter
pow
task
##reh
grown
extro
##ocr
opening
swim
leads
masculine
aim
bible
tiny
reci
awww
factor
stronger
standing
center
civ
##cut
poem
iron
obser
cake
estjs
delete
oo
##iary
##irty
compar
messages
suffering
ghost
cath
##ipped
##ury
produ
quir
distur
concrete
suffer
shallow
maintain
thous
doll
##usions
##cient
plain
distant
messy
initially
observation
escape
cooking
battle
thousand
dying
pc
##ole
poke
spect
superf
concentr
ultimately
tbh
3w4
zomb
window
condition
picking
##board
verbal
wol
##w1
##think
##iring
bothers
tendencies
assess
available
north
grades
repeat
flaws
ben
race
##iable
##mind
theore
ash
possess
explore
nightm
connections
essentially
alien
routine
bath
dut
##und
##30
##34
agn
mathem
puzz
correlation
san
sir
umm
##ading
nowhere
passed
parag
pursue
borderline
sight
wtf
##me
##rees
butt
whose
impact
##aken
sociopath
greater
studied
correctly
equally
competitive
idiot
merely
wars
##pes
##54
##17
ing
musical
charming
exciting
raven
horror
professor
david
wed
##do
isol
##asp
cuz
explains
insightful
destroy
nic
##port
button
notes
lock
sherlock
1w9
bf
veget
resist
hurting
greet
randomly
subconscious
pants
##lr
##84
##esty
max
reson
conserv
dreaming
former
meditation
ugly
bow
virt
##de
##atives
##othing
surely
shopping
authority
structure
hidden
ride
russ
##99
sea
##imental
##ams
amusing
theme
adore
added
detach
legit
9w8
associated
boundaries
separate
disappointed
tertiary
extroversion
training
awareness
7w8
contempl
3w2
led
tatt
voted
yo
##str
##lection
neat
absor
manipulative
convince
26
hun
##ya
##hib
##bre
##12
shape
fears
unus
phase
flat
suggestions
analyzing
breath
measure
length
tumb
##oe
relie
variety
traditional
narrow
2w1
##well
##esth
staring
factors
introspect
projects
machine
phrase
contradict
hint
##inge
##ingu
##lement
adop
esfps
polite
journal
liberal
overwhelming
chicken
paragraph
00
##ield
seven
genre
drug
##ostic
silent
effects
perceived
hiding
##ov
spring
wont
robot
econom
congratulations
hence
beer
stars
gosh
##oses
buying
sadness
homework
responsibility
responding
teenager
ninja
tall
##sc
##bra
abuse
shar
access
humour
paid
regularly
##ett
cars
figuring
estab
technically
surface
schedule
sly
tons
hah
infin
embra
commitment
strategy
intuitives
##bling
##asks
##entic
difficul
blah
listed
patience
films
initial
epic
vulnerable
tattoo
difficulty
000
pal
##boy
##itty
typology
syn
literature
legal
astrol
cell
##iled
##irts
ages
##odes
strict
appropriate
##appe
presence
growth
sincerely
tumblr
##era
doesnt
defined
confusion
showed
copy
clarify
overwhelmed
questionnaire
zero
beach
arr
spark
incor
observe
included
manipulation
congrats
murder
2nd
hook
nons
##olar
indust
developing
assumed
lin
##inated
select
##izes
smiling
hole
countries
walls
6w7
lect
uk
##nown
##idge
##ades
swed
##onym
subtle
dates
lunch
##ios
cancer
granted
motivated
trolling
rejection
volunt
cowork
screen
document
civil
xs
##uous
##60
##oms
facial
held
texting
innocent
compassion
##64
integr
chann
actively
concepts
technology
guilt
strengths
intentions
##ulting
chances
display
applic
##iac
morals
psychopath
idealistic
28
ou
##reg
##ara
##irm
goodness
partners
scores
laughed
valu
clever
finan
preferences
refuse
treated
surrounded
symbol
fro
##ey
##gers
urge
fac
disney
highs
cris
artists
ideals
images
links
request
demon
consciousness
morality
category
pizz
vib
##pha
realizing
applies
tips
shitty
exception
experiencing
grammar
agnostic
ixt
rage
##fx
intended
##urd
emph
statements
reactions
responsible
philosophical
therapist
glasses
controlling
heaven
ness
##ji
loose
poster
shower
subst
romantically
includes
ignorant
received
heavily
entertaining
adventure
dynamic
luc
##ault
##bits
heck
quiz
assign
listened
preferred
leading
discussions
parad
apartment
mysterious
8w7
eight
##rd
stone
chea
pray
behave
35
##orical
trau
offense
purple
practically
frustration
debating
failure
journey
oblig
cruel
##oly
##la
##ators
forms
evening
##claw
naive
thorough
unknown
ax
gal
##atory
mac
unha
precis
realised
questioning
restaur
jeans
witty
caut
lu
xst
yellow
##fast
beings
##osp
fucked
incomp
biology
hitler
milk
##yyyy
periods
nerd
distracted
paranoid
inspired
pizza
dirty
ring
##ls
##70
##oned
##itivity
began
justice
nostal
unw
compreh
reasonable
patient
focusing
incredible
semester
addicted
automatically
dim
goss
nowad
offic
##ogical
ultimate
superficial
ain
austr
mask
##20
doors
sites
effective
pleasant
articles
productive
elementary
##ste
##iders
##char
offend
attrib
brit
endless
nights
suggested
checked
required
balanced
trees
massive
panic
slyther
nostalg
nowadays
99
oops
ponder
pushing
##oved
##18
shell
friday
evolution
bip
##cast
##esy
player
conclusions
miles
virgin
austral
##lin
stream
spread
believing
appeal
inclined
suggestion
##aaaaaaaa
skept
conservative
##rated
##95
##arm
allows
##rap
enem
contra
technical
cynical
mathemat
ravenclaw
bs
gf
ppl
##ique
dismiss
disappe
scar
bias
fond
susp
afterwards
##ship
demand
babies
authentic
strikes
unusual
emphas
75
bite
##iqu
##vin
unb
courage
manipulate
##writing
bang
vivid
clock
sometime
believed
##heart
killed
grandm
judgement
immediate
optimistic
##ulsive
slytherin
gard
hates
##onnect
##etch
##ateful
disg
official
twist
memor
err
ignoring
gossip
##enced
pee
faster
burst
bands
rainb
divor
chaos
contribute
ahh
native
alt
alpha
nose
spa
##ressed
brothers
greatly
coinc
police
location
chaotic
victim
irrelevant
##lings
##78
##oop
intr
frame
giant
resources
establish
sooo
##ye
##agon
teens
testing
##ucks
boat
worrying
walked
spoken
relaxed
cookies
purely
accidentally
bipolar
aqu
east
named
rush
magn
thrill
brows
insert
expressed
initiate
confirm
floor
lonel
encourage
intimidating
hesit
dump
myth
unne
##anda
##ables
senior
miser
versus
cleaning
programming
mystery
consistent
clingy
##of
##ca
island
neur
expensive
offensive
whereas
buddy
bon
hill
sjs
##pa
##utions
##ested
chart
##udes
understands
mindset
generation
depressing
affirm
breakfast
avoiding
les
ooo
##ura
clim
seemingly
teeth
bubb
processes
##inese
obsession
##iliary
harmony
spectrum
disgust
33
oce
##uri
##itter
intens
##ffle
tax
pointed
lapt
brand
secondary
ignored
##wwww
auxiliary
catholic
1st
tune
vo
vast
##ald
##aming
exch
enlight
##eria
species
edge
incons
stands
medical
noticing
lacking
bringing
primarily
acknowledge
reveal
astrology
ip
mild
##ipp
height
chinese
disci
playful
charge
assumptions
pisses
highschool
unnecess
3rd
##list
review
efficient
##attered
jumping
violence
woke
nap
##bul
##icism
stom
guide
arms
defense
highest
apath
concert
promise
banned
hungry
inspiration
obliv
encoura
credit
powers
32
nine
national
pics
##ba
##ato
rely
shift
heal
hardest
bitter
remembered
absurd
##azz
appreciation
uncle
##hahahaha
biased
confirmed
adopt
unhappy
cards
ju
lem
mm
vice
##bur
##65
##ilst
canada
sund
chuck
sounded
root
socializing
drinks
##acity
fixed
hobby
survive
channel
dare
lun
##look
##bble
whilst
isnt
##olol
##ums
clothing
##agger
annoys
walks
dramatic
gigg
##hi
##gy
thin
stable
lover
thoughtful
kindness
consum
talkative
instantly
advance
invent
messed
##hold
ooh
bun
flying
mmm
pess
rate
rings
sales
vary
##night
##inity
##ica
somed
aband
noise
unex
arri
sacri
conform
security
assumption
detailed
responded
split
nonsense
boun
ix92
rose
##zzy
##xious
quant
applied
imaginary
ladies
dragon
spontaneous
volunte
laptop
dual
ie
rig
##yth
##fly
##af
storm
adjust
counts
mistaken
choosing
foreign
laws
determined
methods
temperament
withdraw
##ram
##38
queen
clash
##osexual
grateful
obno
cared
advoc
##ensitive
detect
envy
steps
replied
reached
secretly
fingers
acquaintances
loneliness
sacrif
cig
vamp
##nat
sold
sugar
pointing
schiz
lists
maturity
solving
involve
legend
management
jerk
comedy
55
eld
fle
##pet
asper
chess
worries
spin
##ished
longest
degrees
perspectives
princess
george
associate
consistently
interviews
infinite
discipl
someday
obnoxious
nurt
wine
##pan
##power
ham
sole
##ami
prem
awake
flash
terribly
handed
opened
interacting
hopeless
ignorance
observations
siblings
crisis
dang
latter
habits
mob
unic
saving
cheer
touching
objects
intimate
##x92s
deleted
weaknesses
assertive
precisely
dich
##200
anth
relation
disli
cock
invis
ironic
raise
medium
profession
traveling
throwing
benefits
bottle
satisfied
graduate
pessim
row
##ivers
##100
##iced
feat
ord
exe
knock
persona
overcome
existential
unconscious
directed
involves
error
magical
##iiii
statistics
receiving
ease
##rome
##boo
##zed
##isc
forest
shown
##arded
relating
manager
makeup
sentences
fitting
provided
intimacy
alike
roles
narcissistic
leadership
bread
tasks
x93
##uro
##zen
##96
##22
##ini
##ids
chest
outward
unst
comprom
flav
badass
mush
brave
meaningless
checking
western
stomach
snea
##core
##men
##icing
shap
wash
whoever
dial
bless
##achel
scare
believes
worlds
committed
##phere
closely
depart
debates
supposedly
insights
strike
daydreaming
##stein
##esc
##enom
##alu
##ashing
##iche
exploring
hund
addition
boredom
texts
interpretation
mechanism
dedic
observing
comparison
contrast
lou
yog
##aff
##den
##ora
ital
dece
flight
hahah
instant
skype
hearts
smarter
replying
theres
apologies
receive
football
grandmother
dichot
nur
finds
rights
cheating
##ords
creatures
potentially
villain
34
hosp
##rs
##iber
##mber
##orp
crash
##llll
logically
driver
picky
bullied
procrastination
nuts
pokemon
embrace
ocean
naked
##ality
shirts
##olve
diet
schools
charl
handwriting
lights
linked
photography
claims
chemical
hundred
36
##ena
proven
firm
specul
##orders
admitted
acceptable
forgotten
sympt
devil
episodes
camera
settle
theoretical
2w3
pushed
##nes
##yl
##olved
compos
##izations
grasp
importance
maths
tastes
previously
embarrassed
incorrect
47
hous
tight
##cist
assist
sorta
senses
tied
##retch
smaller
horse
occasions
consciously
rejected
semi
adults
candy
consequences
wolf
cheap
65
64
ms
ocd
rp
wat
##rit
##ipping
reward
##etics
stalk
army
apple
breaks
darkness
holiday
teenage
ts
ze
##ino
soph
abusive
excess
everytime
confuse
fluff
crime
remembering
sensory
cave
movement
fancy
smooth
peaceful
opportunities
witness
valuable
aka
jew
sig
whis
reck
##isters
partly
enjoyable
brains
souls
oddly
challenging
##eeeeeeee
nickn
compatible
44
kitty
##iat
##uce
##lam
##sexual
##hael
spam
talent
overthink
##odies
##pected
expressions
admin
numer
illogical
styles
surroundings
##coming
attachment
judgmental
vacation
lucid
fed
james
##rim
##80
##enn
map
persons
prevent
##ssss
tele
subs
fallen
versa
delicious
paul
scientist
vegetarian
unicorn
29
dict
dub
jun
nav
ol
woo
##15
exagger
chee
fran
betray
smith
expressive
idealist
causing
##x92t
lifesty
tolerate
##tra
##ife
##kin
##bled
##jud
##uted
anonym
alter
##idal
abilities
percept
default
thrown
crimin
articul
lessons
planned
psychologist
identified
##airs
capacity
spoke
deny
repeated
procrastinate
loyalty
cautious
8w9
mas
##13
shake
dise
bits
##aaa
refres
mentality
succeed
covered
prepared
surprisingly
##natural
gry
##down
##vis
pron
worker
twin
violent
buddh
finger
batman
intensity
unnecessary
gree
hits
##arks
stating
##asty
spider
phenom
##lessly
sexually
orient
affected
sources
latest
melancholy
oblivious
38
fb
jk
kore
rat
##ras
reven
##idays
los
comic
needing
dependent
formul
uncertain
occup
severe
communicating
deliver
cycle
swimming
ration
wings
##puff
thro
##itarian
##ained
spell
perman
defend
skip
indecis
researching
empathetic
attempting
##craft
salt
libert
loner
bathroom
gryff
dread
honey
il
##wood
target
peers
sums
knight
whoa
##action
spelling
diss
monster
rape
reflection
wasting
moderate
hypoth
54
95
pi
##uary
##ancy
youth
##eter
##rove
##istically
evalu
irony
behaviors
cultural
software
tort
scenarios
michael
intentionally
intriguing
detached
restaurant
bud
tun
##ju
##´t
##elly
saved
prison
imagining
larger
tempor
pets
tempt
##pie
pros
grass
joining
recover
huffle
stayed
winning
dropped
##ivalent
lurking
frankly
greetings
miserable
gryffind
bb
groc
jane
ped
pool
##och
##hen
##iters
notion
##osphere
attend
oldest
deciding
childish
disconnect
lesson
##lix
engaged
psychiat
formal
##hahaha
complaining
fights
opposites
satur
universal
scenes
ethics
torn
inevit
mountain
affirmation
grocery
vot
##ko
##mes
moves
shru
ate
##osen
##ache
##cycl
imagin
england
excite
essay
gifted
graduated
unfair
derail
fortun
utterly
zombie
financial
cash
fra
gross
nu
##amental
justify
anytime
##osis
funn
waking
observed
runs
falls
accurately
amounts
windows
flowers
scratch
australia
lifestyle
hufflepuff
hating
beast
whe
##the
exhib
##urb
workers
gray
##aker
indul
charism
advanced
addiction
draining
singer
acceptance
appealing
struggled
hypothet
gryffindor
ii
##iate
##flix
outcome
acted
comparing
##uded
struck
##irect
##claim
effici
fairy
biological
deliber
impressed
relaxing
introduced
demonstr
##cyclop
egg
ears
sisters
tip
ven
ancient
##imes
##illa
chap
encyclop
clin
manga
trapped
discussed
bike
worthy
touched
holidays
pulled
portray
pretending
contrary
netflix
prepare
gaming
aesth
##porate
##cel
##hil
##lim
##box
muse
disres
##ifies
flag
sensitivity
godd
bob
supportive
electronic
dys
jan
nom
nasty
thumb
aloof
stretch
##thy
##irl
##cking
hardcore
keys
cheated
caff
quoted
cere
gest
toxic
##arant
##stream
stab
defe
##umps
##cience
##ounds
relates
##izar
robert
##place
finishing
similarities
passing
grace
luckily
combined
embarrassing
release
sharp
vibes
sunday
gas
##oke
##kers
inability
beg
items
stock
##antic
prec
needy
happily
legs
societ
##grad
explos
adding
affectionate
irritated
neighbor
quirky
incompet
4th
52
bout
bass
##jo
##inging
intend
proceed
afterno
careers
valent
computers
occasional
grandma
ridiculously
flawed
venting
medication
exhausted
emoji
atmosphere
unexpected
revenge
cope
##iel
##vy
##itect
unrel
happier
disorders
firstly
imply
humble
entit
curse
repet
wishes
20s
hitting
affects
amongst
rolling
tradition
arrogance
golden
nightmare
garden
hospital
jim
junk
jazz
mc
##ket
##hop
##utter
chosen
pregn
shoulder
drown
consideration
dreamer
cheat
synd
afford
failing
wasted
peter
attacks
birds
unreal
aunt
cure
dull
lame
neck
poems
usa
ups
subty
distinct
##umbled
earn
burning
##ruction
competition
crushes
misunderstanding
procrastinating
survival
architect
unlikely
inherently
industry
cough
cents
flex
pier
witch
##py
##pm
##77
##icit
reass
##illy
exter
weigh
conven
posters
deser
glob
profound
obsessive
largely
centered
fields
balls
controlled
terrified
exchange
italian
fox
kat
pity
rab
sequ
asian
##ogue
crave
douche
grab
connecting
stupidity
##bby
motives
forgetting
analytical
insecurity
categor
##iffer
wedding
invisible
libertarian
afternoon
bomb
dust
oct
rot
inqu
rein
##etime
stal
##urs
enne
reliable
applying
carefully
organization
##obia
tools
assessment
saturday
##arius
fruit
outs
que
unint
subfor
distin
damage
killer
snap
presented
destruct
sexuality
perfectionist
metaphor
clouds
owl
officially
caffe
alex
##ients
ina
##elie
##ette
guarant
implying
indiffer
nicely
exams
mistype
convent
chatting
##comes
intrigued
graphic
ashamed
46
rise
##days
##eds
shout
org
##active
impulsive
guessed
insensitive
sentimental
commonly
holds
idealism
ruin
spoil
bully
germany
bolded
hatred
mobile
excitement
encyclopedia
cit
rar
ren
##nie
##16
##sty
alas
ens
##ortion
speaks
desires
genres
##iforn
##phones
waves
dealt
uncomm
retur
doubts
illustr
criticize
instinctual
ethical
houses
pronoun
unrelated
gem
kitch
tan
tie
##han
##eral
tow
##orious
##sters
##oops
polic
relat
resent
designed
brut
remark
insulting
easiest
laz
collection
extraversion
pathetic
sending
pursuing
ambi
improvement
##nnnn
##cending
russian
absorbed
011
42
53
bast
lion
oil
river
##ril
##otyp
##entric
##ilies
conce
trash
pref
##ossy
reads
partially
remove
download
bugs
sketch
californ
troubles
bedroom
goofy
instrument
sympathy
british
cigare
discipline
department
bc
cab
##rict
##off
##bal
##58
##urance
interrupt
blond
extended
definitions
guesses
command
insan
march
gods
##ublic
internally
sucked
steam
fascinated
cookie
woah
screwed
sincere
exhausting
enthusiasm
counselor
minimal
thoroughly
rainbow
bubbly
global
fans
punk
tid
##hand
##gue
##mark
wouldnt
vegan
##arts
saf
infx
bell
scares
commer
laught
charm
hugging
court
miscon
mainstream
polar
discovering
frequent
robots
xnfp
disturbing
puzzle
features
symptoms
ein
kar
##ees
##icate
lift
align
pock
print
twil
flip
esp
youngest
##resp
motivations
autism
attempts
privacy
athlet
engineer
idiots
introduce
verbally
desperate
skeptical
disease
37
aha
eu
hind
hood
soo
thick
##edly
rechar
invite
mini
solutions
transform
pulling
poorly
hypocr
influenced
digital
skinny
punish
audience
novels
tolerance
loads
fundamental
entertainment
##iques
vampire
yoga
disrespect
66
jam
ox
wishing
##bid
suits
lovers
chase
writers
genes
lasted
musician
stops
invited
creates
admir
suggesting
neglect
straw
closet
seasons
electric
twilight
48
mond
pit
##isation
intx
dex
sum
chair
defensive
smiles
keir
sounding
bubble
register
openly
analogy
##ifications
touchy
moods
filter
purposes
replace
christianity
jungian
##hhhhhhhh
grounded
darn
academic
paradox
throat
caffeine
kitchen
i´
pace
##ku
##wa
theat
##real
youre
sto
weap
cher
mail
underlying
conspir
learnt
slam
advise
wave
medi
creation
matches
instincts
vocal
wander
participate
duty
gorge
yell
##nis
##bi
thom
sticking
##umble
##iger
plant
expand
talented
resem
impat
implies
trail
socialize
distingu
sciences
silver
processing
energetic
literal
retarded
intellectually
##forward
prag
principles
mathematics
unstable
laughter
lic
sau
##eve
toy
##uts
lil
stem
##umn
unem
mund
ade
defining
couch
mates
secure
serve
president
strangely
limits
disagre
protective
util
clicked
settings
gathering
captain
rip
##ev
##fall
whatso
##amele
sheep
soundtra
indie
accent
strongest
raw
motor
##aware
straightforward
inconsist
uncommon
jon
##yer
##you
##aps
##gen
##vable
lied
united
decl
openness
sets
positions
##archy
empathize
richard
fulfilling
relief
oooh
numerous
syndrome
eggs
fest
mort
##pire
##father
##ban
threw
##orter
##icy
doom
##opher
prejud
##icked
keen
removed
basket
headed
psychic
religions
darker
cutting
combo
discovery
intensely
secrets
suicidal
dynamics
withdrawn
##interp
trigger
ixfp
destructive
mundane
eternal
ny
rising
tut
xx
##da
##gl
##mo
##oration
shes
upload
dies
##udge
scri
triv
submiss
skim
judged
paral
treatment
hypothes
spirituality
micro
investig
woods
disappear
advocate
whatsoever
43
56
diction
pour
ry
neuro
ambit
unaware
##earing
actor
dile
spiders
disreg
perpet
desig
scorp
##ormal
##eee
##aze
trusting
shyness
conflicts
misunderstand
jealousy
exclusive
recip
enemy
emphasis
ec
sf
u200
##cil
##icle
lips
forcing
shr
heat
prol
guid
price
afric
##angel
##ifting
insist
asshol
##while
buff
survey
figures
incap
viewpoint
bloody
medicine
xntp
isolated
coworkers
california
rum
##uation
##elle
telev
nihil
republic
courses
drift
existed
misinterp
kills
strive
performance
confession
cuddle
slept
masters
solely
asexual
pse
##uto
##asy
atle
chamele
##cif
realization
effectively
circles
##nov
hopes
sunsh
despise
elements
trek
repeating
indicate
equivalent
judgment
locked
compromise
distinction
dexter
gorgeous
pseud
ahhh
ditt
jaw
melt
wre
yum
##ean
##col
##fa
##aded
sus
knife
girly
##isms
completed
cheesy
psycho
functional
supernatural
suggests
impressive
validation
2000
##rrrr
breathe
medications
enthusiastic
voices
62
aug
bizar
cities
pil
serial
##top
##cup
##wing
sess
forces
stead
convey
willi
heroes
offered
leo
scott
consens
enjoys
crappy
slip
follows
avoidant
organize
historical
rocks
clubs
nerdy
bullying
capitalism
dishes
encountered
subscri
ditto
gt
gear
gap
til
##oom
##lor
##fish
toile
inch
stability
##unction
##eable
faced
nevermind
##fulness
newb
dreamed
rave
profiles
steal
condes
holes
dressed
roller
gained
deserves
keirsey
dilemm
bizarre
31
fright
pig
wiz
##uits
##rey
##ari
##ancing
##rier
##road
##berry
tease
dreamy
corporate
hmmmm
foods
approaching
objectively
politic
century
nerves
satisfying
lifetime
folk
celebrity
tricky
colours
ironically
lecture
divorce
criminal
phenomen
sunshine
bachel
drew
jul
sink
deem
tail
empir
flick
thankful
psycholog
mission
uncon
halfway
retreat
accuracy
challenges
comforting
directions
revolution
blend
inspiring
screaming
concerns
cosm
junior
hypothetical
dab
ech
ecc
nag
ron
rice
##oning
##anth
inapp
##cha
##ado
washing
nec
##urities
##osc
advert
##agers
league
brush
cringe
imagined
visiting
placed
labels
conditions
clarity
represents
adventur
marketing
customer
economics
fluffy
entitled
subforum
television
63
ara
bush
bank
fer
fri
fate
ns
pir
pump
tour
##ns
##nam
##house
##inger
whim
stumbled
china
infat
teasing
implic
traff
suppress
seriousness
engaging
functioning
solitude
speaker
dominance
cultures
unfortunate
reaching
environmental
essence
boxes
insecurities
network
escap
pairing
latin
increase
platonic
european
thousands
documentary
nostalgia
browsing
execut
anonymous
ambivert
monday
58
horm
ot
xxx
zod
anna
##rix
quart
infp
thankfully
##isexual
elsewhere
accused
honor
bug
preferably
reput
meds
2010
solved
sweat
identifying
smiley
bothering
sooner
companies
claiming
petty
pengu
homosexual
narcissism
candid
rebell
freshman
mountains
melancholic
rigid
articulate
einstein
conspiracy
assholes
500
mile
##kk
seat
liqu
##ille
france
trade
tag
##osh
twenty
monkey
obsc
doub
quietly
aliens
independence
square
wandering
desperately
nightmares
repetitive
inacc
atleast
zodiac
buck
fet
naz
##wich
##91
mexic
ship
shakes
devi
relatives
scroll
branch
indirect
explode
apoc
families
soup
variant
holmes
interpersonal
homes
satisfaction
introduction
route
counseling
maxim
coworker
##cafe
outwardly
refreshing
unrealistic
cert
mere
##parent
##ek
##fit
##55
##oral
meal
alarm
##ulated
##rain
enxp
facing
overl
blat
##pleas
decade
terror
creator
publish
demanding
##obic
bullet
cooper
minority
##uuuuuuuu
concentrate
volunteer
greek
hr
lust
wra
##pd
##liness
##vity
androg
hamm
##owing
stance
stark
##ulate
##inder
outdo
##ander
preach
reader
spare
##oster
territ
mari
handful
drained
edited
racist
criteria
stephen
allowing
feminism
##rooms
websites
smells
breathing
guns
isolation
comprehend
coincidence
sacrifice
dictionary
aust
lam
rere
wond
##ration
##rick
##zer
thri
##itor
inj
albe
stood
socc
##osing
spr
meanings
##beat
specially
highlight
##life
absent
burden
central
convincing
portion
concerning
sandwich
selling
charlie
orientation
psychiatrist
traffic
soccer
fold
sust
yelling
##nia
##mat
##itute
beating
feature
chris
poison
pert
hier
thrones
definately
trap
monog
considerate
buzz
carl
gravit
noneth
riding
butterfly
introspection
application
reciproc
incapable
albeit
nonetheless
bodies
os
pitch
ties
##kind
##uting
station
##roid
allerg
persu
cliche
grat
blast
imper
simil
generous
laughs
horribly
varies
eyebr
models
treating
fuzzy
violin
innate
##works
mechanical
nails
hallow
tattoos
illeg
citiz
script
trivial
eccentric
67
cod
dw
narr
sab
##rot
##iance
##42
##x85
alice
chronic
plastic
exposed
hiking
definitive
flower
viewed
restrict
amazon
moody
awkwardness
demean
fourth
slightest
anticip
extraverts
beneficial
astron
crossed
switched
constructive
principle
hipster
introspective
swedish
trauma
encouraging
##books
precise
inaccur
aid
bust
pix
rick
sque
york
##pal
##ups
##ham
sel
##aroo
income
innov
##storm
wealth
loath
chain
poly
undergrad
leon
schem
fiance
craw
cheers
hearted
sleepy
rac
profit
photograph
smoked
girlfriends
agreement
scientists
papers
portra
irritating
translation
duh
calculus
premise
dedicated
indecisive
valentine
condescending
dilemma
rang
##pher
##´s
##itting
stole
mold
suited
mand
sav
grin
impul
foundation
classmates
irish
meme
mentioning
visited
redu
fails
struggles
odds
improving
midnight
intimidated
acquaintance
compatibility
teddy
goddam
safety
recharge
bac
fo
ky
lingu
wound
yess
##lines
##esting
##ella
tril
precious
##fect
sociable
bridge
trained
instances
farm
existing
##ashed
signals
soulmate
skilled
americans
penis
albums
confrontation
percentage
minimum
galax
established
incompetent
blonde
disregard
68
bore
bars
duck
drove
mouse
##atoes
bend
haw
lip
##ads
chasing
sword
immense
##rence
##acle
begins
recommended
ambig
audio
insults
superiority
unpred
contemplating
hunter
integrity
ought
permanent
consensus
similarly
bum
bossy
gle
hunt
las
sps
##uate
##uity
##gic
theor
toys
##alid
##ita
##step
whoops
reverse
##umsy
dipl
clumsy
genetic
backwards
indian
difficulties
amazed
illusion
autistic
hehehe
categories
mixt
priority
strictly
hooked
ix92m
december
chapter
submissive
august
inappropriate
adventurous
monogam
unpredict
ahaha
aries
mary
ye
##field
##ae
##bag
##bage
##vol
##jack
##32
##arn
##alf
havent
feely
poker
une
disclaim
contest
obt
##mmmm
personalitycafe
invalid
plane
oneself
trusted
burned
projecting
pleased
programs
device
educated
denial
hunger
settled
schedul
ixtj
disgusting
dichotomy
pragmatic
androgyn
signed
yu
##zs
sept
meg
healing
##illing
##ussy
uninter
actors
sac
##uding
genetics
joe
certainty
depri
norms
boost
motion
breakup
worthless
sunny
impressions
autumn
fantasies
kissing
structured
billion
economy
geek
fluent
reinfor
reputation
diplom
85
dy
upper
##kins
##win
toast
toss
sticks
canad
atl
outlook
##umber
prev
blown
twitter
phleg
drum
##veloped
format
breakdown
1000
practicing
eaten
involving
collective
##working
pillow
inspire
masturb
cartoon
suspicious
##burst
bunny
nurture
pessimistic
laziness
impatient
prejudice
androgynous
39
ber
cro
lg
##function
##inations
##rep
##eline
##icting
stro
stores
whatnot
agend
clu
hipp
explicit
ideally
discrim
eachother
surg
wished
exceptions
##ganized
positively
magaz
prince
clarification
kicked
cuddly
southern
castle
triggered
hunting
nostalgic
lesb
apathy
repeatedly
clinical
trilogy
57
aura
dorm
iv
tension
##enance
noted
socks
shel
heels
exfp
reluct
underest
offering
remains
muslim
craft
glance
breed
animated
roman
##aneously
negat
textbook
essential
floating
invested
##worthy
perfectionism
grip
increasing
praise
acknowled
asperger
pregnant
punishment
toilet
iam
ixx
pile
##itudes
lik
##irk
amused
outer
sheer
##asses
bliss
understandable
coast
marvel
stopping
boot
transfer
fixing
christians
privile
influences
atheism
vocab
exclus
dollars
compassionate
authenticity
overthinking
bbc
shrug
imaginative
frag
subtype
policy
scorpio
doubting
halloween
clueless
dot
fired
gig
hed
hunch
##rust
##cat
##bot
abroad
pean
deals
someones
converse
amy
outburst
plants
typings
lee
##aper
##ibilities
headphones
niet
morally
depressive
director
warmth
fuel
validity
crowds
adventures
##ttes
texas
zombies
subconsciously
resonate
contradictory
indifferent
conventional
misinterpret
bant
era
tay
zen
##sis
theater
##lear
##entious
##opes
shed
shiny
amuse
truck
unpleas
manual
theirs
##ago
blush
simult
downs
paste
2011
misle
organizing
presentation
travelling
puppy
homeless
quoting
digging
atheists
suspected
narcissist
costs
garbage
terrifying
produce
loser
rabbit
gemini
72
ari
dood
fw
gau
mim
pff
tu
##oons
##ointing
##oured
##encing
##itution
inxp
beard
wasnt
debt
champ
pod
noises
persist
##osure
##osition
##ours
implement
##verted
esxp
worded
matt
april
finn
eyed
curs
angle
supervis
countless
horrif
potato
respectful
redd
hitch
retail
judgemental
sticky
pupp
beside
nailed
translate
instruments
dimens
##juana
stalking
soundtrack
goddamn
font
fried
ls
pale
ss
vag
yah
##nic
##oia
##ocial
##cu
##gi
##inent
revel
##etically
alge
stages
##ader
##urus
yourselves
pepper
conqu
comics
diam
twent
contain
obama
questioned
crushing
##pled
indu
craving
editing
solo
informed
dominate
respected
approached
ruined
humorous
pleasing
keyboard
products
cuddling
shooting
accomplished
arrange
substance
assignment
anthrop
admittedly
perceptions
distinguish
echo
marijuana
bacon
galaxy
phlegmatic
algebra
bone
merc
trem
veri
##rous
##rors
##tle
##bor
##watch
##3000
##onent
beats
##ida
worn
emerg
##agram
workplace
realm
##berg
selfless
hopeful
sensation
sentiment
counting
pops
nfp
delight
perceiver
continued
grandfather
handsome
significantly
campus
xntj
manifests
sweden
rpg
navig
efficiency
ambitious
phenomenon
inaccurate
disclaimer
71
apt
dwell
kitten
ri
tad
tiger
wet
wicked
##oqu
##flies
##gian
##bon
##♥♥
##ata
tol
inxj
stir
abn
shorter
##illed
themes
tack
clip
resort
underw
desert
blur
blues
wherever
phd
playlist
insom
awesom
excuses
prescri
democr
##apping
catching
frequency
weekends
initiative
snowfl
puns
maintaining
meditate
opera
pondering
twisted
enlighten
fortunately
sauce
4s
hors
lit
ros
##cr
##uated
##inator
##rene
##oric
##elve
staff
sham
don´t
outright
##oler
##aren
clown
talents
grump
players
colored
accid
trips
repress
grain
presum
movements
supporting
improved
favourites
##ductive
melody
sample
operate
trends
tangible
virtual
errors
luna
dialogue
temporary
wheel
deliberately
cigarettes
hypothesis
designer
illegal
racism
taylor
unpleasant
fart
gro
kim
mall
nuc
por
sid
sane
tent
tiring
zoo
##vo
inxx
bee
##eli
ane
stun
chic
adam
spar
##anged
##aches
##ocra
craz
slap
boots
incident
psyched
server
lacks
delay
techniques
recognized
explanations
mutually
##bye
diagnosis
suitable
stimulating
sanity
legitimate
hints
frozen
assignments
xstj
neurotic
disconnected
i´m
mixture
fence
ga
hsp
niss
pis
ray
##rical
##oken
##ala
##aline
##anny
befriend
aspir
##rial
abused
worship
##ppers
outcomes
guest
kinderg
##athers
ohh
elli
agreeing
valued
international
presents
##ternally
restless
domination
manipulated
provo
attempted
coping
kisses
shades
surrounding
jacket
occurs
emails
xnfj
vulnerability
pills
predictable
enemies
dumped
schizoid
elder
basketball
wonders
41
ai
ect
fif
hog
mich
rent
sant
vit
##hy
##girl
##met
##26
tooth
arent
intoler
enorm
adren
smack
throws
mars
sorted
generalizations
deepest
forgiving
distrib
##licting
household
popped
beautifully
##shell
summar
maintenance
vocaroo
rebel
camping
roughly
stimulation
cousins
blowing
blanket
briefly
divorced
climbing
abandon
nickname
wreck
agenda
negativity
ken
poo
roy
sar
##rion
##roph
##23
##reting
injust
##oman
sober
exfj
chip
pose
##arten
prospect
compelled
offers
pretentious
contract
lasting
muscle
artwork
triple
handy
listener
lake
invented
drain
creature
bookst
borrow
viewing
formed
roommates
ordered
dammit
amazingly
negatively
barb
casually
accounts
addictive
occurred
encouragement
apathetic
aspergers
torture
flexible
unpredictable
exclusively
##ocracy
300
5th
84
ace
nit
pays
##rant
##hu
##86
##inal
##ali
##orph
##leting
libra
alert
stems
##rie
##aunt
outlet
nod
plate
tabs
##allow
disaster
underne
flatter
generic
rofl
headache
glo
messing
warri
motivate
combat
treas
doctors
shops
risks
ineff
economic
mathematical
##agonist
january
license
chameleon
september
surgery
nietzs
simultaneously
twenties
underneath
dow
kay
##aire
##bob
##73
sedu
##ona
##stic
##isy
liar
stays
##amin
trance
upbr
quad
##igo
##ptic
##abilities
compens
herm
##agues
infj
acid
string
##aki
decides
##entionally
handling
surreal
enfor
freely
hurtful
serves
brainstorm
controvers
shorts
decisive
transition
transport
satan
organic
auto
providing
pacif
robin
traditions
seeker
consistency
equality
audit
updated
2012
axis
korean
societal
bastard
unemploy
steady
nuclear
js
jar
vio
##iw
##aced
##gent
##word
##xps
toe
inward
ofc
italy
haz
##ulary
bye
taurus
sag
empire
overrated
resc
phones
implied
slack
minus
psyche
swift
raising
dominated
patri
necessity
snugg
titan
avatars
antis
despair
prompt
pencil
dropping
feminist
aggression
johnny
jackson
freaked
indicates
alternate
naruto
cracked
celebrate
fundament
released
sooooo
destroyed
bowl
aquarius
ordinary
flavor
hundreds
charismatic
rebellious
vocabulary
9s
eag
gang
tank
vid
##uum
##fire
##vation
##28
inception
##asion
dod
shots
donald
##outs
amen
##gee
noble
##herent
##ief
tale
belle
twins
appoint
recl
##ibal
marks
##ails
painfully
referred
titles
suffered
fantasize
accounting
promot
competent
filling
salad
ambition
interpreted
guts
cycl
bills
foolish
labeled
paranoia
rhyth
inherent
dishon
chuckle
brutal
penguin
banter
anecd
nietzsche
dil
eager
july
kan
kate
tl
void
##corn
##ials
##za
##oul
todd
##oria
lily
##entive
mock
chi
##olving
##uman
##istical
arbit
adol
shoulders
scan
joker
apples
flesh
thanked
classroom
repro
incom
passions
hurry
cognition
approx
philosopher
dressing
radical
switching
performing
optimism
snake
enthusiast
metaphors
martin
hesitant
gestures
pisces
arbitr
cine
dv
dj
gall
gah
nation
tues
##x94
##rection
sha
donx92t
cann
##urring
##ante
##aud
##geon
prod
overload
overlook
perse
desired
extensive
sincer
##quate
enjoyment
apology
generalization
absence
paris
characteristic
avoidance
texted
lowest
transcend
wiki
steve
jeff
conclude
holly
essays
destiny
kissed
laying
disappointing
bleed
collected
mannerisms
2013
customers
concentration
civilization
eldest
disliked
tempted
u200b
pseudo
territory
grumpy
downt
violet
antisocial
ak
gag
hs
hen
np
pad
pause
##can
##ikes
anarch
orch
chips
couldnt
idol
beta
defending
pho
conflicting
covers
interestingly
decor
entrep
additional
freaks
boards
gravity
immort
avoided
identical
closure
modest
organised
erm
##attle
conceptual
summary
provides
labor
successfully
jumped
fascination
mindedness
suprem
millions
kingdom
reflecting
hahahahaha
desktop
martial
resonates
virtually
ouch
juice
lemon
abandoned
waters
exhibit
exterm
insanity
theatre
bachelor
outdoors
canadian
lesbian
upbringing
eve
june
pyth
tread
##76
##amine
proves
##ainable
awe
attitudes
believer
obst
remot
eliz
coat
coord
##0000
carried
standpoint
purch
parks
ahem
analyse
technique
professors
efforts
sufficient
furn
eleph
determining
insect
mentions
exercising
baseball
screams
lurk
crowded
instrumental
puzzles
ixtp
giggle
excessive
buddhism
begun
paralle
reread
loathe
peanut
supervisor
psychedel
kindergarten
94
fy
osc
pony
pounds
rit
tj
va
##pers
##fuck
##itation
##ione
##imp
chop
tricks
proving
urban
unatt
clutter
loops
spouse
overs
overd
##ondon
longing
emotic
sits
##ggie
tragic
secondly
solitary
brained
visible
horny
surprises
reminder
##elda
multi
grandparent
claimed
beneath
dresses
harmless
indicator
correlate
##world
threatened
xsfj
adopted
shaped
dichotom
neighborhood
guarantee
cabin
commercial
athletic
africa
misleading
abnormal
remotely
78
bones
dirt
fps
jr
oooo
patch
vom
##eous
##care
##iers
##gra
##wed
##walk
##anks
##analy
islam
soap
poet
diary
##abeth
##izer
scattered
laund
traged
mont
stuffed
studio
weirdo
swing
importantly
rooms
serving
uncont
commented
spirits
combine
lawyer
authors
environments
nearby
##xxxx
property
divide
tennis
selfishness
landsc
coward
requirements
doorslam
eastern
ipod
nurse
francis
rationally
inevitable
indulge
dysfunction
relatable
misconception
published
reddit
diamond
injustice
bisexual
deri
fade
hoo
london
mt
mig
sway
tense
wil
##lishing
##di
##mail
##75
##iture
bears
hack
anat
anyhow
veh
complement
hermit
emma
overt
writes
##ints
##ivated
extp
brood
remarks
sims
sloth
submit
sadd
boom
colleagues
damned
drawings
versions
rationality
devoted
bullies
observant
collecting
phrases
vaguely
ixfj
quirks
dutch
attribute
bounce
returned
pocket
obscure
awesomeness
fundamentally
grandparents
bent
fog
ko
lens
nerve
##fu
##fting
##ded
##bic
sof
sore
quizz
actress
##alled
exposure
spat
spite
##oyd
scra
attending
mindless
flood
basics
entry
artsy
misery
patron
clearer
wallet
entering
paths
hybr
geom
protection
judgments
villains
destroying
counterp
vanilla
radiohead
buttons
selective
demands
quantum
fleet
cocky
orders
nicknames
buddhist
architecture
enneat
tidy
euph
stoic
liquid
eyebrows
portrait
laundry
ay
cs
dive
fm
ht
jelly
mcd
pand
sided
wrap
##ted
##uh
##ford
##zil
##atisf
##enix
liz
butth
##aments
fridge
timing
happiest
overre
undert
permiss
extend
ohhh
flame
recon
##weight
charged
marsh
classify
dreamt
skyr
##ubs
racing
greed
crystal
severely
wins
norwe
references
intuitively
admitting
conduct
googled
mystical
experimental
carrying
virgo
resource
sibling
industrial
symbols
xstp
ipad
nursing
rewarding
sophom
horses
auditory
tuesday
python
3d
69
aaa
binge
daw
fist
ftw
jen
lis
sangu
x94
##cakes
##iation
##hin
##dr
##ville
##sem
stew
justified
externally
wears
usage
whore
nove
managing
sail
funeral
spain
needless
hire
scot
recre
coke
assass
decades
##eez
discou
lave
distraction
##ashes
popcorn
approve
responsibilities
researched
files
knowledgeable
spirited
mornings
trolls
alcoholic
uhm
progressive
##oooooooooooooooo
paragraphs
financially
memorize
rainbows
administ
dubstep
korea
newbie
gravitate
exterminate
skyrim
51
98
bog
bern
ds
ff
heter
jay
ly
lap
lux
##net
##25
##erk
##eling
dozen
##ira
shares
peer
poetic
outl
arc
aged
goodbye
manners
compuls
##ourse
wrest
belt
stray
phases
eloqu
couples
##gggg
assure
##ocre
lesser
repressed
corresp
freud
brazil
meetup
anne
uncond
idealists
reacting
haircut
hotel
gradually
entered
loudly
birthdays
colorful
teenagers
recognition
disorganized
regrets
symbolic
variables
recipe
synth
napole
##bulous
cheerful
shapes
cheek
thomas
william
hormones
quarter
squee
ambiguous
fragile
uncontroll
correspond
6th
az
batter
cel
ic
pul
rut
tony
wid
ward
wore
xp
yard
##onal
##esia
shining
succ
outfit
##olly
##umes
##aine
##igma
imho
##osaur
adher
##ogether
righteous
goth
smother
brow
coz
instruct
heading
glut
glory
adds
cooler
excel
misread
informative
retro
awkwardly
behold
streets
ntp
treats
##ausible
lawful
manipulating
protest
improv
rationalize
daniel
spoon
denying
shadows
layers
flirty
snape
celebrities
automatic
grief
rhym
ghosts
assistant
zeal
reckless
ratio
inevitably
prefers
wizard
nazi
adrenaline
quizzes
ck
cus
dc
file
kicks
od
##rison
##front
##aver
##40
thou
##athing
##etyp
dol
sho
chol
tran
unav
tales
##bey
kindly
##iva
scand
consol
defines
remo
reasonably
basement
monot
socialism
##atively
evolved
cues
corn
videog
morbid
parrot
##bbing
truths
boyfriends
starb
compete
puff
attacking
squir
gathered
dragons
mike
neighbors
graphics
nicer
##developed
linux
dimension
suspic
professionally
louis
mediocre
wrapped
leonard
immensely
reluctant
snowflake
enormous
rhythm
entreprene
ritual
sanguine
49
bam
cp
jess
kink
sized
##ober
##sen
##die
##gun
##ws
##xus
seattle
##any
itx92s
whiny
##ayer
stats
overb
definet
elim
lasts
wording
artific
sexist
angst
fucks
colleague
forming
caps
majoring
reminding
smartest
stealing
notebook
purposely
eleg
criticized
healthier
rainy
complexity
cops
satisfy
tracks
separated
services
photoshop
baff
stacking
hostile
fluid
ummm
##break
psychopaths
unicorns
charisma
october
chicago
eagle
sincerity
sophomore
november
ahhhh
cin
fishing
gand
ja
mothers
rog
raging
##paper
##face
thunder
seld
##elines
##ication
##icles
aspie
mocking
##olves
cliff
seeming
resolve
differing
lew
backp
ours
contains
conscient
differentiate
flor
flies
flattered
learner
##plays
indo
accomm
##phr
finals
coolest
forgiveness
breast
swallow
expectation
focuses
snark
continues
stereotyping
concluded
##obi
recognizing
melod
attacked
initiating
intentional
merit
fortune
linear
lectures
altogether
revealed
speculation
stalker
formula
insomnia
furniture
tragedy
accommod
dum
gpa
ruth
tis
uhh
##cake
##kt
##har
##fox
##bird
##mp
##erence
##alyp
isxj
abortion
shine
shoe
heated
##olo
manic
spit
belly
##athan
leap
sociology
floyd
coin
##occup
slim
announ
heartless
##dddd
calvin
##oooooo
lightly
worthwhile
snack
approval
continuing
##ructions
weaker
dawn
##lands
searched
mixing
challenged
mastermind
circumstance
accompan
2015
surfing
disappointment
bags
loaded
butterflies
platform
unpro
cartoons
taxes
varying
arrive
whisper
oxy
session
infatuated
arbitrary
orchest
##alypse
5s
61
83
cree
dave
kud
kicking
pard
x96
##sky
##fare
##bly
thy
thurs
##itical
##estic
##rained
##endo
plausible
##inem
##aste
##ressive
perf
desc
phant
consists
brick
listens
entity
descript
matrix
musicians
corrupt
freel
incon
planets
memes
animation
posit
misc
served
opinionated
horosc
refused
motive
potatoes
reactive
qualify
qualified
democracy
steel
commenting
ntj
promised
programmer
beatles
harmon
nerds
temperaments
cowboy
archetyp
2014
contradiction
pinpoint
masculinity
threatening
bonding
variation
rambling
observer
relieved
attributes
spaces
encouraged
rpgs
admirable
tutor
whims
glee
explicitly
tremend
hybrid
seldom
8s
bree
dor
hann
jail
pussy
##pop
##iar
##lers
##fi
##acies
##giving
##83
##zes
##omfort
##idently
##chant
shield
cancel
deci
chime
##pple
veg
##eak
upside
manly
disgu
prime
workout
##assing
grind
beloved
opens
consult
bruce
schol
##ceptive
factual
evangel
discomfort
buried
ski
generalized
corpor
mins
meets
physic
specifics
resting
concur
appeared
calming
##ooooo
haru
##eldon
projection
photog
recognise
portug
achieved
freakin
graduating
##ventional
settling
gamer
ramble
tactics
wolves
theoret
##esthesia
##wwwwwwww
consuming
arrived
unconsciously
uncertainty
votes
ensure
weapon
##anthrop
magazine
privilege
conscientious
59
bin
bing
cri
gn
ik
mp
vain
zelda
##rate
##gage
##mi
##onia
whining
hay
ree
dose
shif
sheldon
outcast
preoccup
##orted
mankind
resur
partial
infl
blink
blows
blaming
extj
biting
simon
basing
insign
##ologically
explo
monolog
supply
skipped
brag
##ugged
retire
motivational
foremost
politically
stereotypically
protagonist
agrees
hobbit
achieving
idiotic
networking
banana
80s
mechanics
insulted
rapid
paintings
representation
##undant
unwilling
heights
perceptive
funniest
aesthetic
unintentionally
weapons
politicians
unconventional
apocalypse
underestimate
treasure
phoenix
fyi
dichotomies
norwegian
fought
gur
icon
mul
poop
vital
yrs
##rise
##fty
##bro
##va
##onge
thesis
andrew
inhib
relying
##thood
sung
connot
##enders
chains
##usional
thanking
agent
pls
prote
##oda
humili
##iavel
instructions
trial
finance
edward
swords
boobs
majors
immers
##ophren
varied
capric
summed
##apped
companions
willingness
moderately
harmful
pursuit
journ
crossing
committing
blew
distracting
float
investment
achievement
cracks
snail
addressing
##tttt
rhet
cynicism
northern
nicest
applicable
schizophren
dislikes
evaluate
budget
convenient
returning
##otypical
shakespe
impulse
discrimination
podcast
santa
controversial
dysfunctional
backpack
thursday
insignific
aa
aven
cer
dudes
eb
gate
het
noo
rust
rachel
##tr
##tte
##sa
##lest
##atile
##stop
beet
beth
item
##asive
albert
ster
aswell
##ria
nexus
knee
pov
sayin
lotr
##types
##udges
##ifer
conscience
##aku
owner
owners
recording
problematic
drank
##ucky
crushed
india
ideology
cube
weirdly
passes
superher
extremes
raises
fitness
patrick
index
reduce
mods
cuts
delusional
deadline
spots
kittens
##yyy
feeding
pushy
divine
volume
escal
pairs
jerks
addressed
metaphys
visionary
bumping
painted
##iciency
russia
contemplate
documentaries
xsfp
traumatic
##yyyyyyyy
##heartedly
concerts
ix92ve
sneak
reckon
efficiently
spoiler
flickr
bucket
shelter
anecdot
adolesc
elizabeth
enneatype
heterosexual
kudos
pardon
73
bay
dash
fs
ire
lend
roof
vig
wary
##eed
##acles
##gon
##bes
##vv
##72
##02
selection
##oner
##onents
##orous
whist
##ela
##utch
neil
##urable
##ola
arth
tab
emily
overse
attended
kevin
beforehand
drool
##iah
sorting
hoard
curt
drivers
fallacy
communities
parking
killers
silently
deadlines
norway
hoped
rocky
temp
socr
devast
hyster
protecting
##rrr
##kien
machiavel
depths
darling
reflective
dinosaur
materialistic
tedious
disturbed
exceptionally
restaurants
framework
bonus
nurturing
voting
cereal
exterior
convenience
hammer
unemployed
sagitt
choleric
starbucks
gy
hype
mb
masks
pound
rud
roses
wack
wired
wrist
wats
xxt
##personal
##u3000
##hm
##bet
##52
##inth
sevent
ink
likewise
##cement
outrage
sheet
sponge
underdeveloped
##ysis
deserved
confuses
elit
endea
welcoming
slo
childlike
##ensively
wholeheartedly
##azing
physi
warn
concise
popping
trustworthy
analog
weekly
extraord
burnt
steven
argumentative
validate
behaviours
machines
venture
punct
contributing
merry
rounded
halluc
capture
confrontational
triggers
production
absorb
taller
##aaaaaaaaaaaaaaaa
enlightening
unclear
masoch
delivery
shrugs
museum
thumbs
alignment
##respons
motorcy
ryan
guidance
pilot
psychologists
blatantly
allergic
demeanor
astronomy
amusement
overbearing
shakespeare
8th
bah
cue
cass
cott
cries
fid
ka
kor
lbs
panda
rome
vin
##hor
##lifting
##bell
##vest
##rec
##owers
alle
notifications
##opp
##uster
chin
unm
unim
unif
argh
spur
overanaly
resume
realistically
grudge
##anging
##anges
phobia
thru
impl
afterlife
classy
characteri
meetings
distrust
fallout
daddy
earned
shortly
damaged
refers
energized
gladly
walt
troubled
behavioral
sunset
centre
##ounge
conflicted
rolls
ethnic
teams
indicative
bleach
reflects
faults
mercy
emptiness
village
employed
employees
geez
dollar
obligated
altru
browser
inconsider
mildly
duality
detective
legends
blessing
firmly
witnessed
navy
betrayed
inquis
tower
neuros
prolong
nihilism
artificial
lewis
florida
hannibal
theoretically
endeav
7th
cd
dork
gaze
jet
jose
jones
pts
##uild
##via
##itz
##stone
##stick
##sect
stones
mole
##irable
neph
pole
goat
timid
upbeat
diab
climate
##aby
adul
readily
spy
displays
partying
whichever
##itters
##assed
strings
remaining
##versity
##ggy
carol
finland
generalize
correction
figur
##viving
appreciates
freeze
spends
##umbling
emotionless
creed
lighter
lighting
negot
##ervation
sno
##etype
critique
individuality
priest
streak
approaches
objectivity
contacts
goof
analyzed
omn
replay
embar
exercises
mirrors
equation
90s
inspirational
lifting
ranting
##rapher
confirmation
climb
spinning
exec
exaggerated
betrayal
demonstrate
societies
pronounced
disrespectful
registered
yummy
tolkien
emoticons
geometry
insignificant
uniform
76
74
bake
cens
gaining
hul
hides
mes
nich
ore
pudd
rib
raz
rank
wire
yelled
yield
yikes
##ok
##cular
##qual
##x97
##erie
##arl
##omi
beans
whine
##etta
liars
meals
alch
##ilit
soothing
donate
convert
maker
##arted
##ffin
faking
preval
diverse
##abe
spill
spelled
offs
consume
appl
thankyou
coach
##ologies
exploration
charity
socialist
evolve
margin
sensible
dragged
judger
polish
quicker
convo
continually
apologise
cease
recommendation
umbre
archetype
experiments
tolerant
fools
calculating
complaints
ticket
rubb
tangent
consequence
symbolism
magnet
hesitate
louder
##llllllll
portrayed
drowning
outsider
doomed
shrink
pirate
indirectly
outbursts
sarah
bookstore
hermione
elephant
anatomy
permission
squirrel
phantom
sagittarius
watson
aur
cage
gum
sans
tou
##case
##gie
##words
##atical
toes
##ito
##anas
android
##otional
notorious
##add
##theless
##iro
##ros
neon
##raged
outta
upt
ark
goods
##inton
perci
twelve
##athom
remote
simps
fluct
thanksgiving
elf
owned
bash
listing
depict
turtle
fuckin
superpower
grave
presume
admired
sweep
sucker
##maid
corrected
histor
obsessing
presenting
madness
tomboy
pissing
symph
benevol
googling
ceiling
educational
pressured
2009
ethic
torment
vocals
blindly
unde
confronted
participating
officer
bursts
##olololol
##iiiiiiii
composition
fortunate
##namon
fetish
deviant
citizens
selves
scheme
provoking
reprodu
insects
parallel
oscar
napoleon
ireland
inconsiderate
ptsd
7s
aer
bol
bff
fount
han
mull
oly
raining
von
##ricul
##mt
inade
beef
mend
alan
stink
##ched
canc
loses
##illion
thingy
tape
expans
adject
resolution
typo
##angle
consent
recru
recurring
rooted
asses
region
facepal
boils
swings
irrespons
communism
horiz
fighter
##uuu
ruled
judgements
criticizing
apologizing
mentor
bitchy
initiated
interpretations
nutshell
libraries
belongs
priorit
variants
simpler
guardian
awwww
wednes
arrested
unwanted
evolutionary
australian
streaming
reviews
charlott
##eeeeeeeeeeeeeeee
temporarily
spoilers
resentment
karma
pockets
viewpoints
nagging
thrive
hierarchy
hippie
hogw
brainstorming
spatial
cinnamon
88
au
jeez
kurt
ling
oc
sis
tuck
vet
vod
vert
vicious
##uk
##bour
##burn
##36
##enger
##ano
##ota
isolate
##asa
steak
shin
shore
##ellar
comfy
underground
grudges
backst
backed
scul
helpless
##aky
tender
tended
coherent
endearing
trains
mario
waited
discern
turbul
inviting
corners
distress
namely
entirety
calend
reflex
breaker
touches
complaint
closing
sweetest
cutest
behalf
envision
demons
scientif
accordingly
interpreting
updates
gatherings
phrased
camer
mistyping
representative
malicious
percentile
aiming
greeting
caution
unbelie
healer
douchebag
insanely
hypocritical
washington
candidate
coding
monogamous
gauge
underwear
olymp
6s
baking
cog
dur
dale
hoc
holl
lud
lyn
nood
naught
roo
ripped
tire
##eved
##iantly
##fw
##aves
##bow
##west
##35
##88
thir
##erpt
##onies
##orse
##icity
revers
##ctic
dos
asia
##thew
shits
justin
wealthy
##antics
conj
poking
envious
prose
fabulous
plague
compulsive
adams
spice
nevertheless
infer
##sss
leather
smirk
tee
ell
roots
drums
##ission
crus
monsters
welp
evident
pasta
argued
attracts
param
refuses
immoral
checks
grows
##ernal
bio
individually
propose
stepped
stepping
supported
perceivers
gifs
auton
30s
barrier
150
brian
airport
cooked
shutting
chatty
popularity
bosses
division
temperature
electrical
contribution
strategies
assertion
translated
operating
obligation
luke
inventor
venus
ennegram
sacred
increasingly
lsd
conquer
##elihood
umbrell
rubbish
vodka
eater
jav
mant
ramp
sass
vel
x3
##eg
##cest
##ua
##fits
##erce
##ori
##omin
rewatch
alm
##ctor
stan
static
stumble
shade
shaking
intp
dearly
logged
chores
tru
proved
proced
fabr
diving
spicy
hiya
remem
similiar
##mmm
robb
##ggin
coc
humility
explor
charles
marath
dreamers
glorious
cord
draft
imagery
mores
runner
excerpt
colleges
smallest
expects
constit
construction
conversational
fairness
appeals
idealize
illum
philosophers
striking
competence
pulls
couns
furthermore
massage
electron
indication
buddies
roads
routines
irritates
cafebot
recorded
illnesses
tickets
gentleman
vacuum
sympathize
resonated
lengthy
attributed
victims
bouncing
mechanisms
explosion
reassurance
subscribe
inches
executive
mexican
maximum
likelihood
finnish
intolerant
lavender
capricorn
arthur
arist
ditch
dyl
etern
fj
gib
jag
lul
lump
ridd
sang
tam
tires
wut
wip
##rid
##hel
##lasses
##fiction
##dad
##gets
##ener
##lys
rephr
##robe
exes
peg
##raft
chord
amelie
##unts
arise
##abled
meanwhile
hijack
gene
probable
brad
##ceptions
muscles
##ractive
watches
factory
monty
wonderfully
instagram
eyel
##ordan
angels
weirdest
boil
morph
password
##ounters
superst
warming
annoyance
behaving
##iterate
refu
estim
retard
individualistic
propag
convention
empathic
spotlight
hahahah
elev
determination
catches
drops
feminists
recommendations
datab
denied
pursued
ultra
##backs
ambient
##3333
strategic
##850
blogs
increased
priorities
burns
guarded
##etti
paradig
incompat
virginity
blessed
jewel
rarity
##nnnnnnnn
admiration
trailer
inconsistent
jawz
deemed
implications
crawl
linguistics
obtain
anthropology
shameless
fifth
hollywood
zealand
dolph
protein
neuroscience
wednesday
charlotte
86
bot
bart
mcc
ost
saint
##pants
##human
##free
##dog
##inn
sections
##alty
hav
onion
meow
stj
asap
soda
loathing
##unks
unor
friendz
aggra
imbal
clicking
expose
##ements
resolved
dissect
infuri
##integr
realist
hike
hired
##ivism
bloom
recons
okcu
discount
classics
classified
chew
detr
##aaay
minecraft
assumes
##uctive
solar
speakers
appearing
inclination
visually
patients
reform
immune
##ophobia
fearful
redundant
responds
spiral
jean
buildings
ruining
publicly
grandpa
election
paired
determin
copied
statistically
flowing
masses
mrs
graduation
microw
costume
measures
progression
comedian
percentages
entertained
variations
plato
sympathetic
spontaneity
valuation
facet
volunteering
mushrooms
categorize
guaranteed
neglected
disagreement
psychologically
homeschool
uninteresting
fwb
overreact
videogames
entrepreneur
okcupid
dna
eats
genders
kings
lane
##log
##away
##19
seg
oft
isra
##verty
##cher
ascend
##ilia
abras
fee
hem
sug
chim
##igs
clues
completing
spock
emer
disrupt
prick
##ivate
phar
##berries
extension
testoster
crown
moms
accus
accum
maternal
wonderland
welcomes
slave
##liest
turkey
##hehe
##ieties
generalizing
repair
bragging
bravo
weirdness
existent
teaches
notices
interacted
limiting
##ommun
motivates
rocket
epip
##otted
cleaned
encounters
upsetting
destruction
airpl
scenery
picks
boxing
2001
masterpie
authoritarian
semantics
wilde
##spoken
represented
preparing
screwing
structures
battles
records
increases
innocence
widely
experts
disturb
spreading
memorizing
rowling
assistance
cherry
empirical
citizen
misinterpreted
appointment
suspicion
inconven
whimsical
decipher
photographer
adulthood
alchem
scientifically
dylan
reconsider
testosterone
aint
cul
dances
ew
fift
jere
lm
lel
mister
niche
sfj
vic
wage
##cs
##ike
##ige
##ypt
##hem
##lly
##wind
##vana
##mill
##46
##iner
##inav
seed
##itative
itch
isxp
sting
stol
dop
##ereal
mos
##rious
shark
intj
##roe
cham
chron
##cials
##tery
prox
unin
##iper
differs
realising
gras
backing
probability
newly
generate
fierce
coaster
indigo
explod
materi
classmate
enfx
misanthrop
practiced
eric
stares
disagreeing
promises
competing
destination
verse
divided
significance
productivity
bitches
analysing
survived
chilling
achievements
geniuses
participated
contempor
fulfilled
neighbour
dedu
virtue
substitute
emphasize
intrins
mythology
soldier
sneaky
subtypes
hypocrite
mexico
blatant
gratitude
narrative
masturbation
dimensional
vagina
adherence
monologue
superhero
motorcycle
fountain
calendar
eternity
3s
82
bucks
daunt
fand
fives
fathom
jenn
lamp
moo
nv
pant
sale
##rics
##oir
##uously
##yers
##hot
##hoo
##lon
##aay
##gender
##01
##45
##xist
secl
##aration
##itated
##stically
beck
##iser
##keys
stairs
##oove
abys
shove
intric
exceed
knack
##rah
seeks
mudd
tables
diversity
interior
resident
discl
offending
starters
impuls
mindfulness
brid
newer
mighty
reconnect
olds
triad
listeners
sensations
chef
cups
repost
drastically
hurric
messaging
warned
brainw
noticeable
immat
truthfully
quieter
delicate
hypoc
mystic
association
novelty
choir
inept
quitting
accomplishments
lurker
blocks
blocking
blocked
metaphorical
##risy
limitations
unreason
simplicity
egypt
produced
sociopathic
ingred
facade
comprehension
skepticism
intrusive
giggles
excessively
jewish
dictate
smiths
deliberate
aesthetics
orgasm
rarest
genesis
sessions
overlap
sabot
reduced
deprived
puppies
enlightenment
accidental
stunning
cinema
gaga
psychedelic
unconditional
journals
uptight
hockey
bapt
bicy
bpd
fel
gor
gim
gad
gab
ili
jumps
lance
lounge
md
naw
rated
rating
sul
tink
tub
wier
##nies
##oard
##par
##iator
##iased
##yard
##hill
##fr
##feld
##24
tops
##anes
##otle
haunt
##isher
reinc
mew
##ila
shave
febr
canon
exotic
##ulous
supr
conso
chore
chatter
chicks
poverty
amate
maf
maid
gore
enh
noone
##ista
diver
compelling
component
##ression
disson
disintegr
grim
impersonal
bru
fewer
flipping
generations
coupled
esque
##quis
cozy
decre
install
hugg
hubby
deprec
dependable
##ledore
corny
sadistic
edm
memorable
singular
expresses
parenting
stresses
dearest
motto
##awa
negatives
biases
futile
opposing
sweetheart
propos
1984
##ruption
companion
matched
healthcare
engineers
aggressively
liberty
introducing
squish
sixth
equals
contributed
judgers
churches
optimist
wiser
sams
2016
campa
70s
##flower
unrequ
##iggy
simplest
dismissive
peeve
quantity
vampires
mushy
sophistic
whiskey
refresh
rationals
permanently
pedest
junkie
strawberry
cherish
resemble
cosmic
escapism
certified
##arnation
prevents
vitamin
wardrobe
scandinav
snarky
creeps
scholars
overseas
sloan
hogwarts
hypocrisy
february
9th
bod
dots
fuss
gently
gasp
jac
kale
lag
lana
nir
nint
noooo
noun
pens
rod
rope
sill
tones
yr
##ties
##post
##powers
##iating
##fin
##foot
##mus
##89
##zo
##itable
stagn
##chat
doorm
##opular
abra
shifting
neu
expend
maps
##ffff
prost
tyler
##igan
##fection
tao
taboo
manson
spook
overweight
resulting
disinter
##bec
awa
awfully
intoxic
twitch
scatter
considers
leaf
worldview
cram
monk
slower
handled
surre
carries
skate
edition
101
writings
##ashi
enneagrams
refrain
respectively
##ships
##aws
sniff
affecting
draws
prize
sweets
commentary
deadly
epit
replaced
shocking
suffoc
fantasizing
promote
prominent
programmed
sickness
calmly
dumbledore
2005
pushes
radar
utop
grounds
nutr
embarrassment
occurrence
snakes
crucial
employee
calculated
simplistic
pottermore
unpopular
punching
##boarding
##minded
sociopaths
ingen
contemplative
cells
selected
psychopathy
substant
prayer
praying
endlessly
scarlet
unbiased
charts
mmmm
spiderman
dyslex
gesture
illustrate
pronounce
cigarette
declare
ecst
buffy
politician
uneasy
mimic
revelation
nitp
warrior
rescue
lisa
browse
instructor
nephew
benevolent
sculpt
remembers
fifteen
lmfa
stolen
nirvana
400
89
bark
baked
icy
moth
mens
rn
ul
uhhh
woot
wann
x95
##some
##pi
##uf
##uating
##lad
##87
##aria
##anne
it´s
##icated
ancest
doses
aboard
##iry
##amiliar
donnie
exit
exfx
proclaim
upfront
union
##socks
##pters
reserve
prest
##ogen
afar
scope
elsa
insurance
assigned
monop
bugging
nik
sexism
glare
avid
domestic
angles
sentiments
developer
behaved
communist
specify
stressing
calories
soulmates
proposed
largest
delve
forehead
sunlight
winds
catchy
spoiled
##ethical
robotic
2008
rejecting
##balls
procrastinator
##space
layer
weights
revis
acquired
meditating
candles
cuddles
dupl
employer
advantages
garage
screens
collab
stimuli
dolls
politely
displaying
evaluation
pregnancy
frightening
arabic
xxxx
lgbt
induced
delayed
distribution
summarize
produc
shifts
prolonged
historically
facepalm
irresponsible
moreso
abrasive
console
mafia
unrequited
bj
ding
hollow
hanna
iii
jugg
mesh
nie
nations
owe
uber
##rest
##rich
##tic
##oh
##uel
##uke
##uch
##fo
##good
##81
##57
thirty
##reen
andy
beware
wholly
##isons
relev
##etra
fores
alar
##sei
stam
##idents
##ima
##rian
peas
peeps
degr
theyre
chan
chalk
chrome
golf
fry
outspoken
unnatural
unethical
interst
clients
expanding
composed
heres
sparks
yearn
workah
grant
lego
smash
##ifi
##aka
##plete
roast
assured
matthew
hugged
slut
subway
skirts
glow
glitter
examine
sixt
similarity
annivers
seren
teachings
preservation
subjectivity
damaging
immig
##shi
##ophobic
frustrates
reacts
reacted
nfj
correcting
winner
versed
convict
steer
builds
traveled
penny
devices
140
beaten
comfortably
130
geography
lyric
##ographic
independently
equations
equip
surviv
candle
unfamiliar
##writer
employment
egot
concentrating
bowie
journalism
applications
dismissed
hills
dictator
cheeks
shouting
conceal
commercials
misunderstandings
williams
advertising
sustain
navigate
dvd
unattractive
landscape
francisco
derived
administr
retrospect
positives
prevalent
naughty
paradigm
microwave
materials
contemporary
hid
ich
ji
kl
lull
lash
nan
pms
sons
tro
yall
yoda
##nel
##oat
##pro
##urist
##kill
##hog
##fs
##acing
##mart
##maker
##zens
##atable
##orad
##ston
##star
rethink
##ioned
aloud
dope
dozens
##oppy
deer
chor
chili
frown
##pses
interfer
willpower
expense
ads
sporad
typist
blade
##achi
playground
socialising
stuffs
marked
clearing
cleared
curve
domain
edgy
morgan
drifting
superv
internship
##vier
greg
misch
dominating
horn
respects
supports
ntps
stereotyped
balancing
matching
encomp
devoid
dancer
determines
geass
chapters
lands
fashioned
equate
reflected
irritate
cycles
jerry
victory
calculate
##blance
##iciently
revealing
questionnaires
tactic
experimenting
plotting
##portant
narrowed
synesthesia
unbear
disgusted
enlightened
consumer
speculate
flags
defeat
explosive
interrupted
adept
festival
pouring
infatuation
monogamy
schedules
diplomatic
verif
emergency
toddler
bleeding
henry
immortality
wilson
brooding
luxury
freelance
breeze
portugues
sunglasses
socrates
outrageous
turbulent
database
epiphan
alchemist
dissonance
campaign
nintendo
bom
bane
binary
cater
cuss
gil
jd
jog
pry
rushing
sought
vend
wounds
##iently
##min
##mers
##44
sein
##atics
##nds
incess
hail
##isp
rex
##verb
##entials
##thought
abund
##roach
justification
weas
chased
becu
##ounding
##ears
plag
clips
mans
##haw
funk
##agan
##otherap
acou
##ivals
bla
##ilyn
carefree
##atherine
cocon
endure
insuff
accuse
matured
considerable
hella
discre
carlin
carpet
skull
lawn
irres
warcraft
halo
visions
idealized
sucking
proportion
goose
weakest
titled
rug
120
placing
striving
digest
newspaper
instinctively
wildly
explanatory
freaky
safely
tritypes
assertiveness
gentlemen
expertise
collar
collage
ixfx
powder
bench
legitimately
contradictions
##202
neurotypical
chemicals
exaggerating
occupation
occupied
cashier
sequence
conventions
remarkable
utilize
skimmed
african
republican
necro
friggin
homosexuality
austen
hierarch
wounded
doodle
##♥♥♥♥
lilysocks
vomit
fleeting
archetypes
cripp
extraordinary
inadequate
pharma
unreasonable
samsung
lmfao
92
ale
akin
dand
ecl
ehh
eug
fau
hats
jason
josh
kant
nause
pent
pond
tame
vint
viva
yang
##nce
##eving
##yo
##hal
##hit
##leness
##fre
##block
##ml
##67
##xjs
##erb
sei
##itiveness
##ania
inan
reh
receptive
##see
stiff
notions
notification
assem
fever
exem
pecul
peppers
depp
poets
fruits
outline
fave
mud
arse
agency
plz
relies
willed
spray
awak
offence
proph
bland
scent
smiled
##plex
sins
fling
flour
careless
downside
launch
##cloud
slide
marilyn
##enses
##ensical
eyre
glitch
passage
##ocks
humanities
distaste
##cca
10th
caf
##accept
cutie
dominants
babe
sunrise
tomato
suffice
spotless
willingly
homo
hypers
hygi
portland
trades
risky
midst
darth
mermaid
accomplishing
intimidate
speeches
translates
paranormal
accomplishment
skewed
bait
academically
hostility
packed
stimulated
cruelty
bubbles
lemme
infinitely
teleport
recovering
indifference
guidelines
apocaly
definitively
undergraduate
atlas
acknowledging
champion
cursive
dimensions
sparrow
dishonest
approximately
pandora
sailor
rhyme
tranqu
oxygen
miscommun
vegas
preoccupied
resurrect
unimportant
deviantart
rephrase
dopamine
sixteen
portuguese
peculiar
87
aye
bib
eerie
foster
ki
kir
morm
nig
nether
rides
xdd
x97
##oise
##pool
##ez
##cils
##lbs
##53
thx
thirt
##inates
seal
seeds
##atly
##struct
bearing
##otype
anch
alleg
stoned
##entimes
##opard
shrooms
exxp
knees
##unting
timeless
##oles
thereof
urges
tyrion
quo
##ounded
arrow
somethings
overcoming
offline
realism
kindle
belg
backs
impose
appet
##apse
downright
drun
inspect
crunch
monitor
##who
##phem
untr
curricul
invading
conversing
creatively
argu
passively
messes
judges
pains
develops
signal
##pring
randomness
lightning
chooses
debated
unsett
approachable
fours
##www
antid
provoc
eleven
##hoven
reaches
magically
sends
clarifying
##hhhhh
predomin
protector
##101
overwhelm
crosses
covering
practicality
bleh
chocol
measuring
cracking
swearing
undes
labeling
haters
subtly
jokingly
##check
elabor
harshly
vanity
marrying
academia
dramas
hipsters
disposition
aimed
quirk
conditioning
detachment
displayed
cheaper
lucy
comprehensive
magnetic
consumed
smoothly
phenomena
incompetence
unemotional
paralysis
prolly
imperfect
innovative
impulses
laser
uninterested
flattering
seduce
compensate
reclusive
incomplete
vehicle
overtly
evangelion
mp3
mulan
beethoven
reversed
umbrella
cocaine
jewelry
oftentimes
israel
amateur
neurol
unbearable
vintage
91
bach
dent
fp
fame
gin
gull
gals
gidd
jaded
kil
pam
riddle
rants
tz
##oka
##sight
##cam
##fic
##db
##dings
##zel
##inet
##atus
##ndy
##alt
##itzer
infect
##omer
bees
rey
starc
##child
shelf
hee
heath
worm
##istan
unit
unan
arous
plush
maniac
safer
components
findings
funky
overst
dism
dissoci
disabled
underrated
perv
attic
joint
appropri
highway
esfx
questionable
colon
##ractical
welcom
slipped
slipp
advis
supplement
subm
waits
surp
sensual
hoor
preferring
syll
invention
##aah
moron
superman
follower
fallacies
sideways
posh
resulted
affair
accepts
##aneous
respecting
christopher
viable
sweetie
termin
hugely
techno
deadpan
referencing
motivating
ntjs
editor
combinations
analyst
actualized
starg
strip
penalty
fireworks
firefox
##kyo
moderation
hobbes
portal
trading
pursuits
johnson
##ammer
naomi
darwin
separation
requirement
governments
unfold
2017
bluntly
fatal
60s
celebrating
raped
excluding
comedians
owls
manifestation
capitalist
spontaneously
tangled
mastery
egos
infinity
nonsensical
integration
requests
loosely
withdrawal
flew
anthem
pessimist
formulate
misconceptions
hoodie
inconsistencies
injury
stroke
hedon
tackle
titanic
cycling
downtown
purchase
jenny
perfume
descriptive
joseph
java
jeremy
doormat
starcraft
77
aversion
cm
cable
cows
dough
dye
ft
faint
gush
hiring
kong
kara
lest
nuff
oz
oreg
rl
ross
rushed
tiss
wan
www
yeh
##nut
##pent
##cal
##cings
##fg
##vant
##06
therm
##oubt
##aru
##ength
##itas
##itate
##itals
##oteric
##eler
rever
ongoing
ligh
mega
stif
##ador
asc
sock
abhor
oral
atyp
peak
sushi
loan
poe
arom
##ortex
reli
clam
##ineering
lottery
hass
hash
compart
compose
wrath
realy
belive
backyard
##bern
hardware
##velength
insin
crude
assault
selfie
accents
artis
sloppy
evan
supplies
suppressed
subsequ
wavelength
carn
cub
syl
detest
mines
workings
appreciating
darko
paraly
literary
practices
retain
directing
nfps
cuteness
catal
histrion
antagon
16personal
##iii
femininity
ignores
ceo
homem
##x92re
ethan
daydreams
audrey
visualize
alternatives
irritable
measured
rebuild
tablet
unden
sleeve
simplified
tangents
frost
traumat
spagh
vastly
adjusted
soldiers
additionally
symptom
##ssssssss
criminals
orientated
museums
organs
disagreed
reciprocated
restricted
polyam
royal
squeeze
unavailable
elegant
elitist
cotton
marathon
electronics
masterpiece
immaturity
sophisticated
relevance
drunken
oregon
16personalities
3am
bats
doo
dess
fick
jedi
pd
rin
rises
tes
ub
vu
zoned
##non
##rating
##hr
##acious
##bel
##27
thief
##oni
##onin
theist
##itly
bean
##isha
##icable
myster
##eterm
anarchy
meep
##ches
aspire
##thod
abrupt
oranges
peach
##ulty
lovable
##ationally
mah
enigma
moreover
##oli
##olf
##umi
##cile
##term
agressive
sheets
clay
wayne
##osyn
##asting
##astically
spike
disast
perks
realizes
desirable
attentive
impractical
newest
flows
##weet
esxj
schooling
##cribe
marine
suburb
discard
carbon
skies
glor
invasion
dragging
situational
boiling
switzer
messaged
learns
painter
misog
uncaring
refusing
waitress
communications
##airy
burd
unsatisf
wipe
philosophies
jeb
gooey
ruins
##ehee
pleasures
appearances
tasty
starving
apologized
yawn
pencils
180
##zzzz
associations
tempered
pancakes
miracle
commitments
preparation
revolves
correlated
towns
diagnose
contributions
distractions
phrasing
addictions
jersey
daughters
acquainted
hyperactive
unreli
stacks
ranks
rubber
reveals
angelcat
possession
sanct
vegetables
resistance
##breaking
paradise
obligations
disappeared
thrilled
hillary
iei
disliking
knocking
dedication
incorrectly
pigeon
funnily
hypothetically
venge
##celand
piercings
octop
brutally
suscept
##uuuuuuuuuuuuuuuu
pertaining
atlant
acknowledged
hedge
persistent
democrat
grocer
elderly
warriors
butthurt
stewart
uncontrollable
removing
ruthless
##ktor
disguise
autonomy
sassy
hurricane
wierd
epitome
wannabe
vendetta
becuase
acoustic
atypical
switzerland
ahahaha
dign
gord
ian
jin
mour
mama
nooo
pup
pork
ral
rack
rural
srs
tin
wether
xbox
##rance
##rots
##fight
##dle
##gur
##war
thai
##inished
##atious
##esis
##stairs
whip
##isure
isaa
##asper
fork
ford
sob
orph
exh
dew
deja
##eller
##raine
veggie
proc
noisy
unaccept
arises
dizzy
client
managers
##hab
perplex
##achie
contempt
contained
brun
flute
##lets
crick
hateful
meta
instit
valley
tier
boiled
planner
annie
opponent
dads
##pres
ordering
menu
lightbul
meantime
bioch
hangout
philip
modes
transgender
publishing
conviction
capability
presentations
lawrence
technic
##appled
passionately
purposefully
furry
ladder
nearest
secretive
agreeable
fills
110
danish
hypn
salty
predisp
millenn
complimented
regretting
inex
unfinished
intrigue
pinea
##roman
codepend
threats
heroin
reported
geeks
constructed
orangeappled
spectac
unusually
establishing
channels
unexpl
telepath
olive
explosions
rotten
queens
alaska
courtesy
##falls
uploaded
perpetual
rollerco
highlights
linguistic
reinforce
verify
transportation
marshm
definetly
tremendously
immersed
companionship
##bourne
propaganda
aggrav
detrimental
nvm
abyss
surrender
monopoly
equipment
egotistical
seinfeld
inanimate
homemade
misogyn
unreliable
groceries
biochem
333
600
79
aaaaa
cum
eii
gaps
ib
iceland
kier
lut
lind
mg
mit
nud
ooooo
ric
rats
sings
vids
##rough
##rants
##pot
##lp
##lie
##aces
##gor
##mel
##37
##21
##arious
##itious
andre
hap
reiterate
##keep
alley
##very
stared
stern
##rose
##urai
deck
deity
deaf
##ello
##ulating
##illusion
chit
amanda
howl
trop
##ffy
uplifting
##ousy
unfriend
unlim
wellsy
taco
interject
clinton
##soft
sax
sage
savi
##emption
eminem
disad
prett
##assion
leisure
##odor
genoc
extract
extensively
impart
flipped
flaky
decently
decline
entp
accord
welfare
slice
slang
slaves
evolving
##eeze
kidna
preferable
synch
regina
fren
heartbreak
county
##dding
followers
freezing
attractiveness
20th
missp
posed
motherfuck
affairs
earl
exceptional
orderly
darkest
cakes
processed
sweater
redemption
complains
##owski
origins
burger
demisexual
obsessions
ruler
sufficiently
pacing
promisc
toned
firefly
##zzie
relaxation
##cules
2007
clarinet
ambivalent
volatile
acquire
boundary
inspires
skyd
cyber
criticisms
inexp
undoubt
polls
predicted
reporting
grammatical
bonds
dramatically
##iko
weddings
synonym
integrate
adjusting
pessimism
tsk
jews
whispers
losers
tortured
temptation
recovery
derailed
bouts
jimmy
piercing
reassuring
renew
policies
remarkably
0110
preface
downloaded
adequate
bachelors
dabbled
scheduled
cursed
guests
elliot
hazel
dilig
lizard
cusp
gandalf
rapidly
wacky
analogies
simpsons
cameras
explorer
lulz
reincarnation
nutrition
anniversary
coconut
belgium
histrionic
dessert
isaac
unlimited
96
auss
coy
hd
nj
nam
nord
oat
py
sas
tant
viet
##ran
##bar
##jam
##68
##erting
##oup
toll
##eshold
##alia
inad
inject
begging
##otivated
haunting
ants
sth
stall
##ilation
moz
donuts
orwell
weir
peaks
conve
##augh
##arty
proactive
nods
themed
unity
unapp
prey
plug
diaries
interv
goodnight
relent
adverse
spout
empower
disillusion
##ective
award
##icker
defence
bloss
bells
consulting
afterward
daylight
remin
remed
newton
recy
recess
downhill
##ggies
##quer
cray
crashing
crimes
callous
trace
explored
monkeys
bigot
institution
eva
headaches
discont
##ensity
##ensitivity
turmo
chewing
curly
domineering
psychotic
supermark
##olutions
grabs
purse
medie
affinity
majored
paraph
respectfully
identifies
frustrations
deaths
##acent
correctness
stylish
damnit
contacted
legally
watercol
universally
tomatoes
temple
daft
fury
stickied
upsets
paced
destined
statistic
radiation
salary
geor
utility
creeped
miranda
landed
21st
indicated
strangest
squad
correlations
perfectionistic
designs
celebration
baggage
xnxp
contradicting
wooden
victoria
derive
skelet
academics
armor
package
russell
obliged
unbal
clockwork
alphabet
giggling
savings
knocked
greece
flexibility
alexander
hindsight
jamie
investigate
pigs
sinking
ixxp
hitchhi
prescribed
ooooh
montreal
assassin
wrestling
horoscopes
skiing
rhetorical
metaphysical
anecdotal
vigil
inquisitive
sweeping
aristotle
homeschooled
intricate
bridges
ingredients
convictions
abundance
hygiene
giddy
welcomed
compartmental
spaghetti
unacceptable
disadvant
turmoil
bure
billy
cun
frog
fades
gates
jup
jake
kr
krist
kines
kung
ketch
lann
nay
nest
nines
tum
tinder
ww
xox
##niss
##tub
##cent
##cus
##lord
##fix
##bop
##mony
##360
##61
##ono
tomm
##encer
##ede
whack
##otion
##elong
##iceless
reign
##ethe
stren
##idosc
##ching
shun
shattered
inte
ifs
pend
deleting
conced
chats
##ppel
goku
fringe
##olics
upcoming
##iev
mana
manuf
##eman
sple
overtime
reset
##agami
underdog
blab
phobic
scout
scaring
smug
smashing
threshold
##ifiable
confron
flut
owning
bashing
esoteric
##issance
crust
entx
farther
finest
untill
minnes
psychotherap
superb
superpowers
dougl
##oids
grape
attracting
##onte
paras
imma
fullest
respective
redirect
doubted
controls
convolut
##inson
contacting
empathise
disagrees
inferiority
omfg
daisy
pleaser
colorado
condem
verge
feeds
dumbass
2002
aggressiveness
denom
salv
teary
protected
utmost
##eeeee
bottles
##force
idiosyn
bulb
fashionable
performed
confessions
samurai
mechanic
jesse
lennon
operation
virus
victor
speeding
captured
adaptable
tactful
unknow
stimulate
duties
incorporate
ixtx
conformity
flee
flavors
washed
dialect
anonymity
derailing
funnier
aesthetically
unexpectedly
katniss
inquiry
bastards
soundtracks
nyc
designing
susan
dabbling
folder
muslims
fueled
pfft
aspirations
ofcourse
overlooked
immortal
discouraged
eloquent
battery
##onalds
baffled
harmonious
spongebob
altruistic
offspring
horizon
almond
ascendant
fandom
deprecating
proposal
kaleidosc
producer
bjork
hannah
chorus
irresist
arguably
hooray
terminology
fickle
mysteries
##thodox
gordon
medieval
manufact
douglas
81
bind
cis
delt
dimin
ender
euro
fizz
fathers
ick
jab
jama
kub
karen
nude
og
ov
rif
sack
sizes
tel
tits
yor
##rimin
##rams
##tony
##oi
##sie
##ien
##iated
##uz
##hart
##love
##dain
##dated
##deth
##mies
##moon
##994
##inous
##inform
##ati
seper
##arin
##alal
##omic
bebop
##lections
##lements
hai
onions
stations
stjs
##imity
dost
##riers
shir
##amous
##urally
dean
suz
loki
allen
ampl
##una
##unge
vein
##oln
quint
themself
##ardi
unle
preced
clo
##hah
##epress
herd
readers
overc
yearning
underm
prank
infant
realities
hibern
afore
scoring
attain
imposed
apps
bride
bites
simulation
##apes
confide
conference
##erties
flore
##quin
##cript
metall
meticulous
slaught
tripping
terry
maria
##phy
disco
lively
skirt
unto
##heim
curl
giver
##azed
brace
edges
bores
humanitarian
swag
10char
setup
races
positivity
affili
earning
amazes
##atsu
##bbed
crew
nonfiction
truthful
##ophy
regarded
##ugging
retook
retired
texture
fourt
ruling
labyr
##onica
penet
ache
##loe
influencing
liberals
heheh
layout
faithful
internalize
narcissists
separately
chills
camus
confessed
trainer
bluntness
fatig
fooled
ninj
employers
credits
bumped
trendy
fulfillment
adapting
adaptation
treebob
alternatively
mirroring
collapse
guardians
comparisons
conditioned
puzzled
##178
absorbing
overwhelmingly
arranged
ax80
luv
peeves
spawn
coincident
unnecessarily
mmorp
yogurt
altered
dissatisf
valentines
printed
pirates
liquor
branches
injured
sprink
reciprocate
mandatory
horrifying
##cratic
elliott
inefficient
pacific
inwardly
patriot
kanye
cannab
coordination
eloquently
orchestra
conscientiousness
swordsman
bethdeth
adolescence
intrinsic
substantial
duplicate
niece
exempl
apocalyptic
curriculum
antidepress
ralph
pineapple
paraphr
kinesth
ketchup
confronting
minnesota
convoluted
labyrinth
ais
aub
aids
bt
bour
dairy
fang
gaw
ginger
hud
kh
kin
kit
mitch
pas
rates
rena
saus
sfp
soooooooo
tp
tina
wider
##ti
##low
##lian
##gal
##gence
##mang
##eries
##onous
##onald
##rend
##orth
##standing
##omet
##lee
rect
rept
##etown
liver
##change
sod
moist
shred
shaw
shuff
##amation
heb
canv
chunk
anywho
howard
trim
##terior
##aret
unlo
unjust
faulty
##igos
everyones
imdb
clone
manages
overnight
posture
disdain
##bean
firing
pranks
sciss
scars
##berty
bestfriend
contents
##akami
brushing
esxx
coh
insides
mommy
selfies
accustom
socialization
considerably
nothingness
tripped
advised
advices
handic
waist
waaay
surviving
turt
syd
monthly
invade
corruption
fred
brah
bookmark
incest
counted
parental
specified
poland
energies
harvest
biking
frustrate
doubtful
closeness
failures
props
properties
satire
saturn
delusion
capabilities
limbs
erotic
stepdad
continuously
autobi
provoke
fastest
embed
167
moderator
shuts
educate
hometown
located
2006
jungle
digress
tearing
predic
observable
therapists
bitching
buddha
darcy
lifelong
murakami
freshly
ps3
##alyst
comedies
threaten
webcam
cloudy
slee
sleeps
##826
deductive
simplify
heaps
disprove
scrubs
martyr
assessments
possessive
possessions
alienated
##343
mathematic
##meal
dreamingangel
##122
lengths
sparkly
precision
disappearing
memorization
mmo
sacrificing
schizotyp
hambur
anthony
forests
exaggeration
occupy
delivered
tunes
proceeded
traditionally
stalin
metaphorically
rarer
667
austin
pitched
eyebrow
anticipation
ranging
savage
dystop
magazines
underestim
arrangement
dodge
mcdonalds
succinct
gluttony
connotation
noob
overanalyze
##quality
refugee
incompatible
airplane
daunting
serenity
weasley
netherlands
gullible
inadvert
bureau
florence
coincidentally
cannabis
dense
fract
fries
fisher
hue
ivy
lan
litt
lick
ming
nab
pater
sire
sonic
veter
yee
zoning
##sm
##pol
##afe
##bossy
##je
##48
sewing
theology
tokyo
##rell
##omorph
whale
##oto
##eled
hazy
rebe
libid
stor
stellar
##chi
likeable
##riel
##usters
shud
peep
sue
conting
##atement
worms
##unes
##geons
thanx
proverb
timely
plots
saves
spine
spencer
emper
##mentioned
fires
priceless
permit
descend
blamed
lefty
phew
backup
imposing
lolz
remix
remorse
##apore
confid
flam
eli
cob
endings
cran
decon
##lll
sensational
drains
fredd
bohem
swir
swap
##cco
grabbing
constitution
easygoing
storyline
uncanny
trusts
mistreat
anxieties
workshop
blackmail
biography
##overed
textbooks
involunt
forgets
unsp
transparent
organisation
##queen
perceives
fixation
obsessively
barriers
universities
wallow
cleaner
160
accountant
bandw
puberty
copying
locations
pressing
pushover
clubbing
hilariously
##ymor
midwest
contentment
bananas
revolve
visuals
performer
brighter
hahahahahaha
flirtatious
pillows
shotgun
cardio
broadly
cupcakes
##bleness
reports
geeky
adapted
scrut
recipes
producing
vegetable
##9999
00100
heavens
axe
gossiping
lungs
##ramatic
invisibility
composer
msn
signing
rationale
indecisiveness
tuned
tempting
cerebr
foxes
unintent
ambitions
2000s
frightened
advertis
candidates
dwelling
restrictions
pixie
ixxj
dota
fwiw
mercury
aspiring
quadra
enforce
soften
jessica
machiavelli
seventh
unmotivated
expansion
rampant
elevator
imbalance
hemis
grasping
pedestal
ulterior
eugen
miscommunication
untrue
hassle
genocide
undoubtedly
splend
schizotypal
##bossypants
93
ae
ayn
bers
bost
dug
faded
gist
hans
jol
latt
munch
mamm
ned
nun
oli
obey
pes
rally
rim
rail
tf
velve
wich
wigg
##pg
##page
##iries
##u200
##lace
##layer
##fere
##wen
##wolf
##vah
##marks
##71
##69
thier
sector
thee
toba
##aro
##arium
##eno
##orial
##oming
bele
##aya
forb
ally
stutter
stigma
##chester
soy
##open
arena
intending
intrap
neo
pegged
pearl
allot
chairs
##pples
goin
outdated
veggies
upgr
unite
unlock
##psy
guides
interfere
relay
##pton
##hake
sappy
compute
emulate
overcom
wrink
prices
spec
kindred
typism
##icky
##ivist
twe
mindful
##atched
##akers
bron
britt
bronte
flipp
elimin
careg
badge
coco
decorate
showers
##ocy
enters
##cling
monit
hugh
trib
triangle
wronged
marx
surve
skipping
##lips
invitation
corp
etiqu
weirdos
effing
heartbro
##keness
singapore
##onto
misgu
orderliness
lacked
harming
harris
fearless
biologically
linking
hairs
istx
researcher
walter
unsolic
filip
bedtime
limbo
babys
continuous
discoveries
spotting
templ
dogma
travels
##ointed
promoted
##asmine
copies
intellectuals
##agnosed
abstraction
smelling
##bole
banks
naps
navel
choke
investing
credibility
complained
shameful
nickel
##blings
punched
consequently
##506
accessible
embracing
swede
prayers
magnific
thriller
hesitation
oblivion
conforming
conformist
disciplined
msbossypants
demonstrated
defect
earnest
towel
slammed
adequ
disagreements
microsoft
infpish
penguins
rereading
dwar
indiana
deprivation
prescription
presumably
gallery
supreme
##walker
bernie
pulp
monotonous
eliminate
dinosaurs
ethnicity
razor
prioritize
fabric
lelouch
deduction
baptist
bicycle
maiden
squishy
hierarchies
crippling
appetite
octopus
susceptible
lightbulb
spectacular
luther
oatmeal
mozart
flutters
kaleidoscope
renaissance
accustomed
shudder
unintentional
eugenics
velvet
intrapersonal
heartbroken
misguided
unsolicited
1s
700
aizar
bie
cet
fetch
iced
jordan
ker
kur
mute
pist
pyr
rou
rivers
sara
tx
ting
vow
vine
wy
yolo
zoom
##rine
##tail
##say
##she
##cou
##hea
##lan
##fol
##gia
##greg
##bender
##beth
##wild
##jay
##erable
##otine
##utional
rend
reun
reall
render
rearr
rewr
ont
##asi
ank
anore
tarot
stump
stroll
withhold
##idences
moan
dement
##ulf
lore
amph
##itely
query
unfor
mug
arya
##ortions
clich
cluster
mane
##oshi
##erily
adder
spotted
particles
grr
##ivia
scor
jock
talker
elusive
##ggg
comeback
crutch
meter
sorrow
slayer
evidently
favors
wax
##ensed
glenn
natal
hover
avail
curb
curren
pasted
wishful
argent
swan
gregar
preserve
restra
shortcom
mistaking
bros
lighten
harass
qualifies
viking
forgetful
filthy
fanci
combines
legacy
pleasantly
spiritually
tasted
improves
peacemaker
11th
primitive
strengthen
associates
predicting
asth
ethereal
creeping
inputs
elected
electro
##ymia
optional
optimal
boarding
librarian
crackers
materialism
returns
belonging
hyperbole
predictions
