{
  "version": "1.0",
  "truncation": null,
  "padding": null,
  "added_tokens": [
    {
      "id": 0,
      "content": "__url__",
      "single_word": false,
      "lstrip": false,
      "rstrip": false,
      "normalized": false,
      "special": true
    },
    {
      "id": 1,
      "content": "__sep__",
      "single_word": false,
      "lstrip": false,
      "rstrip": false,
      "normalized": false,
      "special": true
    },
    {
      "id": 2,
      "content": "__tar__",
      "single_word": false,
      "lstrip": false,
      "rstrip": false,
      "normalized": false,
      "special": true
    }
  ],
  "normalizer": {
    "type": "BertNormalizer",
    "clean_text": true,
    "handle_chinese_chars": true,
    "strip_accents": null,
    "lowercase": true
  },
  "pre_tokenizer": {
    "type": "BertPreTokenizer"
  },
  "post_processor": null,
  "decoder": null,
  "model": {
    "type": "WordPiece",
    "unk_token": "__unk__",
    "continuing_subword_prefix": "##",
    "max_input_chars_per_word": 100,
    "vocab": {
      "__url__": 0,
      "__sep__": 1,
      "__tar__": 2,
      "_": 3,
      "a": 4,
      "b": 5,
      "c": 6,
      "d": 7,
      "e": 8,
      "f": 9,
      "g": 10,
      "h": 11,
      "i": 12,
      "j": 13,
      "k": 14,
      "l": 15,
      "m": 16,
      "n": 17,
      "o": 18,
      "p": 19,
      "q": 20,
      "r": 21,
      "s": 22,
      "t": 23,
      "u": 24,
      "v": 25,
      "w": 26,
      "x": 27,
      "y": 28,
      "z": 29,
      "²": 30,
      "³": 31,
      "µ": 32,
      "¹": 33,
      "º": 34,
      "¼": 35,
      "½": 36,
      "¾": 37,
      "ß": 38,
      "æ": 39,
      "ð": 40,
      "ø": 41,
      "þ": 42,
      "đ": 43,
      "ħ": 44,
      "ı": 45,
      "ĸ": 46,
      "ł": 47,
      "ŋ": 48,
      "œ": 49,
      "ŧ": 50,
      "ſ": 51,
      "ƃ": 52,
      "ƒ": 53,
      "ƨ": 54,
      "ƪ": 55,
      "ƽ": 56,
      "ǝ": 57,
      "ɐ": 58,
      "ɑ": 59,
      "ɒ": 60,
      "ɔ": 61,
      "ɕ": 62,
      "ə": 63,
      "ɛ": 64,
      "ɜ": 65,
      "ɝ": 66,
      "ɟ": 67,
      "ɡ": 68,
      "ɢ": 69,
      "ɥ": 70,
      "ɨ": 71,
      "ɪ": 72,
      "ɯ": 73,
      "ɴ": 74,
      "ɹ": 75,
      "ɾ": 76,
      "ʀ": 77,
      "ʁ": 78,
      "ʃ": 79,
      "ʅ": 80,
      "ʇ": 81,
      "ʊ": 82,
      "ʌ": 83,
      "ʍ": 84,
      "ʎ": 85,
      "ʏ": 86,
      "ʑ": 87,
      "ʒ": 88,
      "ʔ": 89,
      "ʕ": 90,
      "ʖ": 91,
      "ʘ": 92,
      "ʙ": 93,
      "ʜ": 94,
      "ʞ": 95,
      "ʟ": 96,
      "ʰ": 97,
      "ʲ": 98,
      "ʳ": 99,
      "ʷ": 100,
      "ʸ": 101,
      "ʻ": 102,
      "ˆ": 103,
      "ˇ": 104,
      "ˈ": 105,
      "ˉ": 106,
      "ˋ": 107,
      "ˌ": 108,
      "ː": 109,
      "ˠ": 110,
      "ˡ": 111,
      "ˢ": 112,
      "α": 113,
      "β": 114,
      "γ": 115,
      "δ": 116,
      "ε": 117,
      "ζ": 118,
      "η": 119,
      "θ": 120,
      "ι": 121,
      "κ": 122,
      "λ": 123,
      "μ": 124,
      "ν": 125,
      "ξ": 126,
      "ο": 127,
      "π": 128,
      "ρ": 129,
      "ς": 130,
      "σ": 131,
      "τ": 132,
      "υ": 133,
      "φ": 134,
      "χ": 135,
      "ψ": 136,
      "ω": 137,
      "ϟ": 138,
      "ϡ": 139,
      "а": 140,
      "б": 141,
      "в": 142,
      "г": 143,
      "д": 144,
      "е": 145,
      "ж": 146,
      "з": 147,
      "и": 148,
      "к": 149,
      "л": 150,
      "м": 151,
      "н": 152,
      "о": 153,
      "п": 154,
      "р": 155,
      "с": 156,
      "т": 157,
      "у": 158,
      "ф": 159,
      "х": 160,
      "ц": 161,
      "ч": 162,
      "ш": 163,
      "щ": 164,
      "ъ": 165,
      "ы": 166,
      "ь": 167,
      "э": 168,
      "ю": 169,
      "я": 170,
      "і": 171,
      "ѵ": 172,
      "ғ": 173,
      "ү": 174,
      "ԁ": 175,
      "ԅ": 176,
      "ո": 177,
      "չ": 178,
      "א": 179,
      "ב": 180,
      "ד": 181,
      "ה": 182,
      "ו": 183,
      "י": 184,
      "כ": 185,
      "ל": 186,
      "ם": 187,
      "מ": 188,
      "ן": 189,
      "נ": 190,
      "ע": 191,
      "פ": 192,
      "ק": 193,
      "ר": 194,
      "ש": 195,
      "ת": 196,
      "ء": 197,
      "ا": 198,
      "ب": 199,
      "ة": 200,
      "ت": 201,
      "ث": 202,
      "ج": 203,
      "ح": 204,
      "د": 205,
      "ذ": 206,
      "ر": 207,
      "ز": 208,
      "س": 209,
      "ش": 210,
      "ص": 211,
      "ط": 212,
      "ظ": 213,
      "ع": 214,
      "غ": 215,
      "ف": 216,
      "ق": 217,
      "ك": 218,
      "ل": 219,
      "م": 220,
      "ن": 221,
      "ه": 222,
      "و": 223,
      "ى": 224,
      "ي": 225,
      "پ": 226,
      "چ": 227,
      "ڡ": 228,
      "ک": 229,
      "گ": 230,
      "ں": 231,
      "ھ": 232,
      "ہ": 233,
      "ی": 234,
      "ے": 235,
      "औ": 236,
      "ग": 237,
      "त": 238,
      "द": 239,
      "न": 240,
      "म": 241,
      "र": 242,
      "ल": 243,
      "स": 244,
      "ह": 245,
      "ॱ": 246,
      "আ": 247,
      "উ": 248,
      "এ": 249,
      "ক": 250,
      "গ": 251,
      "ঙ": 252,
      "চ": 253,
      "ঠ": 254,
      "ড": 255,
      "ত": 256,
      "থ": 257,
      "দ": 258,
      "ন": 259,
      "ব": 260,
      "ভ": 261,
      "য": 262,
      "র": 263,
      "ল": 264,
      "শ": 265,
      "স": 266,
      "ਊ": 267,
      "દ": 268,
      "ଠ": 269,
      "ஐ": 270,
      "ಊ": 271,
      "ಠ": 272,
      "ಡ": 273,
      "ತ": 274,
      "ಥ": 275,
      "ರ": 276,
      "ง": 277,
      "ม": 278,
      "ว": 279,
      "ไ": 280,
      "ຈ": 281,
      "༬": 282,
      "ཀ": 283,
      "ა": 284,
      "ბ": 285,
      "დ": 286,
      "ე": 287,
      "ვ": 288,
      "ზ": 289,
      "ლ": 290,
      "მ": 291,
      "ნ": 292,
      "ო": 293,
      "რ": 294,
      "ს": 295,
      "ღ": 296,
      "შ": 297,
      "ᄀ": 298,
      "ᄂ": 299,
      "ᄃ": 300,
      "ᄅ": 301,
      "ᄆ": 302,
      "ᄇ": 303,
      "ᄉ": 304,
      "ᄋ": 305,
      "ᄌ": 306,
      "ᄎ": 307,
      "ᄐ": 308,
      "ᄑ": 309,
      "ᄒ": 310,
      "ᅡ": 311,
      "ᅢ": 312,
      "ᅣ": 313,
      "ᅥ": 314,
      "ᅦ": 315,
      "ᅧ": 316,
      "ᅨ": 317,
      "ᅩ": 318,
      "ᅪ": 319,
      "ᅬ": 320,
      "ᅭ": 321,
      "ᅮ": 322,
      "ᅯ": 323,
      "ᅱ": 324,
      "ᅳ": 325,
      "ᅴ": 326,
      "ᅵ": 327,
      "ᆨ": 328,
      "ᆫ": 329,
      "ᆯ": 330,
      "ᆷ": 331,
      "ᆺ": 332,
      "ᆻ": 333,
      "ᆼ": 334,
      "ᇀ": 335,
      "ᐛ": 336,
      "ᓄ": 337,
      "ᕕ": 338,
      "ᕗ": 339,
      "ᕙ": 340,
      "ᗜ": 341,
      "ᗡ": 342,
      "ᗤ": 343,
      "ᘍ": 344,
      "ᘔ": 345,
      "ᘰ": 346,
      "ᘳ": 347,
      "ᚠ": 348,
      "ᛟ": 349,
      "ᨎ": 350,
      "ᴀ": 351,
      "ᴄ": 352,
      "ᴅ": 353,
      "ᴇ": 354,
      "ᴉ": 355,
      "ᴋ": 356,
      "ᴍ": 357,
      "ᴏ": 358,
      "ᴗ": 359,
      "ᴘ": 360,
      "ᴛ": 361,
      "ᴜ": 362,
      "ᴠ": 363,
      "ᴡ": 364,
      "ᴢ": 365,
      "ᴥ": 366,
      "ᴵ": 367,
      "ᴶ": 368,
      "ᴺ": 369,
      "ᴾ": 370,
      "ᴿ": 371,
      "ᵀ": 372,
      "ᵃ": 373,
      "ᵇ": 374,
      "ᵈ": 375,
      "ᵉ": 376,
      "ᵍ": 377,
      "ᵏ": 378,
      "ᵐ": 379,
      "ᵒ": 380,
      "ᵔ": 381,
      "ᵕ": 382,
      "ᵖ": 383,
      "ᵗ": 384,
      "ᵘ": 385,
      "ᵛ": 386,
      "ᶜ": 387,
      "ᶠ": 388,
      "ᶦ": 389,
      "ᶫ": 390,
      "ᶰ": 391,
      "ᶻ": 392,
      "ⁿ": 393,
      "₁": 394,
      "ℓ": 395,
      "ℕ": 396,
      "ℝ": 397,
      "ℤ": 398,
      "ℯ": 399,
      "ℴ": 400,
      "ↀ": 401,
      "々": 402,
      "あ": 403,
      "ぃ": 404,
      "い": 405,
      "う": 406,
      "ぇ": 407,
      "え": 408,
      "お": 409,
      "か": 410,
      "き": 411,
      "く": 412,
      "け": 413,
      "こ": 414,
      "さ": 415,
      "し": 416,
      "す": 417,
      "せ": 418,
      "そ": 419,
      "た": 420,
      "ち": 421,
      "っ": 422,
      "つ": 423,
      "て": 424,
      "と": 425,
      "な": 426,
      "に": 427,
      "ね": 428,
      "の": 429,
      "は": 430,
      "ひ": 431,
      "ふ": 432,
      "へ": 433,
      "ほ": 434,
      "ま": 435,
      "み": 436,
      "む": 437,
      "め": 438,
      "も": 439,
      "ゃ": 440,
      "や": 441,
      "ょ": 442,
      "よ": 443,
      "ら": 444,
      "り": 445,
      "る": 446,
      "れ": 447,
      "ろ": 448,
      "わ": 449,
      "を": 450,
      "ん": 451,
      "ゝ": 452,
      "ア": 453,
      "イ": 454,
      "ゥ": 455,
      "オ": 456,
      "カ": 457,
      "キ": 458,
      "ク": 459,
      "コ": 460,
      "サ": 461,
      "シ": 462,
      "ス": 463,
      "セ": 464,
      "ソ": 465,
      "タ": 466,
      "チ": 467,
      "ッ": 468,
      "ツ": 469,
      "テ": 470,
      "ト": 471,
      "ニ": 472,
      "ノ": 473,
      "ハ": 474,
      "ヒ": 475,
      "フ": 476,
      "ヘ": 477,
      "ホ": 478,
      "マ": 479,
      "ミ": 480,
      "メ": 481,
      "モ": 482,
      "ャ": 483,
      "ュ": 484,
      "ラ": 485,
      "ル": 486,
      "レ": 487,
      "ロ": 488,
      "ヮ": 489,
      "ワ": 490,
      "ン": 491,
      "ー": 492,
      "ヽ": 493,
      "ㄱ": 494,
      "ㅂ": 495,
      "ㅋ": 496,
      "ㅎ": 497,
      "ㅛ": 498,
      "ㅜ": 499,
      "ㅠ": 500,
      "ㅿ": 501,
      "一": 502,
      "万": 503,
      "三": 504,
      "上": 505,
      "下": 506,
      "不": 507,
      "与": 508,
      "且": 509,
      "东": 510,
      "丝": 511,
      "丢": 512,
      "两": 513,
      "个": 514,
      "中": 515,
      "为": 516,
      "乁": 517,
      "么": 518,
      "义": 519,
      "之": 520,
      "九": 521,
      "也": 522,
      "买": 523,
      "乾": 524,
      "了": 525,
      "予": 526,
      "事": 527,
      "二": 528,
      "于": 529,
      "五": 530,
      "井": 531,
      "亚": 532,
      "些": 533,
      "京": 534,
      "人": 535,
      "什": 536,
      "仁": 537,
      "介": 538,
      "从": 539,
      "仔": 540,
      "他": 541,
      "令": 542,
      "以": 543,
      "仪": 544,
      "们": 545,
      "会": 546,
      "传": 547,
      "但": 548,
      "位": 549,
      "体": 550,
      "何": 551,
      "作": 552,
      "你": 553,
      "來": 554,
      "侘": 555,
      "便": 556,
      "係": 557,
      "俄": 558,
      "保": 559,
      "信": 560,
      "個": 561,
      "們": 562,
      "候": 563,
      "做": 564,
      "停": 565,
      "傅": 566,
      "傳": 567,
      "像": 568,
      "僕": 569,
      "價": 570,
      "儀": 571,
      "儿": 572,
      "兄": 573,
      "兆": 574,
      "先": 575,
      "光": 576,
      "兒": 577,
      "入": 578,
      "全": 579,
      "兩": 580,
      "八": 581,
      "公": 582,
      "六": 583,
      "关": 584,
      "兴": 585,
      "其": 586,
      "典": 587,
      "円": 588,
      "写": 589,
      "冬": 590,
      "凄": 591,
      "准": 592,
      "几": 593,
      "凵": 594,
      "凸": 595,
      "出": 596,
      "刀": 597,
      "分": 598,
      "刚": 599,
      "別": 600,
      "利": 601,
      "别": 602,
      "到": 603,
      "則": 604,
      "前": 605,
      "創": 606,
      "力": 607,
      "加": 608,
      "动": 609,
      "勇": 610,
      "勉": 611,
      "動": 612,
      "務": 613,
      "勿": 614,
      "包": 615,
      "化": 616,
      "北": 617,
      "区": 618,
      "半": 619,
      "卐": 620,
      "南": 621,
      "印": 622,
      "危": 623,
      "厅": 624,
      "原": 625,
      "厦": 626,
      "去": 627,
      "参": 628,
      "參": 629,
      "又": 630,
      "叉": 631,
      "友": 632,
      "发": 633,
      "取": 634,
      "受": 635,
      "变": 636,
      "口": 637,
      "古": 638,
      "句": 639,
      "只": 640,
      "叫": 641,
      "可": 642,
      "台": 643,
      "吃": 644,
      "合": 645,
      "吉": 646,
      "同": 647,
      "名": 648,
      "后": 649,
      "吗": 650,
      "吞": 651,
      "吧": 652,
      "听": 653,
      "吾": 654,
      "呀": 655,
      "呆": 656,
      "告": 657,
      "呢": 658,
      "周": 659,
      "味": 660,
      "呵": 661,
      "呼": 662,
      "命": 663,
      "和": 664,
      "品": 665,
      "哈": 666,
      "响": 667,
      "哎": 668,
      "員": 669,
      "哥": 670,
      "哦": 671,
      "哪": 672,
      "唐": 673,
      "唯": 674,
      "啊": 675,
      "問": 676,
      "善": 677,
      "喔": 678,
      "喜": 679,
      "單": 680,
      "喷": 681,
      "喻": 682,
      "嗯": 683,
      "嚏": 684,
      "四": 685,
      "回": 686,
      "因": 687,
      "国": 688,
      "國": 689,
      "圓": 690,
      "土": 691,
      "在": 692,
      "地": 693,
      "坊": 694,
      "坏": 695,
      "城": 696,
      "基": 697,
      "堂": 698,
      "場": 699,
      "士": 700,
      "声": 701,
      "外": 702,
      "多": 703,
      "夜": 704,
      "夢": 705,
      "大": 706,
      "天": 707,
      "太": 708,
      "失": 709,
      "头": 710,
      "奇": 711,
      "好": 712,
      "如": 713,
      "妈": 714,
      "妖": 715,
      "妳": 716,
      "姬": 717,
      "子": 718,
      "孔": 719,
      "字": 720,
      "存": 721,
      "孜": 722,
      "孝": 723,
      "孟": 724,
      "学": 725,
      "學": 726,
      "它": 727,
      "安": 728,
      "宗": 729,
      "定": 730,
      "宜": 731,
      "实": 732,
      "実": 733,
      "宫": 734,
      "害": 735,
      "家": 736,
      "寂": 737,
      "察": 738,
      "實": 739,
      "寫": 740,
      "对": 741,
      "寿": 742,
      "射": 743,
      "對": 744,
      "導": 745,
      "小": 746,
      "少": 747,
      "尚": 748,
      "尝": 749,
      "尤": 750,
      "就": 751,
      "尾": 752,
      "山": 753,
      "川": 754,
      "州": 755,
      "左": 756,
      "差": 757,
      "己": 758,
      "已": 759,
      "市": 760,
      "希": 761,
      "帝": 762,
      "带": 763,
      "師": 764,
      "帮": 765,
      "常": 766,
      "幫": 767,
      "干": 768,
      "平": 769,
      "年": 770,
      "幸": 771,
      "广": 772,
      "应": 773,
      "底": 774,
      "店": 775,
      "度": 776,
      "庭": 777,
      "廉": 778,
      "廣": 779,
      "廳": 780,
      "建": 781,
      "开": 782,
      "弁": 783,
      "式": 784,
      "弓": 785,
      "弟": 786,
      "張": 787,
      "強": 788,
      "强": 789,
      "当": 790,
      "彡": 791,
      "形": 792,
      "彩": 793,
      "影": 794,
      "役": 795,
      "待": 796,
      "很": 797,
      "後": 798,
      "得": 799,
      "從": 800,
      "德": 801,
      "心": 802,
      "必": 803,
      "忍": 804,
      "志": 805,
      "忘": 806,
      "快": 807,
      "怎": 808,
      "怒": 809,
      "怕": 810,
      "思": 811,
      "性": 812,
      "怪": 813,
      "恥": 814,
      "恶": 815,
      "悉": 816,
      "您": 817,
      "悪": 818,
      "惯": 819,
      "想": 820,
      "意": 821,
      "愚": 822,
      "感": 823,
      "慶": 824,
      "懂": 825,
      "應": 826,
      "懒": 827,
      "成": 828,
      "我": 829,
      "或": 830,
      "所": 831,
      "手": 832,
      "才": 833,
      "打": 834,
      "扬": 835,
      "扭": 836,
      "把": 837,
      "抓": 838,
      "折": 839,
      "抜": 840,
      "拉": 841,
      "拌": 842,
      "括": 843,
      "拼": 844,
      "拿": 845,
      "持": 846,
      "指": 847,
      "挺": 848,
      "换": 849,
      "据": 850,
      "採": 851,
      "接": 852,
      "推": 853,
      "掩": 854,
      "提": 855,
      "搬": 856,
      "撮": 857,
      "擔": 858,
      "據": 859,
      "收": 860,
      "改": 861,
      "攻": 862,
      "放": 863,
      "教": 864,
      "敵": 865,
      "文": 866,
      "斎": 867,
      "料": 868,
      "斬": 869,
      "断": 870,
      "新": 871,
      "方": 872,
      "於": 873,
      "旁": 874,
      "无": 875,
      "日": 876,
      "时": 877,
      "明": 878,
      "易": 879,
      "昔": 880,
      "星": 881,
      "映": 882,
      "是": 883,
      "显": 884,
      "時": 885,
      "普": 886,
      "智": 887,
      "暗": 888,
      "曉": 889,
      "曰": 890,
      "曲": 891,
      "更": 892,
      "書": 893,
      "最": 894,
      "會": 895,
      "有": 896,
      "朋": 897,
      "服": 898,
      "望": 899,
      "木": 900,
      "末": 901,
      "本": 902,
      "机": 903,
      "杂": 904,
      "束": 905,
      "条": 906,
      "来": 907,
      "杭": 908,
      "東": 909,
      "松": 910,
      "板": 911,
      "极": 912,
      "构": 913,
      "枉": 914,
      "析": 915,
      "果": 916,
      "查": 917,
      "柳": 918,
      "标": 919,
      "校": 920,
      "栩": 921,
      "样": 922,
      "根": 923,
      "格": 924,
      "桌": 925,
      "條": 926,
      "椒": 927,
      "標": 928,
      "樣": 929,
      "機": 930,
      "次": 931,
      "欢": 932,
      "歡": 933,
      "正": 934,
      "此": 935,
      "步": 936,
      "每": 937,
      "比": 938,
      "民": 939,
      "気": 940,
      "水": 941,
      "求": 942,
      "汇": 943,
      "汉": 944,
      "汤": 945,
      "沒": 946,
      "沙": 947,
      "没": 948,
      "河": 949,
      "油": 950,
      "法": 951,
      "泡": 952,
      "波": 953,
      "注": 954,
      "津": 955,
      "洲": 956,
      "流": 957,
      "浆": 958,
      "海": 959,
      "涂": 960,
      "深": 961,
      "港": 962,
      "湖": 963,
      "湯": 964,
      "湾": 965,
      "準": 966,
      "漢": 967,
      "漫": 968,
      "漿": 969,
      "激": 970,
      "灣": 971,
      "火": 972,
      "炒": 973,
      "点": 974,
      "為": 975,
      "烂": 976,
      "烧": 977,
      "無": 978,
      "然": 979,
      "煎": 980,
      "煙": 981,
      "煩": 982,
      "煮": 983,
      "熟": 984,
      "熱": 985,
      "燒": 986,
      "爛": 987,
      "爱": 988,
      "爲": 989,
      "牛": 990,
      "物": 991,
      "特": 992,
      "狼": 993,
      "猿": 994,
      "玉": 995,
      "王": 996,
      "现": 997,
      "理": 998,
      "甜": 999,
      "生": 1000,
      "用": 1001,
      "由": 1002,
      "电": 1003,
      "男": 1004,
      "画": 1005,
      "留": 1006,
      "略": 1007,
      "當": 1008,
      "疆": 1009,
      "登": 1010,
      "白": 1011,
      "的": 1012,
      "益": 1013,
      "盐": 1014,
      "盖": 1015,
      "目": 1016,
      "盲": 1017,
      "相": 1018,
      "省": 1019,
      "看": 1020,
      "真": 1021,
      "眼": 1022,
      "瞬": 1023,
      "矜": 1024,
      "矣": 1025,
      "知": 1026,
      "石": 1027,
      "确": 1028,
      "磨": 1029,
      "示": 1030,
      "礼": 1031,
      "祥": 1032,
      "祿": 1033,
      "禄": 1034,
      "福": 1035,
      "禮": 1036,
      "离": 1037,
      "私": 1038,
      "种": 1039,
      "秒": 1040,
      "程": 1041,
      "穷": 1042,
      "空": 1043,
      "立": 1044,
      "笆": 1045,
      "笑": 1046,
      "第": 1047,
      "笼": 1048,
      "等": 1049,
      "筋": 1050,
      "简": 1051,
      "算": 1052,
      "管": 1053,
      "節": 1054,
      "篱": 1055,
      "籬": 1056,
      "米": 1057,
      "粉": 1058,
      "粽": 1059,
      "糊": 1060,
      "糖": 1061,
      "系": 1062,
      "約": 1063,
      "素": 1064,
      "組": 1065,
      "統": 1066,
      "縫": 1067,
      "繁": 1068,
      "红": 1069,
      "绍": 1070,
      "给": 1071,
      "缝": 1072,
      "缺": 1073,
      "置": 1074,
      "羊": 1075,
      "美": 1076,
      "羞": 1077,
      "群": 1078,
      "義": 1079,
      "翻": 1080,
      "老": 1081,
      "考": 1082,
      "者": 1083,
      "而": 1084,
      "耻": 1085,
      "聖": 1086,
      "聽": 1087,
      "肉": 1088,
      "胡": 1089,
      "能": 1090,
      "脑": 1091,
      "脸": 1092,
      "腐": 1093,
      "腩": 1094,
      "自": 1095,
      "臭": 1096,
      "至": 1097,
      "與": 1098,
      "興": 1099,
      "般": 1100,
      "色": 1101,
      "节": 1102,
      "芝": 1103,
      "花": 1104,
      "英": 1105,
      "茶": 1106,
      "荒": 1107,
      "莊": 1108,
      "菀": 1109,
      "菜": 1110,
      "萝": 1111,
      "葉": 1112,
      "葱": 1113,
      "蒜": 1114,
      "蓋": 1115,
      "蓝": 1116,
      "蔔": 1117,
      "蔽": 1118,
      "薦": 1119,
      "藍": 1120,
      "蘧": 1121,
      "虚": 1122,
      "虹": 1123,
      "蚵": 1124,
      "蛋": 1125,
      "蛙": 1126,
      "蝶": 1127,
      "蠢": 1128,
      "行": 1129,
      "街": 1130,
      "衣": 1131,
      "表": 1132,
      "被": 1133,
      "裡": 1134,
      "褴": 1135,
      "西": 1136,
      "要": 1137,
      "見": 1138,
      "覺": 1139,
      "视": 1140,
      "觉": 1141,
      "角": 1142,
      "解": 1143,
      "言": 1144,
      "記": 1145,
      "訴": 1146,
      "診": 1147,
      "評": 1148,
      "詞": 1149,
      "試": 1150,
      "話": 1151,
      "該": 1152,
      "誕": 1153,
      "語": 1154,
      "說": 1155,
      "説": 1156,
      "請": 1157,
      "論": 1158,
      "謂": 1159,
      "謝": 1160,
      "譬": 1161,
      "讀": 1162,
      "计": 1163,
      "认": 1164,
      "让": 1165,
      "论": 1166,
      "识": 1167,
      "诉": 1168,
      "词": 1169,
      "试": 1170,
      "诚": 1171,
      "话": 1172,
      "该": 1173,
      "语": 1174,
      "说": 1175,
      "读": 1176,
      "谢": 1177,
      "谦": 1178,
      "豆": 1179,
      "象": 1180,
      "貌": 1181,
      "起": 1182,
      "超": 1183,
      "越": 1184,
      "足": 1185,
      "跟": 1186,
      "路": 1187,
      "践": 1188,
      "身": 1189,
      "車": 1190,
      "輸": 1191,
      "车": 1192,
      "轩": 1193,
      "转": 1194,
      "较": 1195,
      "辣": 1196,
      "辱": 1197,
      "边": 1198,
      "过": 1199,
      "迎": 1200,
      "近": 1201,
      "还": 1202,
      "这": 1203,
      "进": 1204,
      "远": 1205,
      "连": 1206,
      "追": 1207,
      "送": 1208,
      "适": 1209,
      "這": 1210,
      "通": 1211,
      "速": 1212,
      "週": 1213,
      "進": 1214,
      "逾": 1215,
      "過": 1216,
      "道": 1217,
      "違": 1218,
      "適": 1219,
      "遮": 1220,
      "選": 1221,
      "還": 1222,
      "邊": 1223,
      "那": 1224,
      "邪": 1225,
      "郊": 1226,
      "部": 1227,
      "都": 1228,
      "酱": 1229,
      "酸": 1230,
      "醋": 1231,
      "里": 1232,
      "重": 1233,
      "野": 1234,
      "錯": 1235,
      "鍋": 1236,
      "错": 1237,
      "长": 1238,
      "閃": 1239,
      "開": 1240,
      "間": 1241,
      "関": 1242,
      "闇": 1243,
      "關": 1244,
      "门": 1245,
      "闪": 1246,
      "问": 1247,
      "间": 1248,
      "附": 1249,
      "陆": 1250,
      "陈": 1251,
      "除": 1252,
      "陰": 1253,
      "陸": 1254,
      "陽": 1255,
      "随": 1256,
      "隨": 1257,
      "險": 1258,
      "雪": 1259,
      "雲": 1260,
      "電": 1261,
      "露": 1262,
      "霸": 1263,
      "非": 1264,
      "面": 1265,
      "韓": 1266,
      "韩": 1267,
      "音": 1268,
      "頑": 1269,
      "頭": 1270,
      "題": 1271,
      "願": 1272,
      "顺": 1273,
      "顿": 1274,
      "题": 1275,
      "颜": 1276,
      "風": 1277,
      "飄": 1278,
      "风": 1279,
      "飘": 1280,
      "飞": 1281,
      "食": 1282,
      "飯": 1283,
      "飾": 1284,
      "餅": 1285,
      "餐": 1286,
      "餡": 1287,
      "饅": 1288,
      "饭": 1289,
      "饰": 1290,
      "饺": 1291,
      "饼": 1292,
      "馅": 1293,
      "馆": 1294,
      "香": 1295,
      "馬": 1296,
      "骂": 1297,
      "髒": 1298,
      "高": 1299,
      "鬧": 1300,
      "魚": 1301,
      "鱼": 1302,
      "鲜": 1303,
      "鲤": 1304,
      "鸡": 1305,
      "鹽": 1306,
      "鹿": 1307,
      "麵": 1308,
      "麻": 1309,
      "麼": 1310,
      "麽": 1311,
      "點": 1312,
      "龍": 1313,
      "龴": 1314,
      "ꮇ": 1315,
      "ﬀ": 1316,
      "ﬁ": 1317,
      "ﬂ": 1318,
      "ﻝ": 1319,
      "ａ": 1320,
      "ｂ": 1321,
      "ｃ": 1322,
      "ｄ": 1323,
      "ｅ": 1324,
      "ｆ": 1325,
      "ｇ": 1326,
      "ｈ": 1327,
      "ｉ": 1328,
      "ｋ": 1329,
      "ｌ": 1330,
      "ｍ": 1331,
      "ｎ": 1332,
      "ｏ": 1333,
      "ｐ": 1334,
      "ｒ": 1335,
      "ｓ": 1336,
      "ｔ": 1337,
      "ｕ": 1338,
      "ｖ": 1339,
      "ｗ": 1340,
      "ｘ": 1341,
      "ｙ": 1342,
      "ｧ": 1343,
      "ｩ": 1344,
      "ｫ": 1345,
      "ｬ": 1346,
      "ｰ": 1347,
      "ｱ": 1348,
      "ｺ": 1349,
      "ﾉ": 1350,
      "ﾔ": 1351,
      "ﾛ": 1352,
      "ﾞ": 1353,
      "ﾟ": 1354,
      "##e": 1355,
      "##t": 1356,
      "##a": 1357,
      "##n": 1358,
      "##g": 1359,
      "##s": 1360,
      "##h": 1361,
      "##r": 1362,
      "##i": 1363,
      "##z": 1364,
      "##u": 1365,
      "##c": 1366,
      "##b": 1367,
      "##d": 1368,
      "##o": 1369,
      "##v": 1370,
      "##y": 1371,
      "##k": 1372,
      "##p": 1373,
      "##l": 1374,
      "##x": 1375,
      "##m": 1376,
      "##w": 1377,
      "##f": 1378,
      "##j": 1379,
      "##q": 1380,
      "##ຈ": 1381,
      "##ل": 1382,
      "##ᕗ": 1383,
      "##ক": 1384,
      "##র": 1385,
      "##ø": 1386,
      "##æ": 1387,
      "##ᅵ": 1388,
      "##ᆷ": 1389,
      "##ᄌ": 1390,
      "##ᅥ": 1391,
      "##ᆼ": 1392,
      "##ᄀ": 1393,
      "##ಠ": 1394,
      "##е": 1395,
      "##л": 1396,
      "##о": 1397,
      "##в": 1398,
      "##к": 1399,
      "##ｎ": 1400,
      "##ʒ": 1401,
      "##ʌ": 1402,
      "##ɪ": 1403,
      "##р": 1404,
      "##ы": 1405,
      "##и": 1406,
      "##く": 1407,
      "##ｓ": 1408,
      "##ｕ": 1409,
      "##¹": 1410,
      "##ß": 1411,
      "##ο": 1412,
      "##ə": 1413,
      "##ｈ": 1414,
      "##ｉ": 1415,
      "##ｃ": 1416,
      "##ａ": 1417,
      "##ｇ": 1418,
      "##ｏ": 1419,
      "##д": 1420,
      "##а": 1421,
      "##ч": 1422,
      "##ر": 1423,
      "##ى": 1424,
      "##α": 1425,
      "##υ": 1426,
      "##λ": 1427,
      "##ς": 1428,
      "##ᄋ": 1429,
      "##ᅮ": 1430,
      "##ᆯ": 1431,
      "##ᄉ": 1432,
      "##ᅡ": 1433,
      "##ᵒ": 1434,
      "##ⁿ": 1435,
      "##ᵉ": 1436,
      "##ˡ": 1437,
      "##ᶦ": 1438,
      "##ˢ": 1439,
      "##ᴀ": 1440,
      "##ʟ": 1441,
      "##ᴘ": 1442,
      "##ʀ": 1443,
      "##ᴋ": 1444,
      "##χ": 1445,
      "##ν": 1446,
      "##ε": 1447,
      "##τ": 1448,
      "##ی": 1449,
      "##ں": 1450,
      "##κ": 1451,
      "##м": 1452,
      "##ω": 1453,
      "##т": 1454,
      "##ל": 1455,
      "##ι": 1456,
      "##θ": 1457,
      "##σ": 1458,
      "##μ": 1459,
      "##η": 1460,
      "##ł": 1461,
      "##ð": 1462,
      "##ᴏ": 1463,
      "##ᴅ": 1464,
      "##ɴ": 1465,
      "##ᴇ": 1466,
      "##ｔ": 1467,
      "##ｐ": 1468,
      "##ᄇ": 1469,
      "##ᅳ": 1470,
      "##も": 1471,
      "##đ": 1472,
      "##ﾉ": 1473,
      "##ʳ": 1474,
      "##ᶰ": 1475,
      "##ᵗ": 1476,
      "##ニ": 1477,
      "##メ": 1478,
      "##²": 1479,
      "##ˈ": 1480,
      "##н": 1481,
      "##ა": 1482,
      "##რ": 1483,
      "##ს": 1484,
      "##ე": 1485,
      "##ბ": 1486,
      "##ო": 1487,
      "##ذ": 1488,
      "##ا": 1489,
      "##ᵛ": 1490,
      "##ᶫ": 1491,
      "##з": 1492,
      "##ғ": 1493,
      "##у": 1494,
      "##ᴜ": 1495,
      "##ʏ": 1496,
      "##こ": 1497,
      "##と": 1498,
      "##し": 1499,
      "##ま": 1500,
      "##せ": 1501,
      "##ん": 1502,
      "##て": 1503,
      "##た": 1504,
      "##و": 1505,
      "##ن": 1506,
      "##گ": 1507,
      "##ʎ": 1508,
      "##ʇ": 1509,
      "##ｘ": 1510,
      "##ｌ": 1511,
      "##ｙ": 1512,
      "##ｅ": 1513,
      "##ｄ": 1514,
      "##ᶠ": 1515,
      "##س": 1516,
      "##ت": 1517,
      "##б": 1518,
      "##г": 1519,
      "##ᵃ": 1520,
      "##ᵖ": 1521,
      "##ᵍ": 1522,
      "##ʜ": 1523,
      "##り": 1524,
      "##す": 1525,
      "##ᵈ": 1526,
      "##ˌ": 1527,
      "##ᵐ": 1528,
      "##か": 1529,
      "##ᆫ": 1530,
      "##ᄒ": 1531,
      "##ᅬ": 1532,
      "##с": 1533,
      "##ǝ": 1534,
      "##ɔ": 1535,
      "##ɐ": 1536,
      "##ɟ": 1537,
      "##ʸ": 1538,
      "##ρ": 1539,
      "##ᘍ": 1540,
      "##ı": 1541,
      "##ﾟ": 1542,
      "##ʊ": 1543,
      "##ʃ": 1544,
      "##γ": 1545,
      "##ᶜ": 1546,
      "##ろ": 1547,
      "##ː": 1548,
      "##ж": 1549,
      "##щ": 1550,
      "##غ": 1551,
      "##ｰ": 1552,
      "##ಥ": 1553,
      "##ら": 1554,
      "##ゃ": 1555,
      "##い": 1556,
      "##ɒ": 1557,
      "##ŋ": 1558,
      "##コ": 1559,
      "##ɥ": 1560,
      "##ン": 1561,
      "##テ": 1562,
      "##レ": 1563,
      "##る": 1564,
      "##に": 1565,
      "##は": 1566,
      "##ლ": 1567,
      "##ʰ": 1568,
      "##ᘰ": 1569,
      "##わ": 1570,
      "##π": 1571,
      "##ᄃ": 1572,
      "##ᅩ": 1573,
      "##な": 1574,
      "##や": 1575,
      "##め": 1576,
      "##を": 1577,
      "##ᴛ": 1578,
      "##п": 1579,
      "##ь": 1580,
      "##ｬ": 1581,
      "##ｩ": 1582,
      "##ｧ": 1583,
      "##β": 1584,
      "##م": 1585,
      "##د": 1586,
      "##þ": 1587,
      "##よ": 1588,
      "##ᄆ": 1589,
      "##ᅯ": 1590,
      "##ᴿ": 1591,
      "##ƨ": 1592,
      "##チ": 1593,
      "##ー": 1594,
      "##ト": 1595,
      "##ル": 1596,
      "##タ": 1597,
      "##ゥ": 1598,
      "##ア": 1599,
      "##ホ": 1600,
      "##ᴍ": 1601,
      "##け": 1602,
      "##ع": 1603,
      "##ب": 1604,
      "##ي": 1605,
      "##ة": 1606,
      "##ш": 1607,
      "##ڡ": 1608,
      "##উ": 1609,
      "##つ": 1610,
      "##ন": 1611,
      "##ق": 1612,
      "##ᴉ": 1613,
      "##ﬁ": 1614,
      "##ʞ": 1615,
      "##ɾ": 1616,
      "##φ": 1617,
      "##ظ": 1618,
      "##त": 1619,
      "##き": 1620,
      "##ভ": 1621,
      "##গ": 1622,
      "##য": 1623,
      "##ɡ": 1624,
      "##я": 1625,
      "##ɹ": 1626,
      "##ッ": 1627,
      "##ぇ": 1628,
      "##º": 1629,
      "##ے": 1630,
      "##オ": 1631,
      "##ク": 1632,
      "##の": 1633,
      "##ﬀ": 1634,
      "##ᴄ": 1635,
      "##ʍ": 1636,
      "##ˆ": 1637,
      "##ｆ": 1638,
      "##ه": 1639,
      "##ھ": 1640,
      "##ↀ": 1641,
      "##र": 1642,
      "##म": 1643,
      "##י": 1644,
      "##פ": 1645,
      "##ו": 1646,
      "##ר": 1647,
      "##œ": 1648,
      "##ᅧ": 1649,
      "##ᅪ": 1650,
      "##ɢ": 1651,
      "##ה": 1652,
      "##ہ": 1653,
      "##چ": 1654,
      "##ノ": 1655,
      "##כ": 1656,
      "##ϟ": 1657,
      "##ю": 1658,
      "##ת": 1659,
      "##ᵘ": 1660,
      "##ল": 1661,
      "##µ": 1662,
      "##¼": 1663,
      "##½": 1664,
      "##¾": 1665,
      "##さ": 1666,
      "##ᄎ": 1667,
      "##ᅭ": 1668,
      "##ス": 1669,
      "##れ": 1670,
      "##ψ": 1671,
      "##ʷ": 1672,
      "##あ": 1673,
      "##ラ": 1674,
      "##ф": 1675,
      "##ᆨ": 1676,
      "##ɛ": 1677,
      "##フ": 1678,
      "##ן": 1679,
      "##δ": 1680,
      "##ξ": 1681,
      "##ˋ": 1682,
      "##ᄅ": 1683,
      "##ᄂ": 1684,
      "##ᅱ": 1685,
      "##₁": 1686,
      "##ㅎ": 1687,
      "##ц": 1688,
      "##ث": 1689,
      "##ｍ": 1690,
      "##ロ": 1691,
      "##ش": 1692,
      "##ｒ": 1693,
      "##ﾔ": 1694,
      "##ﾛ": 1695,
      "##ƃ": 1696,
      "##ち": 1697,
      "##ᴥ": 1698,
      "##ᵔ": 1699,
      "##み": 1700,
      "##ზ": 1701,
      "##ვ": 1702,
      "##ნ": 1703,
      "##न": 1704,
      "##ᴺ": 1705,
      "##ᵀ": 1706,
      "##ᴶ": 1707,
      "##ħ": 1708,
      "##ŧ": 1709,
      "##ㅜ": 1710,
      "##ょ": 1711,
      "##ʙ": 1712,
      "##ᅨ": 1713,
      "##ᅦ": 1714,
      "##ふ": 1715,
      "##ᄑ": 1716,
      "##ｖ": 1717,
      "##ヮ": 1718,
      "##ʔ": 1719,
      "##ĸ": 1720,
      "##پ": 1721,
      "##ﬂ": 1722,
      "##ม": 1723,
      "##え": 1724,
      "##ء": 1725,
      "##ح": 1726,
      "##モ": 1727,
      "##ز": 1728,
      "##ɑ": 1729,
      "##ハ": 1730,
      "##シ": 1731,
      "##ャ": 1732,
      "##ㅋ": 1733,
      "##ଠ": 1734,
      "##そ": 1735,
      "##ک": 1736,
      "##ъ": 1737,
      "##ص": 1738,
      "##ᴢ": 1739,
      "##ʘ": 1740,
      "##ツ": 1741,
      "##カ": 1742,
      "##キ": 1743,
      "##ᇀ": 1744,
      "##і": 1745,
      "##ם": 1746,
      "##չ": 1747,
      "##イ": 1748,
      "##っ": 1749,
      "##う": 1750,
      "##ぃ": 1751,
      "##ｗ": 1752,
      "##ᶻ": 1753,
      "##む": 1754,
      "##х": 1755,
      "##ק": 1756,
      "##ك": 1757,
      "##ᆻ": 1758,
      "##へ": 1759,
      "##ね": 1760,
      "##ᅴ": 1761,
      "##ɯ": 1762,
      "##ד": 1763,
      "##ש": 1764,
      "##³": 1765,
      "##ɨ": 1766,
      "##ɜ": 1767,
      "##נ": 1768,
      "##ᅣ": 1769,
      "##ｋ": 1770,
      "##ᵇ": 1771,
      "##サ": 1772,
      "##ュ": 1773,
      "##ү": 1774,
      "##ʻ": 1775,
      "##ग": 1776,
      "##स": 1777,
      "##ꮇ": 1778,
      "##ᄐ": 1779,
      "##ヽ": 1780,
      "##ব": 1781,
      "##দ": 1782,
      "##থ": 1783,
      "##מ": 1784,
      "##ღ": 1785,
      "##ঙ": 1786,
      "##ط": 1787,
      "##ワ": 1788,
      "##э": 1789,
      "##ᵏ": 1790,
      "##ಡ": 1791,
      "##ɝ": 1792,
      "##ℝ": 1793,
      "##ԅ": 1794,
      "##ʑ": 1795,
      "##ℴ": 1796,
      "##ѵ": 1797,
      "##ℯ": 1798,
      "##א": 1799,
      "##ह": 1800,
      "##ひ": 1801,
      "##ᅢ": 1802,
      "##ƒ": 1803,
      "##ﾞ": 1804,
      "##ʁ": 1805,
      "##ſ": 1806,
      "##შ": 1807,
      "##დ": 1808,
      "##მ": 1809,
      "##ᴡ": 1810,
      "##স": 1811,
      "##ヘ": 1812,
      "##ᆺ": 1813,
      "##ˉ": 1814,
      "##ᴠ": 1815,
      "##er": 1816,
      "##on": 1817,
      "##in": 1818,
      "##al": 1819,
      "##en": 1820,
      "##ar": 1821,
      "##ti": 1822,
      "##ly": 1823,
      "##an": 1824,
      "##le": 1825,
      "##re": 1826,
      "##st": 1827,
      "##ou": 1828,
      "##or": 1829,
      "##it": 1830,
      "##at": 1831,
      "re": 1832,
      "##om": 1833,
      "##ke": 1834,
      "##hin": 1835,
      "##et": 1836,
      "##ay": 1837,
      "##tion": 1838,
      "##ve": 1839,
      "##ce": 1840,
      "##el": 1841,
      "##se": 1842,
      "li": 1843,
      "in": 1844,
      "##ss": 1845,
      "thin": 1846,
      "##ic": 1847,
      "##ally": 1848,
      "##ver": 1849,
      "##op": 1850,
      "##ent": 1851,
      "##ow": 1852,
      "##oo": 1853,
      "##ee": 1854,
      "st": 1855,
      "##ct": 1856,
      "##gh": 1857,
      "##ate": 1858,
      "##ld": 1859,
      "##ch": 1860,
      "##ro": 1861,
      "##ea": 1862,
      "##me": 1863,
      "like": 1864,
      "##ri": 1865,
      "##ake": 1866,
      "ex": 1867,
      "##ot": 1868,
      "tar": 1869,
      "de": 1870,
      "##ra": 1871,
      "al": 1872,
      "##ome": 1873,
      "##id": 1874,
      "think": 1875,
      "con": 1876,
      "##is": 1877,
      "##ation": 1878,
      "pe": 1879,
      "##ople": 1880,
      "people": 1881,
      "##pe": 1882,
      "##her": 1883,
      "##ge": 1884,
      "get": 1885,
      "##ant": 1886,
      "int": 1887,
      "##ne": 1888,
      "su": 1889,
      "##end": 1890,
      "an": 1891,
      "##nd": 1892,
      "fe": 1893,
      "##ould": 1894,
      "##one": 1895,
      "##ol": 1896,
      "##ad": 1897,
      "##ck": 1898,
      "th": 1899,
      "##ind": 1900,
      "##hing": 1901,
      "##ble": 1902,
      "wor": 1903,
      "go": 1904,
      "##igh": 1905,
      "##ci": 1906,
      "##il": 1907,
      "##ue": 1908,
      "##ff": 1909,
      "ti": 1910,
      "per": 1911,
      "pro": 1912,
      "##ut": 1913,
      "ne": 1914,
      "##ell": 1915,
      "##un": 1916,
      "##as": 1917,
      "##mp": 1918,
      "ch": 1919,
      "##now": 1920,
      "make": 1921,
      "tr": 1922,
      "thing": 1923,
      "##ood": 1924,
      "##ir": 1925,
      "##ity": 1926,
      "know": 1927,
      "en": 1928,
      "##ul": 1929,
      "com": 1930,
      "see": 1931,
      "##pp": 1932,
      "##ite": 1933,
      "one": 1934,
      "me": 1935,
      "##and": 1936,
      "##ight": 1937,
      "po": 1938,
      "##ear": 1939,
      "say": 1940,
      "time": 1941,
      "feel": 1942,
      "##us": 1943,
      "##est": 1944,
      "sh": 1945,
      "good": 1946,
      "would": 1947,
      "##ur": 1948,
      "di": 1949,
      "##la": 1950,
      "ever": 1951,
      "##ion": 1952,
      "##ough": 1953,
      "really": 1954,
      "##art": 1955,
      "lo": 1956,
      "##ence": 1957,
      "pers": 1958,
      "##tive": 1959,
      "fa": 1960,
      "some": 1961,
      "##ment": 1962,
      "##ort": 1963,
      "##ine": 1964,
      "ev": 1965,
      "pre": 1966,
      "want": 1967,
      "mu": 1968,
      "##ction": 1969,
      "##tic": 1970,
      "##ong": 1971,
      "##ive": 1972,
      "##ard": 1973,
      "person": 1974,
      "way": 1975,
      "##ig": 1976,
      "##ure": 1977,
      "##ous": 1978,
      "##are": 1979,
      "every": 1980,
      "##fe": 1981,
      "work": 1982,
      "##ually": 1983,
      "##ie": 1984,
      "inter": 1985,
      "ar": 1986,
      "##so": 1987,
      "un": 1988,
      "##ype": 1989,
      "##ook": 1990,
      "##mo": 1991,
      "also": 1992,
      "##riend": 1993,
      "##omet": 1994,
      "exp": 1995,
      "somet": 1996,
      "something": 1997,
      "##way": 1998,
      "ha": 1999,
      "much": 2000,
      "##ide": 2001,
      "##eed": 2002,
      "##ist": 2003,
      "sp": 2004,
      "##tt": 2005,
      "##ound": 2006,
      "##ing": 2007,
      "try": 2008,
      "any": 2009,
      "use": 2010,
      "take": 2011,
      "type": 2012,
      "find": 2013,
      "friend": 2014,
      "##um": 2015,
      "even": 2016,
      "##all": 2017,
      "se": 2018,
      "##og": 2019,
      "fun": 2020,
      "be": 2021,
      "man": 2022,
      "##int": 2023,
      "comp": 2024,
      "##ip": 2025,
      "act": 2026,
      "mo": 2027,
      "well": 2028,
      "##ab": 2029,
      "need": 2030,
      "##sh": 2031,
      "rel": 2032,
      "##ud": 2033,
      "so": 2034,
      "##eri": 2035,
      "##ze": 2036,
      "##ack": 2037,
      "lot": 2038,
      "##alk": 2039,
      "ad": 2040,
      "mean": 2041,
      "though": 2042,
      "##ffer": 2043,
      "##thing": 2044,
      "id": 2045,
      "pl": 2046,
      "##ll": 2047,
      "##ree": 2048,
      "ac": 2049,
      "may": 2050,
      "wh": 2051,
      "lea": 2052,
      "##ry": 2053,
      "dis": 2054,
      "##able": 2055,
      "life": 2056,
      "##ain": 2057,
      "##ter": 2058,
      "someone": 2059,
      "si": 2060,
      "##ast": 2061,
      "come": 2062,
      "##age": 2063,
      "sti": 2064,
      "##ps": 2065,
      "##nder": 2066,
      "##th": 2067,
      "##be": 2068,
      "##ase": 2069,
      "could": 2070,
      "look": 2071,
      "love": 2072,
      "talk": 2073,
      "##our": 2074,
      "##ice": 2075,
      "##ance": 2076,
      "qu": 2077,
      "res": 2078,
      "le": 2079,
      "under": 2080,
      "##ress": 2081,
      "##orm": 2082,
      "##ha": 2083,
      "differ": 2084,
      "##te": 2085,
      "give": 2086,
      "##ways": 2087,
      "soci": 2088,
      "op": 2089,
      "##stand": 2090,
      "##ful": 2091,
      "real": 2092,
      "##es": 2093,
      "##ose": 2094,
      "##ore": 2095,
      "interest": 2096,
      "as": 2097,
      "happ": 2098,
      "imp": 2099,
      "right": 2100,
      "wr": 2101,
      "never": 2102,
      "always": 2103,
      "seem": 2104,
      "hel": 2105,
      "##od": 2106,
      "understand": 2107,
      "cl": 2108,
      "help": 2109,
      "actually": 2110,
      "##act": 2111,
      "##ther": 2112,
      "##ize": 2113,
      "inf": 2114,
      "##oy": 2115,
      "##am": 2116,
      "##ag": 2117,
      "##eep": 2118,
      "read": 2119,
      "##ship": 2120,
      "##oun": 2121,
      "year": 2122,
      "##ual": 2123,
      "##ical": 2124,
      "part": 2125,
      "point": 2126,
      "te": 2127,
      "function": 2128,
      "still": 2129,
      "##reat": 2130,
      "tell": 2131,
      "##ory": 2132,
      "str": 2133,
      "fi": 2134,
      "##ool": 2135,
      "des": 2136,
      "##ably": 2137,
      "##ft": 2138,
      "##ap": 2139,
      "gen": 2140,
      "##ead": 2141,
      "gr": 2142,
      "emo": 2143,
      "##di": 2144,
      "##ick": 2145,
      "cons": 2146,
      "emotion": 2147,
      "##der": 2148,
      "##eah": 2149,
      "sen": 2150,
      "##tty": 2151,
      "pretty": 2152,
      "def": 2153,
      "##ish": 2154,
      "day": 2155,
      "##ob": 2156,
      "cont": 2157,
      "##uck": 2158,
      "us": 2159,
      "ob": 2160,
      "other": 2161,
      "sure": 2162,
      "ag": 2163,
      "kind": 2164,
      "##ill": 2165,
      "start": 2166,
      "different": 2167,
      "ext": 2168,
      "app": 2169,
      "bad": 2170,
      "mat": 2171,
      "im": 2172,
      "##ber": 2173,
      "##ame": 2174,
      "##ily": 2175,
      "##ctive": 2176,
      "prob": 2177,
      "fir": 2178,
      "care": 2179,
      "##ary": 2180,
      "##ange": 2181,
      "ph": 2182,
      "back": 2183,
      "##ui": 2184,
      "##tle": 2185,
      "##vel": 2186,
      "lit": 2187,
      "idea": 2188,
      "##js": 2189,
      "sub": 2190,
      "first": 2191,
      "##other": 2192,
      "probably": 2193,
      "relation": 2194,
      "##cess": 2195,
      "##out": 2196,
      "##cep": 2197,
      "##peci": 2198,
      "ab": 2199,
      "##je": 2200,
      "stu": 2201,
      "##rover": 2202,
      "anything": 2203,
      "long": 2204,
      "wit": 2205,
      "##os": 2206,
      "experi": 2207,
      "mind": 2208,
      "##ank": 2209,
      "lear": 2210,
      "hard": 2211,
      "learn": 2212,
      "##uy": 2213,
      "might": 2214,
      "best": 2215,
      "##low": 2216,
      "relationship": 2217,
      "around": 2218,
      "att": 2219,
      "##pect": 2220,
      "##vi": 2221,
      "tw": 2222,
      "##ason": 2223,
      "##blem": 2224,
      "bel": 2225,
      "ask": 2226,
      "problem": 2227,
      "par": 2228,
      "##im": 2229,
      "many": 2230,
      "personal": 2231,
      "##come": 2232,
      "comm": 2233,
      "world": 2234,
      "##less": 2235,
      "reason": 2236,
      "##time": 2237,
      "##ically": 2238,
      "others": 2239,
      "let": 2240,
      "##stion": 2241,
      "##rea": 2242,
      "end": 2243,
      "tra": 2244,
      "que": 2245,
      "experience": 2246,
      "maybe": 2247,
      "sm": 2248,
      "sc": 2249,
      "##ust": 2250,
      "##use": 2251,
      "belie": 2252,
      "post": 2253,
      "keep": 2254,
      "live": 2255,
      "##ise": 2256,
      "social": 2257,
      "am": 2258,
      "sit": 2259,
      "high": 2260,
      "not": 2261,
      "##ssi": 2262,
      "question": 2263,
      "##oc": 2264,
      "ass": 2265,
      "##ince": 2266,
      "##con": 2267,
      "##dit": 2268,
      "gener": 2269,
      "##read": 2270,
      "new": 2271,
      "great": 2272,
      "dep": 2273,
      "for": 2274,
      "##enti": 2275,
      "el": 2276,
      "##ang": 2277,
      "play": 2278,
      "aw": 2279,
      "dec": 2280,
      "sometime": 2281,
      "##ert": 2282,
      "##em": 2283,
      "##elf": 2284,
      "sch": 2285,
      "##ute": 2286,
      "eas": 2287,
      "happen": 2288,
      "##ather": 2289,
      "##ath": 2290,
      "sometimes": 2291,
      "yes": 2292,
      "##ole": 2293,
      "change": 2294,
      "##du": 2295,
      "sound": 2296,
      "##si": 2297,
      "pr": 2298,
      "shit": 2299,
      "everyone": 2300,
      "sa": 2301,
      "everything": 2302,
      "hum": 2303,
      "fuck": 2304,
      "enough": 2305,
      "##ep": 2306,
      "little": 2307,
      "sense": 2308,
      "thank": 2309,
      "put": 2310,
      "self": 2311,
      "two": 2312,
      "##cept": 2313,
      "##mple": 2314,
      "##ism": 2315,
      "defin": 2316,
      "conf": 2317,
      "ma": 2318,
      "usually": 2319,
      "rec": 2320,
      "##ount": 2321,
      "##erm": 2322,
      "yeah": 2323,
      "fact": 2324,
      "with": 2325,
      "##ften": 2326,
      "val": 2327,
      "often": 2328,
      "acc": 2329,
      "tend": 2330,
      "##xt": 2331,
      "else": 2332,
      "##oup": 2333,
      "inst": 2334,
      "comple": 2335,
      "since": 2336,
      "guy": 2337,
      "##ently": 2338,
      "bite": 2339,
      "inc": 2340,
      "##ither": 2341,
      "##ility": 2342,
      "##oman": 2343,
      "##ether": 2344,
      "believe": 2345,
      "##vers": 2346,
      "co": 2347,
      "##cri": 2348,
      "##ention": 2349,
      "without": 2350,
      "##rovert": 2351,
      "##lace": 2352,
      "##ever": 2353,
      "##atch": 2354,
      "##pon": 2355,
      "sy": 2356,
      "es": 2357,
      "##ope": 2358,
      "stuff": 2359,
      "##fer": 2360,
      "##uation": 2361,
      "##ness": 2362,
      "become": 2363,
      "cla": 2364,
      "write": 2365,
      "##ner": 2366,
      "show": 2367,
      "##olog": 2368,
      "##arly": 2369,
      "##ude": 2370,
      "ins": 2371,
      "hear": 2372,
      "school": 2373,
      "##eak": 2374,
      "##fic": 2375,
      "ni": 2376,
      "##ider": 2377,
      "list": 2378,
      "possi": 2379,
      "##joy": 2380,
      "or": 2381,
      "enjoy": 2382,
      "wrong": 2383,
      "game": 2384,
      "we": 2385,
      "dr": 2386,
      "mb": 2387,
      "##ale": 2388,
      "eff": 2389,
      "##ict": 2390,
      "big": 2391,
      "col": 2392,
      "least": 2393,
      "##fy": 2394,
      "word": 2395,
      "another": 2396,
      "##ug": 2397,
      "out": 2398,
      "gue": 2399,
      "##ously": 2400,
      "test": 2401,
      "mbti": 2402,
      "log": 2403,
      "la": 2404,
      "call": 2405,
      "nothing": 2406,
      "##cy": 2407,
      "##ach": 2408,
      "##ari": 2409,
      "guess": 2410,
      "agree": 2411,
      "job": 2412,
      "situation": 2413,
      "supp": 2414,
      "either": 2415,
      "##wer": 2416,
      "##stly": 2417,
      "##ject": 2418,
      "et": 2419,
      "bas": 2420,
      "place": 2421,
      "##ink": 2422,
      "##itely": 2423,
      "consider": 2424,
      "over": 2425,
      "##ssion": 2426,
      "##ign": 2427,
      "br": 2428,
      "human": 2429,
      "meet": 2430,
      "##tiv": 2431,
      "lol": 2432,
      "##urn": 2433,
      "##swer": 2434,
      "easy": 2435,
      "##ody": 2436,
      "answer": 2437,
      "##ative": 2438,
      "close": 2439,
      "disc": 2440,
      "##ys": 2441,
      "##ull": 2442,
      "personality": 2443,
      "leave": 2444,
      "hand": 2445,
      "pa": 2446,
      "ca": 2447,
      "##reak": 2448,
      "bl": 2449,
      "etc": 2450,
      "rather": 2451,
      "cert": 2452,
      "definitely": 2453,
      "##lain": 2454,
      "speci": 2455,
      "win": 2456,
      "##per": 2457,
      "##rect": 2458,
      "the": 2459,
      "base": 2460,
      "complete": 2461,
      "reg": 2462,
      "rep": 2463,
      "ap": 2464,
      "arg": 2465,
      "descri": 2466,
      "##fort": 2467,
      "adv": 2468,
      "mon": 2469,
      "##ety": 2470,
      "certain": 2471,
      "tea": 2472,
      "far": 2473,
      "true": 2474,
      "##tice": 2475,
      "no": 2476,
      "hone": 2477,
      "##mber": 2478,
      "able": 2479,
      "introvert": 2480,
      "##li": 2481,
      "##irl": 2482,
      "gra": 2483,
      "cle": 2484,
      "nat": 2485,
      "exa": 2486,
      "plan": 2487,
      "##mil": 2488,
      "last": 2489,
      "respon": 2490,
      "quite": 2491,
      "mom": 2492,
      "state": 2493,
      "cor": 2494,
      "example": 2495,
      "anyone": 2496,
      "mar": 2497,
      "girl": 2498,
      "mus": 2499,
      "##iew": 2500,
      "move": 2501,
      "##ene": 2502,
      "pri": 2503,
      "woman": 2504,
      "##qu": 2505,
      "##ately": 2506,
      "value": 2507,
      "##here": 2508,
      "how": 2509,
      "exact": 2510,
      "det": 2511,
      "##ild": 2512,
      "sk": 2513,
      "sol": 2514,
      "fr": 2515,
      "sur": 2516,
      "conc": 2517,
      "stop": 2518,
      "##tical": 2519,
      "old": 2520,
      "##ail": 2521,
      "##de": 2522,
      "however": 2523,
      "oh": 2524,
      "head": 2525,
      "ok": 2526,
      "##ward": 2527,
      "stud": 2528,
      "cu": 2529,
      "book": 2530,
      "pol": 2531,
      "convers": 2532,
      "##eek": 2533,
      "top": 2534,
      "##rain": 2535,
      "ro": 2536,
      "import": 2537,
      "##ssue": 2538,
      "matter": 2539,
      "char": 2540,
      "conversation": 2541,
      "##ed": 2542,
      "sort": 2543,
      "issue": 2544,
      "open": 2545,
      "happy": 2546,
      "break": 2547,
      "##velop": 2548,
      "##yp": 2549,
      "especi": 2550,
      "watch": 2551,
      "nice": 2552,
      "especially": 2553,
      "dom": 2554,
      "##iss": 2555,
      "away": 2556,
      "fl": 2557,
      "date": 2558,
      "exist": 2559,
      "##mm": 2560,
      "##most": 2561,
      "ah": 2562,
      "cre": 2563,
      "##ird": 2564,
      "##ocus": 2565,
      "spend": 2566,
      "opp": 2567,
      "##sy": 2568,
      "group": 2569,
      "##uth": 2570,
      "develop": 2571,
      "simil": 2572,
      "focus": 2573,
      "haha": 2574,
      "fin": 2575,
      "set": 2576,
      "##stem": 2577,
      "##ub": 2578,
      "##ready": 2579,
      "week": 2580,
      "already": 2581,
      "class": 2582,
      "prefer": 2583,
      "emotional": 2584,
      "likely": 2585,
      "realize": 2586,
      "system": 2587,
      "jo": 2588,
      "min": 2589,
      "almost": 2590,
      "relate": 2591,
      "##ty": 2592,
      "general": 2593,
      "important": 2594,
      "case": 2595,
      "inform": 2596,
      "hate": 2597,
      "commun": 2598,
      "reme": 2599,
      "free": 2600,
      "explain": 2601,
      "uni": 2602,
      "cour": 2603,
      "che": 2604,
      "cra": 2605,
      "side": 2606,
      "##ire": 2607,
      "seri": 2608,
      "remember": 2609,
      "sci": 2610,
      "speak": 2611,
      "ra": 2612,
      "##ffic": 2613,
      "ho": 2614,
      "whate": 2615,
      "strong": 2616,
      "whole": 2617,
      "add": 2618,
      "whatever": 2619,
      "deal": 2620,
      "sex": 2621,
      "abs": 2622,
      "##lect": 2623,
      "form": 2624,
      "fam": 2625,
      "##ump": 2626,
      "##lic": 2627,
      "alone": 2628,
      "##ile": 2629,
      "##line": 2630,
      "fig": 2631,
      "eng": 2632,
      "##ument": 2633,
      "##inion": 2634,
      "intjs": 2635,
      "sw": 2636,
      "intps": 2637,
      "similar": 2638,
      "fol": 2639,
      "##ision": 2640,
      "instead": 2641,
      "share": 2642,
      "opinion": 2643,
      "emp": 2644,
      "##rol": 2645,
      "listen": 2646,
      "cur": 2647,
      "ind": 2648,
      "figure": 2649,
      "god": 2650,
      "completely": 2651,
      "##ram": 2652,
      "##gin": 2653,
      "he": 2654,
      "##rive": 2655,
      "music": 2656,
      "stand": 2657,
      "hope": 2658,
      "intern": 2659,
      "jud": 2660,
      "##ote": 2661,
      "term": 2662,
      "process": 2663,
      "turn": 2664,
      "##ni": 2665,
      "##ens": 2666,
      "kid": 2667,
      "inv": 2668,
      "tow": 2669,
      "course": 2670,
      "##ern": 2671,
      "comment": 2672,
      "##ume": 2673,
      "exactly": 2674,
      "child": 2675,
      "level": 2676,
      "late": 2677,
      "##row": 2678,
      "##ogether": 2679,
      "ru": 2680,
      "information": 2681,
      "##ression": 2682,
      "pres": 2683,
      "ent": 2684,
      "lose": 2685,
      "##dge": 2686,
      "phys": 2687,
      "view": 2688,
      "expect": 2689,
      "##ology": 2690,
      "##ann": 2691,
      "##cond": 2692,
      "run": 2693,
      "##ers": 2694,
      "face": 2695,
      "##iness": 2696,
      "##ush": 2697,
      "family": 2698,
      "small": 2699,
      "second": 2700,
      "##mit": 2701,
      "##ular": 2702,
      "beha": 2703,
      "yet": 2704,
      "psy": 2705,
      "together": 2706,
      "possible": 2707,
      "simp": 2708,
      "##side": 2709,
      "psych": 2710,
      "thought": 2711,
      "##ord": 2712,
      "##ght": 2713,
      "av": 2714,
      "conne": 2715,
      "dist": 2716,
      "cause": 2717,
      "pra": 2718,
      "posi": 2719,
      "home": 2720,
      "month": 2721,
      "##ution": 2722,
      "super": 2723,
      "colle": 2724,
      "depend": 2725,
      "deep": 2726,
      "##gy": 2727,
      "past": 2728,
      "edit": 2729,
      "##ower": 2730,
      "brain": 2731,
      "event": 2732,
      "##vor": 2733,
      "grow": 2734,
      "##ream": 2735,
      "teach": 2736,
      "pur": 2737,
      "enti": 2738,
      "norm": 2739,
      "wa": 2740,
      "##iz": 2741,
      "##action": 2742,
      "follow": 2743,
      "mor": 2744,
      "##gle": 2745,
      "##istic": 2746,
      "##ality": 2747,
      "const": 2748,
      "##get": 2749,
      "ir": 2750,
      "hour": 2751,
      "##ect": 2752,
      "##oney": 2753,
      "perfe": 2754,
      "fit": 2755,
      "##ract": 2756,
      "money": 2757,
      "basically": 2758,
      "##ere": 2759,
      "control": 2760,
      "##cc": 2761,
      "##hh": 2762,
      "study": 2763,
      "##zy": 2764,
      "##xi": 2765,
      "##oose": 2766,
      "car": 2767,
      "ple": 2768,
      "##ru": 2769,
      "bla": 2770,
      "anal": 2771,
      "##oice": 2772,
      "##ddit": 2773,
      "weird": 2774,
      "accept": 2775,
      "curr": 2776,
      "indi": 2777,
      "lead": 2778,
      "pay": 2779,
      "##onder": 2780,
      "fem": 2781,
      "bi": 2782,
      "describe": 2783,
      "cri": 2784,
      "tot": 2785,
      "count": 2786,
      "mostly": 2787,
      "worth": 2788,
      "on": 2789,
      "##erve": 2790,
      "moment": 2791,
      "##oid": 2792,
      "simply": 2793,
      "##reme": 2794,
      "sor": 2795,
      "order": 2796,
      "##tis": 2797,
      "##urt": 2798,
      "theory": 2799,
      "along": 2800,
      "argument": 2801,
      "bore": 2802,
      "##ret": 2803,
      "create": 2804,
      "##jective": 2805,
      "ment": 2806,
      "obvi": 2807,
      "##he": 2808,
      "##tern": 2809,
      "bring": 2810,
      "notice": 2811,
      "toward": 2812,
      "difference": 2813,
      "next": 2814,
      "##bly": 2815,
      "extreme": 2816,
      "story": 2817,
      "##ciate": 2818,
      "##vid": 2819,
      "non": 2820,
      "exc": 2821,
      "pick": 2822,
      "behavi": 2823,
      "sorry": 2824,
      "common": 2825,
      "unless": 2826,
      "##ted": 2827,
      "imag": 2828,
      "##ace": 2829,
      "comfort": 2830,
      "cool": 2831,
      "##ye": 2832,
      "##ouse": 2833,
      "wonder": 2834,
      "##iti": 2835,
      "##oot": 2836,
      "aff": 2837,
      "prog": 2838,
      "rem": 2839,
      "met": 2840,
      "generally": 2841,
      "##erv": 2842,
      "prac": 2843,
      "decide": 2844,
      "bui": 2845,
      "judge": 2846,
      "##olute": 2847,
      "entire": 2848,
      "vide": 2849,
      "power": 2850,
      "##ational": 2851,
      "personally": 2852,
      "natur": 2853,
      "whether": 2854,
      "##olve": 2855,
      "##ency": 2856,
      "relig": 2857,
      "perfect": 2858,
      "bo": 2859,
      "##qui": 2860,
      "##ny": 2861,
      "ter": 2862,
      "intui": 2863,
      "charact": 2864,
      "##ph": 2865,
      "rest": 2866,
      "goal": 2867,
      "partic": 2868,
      "absolute": 2869,
      "necess": 2870,
      "war": 2871,
      "##arch": 2872,
      "drive": 2873,
      "cap": 2874,
      "##ia": 2875,
      "advice": 2876,
      "must": 2877,
      "lack": 2878,
      "##lish": 2879,
      "##bility": 2880,
      "##gn": 2881,
      "fair": 2882,
      "##ledge": 2883,
      "##pid": 2884,
      "video": 2885,
      "sing": 2886,
      "assume": 2887,
      "stay": 2888,
      "expl": 2889,
      "##rate": 2890,
      "##pective": 2891,
      "choose": 2892,
      "bus": 2893,
      "sl": 2894,
      "action": 2895,
      "dra": 2896,
      "heah": 2897,
      "ref": 2898,
      "mis": 2899,
      "hu": 2900,
      "hold": 2901,
      "##ger": 2902,
      "character": 2903,
      "do": 2904,
      "##jor": 2905,
      "college": 2906,
      "force": 2907,
      "##ense": 2908,
      "decision": 2909,
      "thread": 2910,
      "##cle": 2911,
      "##idence": 2912,
      "logic": 2913,
      "fut": 2914,
      "drink": 2915,
      "##sp": 2916,
      "major": 2917,
      "parent": 2918,
      "tri": 2919,
      "stupid": 2920,
      "liter": 2921,
      "##ian": 2922,
      "diffic": 2923,
      "##arge": 2924,
      "neg": 2925,
      "youn": 2926,
      "young": 2927,
      "individ": 2928,
      "##fps": 2929,
      "##ceive": 2930,
      "##tivity": 2931,
      "ann": 2932,
      "sug": 2933,
      "favor": 2934,
      "##ellig": 2935,
      "anyway": 2936,
      "wish": 2937,
      "gl": 2938,
      "future": 2939,
      "##antly": 2940,
      "reality": 2941,
      "##ark": 2942,
      "trust": 2943,
      "##oph": 2944,
      "##eal": 2945,
      "sign": 2946,
      "hell": 2947,
      "bro": 2948,
      "honestly": 2949,
      "##where": 2950,
      "low": 2951,
      "ago": 2952,
      "suppose": 2953,
      "pop": 2954,
      "##leep": 2955,
      "night": 2956,
      "##ash": 2957,
      "af": 2958,
      "men": 2959,
      "mess": 2960,
      "##usion": 2961,
      "##ont": 2962,
      "##any": 2963,
      "##dd": 2964,
      "##ork": 2965,
      "ener": 2966,
      "lang": 2967,
      "intellig": 2968,
      "check": 2969,
      "hurt": 2970,
      "ign": 2971,
      "topic": 2972,
      "eat": 2973,
      "##day": 2974,
      "short": 2975,
      "har": 2976,
      "##dition": 2977,
      "quick": 2978,
      "dou": 2979,
      "##gan": 2980,
      "individual": 2981,
      "##quire": 2982,
      "##vie": 2983,
      "##lude": 2984,
      "room": 2985,
      "rule": 2986,
      "eye": 2987,
      "##erior": 2988,
      "stick": 2989,
      "truth": 2990,
      "communic": 2991,
      "em": 2992,
      "##uage": 2993,
      "ahough": 2994,
      "num": 2995,
      "society": 2996,
      "regard": 2997,
      "prop": 2998,
      "off": 2999,
      "##wh": 3000,
      "language": 3001,
      "skill": 3002,
      "##tim": 3003,
      "##ross": 3004,
      "age": 3005,
      "science": 3006,
      "anxi": 3007,
      "coup": 3008,
      "movie": 3009,
      "##aste": 3010,
      "appro": 3011,
      "typ": 3012,
      "line": 3013,
      "party": 3014,
      "allow": 3015,
      "avoid": 3016,
      "house": 3017,
      "name": 3018,
      "##ulate": 3019,
      "mention": 3020,
      "appre": 3021,
      "perspective": 3022,
      "##cip": 3023,
      "respect": 3024,
      "##ane": 3025,
      "wait": 3026,
      "##ock": 3027,
      "couple": 3028,
      "honest": 3029,
      "##arily": 3030,
      "outside": 3031,
      "fall": 3032,
      "##itch": 3033,
      "smart": 3034,
      "##ogni": 3035,
      "produ": 3036,
      "towards": 3037,
      "stress": 3038,
      "fine": 3039,
      "behavior": 3040,
      "fail": 3041,
      "forget": 3042,
      "build": 3043,
      "okay": 3044,
      "annoy": 3045,
      "correct": 3046,
      "dam": 3047,
      "appe": 3048,
      "logical": 3049,
      "sugge": 3050,
      "full": 3051,
      "support": 3052,
      "difficu": 3053,
      "mist": 3054,
      "occ": 3055,
      "direct": 3056,
      "##ition": 3057,
      "##ource": 3058,
      "walk": 3059,
      "domin": 3060,
      "##own": 3061,
      "##ket": 3062,
      "##ption": 3063,
      "##verse": 3064,
      "##atic": 3065,
      "user": 3066,
      "joke": 3067,
      "##alf": 3068,
      "totally": 3069,
      "attention": 3070,
      "##ential": 3071,
      "ori": 3072,
      "fla": 3073,
      "tech": 3074,
      "sad": 3075,
      "easily": 3076,
      "imagine": 3077,
      "worry": 3078,
      "sleep": 3079,
      "female": 3080,
      "deb": 3081,
      "step": 3082,
      "response": 3083,
      "pot": 3084,
      "##ulation": 3085,
      "##ats": 3086,
      "require": 3087,
      "incre": 3088,
      "##friend": 3089,
      "obs": 3090,
      "##ident": 3091,
      "effort": 3092,
      "luck": 3093,
      "energy": 3094,
      "large": 3095,
      "##ration": 3096,
      "main": 3097,
      "hang": 3098,
      "funny": 3099,
      "##cious": 3100,
      "please": 3101,
      "##eas": 3102,
      "rela": 3103,
      "die": 3104,
      "rese": 3105,
      "specific": 3106,
      "body": 3107,
      "identi": 3108,
      "##up": 3109,
      "impro": 3110,
      "##unch": 3111,
      "cr": 3112,
      "due": 3113,
      "rare": 3114,
      "absolutely": 3115,
      "amp": 3116,
      "kill": 3117,
      "##haps": 3118,
      "conv": 3119,
      "da": 3120,
      "##ugh": 3121,
      "math": 3122,
      "perhaps": 3123,
      "dream": 3124,
      "concept": 3125,
      "knowledge": 3126,
      "cogni": 3127,
      "cal": 3128,
      "ret": 3129,
      "detail": 3130,
      "phil": 3131,
      "clear": 3132,
      "is": 3133,
      "project": 3134,
      "choice": 3135,
      "half": 3136,
      "express": 3137,
      "##ception": 3138,
      "number": 3139,
      "seriously": 3140,
      "##wise": 3141,
      "miss": 3142,
      "appreciate": 3143,
      "ability": 3144,
      "suck": 3145,
      "tran": 3146,
      "buy": 3147,
      "extra": 3148,
      "gu": 3149,
      "extremely": 3150,
      "awes": 3151,
      "##ac": 3152,
      "vi": 3153,
      "##que": 3154,
      "##rise": 3155,
      "##fully": 3156,
      "rand": 3157,
      "present": 3158,
      "mine": 3159,
      "single": 3160,
      "##eld": 3161,
      "literally": 3162,
      "bri": 3163,
      "env": 3164,
      "##bit": 3165,
      "apply": 3166,
      "hit": 3167,
      "##ination": 3168,
      "awesome": 3169,
      "lie": 3170,
      "physical": 3171,
      "suc": 3172,
      "research": 3173,
      "##body": 3174,
      "organ": 3175,
      "##oud": 3176,
      "nature": 3177,
      "##like": 3178,
      "mod": 3179,
      "normal": 3180,
      "##ond": 3181,
      "##na": 3182,
      "favorite": 3183,
      "pat": 3184,
      "mid": 3185,
      "vari": 3186,
      "note": 3187,
      "argue": 3188,
      "extrover": 3189,
      "poli": 3190,
      "amount": 3191,
      "##go": 3192,
      "infjs": 3193,
      "deg": 3194,
      "##vide": 3195,
      "chance": 3196,
      "##omp": 3197,
      "approach": 3198,
      "country": 3199,
      "##mpt": 3200,
      "entps": 3201,
      "dat": 3202,
      "art": 3203,
      "trait": 3204,
      "philos": 3205,
      "internet": 3206,
      "begin": 3207,
      "##ric": 3208,
      "description": 3209,
      "##tit": 3210,
      "improve": 3211,
      "male": 3212,
      "subject": 3213,
      "space": 3214,
      "include": 3215,
      "negative": 3216,
      "cann": 3217,
      "##ious": 3218,
      "pict": 3219,
      "##fit": 3220,
      "cir": 3221,
      "est": 3222,
      "oppos": 3223,
      "early": 3224,
      "picture": 3225,
      "hist": 3226,
      "partner": 3227,
      "surp": 3228,
      "involve": 3229,
      "random": 3230,
      "ama": 3231,
      "ill": 3232,
      "purp": 3233,
      "motiv": 3234,
      "hor": 3235,
      "law": 3236,
      "fight": 3237,
      "cognitive": 3238,
      "mental": 3239,
      "##omm": 3240,
      "minute": 3241,
      "##onic": 3242,
      "na": 3243,
      "comfortable": 3244,
      "##dle": 3245,
      "text": 3246,
      "simple": 3247,
      "contin": 3248,
      "reddit": 3249,
      "##work": 3250,
      "anxiety": 3251,
      "otherwise": 3252,
      "at": 3253,
      "link": 3254,
      "##by": 3255,
      "bother": 3256,
      "kinda": 3257,
      "actual": 3258,
      "aware": 3259,
      "##ouch": 3260,
      "treat": 3261,
      "##bt": 3262,
      "degree": 3263,
      "bene": 3264,
      "accur": 3265,
      "##ization": 3266,
      "stere": 3267,
      "cannot": 3268,
      "food": 3269,
      "##eness": 3270,
      "##ade": 3271,
      "analy": 3272,
      "fix": 3273,
      "opposite": 3274,
      "stereot": 3275,
      "mem": 3276,
      "##uggle": 3277,
      "##ris": 3278,
      "light": 3279,
      "connection": 3280,
      "##ussion": 3281,
      "serious": 3282,
      "##onment": 3283,
      "push": 3284,
      "cry": 3285,
      "draw": 3286,
      "##yle": 3287,
      "envir": 3288,
      "religion": 3289,
      "except": 3290,
      "online": 3291,
      "leg": 3292,
      "ful": 3293,
      "sens": 3294,
      "laugh": 3295,
      "boy": 3296,
      "##more": 3297,
      "##ient": 3298,
      "##inate": 3299,
      "##ater": 3300,
      "tod": 3301,
      "bea": 3302,
      "stra": 3303,
      "##ingly": 3304,
      "wi": 3305,
      "fear": 3306,
      "ignore": 3307,
      "suggest": 3308,
      "##ung": 3309,
      "within": 3310,
      "refer": 3311,
      "curi": 3312,
      "environment": 3313,
      "##rible": 3314,
      "##ich": 3315,
      "enfps": 3316,
      "black": 3317,
      "conte": 3318,
      "philosoph": 3319,
      "sil": 3320,
      "##tively": 3321,
      "##ma": 3322,
      "weak": 3323,
      "##cise": 3324,
      "huge": 3325,
      "limit": 3326,
      "sever": 3327,
      "data": 3328,
      "objective": 3329,
      "##iction": 3330,
      "##man": 3331,
      "fore": 3332,
      "business": 3333,
      "##uly": 3334,
      "pub": 3335,
      "discussion": 3336,
      "purpose": 3337,
      "ke": 3338,
      "useful": 3339,
      "dominant": 3340,
      "hey": 3341,
      "##lusion": 3342,
      "area": 3343,
      "crazy": 3344,
      "fu": 3345,
      "##irt": 3346,
      "throw": 3347,
      "hat": 3348,
      "struggle": 3349,
      "##over": 3350,
      "interaction": 3351,
      "##res": 3352,
      "belief": 3353,
      "company": 3354,
      "obviously": 3355,
      "rational": 3356,
      "mi": 3357,
      "##ift": 3358,
      "eventually": 3359,
      "provide": 3360,
      "##ularly": 3361,
      "##enge": 3362,
      "##umb": 3363,
      "disag": 3364,
      "doubt": 3365,
      "solve": 3366,
      "perceive": 3367,
      "today": 3368,
      "prove": 3369,
      "##cture": 3370,
      "eq": 3371,
      "manage": 3372,
      "debate": 3373,
      "unc": 3374,
      "resu": 3375,
      "success": 3376,
      "##ability": 3377,
      "ang": 3378,
      "vis": 3379,
      "disagree": 3380,
      "position": 3381,
      "connect": 3382,
      "inferior": 3383,
      "constantly": 3384,
      "truly": 3385,
      "practice": 3386,
      "effect": 3387,
      "mother": 3388,
      "##ask": 3389,
      "program": 3390,
      "song": 3391,
      "##ender": 3392,
      "extroverted": 3393,
      "depression": 3394,
      "##ster": 3395,
      "pain": 3396,
      "option": 3397,
      "friendship": 3398,
      "damn": 3399,
      "med": 3400,
      "compare": 3401,
      "ideal": 3402,
      "##lev": 3403,
      "surprise": 3404,
      "vers": 3405,
      "conclusion": 3406,
      "claim": 3407,
      "comput": 3408,
      "fre": 3409,
      "three": 3410,
      "desire": 3411,
      "dad": 3412,
      "cut": 3413,
      "amaze": 3414,
      "recently": 3415,
      "roman": 3416,
      "##eric": 3417,
      "sec": 3418,
      "slow": 3419,
      "resus": 3420,
      "auth": 3421,
      "##ode": 3422,
      "fast": 3423,
      "del": 3424,
      "up": 3425,
      "##ator": 3426,
      "heart": 3427,
      "death": 3428,
      "##verage": 3429,
      "imm": 3430,
      "##dom": 3431,
      "empath": 3432,
      "appear": 3433,
      "##cra": 3434,
      "positive": 3435,
      "necessarily": 3436,
      "recomm": 3437,
      "computer": 3438,
      "seek": 3439,
      "recommend": 3440,
      "##enh": 3441,
      "##tically": 3442,
      "certainly": 3443,
      "natural": 3444,
      "wear": 3445,
      "touch": 3446,
      "nt": 3447,
      "nar": 3448,
      "##hind": 3449,
      "history": 3450,
      "frust": 3451,
      "##ial": 3452,
      "behind": 3453,
      "career": 3454,
      "possibility": 3455,
      "##ass": 3456,
      "offer": 3457,
      "##unt": 3458,
      "anymore": 3459,
      "comb": 3460,
      "waste": 3461,
      "techn": 3462,
      "extrovert": 3463,
      "saw": 3464,
      "##imal": 3465,
      "##ies": 3466,
      "particular": 3467,
      "accurate": 3468,
      "trans": 3469,
      "quality": 3470,
      "dem": 3471,
      "current": 3472,
      "pattern": 3473,
      "##rib": 3474,
      "##aa": 3475,
      "cent": 3476,
      "##round": 3477,
      "crea": 3478,
      "##aster": 3479,
      "##shit": 3480,
      "currently": 3481,
      "chall": 3482,
      "define": 3483,
      "rid": 3484,
      "##bor": 3485,
      "finish": 3486,
      "solution": 3487,
      "confuse": 3488,
      "concern": 3489,
      "straight": 3490,
      "bull": 3491,
      "pas": 3492,
      "americ": 3493,
      "profe": 3494,
      "ess": 3495,
      "identify": 3496,
      "qui": 3497,
      "challenge": 3498,
      "##ital": 3499,
      "respond": 3500,
      "##ape": 3501,
      "emotionally": 3502,
      "source": 3503,
      "intel": 3504,
      "##oint": 3505,
      "##ister": 3506,
      "special": 3507,
      "evidence": 3508,
      "continue": 3509,
      "##ature": 3510,
      "thats": 3511,
      "soon": 3512,
      "au": 3513,
      "attra": 3514,
      "##kward": 3515,
      "dog": 3516,
      "quickly": 3517,
      "lab": 3518,
      "depress": 3519,
      "##alance": 3520,
      "across": 3521,
      "origin": 3522,
      "artic": 3523,
      "mistake": 3524,
      "##ony": 3525,
      "awkward": 3526,
      "##vern": 3527,
      "bar": 3528,
      "reply": 3529,
      "heahy": 3530,
      "trou": 3531,
      "save": 3532,
      "white": 3533,
      "##fjs": 3534,
      "intellect": 3535,
      "public": 3536,
      "quiet": 3537,
      "average": 3538,
      "clearly": 3539,
      "##yn": 3540,
      "model": 3541,
      "manip": 3542,
      "##cons": 3543,
      "drug": 3544,
      "handle": 3545,
      "intelligence": 3546,
      "catch": 3547,
      "gon": 3548,
      "trouble": 3549,
      "##ieve": 3550,
      "context": 3551,
      "enc": 3552,
      "govern": 3553,
      "desp": 3554,
      "pie": 3555,
      "enter": 3556,
      "phone": 3557,
      "dead": 3558,
      "##ott": 3559,
      "##order": 3560,
      "valid": 3561,
      "remind": 3562,
      "field": 3563,
      "definition": 3564,
      "intuition": 3565,
      "discus": 3566,
      "inside": 3567,
      "##val": 3568,
      "##asion": 3569,
      "##duc": 3570,
      "##ority": 3571,
      "infl": 3572,
      "dude": 3573,
      "dark": 3574,
      "universe": 3575,
      "##uine": 3576,
      "##ati": 3577,
      "affect": 3578,
      "brother": 3579,
      "bear": 3580,
      "gonna": 3581,
      "hea": 3582,
      "##ortun": 3583,
      "##form": 3584,
      "account": 3585,
      "memory": 3586,
      "##rel": 3587,
      "style": 3588,
      "cuure": 3589,
      "##sion": 3590,
      "##empt": 3591,
      "train": 3592,
      "middle": 3593,
      "##medi": 3594,
      "hob": 3595,
      "bullshit": 3596,
      "poor": 3597,
      "benefit": 3598,
      "aspect": 3599,
      "engage": 3600,
      "cold": 3601,
      "##pl": 3602,
      "genuine": 3603,
      "##ror": 3604,
      "ach": 3605,
      "excite": 3606,
      "interact": 3607,
      "moral": 3608,
      "ist": 3609,
      "coun": 3610,
      "reach": 3611,
      "role": 3612,
      "stereotype": 3613,
      "obvious": 3614,
      "ser": 3615,
      "##ssive": 3616,
      "univers": 3617,
      "attempt": 3618,
      "medi": 3619,
      "glad": 3620,
      "match": 3621,
      "activity": 3622,
      "##ensive": 3623,
      "sn": 3624,
      "hi": 3625,
      "path": 3626,
      "intuitive": 3627,
      "cat": 3628,
      "##hole": 3629,
      "##anger": 3630,
      "statement": 3631,
      "teacher": 3632,
      "naturally": 3633,
      "educ": 3634,
      "star": 3635,
      "heav": 3636,
      "##tain": 3637,
      "standard": 3638,
      "incredi": 3639,
      "immedi": 3640,
      "scienti": 3641,
      "several": 3642,
      "send": 3643,
      "##ateg": 3644,
      "determ": 3645,
      "marry": 3646,
      "consist": 3647,
      "philosophy": 3648,
      "##tics": 3649,
      "##reddit": 3650,
      "##dy": 3651,
      "piece": 3652,
      "complex": 3653,
      "initi": 3654,
      "##pret": 3655,
      "down": 3656,
      "##pt": 3657,
      "##what": 3658,
      "anti": 3659,
      "slight": 3660,
      "there": 3661,
      "prim": 3662,
      "conscious": 3663,
      "balance": 3664,
      "ther": 3665,
      "preference": 3666,
      "basic": 3667,
      "occasion": 3668,
      "##uti": 3669,
      "##view": 3670,
      "wow": 3671,
      "fairly": 3672,
      "##rop": 3673,
      "somewhat": 3674,
      "hobby": 3675,
      "germ": 3676,
      "sou": 3677,
      "er": 3678,
      "contact": 3679,
      "highly": 3680,
      "mag": 3681,
      "ton": 3682,
      "##co": 3683,
      "passion": 3684,
      "government": 3685,
      "meth": 3686,
      "entirely": 3687,
      "liber": 3688,
      "confl": 3689,
      "subreddit": 3690,
      "##ogn": 3691,
      "##ific": 3692,
      "subjective": 3693,
      "##entially": 3694,
      "##irm": 3695,
      "ups": 3696,
      "finally": 3697,
      "##levant": 3698,
      "appar": 3699,
      "student": 3700,
      "fan": 3701,
      "##how": 3702,
      "engine": 3703,
      "community": 3704,
      "somewhere": 3705,
      "curious": 3706,
      "spot": 3707,
      "##dict": 3708,
      "##ological": 3709,
      "angry": 3710,
      "key": 3711,
      "team": 3712,
      "aut": 3713,
      "gre": 3714,
      "influ": 3715,
      "wel": 3716,
      "##lement": 3717,
      "##hine": 3718,
      "potential": 3719,
      "attract": 3720,
      "reaction": 3721,
      "commit": 3722,
      "convince": 3723,
      "jung": 3724,
      "##ral": 3725,
      "##rage": 3726,
      "recogn": 3727,
      "front": 3728,
      "my": 3729,
      "admit": 3730,
      "city": 3731,
      "##oll": 3732,
      "achieve": 3733,
      "##fore": 3734,
      "##par": 3735,
      "strange": 3736,
      "inve": 3737,
      "##ith": 3738,
      "##book": 3739,
      "particularly": 3740,
      "harm": 3741,
      "##duce": 3742,
      "communication": 3743,
      "jus": 3744,
      "bias": 3745,
      "moder": 3746,
      "##iv": 3747,
      "pull": 3748,
      "communicate": 3749,
      "##conom": 3750,
      "##arian": 3751,
      "##ox": 3752,
      "article": 3753,
      "##titude": 3754,
      "red": 3755,
      "message": 3756,
      "four": 3757,
      "animal": 3758,
      "asshole": 3759,
      "conflict": 3760,
      "smile": 3761,
      "##hhhh": 3762,
      "responsi": 3763,
      "##fically": 3764,
      "muip": 3765,
      "bet": 3766,
      "method": 3767,
      "task": 3768,
      "##enty": 3769,
      "goo": 3770,
      "hide": 3771,
      "##aper": 3772,
      "fra": 3773,
      "abst": 3774,
      "rob": 3775,
      "repe": 3776,
      "opportun": 3777,
      "##tian": 3778,
      "romantic": 3779,
      "##asc": 3780,
      "drop": 3781,
      "frustrate": 3782,
      "lay": 3783,
      "ta": 3784,
      "press": 3785,
      "nob": 3786,
      "##the": 3787,
      "apart": 3788,
      "econom": 3789,
      "infps": 3790,
      "fire": 3791,
      "dumb": 3792,
      "dislike": 3793,
      "##cial": 3794,
      "influence": 3795,
      "rarely": 3796,
      "bunch": 3797,
      "odd": 3798,
      "clean": 3799,
      "##raid": 3800,
      "helpful": 3801,
      "design": 3802,
      "##fortun": 3803,
      "none": 3804,
      "mood": 3805,
      "chris": 3806,
      "##antas": 3807,
      "vote": 3808,
      "gender": 3809,
      "unfortun": 3810,
      "extern": 3811,
      "welcome": 3812,
      "upset": 3813,
      "tire": 3814,
      "internal": 3815,
      "plus": 3816,
      "##urity": 3817,
      "bed": 3818,
      "possibly": 3819,
      "opportunity": 3820,
      "##ective": 3821,
      "##raph": 3822,
      "dest": 3823,
      "somehow": 3824,
      "stru": 3825,
      "english": 3826,
      "dev": 3827,
      "sister": 3828,
      "raise": 3829,
      "water": 3830,
      "afraid": 3831,
      "##ero": 3832,
      "nobody": 3833,
      "fantas": 3834,
      "but": 3835,
      "effic": 3836,
      "uim": 3837,
      "##xx": 3838,
      "##isk": 3839,
      "##ressive": 3840,
      "##mental": 3841,
      "attack": 3842,
      "therap": 3843,
      "quote": 3844,
      "intention": 3845,
      "sensi": 3846,
      "##erate": 3847,
      "##no": 3848,
      "terrible": 3849,
      "pu": 3850,
      "thus": 3851,
      "##ribute": 3852,
      "despite": 3853,
      "engineer": 3854,
      "##iod": 3855,
      "##enever": 3856,
      "##rist": 3857,
      "gain": 3858,
      "insight": 3859,
      "whenever": 3860,
      "lazy": 3861,
      "master": 3862,
      "period": 3863,
      "##omfort": 3864,
      "##zz": 3865,
      "##for": 3866,
      "intelligent": 3867,
      "proper": 3868,
      "interpret": 3869,
      "tool": 3870,
      "spir": 3871,
      "factor": 3872,
      "web": 3873,
      "fully": 3874,
      "strenh": 3875,
      "determine": 3876,
      "sport": 3877,
      "content": 3878,
      "medium": 3879,
      "hmm": 3880,
      "recognize": 3881,
      "score": 3882,
      "##rection": 3883,
      "creative": 3884,
      "grade": 3885,
      "christian": 3886,
      "cha": 3887,
      "analyze": 3888,
      "structure": 3889,
      "maint": 3890,
      "##mate": 3891,
      "motivation": 3892,
      "purs": 3893,
      "regardless": 3894,
      "satis": 3895,
      "##hood": 3896,
      "##ourage": 3897,
      "voice": 3898,
      "risk": 3899,
      "##epend": 3900,
      "discover": 3901,
      "page": 3902,
      "ep": 3903,
      "impo": 3904,
      "therefore": 3905,
      "version": 3906,
      "tendency": 3907,
      "necessary": 3908,
      "pret": 3909,
      "fal": 3910,
      "##atter": 3911,
      "bud": 3912,
      "##roll": 3913,
      "confidence": 3914,
      "color": 3915,
      "loc": 3916,
      "meaning": 3917,
      "jump": 3918,
      "##eet": 3919,
      "specifically": 3920,
      "bey": 3921,
      "categ": 3922,
      "hot": 3923,
      "shut": 3924,
      "##ager": 3925,
      "incredibly": 3926,
      "prom": 3927,
      "muiple": 3928,
      "religious": 3929,
      "shoot": 3930,
      "card": 3931,
      "##right": 3932,
      "letter": 3933,
      "wife": 3934,
      "near": 3935,
      "perception": 3936,
      "exer": 3937,
      "##loy": 3938,
      "ver": 3939,
      "paper": 3940,
      "habit": 3941,
      "wall": 3942,
      "majority": 3943,
      "intro": 3944,
      "boyfriend": 3945,
      "je": 3946,
      "##othe": 3947,
      "door": 3948,
      "beyond": 3949,
      "accord": 3950,
      "##illion": 3951,
      "smo": 3952,
      "##mmer": 3953,
      "loud": 3954,
      "upon": 3955,
      "circ": 3956,
      "sup": 3957,
      "political": 3958,
      "signific": 3959,
      "net": 3960,
      "girlfriend": 3961,
      "exercise": 3962,
      "beauti": 3963,
      "impossi": 3964,
      "##ak": 3965,
      "suffer": 3966,
      "fill": 3967,
      "typically": 3968,
      "flaw": 3969,
      "##oof": 3970,
      "calm": 3971,
      "hop": 3972,
      "socially": 3973,
      "##son": 3974,
      "pure": 3975,
      "profession": 3976,
      "attitude": 3977,
      "##ning": 3978,
      "humor": 3979,
      "forum": 3980,
      "##to": 3981,
      "stack": 3982,
      "travel": 3983,
      "##gg": 3984,
      "rock": 3985,
      "##ctor": 3986,
      "gift": 3987,
      "idi": 3988,
      "forward": 3989,
      "fell": 3990,
      "explore": 3991,
      "sta": 3992,
      "fake": 3993,
      "##stance": 3994,
      "##rog": 3995,
      "father": 3996,
      "##au": 3997,
      "priv": 3998,
      "##usive": 3999,
      "mad": 4000,
      "relax": 4001,
      "##erial": 4002,
      "tv": 4003,
      "##arth": 4004,
      "asso": 4005,
      "temp": 4006,
      "external": 4007,
      "sensor": 4008,
      "den": 4009,
      "##tify": 4010,
      "sexual": 4011,
      "american": 4012,
      "wind": 4013,
      "fund": 4014,
      "##resent": 4015,
      "ego": 4016,
      "independ": 4017,
      "contra": 4018,
      "impossible": 4019,
      "##etic": 4020,
      "##haha": 4021,
      "explan": 4022,
      "sear": 4023,
      "apparently": 4024,
      "##br": 4025,
      "##olution": 4026,
      "organize": 4027,
      "invest": 4028,
      "mix": 4029,
      "sla": 4030,
      "abstract": 4031,
      "effective": 4032,
      "##cer": 4033,
      "emb": 4034,
      "observe": 4035,
      "market": 4036,
      "confident": 4037,
      "teen": 4038,
      "observ": 4039,
      "prin": 4040,
      "##umption": 4041,
      "##ural": 4042,
      "search": 4043,
      "unfortunately": 4044,
      "##app": 4045,
      "##sec": 4046,
      "uncomfort": 4047,
      "ur": 4048,
      "##ension": 4049,
      "leader": 4050,
      "##onics": 4051,
      "ear": 4052,
      "beat": 4053,
      "flow": 4054,
      "grand": 4055,
      "##ario": 4056,
      "overall": 4057,
      "ve": 4058,
      "beautiful": 4059,
      "smoke": 4060,
      "among": 4061,
      "##hol": 4062,
      "cook": 4063,
      "direction": 4064,
      "cost": 4065,
      "shitty": 4066,
      "agg": 4067,
      "psychology": 4068,
      "original": 4069,
      "scre": 4070,
      "tradition": 4071,
      "bab": 4072,
      "##ticism": 4073,
      "uncomfortable": 4074,
      "##irth": 4075,
      "plenty": 4076,
      "happiness": 4077,
      "pet": 4078,
      "##ysis": 4079,
      "circle": 4080,
      "##oooo": 4081,
      "cop": 4082,
      "explanation": 4083,
      "perfectly": 4084,
      "join": 4085,
      "xd": 4086,
      "hy": 4087,
      "intellectual": 4088,
      "empathy": 4089,
      "##old": 4090,
      "##fest": 4091,
      "directly": 4092,
      "##itate": 4093,
      "##gue": 4094,
      "##icate": 4095,
      "##gram": 4096,
      "mac": 4097,
      "eth": 4098,
      "unh": 4099,
      "trip": 4100,
      "blue": 4101,
      "attractive": 4102,
      "amb": 4103,
      "immediately": 4104,
      "##eahy": 4105,
      "##iver": 4106,
      "accomp": 4107,
      "trump": 4108,
      "##ible": 4109,
      "image": 4110,
      "spirit": 4111,
      "evil": 4112,
      "equal": 4113,
      "medit": 4114,
      "##orth": 4115,
      "foot": 4116,
      "entjs": 4117,
      "hyp": 4118,
      "practical": 4119,
      "safe": 4120,
      "soft": 4121,
      "existence": 4122,
      "extraver": 4123,
      "birth": 4124,
      "neither": 4125,
      "enn": 4126,
      "##inter": 4127,
      "earth": 4128,
      "switch": 4129,
      "piss": 4130,
      "##dden": 4131,
      "viol": 4132,
      "imo": 4133,
      "slightly": 4134,
      "pun": 4135,
      "sent": 4136,
      "gui": 4137,
      "scar": 4138,
      "meas": 4139,
      "sche": 4140,
      "femin": 4141,
      "##oe": 4142,
      "##ated": 4143,
      "sudden": 4144,
      "hug": 4145,
      "separ": 4146,
      "react": 4147,
      "offend": 4148,
      "ennea": 4149,
      "bur": 4150,
      "arm": 4151,
      "maintain": 4152,
      "confirm": 4153,
      "pen": 4154,
      "member": 4155,
      "pea": 4156,
      "disorder": 4157,
      "represent": 4158,
      "frequ": 4159,
      "##mi": 4160,
      "google": 4161,
      "exce": 4162,
      "bat": 4163,
      "scen": 4164,
      "feed": 4165,
      "hair": 4166,
      "sentence": 4167,
      "series": 4168,
      "enneagram": 4169,
      "elect": 4170,
      "wake": 4171,
      "expectation": 4172,
      "pati": 4173,
      "capital": 4174,
      "mech": 4175,
      "nearly": 4176,
      "##under": 4177,
      "mil": 4178,
      "stri": 4179,
      "development": 4180,
      "bul": 4181,
      "intim": 4182,
      "differently": 4183,
      "##ah": 4184,
      "##ware": 4185,
      "education": 4186,
      "##ogy": 4187,
      "##vious": 4188,
      "princip": 4189,
      "intense": 4190,
      "assumption": 4191,
      "ine": 4192,
      "pleas": 4193,
      "material": 4194,
      "##iar": 4195,
      "burn": 4196,
      "##set": 4197,
      "pressure": 4198,
      "serv": 4199,
      "arti": 4200,
      "dance": 4201,
      "entertain": 4202,
      "athe": 4203,
      "stim": 4204,
      "##ven": 4205,
      "dick": 4206,
      "politics": 4207,
      "cant": 4208,
      "five": 4209,
      "##rase": 4210,
      "air": 4211,
      "ridic": 4212,
      "##opath": 4213,
      "arch": 4214,
      "university": 4215,
      "object": 4216,
      "can": 4217,
      "##io": 4218,
      "dig": 4219,
      "soul": 4220,
      "warm": 4221,
      "decent": 4222,
      "socionics": 4223,
      "physic": 4224,
      "wher": 4225,
      "##ier": 4226,
      "mechan": 4227,
      "sar": 4228,
      "##room": 4229,
      "alco": 4230,
      "sake": 4231,
      "sell": 4232,
      "alcohol": 4233,
      "chem": 4234,
      "remo": 4235,
      "cover": 4236,
      "##une": 4237,
      "hus": 4238,
      "##band": 4239,
      "relevant": 4240,
      "frame": 4241,
      "analysis": 4242,
      "##spect": 4243,
      "capable": 4244,
      "label": 4245,
      "weight": 4246,
      "tit": 4247,
      "##ler": 4248,
      "prote": 4249,
      "measure": 4250,
      "typical": 4251,
      "freedom": 4252,
      "third": 4253,
      "##cas": 4254,
      "##agn": 4255,
      "pursue": 4256,
      "unique": 4257,
      "box": 4258,
      "various": 4259,
      "accomplish": 4260,
      "##tistic": 4261,
      "##land": 4262,
      "imply": 4263,
      "trade": 4264,
      "instance": 4265,
      "##aint": 4266,
      "mature": 4267,
      "impression": 4268,
      "taste": 4269,
      "daily": 4270,
      "compli": 4271,
      "population": 4272,
      "employ": 4273,
      "parti": 4274,
      "sensitive": 4275,
      "##apt": 4276,
      "introver": 4277,
      "inner": 4278,
      "grind": 4279,
      "##omy": 4280,
      "aux": 4281,
      "##antage": 4282,
      "prof": 4283,
      "orient": 4284,
      "morning": 4285,
      "dram": 4286,
      "scenario": 4287,
      "peace": 4288,
      "ow": 4289,
      "service": 4290,
      "insec": 4291,
      "jour": 4292,
      "oppose": 4293,
      "pretend": 4294,
      "##min": 4295,
      "unheahy": 4296,
      "correl": 4297,
      "ce": 4298,
      "##inct": 4299,
      "wann": 4300,
      "##red": 4301,
      "sun": 4302,
      "yep": 4303,
      "ready": 4304,
      "basis": 4305,
      "eur": 4306,
      "resource": 4307,
      "circum": 4308,
      "gun": 4309,
      "kn": 4310,
      "##sequ": 4311,
      "popular": 4312,
      "phot": 4313,
      "##ker": 4314,
      "##lection": 4315,
      "compe": 4316,
      "husband": 4317,
      "loop": 4318,
      "##fication": 4319,
      "weakness": 4320,
      "bitch": 4321,
      "uimately": 4322,
      "bos": 4323,
      "somebody": 4324,
      "surround": 4325,
      "busy": 4326,
      "tough": 4327,
      "anger": 4328,
      "##ulous": 4329,
      "principle": 4330,
      "club": 4331,
      "##ka": 4332,
      "excuse": 4333,
      "baby": 4334,
      "introversion": 4335,
      "##vey": 4336,
      "remove": 4337,
      "aern": 4338,
      "total": 4339,
      "carry": 4340,
      "store": 4341,
      "track": 4342,
      "expression": 4343,
      "secret": 4344,
      "rad": 4345,
      "increase": 4346,
      "##iter": 4347,
      "idiot": 4348,
      "land": 4349,
      "coff": 4350,
      "shy": 4351,
      "inher": 4352,
      "##play": 4353,
      "associate": 4354,
      "uns": 4355,
      "compliment": 4356,
      "##lo": 4357,
      "##back": 4358,
      "troll": 4359,
      "selfish": 4360,
      "normally": 4361,
      "counter": 4362,
      "receive": 4363,
      "manner": 4364,
      "perform": 4365,
      "##uit": 4366,
      "##ciss": 4367,
      "##mb": 4368,
      "europe": 4369,
      "doctor": 4370,
      "nope": 4371,
      "##ppy": 4372,
      "arrog": 4373,
      "fasc": 4374,
      "anyways": 4375,
      "mut": 4376,
      "core": 4377,
      "##ube": 4378,
      "remain": 4379,
      "kick": 4380,
      "nf": 4381,
      "##air": 4382,
      "##ball": 4383,
      "silly": 4384,
      "distance": 4385,
      "sarcas": 4386,
      "scientific": 4387,
      "beside": 4388,
      "reference": 4389,
      "satisfy": 4390,
      "faith": 4391,
      "prep": 4392,
      "constru": 4393,
      "unlike": 4394,
      "fiction": 4395,
      "essentially": 4396,
      "solid": 4397,
      "##outh": 4398,
      "narciss": 4399,
      "competi": 4400,
      "cas": 4401,
      "wanna": 4402,
      "coffee": 4403,
      "bra": 4404,
      "freak": 4405,
      "##lete": 4406,
      "rev": 4407,
      "vol": 4408,
      "autom": 4409,
      "observation": 4410,
      "separate": 4411,
      "##put": 4412,
      "physically": 4413,
      "##inc": 4414,
      "condition": 4415,
      "ive": 4416,
      "blow": 4417,
      "friendly": 4418,
      "##eem": 4419,
      "crush": 4420,
      "deserve": 4421,
      "strongly": 4422,
      "cross": 4423,
      "repeat": 4424,
      "forever": 4425,
      "adu": 4426,
      "##ront": 4427,
      "suit": 4428,
      "return": 4429,
      "mode": 4430,
      "drain": 4431,
      "code": 4432,
      "##let": 4433,
      "##idate": 4434,
      "##ropri": 4435,
      "yout": 4436,
      "impact": 4437,
      "##ics": 4438,
      "gri": 4439,
      "professional": 4440,
      "##ciously": 4441,
      "encourage": 4442,
      "##acy": 4443,
      "cy": 4444,
      "clothe": 4445,
      "##licate": 4446,
      "blame": 4447,
      "om": 4448,
      "##ime": 4449,
      "attach": 4450,
      "facebook": 4451,
      "ball": 4452,
      "##elm": 4453,
      "constant": 4454,
      "ignor": 4455,
      "motivate": 4456,
      "##understand": 4457,
      "idk": 4458,
      "road": 4459,
      "thr": 4460,
      "feeler": 4461,
      "scale": 4462,
      "##ki": 4463,
      "german": 4464,
      "rely": 4465,
      "##ficial": 4466,
      "misunderstand": 4467,
      "onto": 4468,
      "chat": 4469,
      "extent": 4470,
      "##ground": 4471,
      "##tw": 4472,
      "trick": 4473,
      "everybody": 4474,
      "race": 4475,
      "genuinely": 4476,
      "famil": 4477,
      "fle": 4478,
      "dress": 4479,
      "hopefully": 4480,
      "insp": 4481,
      "##ague": 4482,
      "sweet": 4483,
      "aside": 4484,
      "##vent": 4485,
      "##dule": 4486,
      "cute": 4487,
      "iq": 4488,
      "appeal": 4489,
      "bare": 4490,
      "gather": 4491,
      "##whelm": 4492,
      "hol": 4493,
      "socialize": 4494,
      "west": 4495,
      "optim": 4496,
      "click": 4497,
      "demo": 4498,
      "aud": 4499,
      "##lication": 4500,
      "depth": 4501,
      "predict": 4502,
      "camp": 4503,
      "istps": 4504,
      "circumstance": 4505,
      "fulf": 4506,
      "progress": 4507,
      "##uate": 4508,
      "crap": 4509,
      "judg": 4510,
      "##ili": 4511,
      "bu": 4512,
      "##light": 4513,
      "humanity": 4514,
      "ali": 4515,
      "unf": 4516,
      "band": 4517,
      "superior": 4518,
      "overwhelm": 4519,
      "ahead": 4520,
      "irration": 4521,
      "##ery": 4522,
      "pair": 4523,
      "perc": 4524,
      "##iant": 4525,
      "refuse": 4526,
      "thinker": 4527,
      "category": 4528,
      "cow": 4529,
      "sim": 4530,
      "##orn": 4531,
      "advantage": 4532,
      "primary": 4533,
      "serve": 4534,
      "fly": 4535,
      "pm": 4536,
      "private": 4537,
      "roll": 4538,
      "access": 4539,
      "##riage": 4540,
      "successful": 4541,
      "shad": 4542,
      "responsibility": 4543,
      "xn": 4544,
      "complain": 4545,
      "lone": 4546,
      "##uro": 4547,
      "gay": 4548,
      "exception": 4549,
      "familiar": 4550,
      "false": 4551,
      "wise": 4552,
      "tie": 4553,
      "mere": 4554,
      "office": 4555,
      "vul": 4556,
      "board": 4557,
      "strate": 4558,
      "lean": 4559,
      "element": 4560,
      "##rete": 4561,
      "whereas": 4562,
      "exha": 4563,
      "civ": 4564,
      "##point": 4565,
      "mer": 4566,
      "consequ": 4567,
      "million": 4568,
      "occur": 4569,
      "gradu": 4570,
      "##ynam": 4571,
      "dun": 4572,
      "rich": 4573,
      "##vour": 4574,
      "strategy": 4575,
      "indeed": 4576,
      "youtube": 4577,
      "besides": 4578,
      "compet": 4579,
      "actively": 4580,
      "ast": 4581,
      "##ortion": 4582,
      "gott": 4583,
      "advance": 4584,
      "marriage": 4585,
      "modern": 4586,
      "##erk": 4587,
      "proof": 4588,
      "nu": 4589,
      "zone": 4590,
      "deeply": 4591,
      "##hd": 4592,
      "fau": 4593,
      "tol": 4594,
      "##omb": 4595,
      "##miss": 4596,
      "useless": 4597,
      "disapp": 4598,
      "outcome": 4599,
      "gotta": 4600,
      "horrible": 4601,
      "active": 4602,
      "schedule": 4603,
      "addition": 4604,
      "danger": 4605,
      "##racy": 4606,
      "verb": 4607,
      "##olate": 4608,
      "esc": 4609,
      "hahaha": 4610,
      "ten": 4611,
      "chill": 4612,
      "occasionally": 4613,
      "address": 4614,
      "manipulate": 4615,
      "news": 4616,
      "suddenly": 4617,
      "shape": 4618,
      "avail": 4619,
      "paint": 4620,
      "squ": 4621,
      "table": 4622,
      "##wards": 4623,
      "medic": 4624,
      "prepare": 4625,
      "title": 4626,
      "mentally": 4627,
      "butt": 4628,
      "sick": 4629,
      "weekend": 4630,
      "mic": 4631,
      "##bo": 4632,
      "adhd": 4633,
      "yea": 4634,
      "dynam": 4635,
      "demand": 4636,
      "neut": 4637,
      "identity": 4638,
      "##inge": 4639,
      "ack": 4640,
      "atheist": 4641,
      "reject": 4642,
      "shall": 4643,
      "tax": 4644,
      "une": 4645,
      "center": 4646,
      "justify": 4647,
      "artist": 4648,
      "visit": 4649,
      "##ym": 4650,
      "doms": 4651,
      "##unk": 4652,
      "disp": 4653,
      "procra": 4654,
      "significant": 4655,
      "productive": 4656,
      "fascinate": 4657,
      "judgement": 4658,
      "slowly": 4659,
      "regular": 4660,
      "robot": 4661,
      "experiment": 4662,
      "procrast": 4663,
      "regret": 4664,
      "via": 4665,
      "ide": 4666,
      "crow": 4667,
      "rout": 4668,
      "##gr": 4669,
      "##conscious": 4670,
      "ske": 4671,
      "##che": 4672,
      "funda": 4673,
      "##til": 4674,
      "authority": 4675,
      "produce": 4676,
      "product": 4677,
      "##ander": 4678,
      "##eech": 4679,
      "unp": 4680,
      "##por": 4681,
      "dri": 4682,
      "##tiary": 4683,
      "blind": 4684,
      "##my": 4685,
      "behaviour": 4686,
      "##itary": 4687,
      "diagn": 4688,
      "interview": 4689,
      "tertiary": 4690,
      "##ney": 4691,
      "author": 4692,
      "reward": 4693,
      "extraverted": 4694,
      "bound": 4695,
      "ban": 4696,
      "quit": 4697,
      "now": 4698,
      "##ench": 4699,
      "fil": 4700,
      "shadow": 4701,
      "##era": 4702,
      "ridiculous": 4703,
      "acknow": 4704,
      "phrase": 4705,
      "broad": 4706,
      "##ison": 4707,
      "ya": 4708,
      "##rum": 4709,
      "exam": 4710,
      "dynamic": 4711,
      "anywhere": 4712,
      "visual": 4713,
      "aggressive": 4714,
      "meaningful": 4715,
      "contribute": 4716,
      "mistype": 4717,
      "trig": 4718,
      "##urb": 4719,
      "spect": 4720,
      "player": 4721,
      "failure": 4722,
      "mainly": 4723,
      "tear": 4724,
      "##face": 4725,
      "complicate": 4726,
      "record": 4727,
      "report": 4728,
      "nut": 4729,
      "demon": 4730,
      "pan": 4731,
      "lately": 4732,
      "meditation": 4733,
      "##ablish": 4734,
      "christ": 4735,
      "vary": 4736,
      "nah": 4737,
      "din": 4738,
      "##ost": 4739,
      "shop": 4740,
      "acknowledge": 4741,
      "##late": 4742,
      "tb": 4743,
      "tom": 4744,
      "realise": 4745,
      "vision": 4746,
      "##cd": 4747,
      "disappoint": 4748,
      "breat": 4749,
      "##ury": 4750,
      "fee": 4751,
      "lad": 4752,
      "worker": 4753,
      "##lusive": 4754,
      "##ceed": 4755,
      "##aph": 4756,
      "gold": 4757,
      "##site": 4758,
      "block": 4759,
      "und": 4760,
      "abuse": 4761,
      "hole": 4762,
      "##vot": 4763,
      "exhaust": 4764,
      "favour": 4765,
      "green": 4766,
      "cheat": 4767,
      "wide": 4768,
      "heavy": 4769,
      "reasonable": 4770,
      "establish": 4771,
      "efficient": 4772,
      "##ropriate": 4773,
      "vulner": 4774,
      "available": 4775,
      "wild": 4776,
      "concrete": 4777,
      "btw": 4778,
      "rude": 4779,
      "##uty": 4780,
      "flirt": 4781,
      "machine": 4782,
      "##adem": 4783,
      "flu": 4784,
      "lu": 4785,
      "ner": 4786,
      "##ray": 4787,
      "lucky": 4788,
      "##iny": 4789,
      "fellow": 4790,
      "calc": 4791,
      "##areness": 4792,
      "speech": 4793,
      "ba": 4794,
      "indust": 4795,
      "unre": 4796,
      "##leg": 4797,
      "combination": 4798,
      "##inger": 4799,
      "##icy": 4800,
      "local": 4801,
      "relatively": 4802,
      "criticism": 4803,
      "site": 4804,
      "##bl": 4805,
      "background": 4806,
      "twice": 4807,
      "strike": 4808,
      "website": 4809,
      "##urch": 4810,
      "prevent": 4811,
      "rough": 4812,
      "##sson": 4813,
      "lonely": 4814,
      "reflect": 4815,
      "after": 4816,
      "ge": 4817,
      "summer": 4818,
      "weed": 4819,
      "consequence": 4820,
      "ste": 4821,
      "properly": 4822,
      "tho": 4823,
      "##ustom": 4824,
      "eh": 4825,
      "adapt": 4826,
      "offic": 4827,
      "awareness": 4828,
      "charge": 4829,
      "independent": 4830,
      "##rupt": 4831,
      "##otic": 4832,
      "flo": 4833,
      "graduate": 4834,
      "aernative": 4835,
      "##ection": 4836,
      "port": 4837,
      "academ": 4838,
      "critical": 4839,
      "stat": 4840,
      "irrational": 4841,
      "##atically": 4842,
      "##orize": 4843,
      "routine": 4844,
      "childhood": 4845,
      "behave": 4846,
      "awful": 4847,
      "##hi": 4848,
      "trigger": 4849,
      "wonderful": 4850,
      "church": 4851,
      "tone": 4852,
      "planet": 4853,
      "mass": 4854,
      "distract": 4855,
      "suspect": 4856,
      "fantasy": 4857,
      "##roy": 4858,
      "theore": 4859,
      "insu": 4860,
      "input": 4861,
      "blood": 4862,
      "cree": 4863,
      "logically": 4864,
      "shift": 4865,
      "zero": 4866,
      "birthday": 4867,
      "neutral": 4868,
      "therapy": 4869,
      "bit": 4870,
      "##ii": 4871,
      "incor": 4872,
      "passive": 4873,
      "civil": 4874,
      "epis": 4875,
      "##rary": 4876,
      "guide": 4877,
      "tip": 4878,
      "##ograph": 4879,
      "film": 4880,
      "tbh": 4881,
      "affection": 4882,
      "##zen": 4883,
      "ed": 4884,
      "previous": 4885,
      "neuro": 4886,
      "intend": 4887,
      "threat": 4888,
      "settle": 4889,
      "info": 4890,
      "compar": 4891,
      "bsp": 4892,
      "##att": 4893,
      "irre": 4894,
      "alright": 4895,
      "destroy": 4896,
      "tl": 4897,
      "##ashion": 4898,
      "frequently": 4899,
      "excell": 4900,
      "clari": 4901,
      "liberal": 4902,
      "suic": 4903,
      "massive": 4904,
      "town": 4905,
      "##orrow": 4906,
      "##labor": 4907,
      "dismiss": 4908,
      "ou": 4909,
      "##rom": 4910,
      "##key": 4911,
      "istjs": 4912,
      "mouth": 4913,
      "##led": 4914,
      "stranger": 4915,
      "damage": 4916,
      "##osity": 4917,
      "##sive": 4918,
      "barely": 4919,
      "apolog": 4920,
      "drag": 4921,
      "insane": 4922,
      "##uu": 4923,
      "anxious": 4924,
      "vibe": 4925,
      "to": 4926,
      "mani": 4927,
      "criti": 4928,
      "sal": 4929,
      "evolution": 4930,
      "consistent": 4931,
      "overly": 4932,
      "everyday": 4933,
      "mark": 4934,
      "size": 4935,
      "episode": 4936,
      "therapist": 4937,
      "##uable": 4938,
      "fashion": 4939,
      "vague": 4940,
      "ram": 4941,
      "confront": 4942,
      "reb": 4943,
      "pack": 4944,
      "suggestion": 4945,
      "holy": 4946,
      "park": 4947,
      "boundary": 4948,
      "tal": 4949,
      "##reet": 4950,
      "custom": 4951,
      "##ec": 4952,
      "crowd": 4953,
      "hil": 4954,
      "advent": 4955,
      "nd": 4956,
      "germany": 4957,
      "invite": 4958,
      "fat": 4959,
      "manifest": 4960,
      "##ky": 4961,
      "dich": 4962,
      "scene": 4963,
      "russi": 4964,
      "##sis": 4965,
      "range": 4966,
      "metal": 4967,
      "mur": 4968,
      "subs": 4969,
      "##ounce": 4970,
      "##ify": 4971,
      "##arious": 4972,
      "accident": 4973,
      "through": 4974,
      "rap": 4975,
      "##yy": 4976,
      "conserv": 4977,
      "skin": 4978,
      "folk": 4979,
      "double": 4980,
      "dichot": 4981,
      "profile": 4982,
      "##ocate": 4983,
      "spe": 4984,
      "technology": 4985,
      "arrogant": 4986,
      "##olic": 4987,
      "final": 4988,
      "##inary": 4989,
      "##eap": 4990,
      "speed": 4991,
      "##jection": 4992,
      "realistic": 4993,
      "##oth": 4994,
      "##date": 4995,
      "##zzle": 4996,
      "terri": 4997,
      "##nal": 4998,
      "cele": 4999,
      "bot": 5000,
      "blunt": 5001,
      "network": 5002,
      "psychological": 5003,
      "boo": 5004,
      "cand": 5005,
      "du": 5006,
      "immature": 5007,
      "wing": 5008,
      "movement": 5009,
      "##lass": 5010,
      "##force": 5011,
      "jes": 5012,
      "sj": 5013,
      "vic": 5014,
      "##eason": 5015,
      "##born": 5016,
      "pi": 5017,
      "##lig": 5018,
      "screw": 5019,
      "casual": 5020,
      "season": 5021,
      "cheap": 5022,
      "frank": 5023,
      "incomp": 5024,
      "##istry": 5025,
      "overt": 5026,
      "hyper": 5027,
      "##urd": 5028,
      "excellent": 5029,
      "prior": 5030,
      "battle": 5031,
      "combine": 5032,
      "passionate": 5033,
      "throughout": 5034,
      "dunno": 5035,
      "mindset": 5036,
      "##iable": 5037,
      "##tism": 5038,
      "america": 5039,
      "drama": 5040,
      "defend": 5041,
      "##iency": 5042,
      "##ga": 5043,
      "anime": 5044,
      "street": 5045,
      "replace": 5046,
      "pointless": 5047,
      "cond": 5048,
      "border": 5049,
      "military": 5050,
      "dichotomy": 5051,
      "rant": 5052,
      "##xp": 5053,
      "##hink": 5054,
      "doc": 5055,
      "yup": 5056,
      "gym": 5057,
      "bill": 5058,
      "jack": 5059,
      "##sc": 5060,
      "cod": 5061,
      "##ius": 5062,
      "##xual": 5063,
      "spectrum": 5064,
      "delete": 5065,
      "inte": 5066,
      "plat": 5067,
      "software": 5068,
      "alive": 5069,
      "creat": 5070,
      "##vive": 5071,
      "window": 5072,
      "survive": 5073,
      "clim": 5074,
      "interpretation": 5075,
      "flip": 5076,
      "curiosity": 5077,
      "feedback": 5078,
      "spiritual": 5079,
      "##eeee": 5080,
      "ja": 5081,
      "creep": 5082,
      "collect": 5083,
      "##vise": 5084,
      "particip": 5085,
      "inn": 5086,
      "symp": 5087,
      "status": 5088,
      "relative": 5089,
      "protect": 5090,
      "syn": 5091,
      "consciousness": 5092,
      "der": 5093,
      "tang": 5094,
      "powerful": 5095,
      "cycle": 5096,
      "##hhhhhhhh": 5097,
      "embar": 5098,
      "##esis": 5099,
      "alien": 5100,
      "morality": 5101,
      "discip": 5102,
      "ruin": 5103,
      "metaph": 5104,
      "irr": 5105,
      "map": 5106,
      "pred": 5107,
      "##ssor": 5108,
      "proud": 5109,
      "senti": 5110,
      "recent": 5111,
      "compati": 5112,
      "##ience": 5113,
      "fool": 5114,
      "##ef": 5115,
      "everywhere": 5116,
      "clue": 5117,
      "##just": 5118,
      "ly": 5119,
      "##ester": 5120,
      "grant": 5121,
      "round": 5122,
      "price": 5123,
      "scary": 5124,
      "obse": 5125,
      "tree": 5126,
      "instinct": 5127,
      "shame": 5128,
      "king": 5129,
      "valuable": 5130,
      "growth": 5131,
      "##ologist": 5132,
      "assign": 5133,
      "##load": 5134,
      "mir": 5135,
      "careful": 5136,
      "heavily": 5137,
      "##rass": 5138,
      "forg": 5139,
      "lady": 5140,
      "credit": 5141,
      "strenhs": 5142,
      "##we": 5143,
      "finan": 5144,
      "merely": 5145,
      "infin": 5146,
      "enfjs": 5147,
      "##oke": 5148,
      "##ciation": 5149,
      "ice": 5150,
      "bott": 5151,
      "guiy": 5152,
      "jesus": 5153,
      "acqu": 5154,
      "##cend": 5155,
      "##oon": 5156,
      "max": 5157,
      "talent": 5158,
      "hom": 5159,
      "yell": 5160,
      "root": 5161,
      "mathem": 5162,
      "##cist": 5163,
      "spl": 5164,
      "##ron": 5165,
      "precise": 5166,
      "will": 5167,
      "snow": 5168,
      "stereotyp": 5169,
      "##tarian": 5170,
      "ethic": 5171,
      "journal": 5172,
      "##phone": 5173,
      "##uous": 5174,
      "##ana": 5175,
      "ax": 5176,
      "minim": 5177,
      "responsible": 5178,
      "##ounter": 5179,
      "bully": 5180,
      "traditional": 5181,
      "inspire": 5182,
      "qual": 5183,
      "hero": 5184,
      "apologize": 5185,
      "shirt": 5186,
      "lesson": 5187,
      "who": 5188,
      "shoe": 5189,
      "vast": 5190,
      "encounter": 5191,
      "correlation": 5192,
      "patient": 5193,
      "operate": 5194,
      "objectively": 5195,
      "prone": 5196,
      "eval": 5197,
      "magic": 5198,
      "fier": 5199,
      "judgment": 5200,
      "libertarian": 5201,
      "dish": 5202,
      "it": 5203,
      "loss": 5204,
      "discipline": 5205,
      "equally": 5206,
      "dinner": 5207,
      "phase": 5208,
      "lma": 5209,
      "gene": 5210,
      "loy": 5211,
      "attraction": 5212,
      "unable": 5213,
      "novel": 5214,
      "bottom": 5215,
      "hello": 5216,
      "##board": 5217,
      "sociopath": 5218,
      "earn": 5219,
      "framework": 5220,
      "favourite": 5221,
      "deny": 5222,
      "conservative": 5223,
      "stub": 5224,
      "mirror": 5225,
      "##vert": 5226,
      "appropriate": 5227,
      "professor": 5228,
      "theme": 5229,
      "gut": 5230,
      "##laborate": 5231,
      "##ousand": 5232,
      "dim": 5233,
      "thousand": 5234,
      "honesty": 5235,
      "rain": 5236,
      "rele": 5237,
      "hence": 5238,
      "##pper": 5239,
      "ration": 5240,
      "organization": 5241,
      "hilarious": 5242,
      "fri": 5243,
      "rat": 5244,
      "prot": 5245,
      "asser": 5246,
      "characteristic": 5247,
      "industry": 5248,
      "rise": 5249,
      "pleasure": 5250,
      "variety": 5251,
      "police": 5252,
      "uk": 5253,
      "indic": 5254,
      "management": 5255,
      "usual": 5256,
      "##hn": 5257,
      "##ulative": 5258,
      "libr": 5259,
      "error": 5260,
      "jeal": 5261,
      "anybody": 5262,
      "aka": 5263,
      "priority": 5264,
      "##eth": 5265,
      "policy": 5266,
      "meme": 5267,
      "corpor": 5268,
      "voc": 5269,
      "util": 5270,
      "improvement": 5271,
      "embarrass": 5272,
      "##cribe": 5273,
      "hardly": 5274,
      "lmao": 5275,
      "tomorrow": 5276,
      "puzzle": 5277,
      "##rap": 5278,
      "roommate": 5279,
      "classic": 5280,
      "stage": 5281,
      "irl": 5282,
      "cam": 5283,
      "escape": 5284,
      "strict": 5285,
      "noise": 5286,
      "parag": 5287,
      "##sse": 5288,
      "promise": 5289,
      "##ley": 5290,
      "grasp": 5291,
      "cowork": 5292,
      "display": 5293,
      "ish": 5294,
      "mutual": 5295,
      "uh": 5296,
      "latter": 5297,
      "mile": 5298,
      "##cast": 5299,
      "aim": 5300,
      "##hil": 5301,
      "found": 5302,
      "murder": 5303,
      "beer": 5304,
      "regularly": 5305,
      "inherently": 5306,
      "tre": 5307,
      "spread": 5308,
      "jealous": 5309,
      "##reg": 5310,
      "decade": 5311,
      "expand": 5312,
      "##mmar": 5313,
      "reduce": 5314,
      "##race": 5315,
      "##arm": 5316,
      "acquaint": 5317,
      "trend": 5318,
      "photo": 5319,
      "nons": 5320,
      "sympath": 5321,
      "silence": 5322,
      "stubborn": 5323,
      "glass": 5324,
      "stem": 5325,
      "absurd": 5326,
      "bag": 5327,
      "what": 5328,
      "eu": 5329,
      "##aaaa": 5330,
      "impul": 5331,
      "harsh": 5332,
      "exclusive": 5333,
      "##ior": 5334,
      "chick": 5335,
      "demonst": 5336,
      "##tem": 5337,
      "joy": 5338,
      "##nos": 5339,
      "bond": 5340,
      "##den": 5341,
      "chemistry": 5342,
      "##reh": 5343,
      "##itar": 5344,
      "rate": 5345,
      "virt": 5346,
      "legal": 5347,
      "son": 5348,
      "dangerous": 5349,
      "percent": 5350,
      "copy": 5351,
      "release": 5352,
      "##anch": 5353,
      "##ogical": 5354,
      "sky": 5355,
      "equ": 5356,
      "fulfil": 5357,
      "##iliary": 5358,
      "auxiliary": 5359,
      "manager": 5360,
      "load": 5361,
      "genius": 5362,
      "jerk": 5363,
      "trap": 5364,
      "gar": 5365,
      "charm": 5366,
      "enth": 5367,
      "paragraph": 5368,
      "detach": 5369,
      "vulnerable": 5370,
      "##irty": 5371,
      "diagnose": 5372,
      "##cize": 5373,
      "capitalism": 5374,
      "scientist": 5375,
      "surface": 5376,
      "appearance": 5377,
      "##lessly": 5378,
      "vent": 5379,
      "six": 5380,
      "crime": 5381,
      "##dly": 5382,
      "##atory": 5383,
      "##ooth": 5384,
      "correctly": 5385,
      "income": 5386,
      "##eable": 5387,
      "overcome": 5388,
      "blah": 5389,
      "##anti": 5390,
      "former": 5391,
      "yester": 5392,
      "resist": 5393,
      "screen": 5394,
      "ride": 5395,
      "yesterday": 5396,
      "lon": 5397,
      "irrelevant": 5398,
      "poke": 5399,
      "##romise": 5400,
      "item": 5401,
      "peer": 5402,
      "##ensi": 5403,
      "kiss": 5404,
      "##raction": 5405,
      "desk": 5406,
      "email": 5407,
      "##pi": 5408,
      "indicate": 5409,
      "##annel": 5410,
      "compromise": 5411,
      "lock": 5412,
      "unw": 5413,
      "adjust": 5414,
      "##onate": 5415,
      "##usi": 5416,
      "john": 5417,
      "retard": 5418,
      "hos": 5419,
      "implement": 5420,
      "iron": 5421,
      "steal": 5422,
      "##lie": 5423,
      "reserve": 5424,
      "clarify": 5425,
      "elaborate": 5426,
      "jap": 5427,
      "##charge": 5428,
      "initiate": 5429,
      "french": 5430,
      "##mas": 5431,
      "existential": 5432,
      "potentially": 5433,
      "guitar": 5434,
      "pin": 5435,
      "shock": 5436,
      "##ctivity": 5437,
      "##erable": 5438,
      "defau": 5439,
      "huh": 5440,
      "stone": 5441,
      "minor": 5442,
      "omg": 5443,
      "##lim": 5444,
      "##ingu": 5445,
      "skip": 5446,
      "##tf": 5447,
      "technical": 5448,
      "##sti": 5449,
      "subtle": 5450,
      "document": 5451,
      "perfection": 5452,
      "meat": 5453,
      "tiny": 5454,
      "##has": 5455,
      "adventure": 5456,
      "library": 5457,
      "##lam": 5458,
      "expert": 5459,
      "dimension": 5460,
      "##rant": 5461,
      "span": 5462,
      "instr": 5463,
      "initial": 5464,
      "##change": 5465,
      "instrument": 5466,
      "insecure": 5467,
      "fresh": 5468,
      "meaningless": 5469,
      "comparison": 5470,
      "spell": 5471,
      "genre": 5472,
      "amuse": 5473,
      "esteem": 5474,
      "##fficient": 5475,
      "purely": 5476,
      "tac": 5477,
      "adm": 5478,
      "corner": 5479,
      "flair": 5480,
      "wiki": 5481,
      "democra": 5482,
      "##itarian": 5483,
      "##aly": 5484,
      "insecurity": 5485,
      "advocate": 5486,
      "fantastic": 5487,
      "edge": 5488,
      "fish": 5489,
      "guard": 5490,
      "##aur": 5491,
      "attribute": 5492,
      "bank": 5493,
      "whose": 5494,
      "incline": 5495,
      "exec": 5496,
      "##vit": 5497,
      "estps": 5498,
      "writer": 5499,
      "##onent": 5500,
      "oblig": 5501,
      "belong": 5502,
      "construct": 5503,
      "east": 5504,
      "sale": 5505,
      "##tise": 5506,
      "forgive": 5507,
      "##ulus": 5508,
      "disg": 5509,
      "rom": 5510,
      "acquaintance": 5511,
      "##onal": 5512,
      "cyn": 5513,
      "##orb": 5514,
      "alb": 5515,
      "extend": 5516,
      "pride": 5517,
      "forth": 5518,
      "attend": 5519,
      "technically": 5520,
      "channel": 5521,
      "##ins": 5522,
      "chase": 5523,
      "ring": 5524,
      "sum": 5525,
      "cuural": 5526,
      "jungian": 5527,
      "creativity": 5528,
      "medical": 5529,
      "analogy": 5530,
      "nerd": 5531,
      "scream": 5532,
      "ignorant": 5533,
      "recall": 5534,
      "bible": 5535,
      "buddy": 5536,
      "downvot": 5537,
      "incorrect": 5538,
      "hund": 5539,
      "suicide": 5540,
      "introduce": 5541,
      "loose": 5542,
      "commitment": 5543,
      "grad": 5544,
      "xnt": 5545,
      "shallow": 5546,
      "hire": 5547,
      "ground": 5548,
      "asse": 5549,
      "economic": 5550,
      "##conne": 5551,
      "adop": 5552,
      "ugh": 5553,
      "flat": 5554,
      "symb": 5555,
      "sensory": 5556,
      "rig": 5557,
      "vac": 5558,
      "mal": 5559,
      "empty": 5560,
      "legiti": 5561,
      "immediate": 5562,
      "enthusi": 5563,
      "lin": 5564,
      "##acity": 5565,
      "hundred": 5566,
      "paran": 5567,
      "wave": 5568,
      "##licit": 5569,
      "typology": 5570,
      "skep": 5571,
      "fundamental": 5572,
      "profit": 5573,
      "##umble": 5574,
      "manipulative": 5575,
      "philosophical": 5576,
      "##cian": 5577,
      "##ww": 5578,
      "narrow": 5579,
      "hint": 5580,
      "cath": 5581,
      "recharge": 5582,
      "nerv": 5583,
      "diss": 5584,
      "button": 5585,
      "electr": 5586,
      "cru": 5587,
      "tur": 5588,
      "exchange": 5589,
      "crack": 5590,
      "primarily": 5591,
      "smell": 5592,
      "emphas": 5593,
      "national": 5594,
      "##entic": 5595,
      "theoretical": 5596,
      "##rable": 5597,
      "##know": 5598,
      "isfjs": 5599,
      "ene": 5600,
      "rh": 5601,
      "economy": 5602,
      "stable": 5603,
      "security": 5604,
      "##ography": 5605,
      "lyric": 5606,
      "outgo": 5607,
      "gree": 5608,
      "unne": 5609,
      "##ring": 5610,
      "irritate": 5611,
      "crisis": 5612,
      "thor": 5613,
      "section": 5614,
      "till": 5615,
      "target": 5616,
      "ut": 5617,
      "grab": 5618,
      "sat": 5619,
      "ship": 5620,
      "universal": 5621,
      "mechanism": 5622,
      "afford": 5623,
      "mistyped": 5624,
      "graph": 5625,
      "sacri": 5626,
      "embrace": 5627,
      "expensive": 5628,
      "wtf": 5629,
      "##vote": 5630,
      "##tter": 5631,
      "##erty": 5632,
      "##arant": 5633,
      "illness": 5634,
      "myers": 5635,
      "specie": 5636,
      "admire": 5637,
      "bon": 5638,
      "competitive": 5639,
      "ane": 5640,
      "rd": 5641,
      "unnecess": 5642,
      "ri": 5643,
      "##fice": 5644,
      "statistic": 5645,
      "victim": 5646,
      "##titution": 5647,
      "mate": 5648,
      "nihil": 5649,
      "application": 5650,
      "hook": 5651,
      "lenh": 5652,
      "##ggs": 5653,
      "split": 5654,
      "contradict": 5655,
      "wood": 5656,
      "arbit": 5657,
      "##assion": 5658,
      "##eline": 5659,
      "spont": 5660,
      "##dia": 5661,
      "overthink": 5662,
      "compreh": 5663,
      "##duction": 5664,
      "academic": 5665,
      "sarcastic": 5666,
      "survi": 5667,
      "extroversion": 5668,
      "dict": 5669,
      "evolve": 5670,
      "pill": 5671,
      "##oxic": 5672,
      "nervous": 5673,
      "meh": 5674,
      "usern": 5675,
      "cheer": 5676,
      "teenager": 5677,
      "##erg": 5678,
      "rub": 5679,
      "##do": 5680,
      "unlikely": 5681,
      "verbal": 5682,
      "enemy": 5683,
      "stereotypical": 5684,
      "##sel": 5685,
      "warn": 5686,
      "album": 5687,
      "tune": 5688,
      "metaphor": 5689,
      "rush": 5690,
      "##cket": 5691,
      "pal": 5692,
      "guarant": 5693,
      "frustration": 5694,
      "##ama": 5695,
      "generation": 5696,
      "consistently": 5697,
      "justice": 5698,
      "scr": 5699,
      "##while": 5700,
      "hall": 5701,
      "participate": 5702,
      "lifest": 5703,
      "contain": 5704,
      "contrast": 5705,
      "pla": 5706,
      "guarantee": 5707,
      "harmony": 5708,
      "##entious": 5709,
      "##sd": 5710,
      "##acc": 5711,
      "##mptom": 5712,
      "nation": 5713,
      "patience": 5714,
      "spontane": 5715,
      "property": 5716,
      "username": 5717,
      "##und": 5718,
      "impress": 5719,
      "consciously": 5720,
      "defense": 5721,
      "customer": 5722,
      "bub": 5723,
      "san": 5724,
      "symptom": 5725,
      "nowhere": 5726,
      "sacrifice": 5727,
      "##raw": 5728,
      "psychopath": 5729,
      "lifestyle": 5730,
      "finger": 5731,
      "concent": 5732,
      "##connect": 5733,
      "firm": 5734,
      "translate": 5735,
      "briggs": 5736,
      "mask": 5737,
      "notion": 5738,
      "automatically": 5739,
      "pc": 5740,
      "sarcasm": 5741,
      "severe": 5742,
      "plot": 5743,
      "succeed": 5744,
      "aer": 5745,
      "##well": 5746,
      "effectively": 5747,
      "brow": 5748,
      "absorb": 5749,
      "##tification": 5750,
      "intuitives": 5751,
      "##ste": 5752,
      "##lap": 5753,
      "inevit": 5754,
      "##ield": 5755,
      "functional": 5756,
      "reve": 5757,
      "##valent": 5758,
      "##sch": 5759,
      "largely": 5760,
      "##fp": 5761,
      "imagination": 5762,
      "##rest": 5763,
      "##ountain": 5764,
      "christmas": 5765,
      "congr": 5766,
      "mast": 5767,
      "neigh": 5768,
      "reveal": 5769,
      "esfjs": 5770,
      "mel": 5771,
      "wea": 5772,
      "agnos": 5773,
      "bright": 5774,
      "procrastinate": 5775,
      "spec": 5776,
      "eg": 5777,
      "stressful": 5778,
      "pant": 5779,
      "mob": 5780,
      "##mer": 5781,
      "beauty": 5782,
      "##nique": 5783,
      "##archy": 5784,
      "ded": 5785,
      "technique": 5786,
      "##look": 5787,
      "align": 5788,
      "diet": 5789,
      "histor": 5790,
      "homework": 5791,
      "ramble": 5792,
      "toxic": 5793,
      "phen": 5794,
      "tab": 5795,
      "strive": 5796,
      "acceptable": 5797,
      "poorly": 5798,
      "internally": 5799,
      "##rative": 5800,
      "posse": 5801,
      "badly": 5802,
      "presence": 5803,
      "ug": 5804,
      "western": 5805,
      "illogical": 5806,
      "nail": 5807,
      "sadly": 5808,
      "vil": 5809,
      "##icious": 5810,
      "dear": 5811,
      "unknow": 5812,
      "nonsense": 5813,
      "##omen": 5814,
      "shower": 5815,
      "doll": 5816,
      "vice": 5817,
      "incons": 5818,
      "##com": 5819,
      "##onym": 5820,
      "ens": 5821,
      "update": 5822,
      "punish": 5823,
      "dry": 5824,
      "similarly": 5825,
      "they": 5826,
      "##lock": 5827,
      "##tish": 5828,
      "##ina": 5829,
      "aug": 5830,
      "swear": 5831,
      "##gra": 5832,
      "alot": 5833,
      "il": 5834,
      "lunch": 5835,
      "##itation": 5836,
      "shake": 5837,
      "manipulation": 5838,
      "utter": 5839,
      "##roc": 5840,
      "medication": 5841,
      "hill": 5842,
      "review": 5843,
      "invent": 5844,
      "brill": 5845,
      "bug": 5846,
      "capacity": 5847,
      "enthusias": 5848,
      "##ren": 5849,
      "enjoyable": 5850,
      "##version": 5851,
      "afterwards": 5852,
      "awh": 5853,
      "neat": 5854,
      "brief": 5855,
      "sand": 5856,
      "sole": 5857,
      "racist": 5858,
      "consume": 5859,
      "canad": 5860,
      "tap": 5861,
      "ideology": 5862,
      "compatible": 5863,
      "##mon": 5864,
      "estjs": 5865,
      "feature": 5866,
      "socialist": 5867,
      "accurately": 5868,
      "chaos": 5869,
      "divor": 5870,
      "glob": 5871,
      "mild": 5872,
      "isolate": 5873,
      "authentic": 5874,
      "jew": 5875,
      "##zi": 5876,
      "divorce": 5877,
      "counsel": 5878,
      "##sa": 5879,
      "obli": 5880,
      "evaluate": 5881,
      "thorough": 5882,
      "financial": 5883,
      "##cu": 5884,
      "##arity": 5885,
      "gh": 5886,
      "intros": 5887,
      "stimulate": 5888,
      "dea": 5889,
      "adopt": 5890,
      "##active": 5891,
      "efficiency": 5892,
      "competition": 5893,
      "##cil": 5894,
      "deliver": 5895,
      "unb": 5896,
      "floor": 5897,
      "tempor": 5898,
      "##hold": 5899,
      "plant": 5900,
      "awhile": 5901,
      "##ainty": 5902,
      "breathe": 5903,
      "##rep": 5904,
      "##ief": 5905,
      "aust": 5906,
      "plain": 5907,
      "##za": 5908,
      "##tiveness": 5909,
      "##incere": 5910,
      "educate": 5911,
      "secondary": 5912,
      "difficuy": 5913,
      "desper": 5914,
      "devil": 5915,
      "##timate": 5916,
      "correlate": 5917,
      "ing": 5918,
      "urge": 5919,
      "isfps": 5920,
      "foreign": 5921,
      "##consciously": 5922,
      "##itude": 5923,
      "mr": 5924,
      "snap": 5925,
      "wis": 5926,
      "esfps": 5927,
      "whats": 5928,
      "romance": 5929,
      "axis": 5930,
      "##head": 5931,
      "cancer": 5932,
      "conform": 5933,
      "traum": 5934,
      "painful": 5935,
      "dual": 5936,
      "audience": 5937,
      "rein": 5938,
      "analytical": 5939,
      "violence": 5940,
      "masc": 5941,
      "unha": 5942,
      "##list": 5943,
      "uncon": 5944,
      "gap": 5945,
      "her": 5946,
      "##iber": 5947,
      "##ser": 5948,
      "polite": 5949,
      "##olf": 5950,
      "prov": 5951,
      "##osition": 5952,
      "sin": 5953,
      "ty": 5954,
      "ie": 5955,
      "european": 5956,
      "psychologist": 5957,
      "##place": 5958,
      "depart": 5959,
      "sensation": 5960,
      "punch": 5961,
      "lecture": 5962,
      "destru": 5963,
      "criticize": 5964,
      "compassion": 5965,
      "outward": 5966,
      "weather": 5967,
      "parad": 5968,
      "##draw": 5969,
      "convey": 5970,
      "seme": 5971,
      "##lify": 5972,
      "rou": 5973,
      "grammar": 5974,
      "adus": 5975,
      "importance": 5976,
      "chemical": 5977,
      "comic": 5978,
      "seemingly": 5979,
      "cringe": 5980,
      "brand": 5981,
      "semester": 5982,
      "journey": 5983,
      "##ductive": 5984,
      "boat": 5985,
      "dump": 5986,
      "reverse": 5987,
      "##oil": 5988,
      "subconscious": 5989,
      "sight": 5990,
      "biology": 5991,
      "dominate": 5992,
      "employee": 5993,
      "ignorance": 5994,
      "south": 5995,
      "grey": 5996,
      "gf": 5997,
      "panic": 5998,
      "flexi": 5999,
      "##fl": 6000,
      "withdraw": 6001,
      "susp": 6002,
      "anecd": 6003,
      "hip": 6004,
      "pace": 6005,
      "##rology": 6006,
      "viewpoint": 6007,
      "miserable": 6008,
      "integ": 6009,
      "lift": 6010,
      "messy": 6011,
      "expose": 6012,
      "##urance": 6013,
      "flag": 6014,
      "owner": 6015,
      "minimum": 6016,
      "cloud": 6017,
      "phenomen": 6018,
      "smooth": 6019,
      "bomb": 6020,
      "##iche": 6021,
      "intimidate": 6022,
      "shr": 6023,
      "initially": 6024,
      "##agger": 6025,
      "##osure": 6026,
      "unconscious": 6027,
      "variable": 6028,
      "disgust": 6029,
      "##iday": 6030,
      "##fj": 6031,
      "##hibit": 6032,
      "hon": 6033,
      "leadership": 6034,
      "catholic": 6035,
      "survival": 6036,
      "classi": 6037,
      "consideration": 6038,
      "apartment": 6039,
      "##not": 6040,
      "classical": 6041,
      "empir": 6042,
      "##inction": 6043,
      "##ffle": 6044,
      "##teer": 6045,
      "stance": 6046,
      "holiday": 6047,
      "cell": 6048,
      "una": 6049,
      "dependent": 6050,
      "cling": 6051,
      "bath": 6052,
      "##oulder": 6053,
      "billion": 6054,
      "vir": 6055,
      "meal": 6056,
      "chee": 6057,
      "##cience": 6058,
      "generate": 6059,
      "blog": 6060,
      "##olar": 6061,
      "offensive": 6062,
      "div": 6063,
      "satisf": 6064,
      "til": 6065,
      "##rit": 6066,
      "ped": 6067,
      "resolve": 6068,
      "president": 6069,
      "she": 6070,
      "##ribution": 6071,
      "prem": 6072,
      "pian": 6073,
      "kar": 6074,
      "agnostic": 6075,
      "##unteer": 6076,
      "global": 6077,
      "divide": 6078,
      "gas": 6079,
      "pic": 6080,
      "politi": 6081,
      "mentality": 6082,
      "reliable": 6083,
      "underlie": 6084,
      "conspi": 6085,
      "addict": 6086,
      "volunteer": 6087,
      "treatment": 6088,
      "nuance": 6089,
      "##appe": 6090,
      "##interest": 6091,
      "bike": 6092,
      "##quest": 6093,
      "minimal": 6094,
      "convention": 6095,
      "##if": 6096,
      "conspiracy": 6097,
      "inde": 6098,
      "##ughter": 6099,
      "christianity": 6100,
      "wisdom": 6101,
      "affirm": 6102,
      "official": 6103,
      "intellectually": 6104,
      "creepy": 6105,
      "cup": 6106,
      "##xy": 6107,
      "hun": 6108,
      "demonstrate": 6109,
      "budd": 6110,
      "cash": 6111,
      "##ssy": 6112,
      "arbitrary": 6113,
      "and": 6114,
      "chart": 6115,
      "surely": 6116,
      "unnecessary": 6117,
      "mountain": 6118,
      "clever": 6119,
      "heal": 6120,
      "uimate": 6121,
      "semi": 6122,
      "stock": 6123,
      "poster": 6124,
      "trivi": 6125,
      "recip": 6126,
      "feminist": 6127,
      "ugly": 6128,
      "location": 6129,
      "grav": 6130,
      "seat": 6131,
      "instantly": 6132,
      "infinite": 6133,
      "angle": 6134,
      "narcissistic": 6135,
      "winter": 6136,
      "resent": 6137,
      "mascul": 6138,
      "chess": 6139,
      "yo": 6140,
      "##aurant": 6141,
      "explicit": 6142,
      "admin": 6143,
      "quir": 6144,
      "colour": 6145,
      "giant": 6146,
      "##yth": 6147,
      "##stein": 6148,
      "grip": 6149,
      "asleep": 6150,
      "##pha": 6151,
      "shell": 6152,
      "validation": 6153,
      "minority": 6154,
      "restaurant": 6155,
      "frankly": 6156,
      "##ette": 6157,
      "##iently": 6158,
      "driver": 6159,
      "performance": 6160,
      "inj": 6161,
      "anim": 6162,
      "##dream": 6163,
      "beneficial": 6164,
      "##craft": 6165,
      "##resh": 6166,
      "crave": 6167,
      "creature": 6168,
      "weapon": 6169,
      "##rigue": 6170,
      "intent": 6171,
      "sample": 6172,
      "bottle": 6173,
      "gam": 6174,
      "resonate": 6175,
      "essay": 6176,
      "percentage": 6177,
      "##stal": 6178,
      "symbol": 6179,
      "superficial": 6180,
      "fac": 6181,
      "signal": 6182,
      "greatly": 6183,
      "ease": 6184,
      "intr": 6185,
      "hes": 6186,
      "accuse": 6187,
      "gal": 6188,
      "hind": 6189,
      "##ting": 6190,
      "cast": 6191,
      "defensive": 6192,
      "brilliant": 6193,
      "neighbor": 6194,
      "poet": 6195,
      "sincere": 6196,
      "##atable": 6197,
      "intrigue": 6198,
      "client": 6199,
      "##person": 6200,
      "practically": 6201,
      "##tire": 6202,
      "stream": 6203,
      "##isation": 6204,
      "nav": 6205,
      "gig": 6206,
      "van": 6207,
      "wed": 6208,
      "reflection": 6209,
      "qualify": 6210,
      "piano": 6211,
      "cud": 6212,
      "ga": 6213,
      "socialism": 6214,
      "threaten": 6215,
      "moon": 6216,
      "##rite": 6217,
      "format": 6218,
      "heat": 6219,
      "horse": 6220,
      "temper": 6221,
      "dan": 6222,
      "shoulder": 6223,
      "heh": 6224,
      "debt": 6225,
      "instru": 6226,
      "muslim": 6227,
      "versa": 6228,
      "terrify": 6229,
      "ant": 6230,
      "foundation": 6231,
      "##ogue": 6232,
      "department": 6233,
      "climb": 6234,
      "##power": 6235,
      "stare": 6236,
      "fo": 6237,
      "insist": 6238,
      "perman": 6239,
      "promote": 6240,
      "##esthe": 6241,
      "illeg": 6242,
      "rejection": 6243,
      "citi": 6244,
      "equi": 6245,
      "blank": 6246,
      "crash": 6247,
      "bang": 6248,
      "politician": 6249,
      "##itter": 6250,
      "condes": 6251,
      "##pedia": 6252,
      "daydream": 6253,
      "repub": 6254,
      "biological": 6255,
      "arrive": 6256,
      "egg": 6257,
      "##orable": 6258,
      "famous": 6259,
      "wander": 6260,
      "##rr": 6261,
      "aband": 6262,
      "route": 6263,
      "##ken": 6264,
      "##bling": 6265,
      "unknown": 6266,
      "hunt": 6267,
      "##tile": 6268,
      "incredible": 6269,
      "##mble": 6270,
      "empathetic": 6271,
      "charism": 6272,
      "tag": 6273,
      "apple": 6274,
      "falla": 6275,
      "sto": 6276,
      "celeb": 6277,
      "maturity": 6278,
      "##range": 6279,
      "nazi": 6280,
      "fur": 6281,
      "porn": 6282,
      "##self": 6283,
      "sea": 6284,
      "sentiment": 6285,
      "sadness": 6286,
      "citizen": 6287,
      "cer": 6288,
      "contemp": 6289,
      "burden": 6290,
      "wash": 6291,
      "republic": 6292,
      "##mission": 6293,
      "##pet": 6294,
      "##ancy": 6295,
      "repress": 6296,
      "apath": 6297,
      "pleasant": 6298,
      "##regard": 6299,
      "wikipedia": 6300,
      "spin": 6301,
      "investment": 6302,
      "raw": 6303,
      "inconsist": 6304,
      "sust": 6305,
      "whe": 6306,
      "horri": 6307,
      "##ooo": 6308,
      "north": 6309,
      "unt": 6310,
      "substance": 6311,
      "sibling": 6312,
      "astrology": 6313,
      "distinction": 6314,
      "coworkers": 6315,
      "dollar": 6316,
      "##uracy": 6317,
      "unhappy": 6318,
      "disregard": 6319,
      "##fulness": 6320,
      "pod": 6321,
      "unsure": 6322,
      "file": 6323,
      "hehe": 6324,
      "similarity": 6325,
      "##tedly": 6326,
      "sheer": 6327,
      "ai": 6328,
      "gro": 6329,
      "select": 6330,
      "hitler": 6331,
      "##matic": 6332,
      "##ays": 6333,
      "odds": 6334,
      "gear": 6335,
      "unrel": 6336,
      "toler": 6337,
      "bind": 6338,
      "##hand": 6339,
      "abusive": 6340,
      "##clear": 6341,
      "excess": 6342,
      "arise": 6343,
      "##da": 6344,
      "##pa": 6345,
      "fulfill": 6346,
      "##lex": 6347,
      "obsession": 6348,
      "extravert": 6349,
      "theyre": 6350,
      "swe": 6351,
      "myth": 6352,
      "russian": 6353,
      "unus": 6354,
      "addiction": 6355,
      "rank": 6356,
      "suppress": 6357,
      "##titute": 6358,
      "##gate": 6359,
      "hike": 6360,
      "hypothe": 6361,
      "sx": 6362,
      "bre": 6363,
      "twist": 6364,
      "deliber": 6365,
      "##appear": 6366,
      "##eve": 6367,
      "pink": 6368,
      "distant": 6369,
      "mot": 6370,
      "witty": 6371,
      "candidate": 6372,
      "contract": 6373,
      "native": 6374,
      "sugar": 6375,
      "butter": 6376,
      "muscle": 6377,
      "originally": 6378,
      "##udge": 6379,
      "transp": 6380,
      "sustain": 6381,
      "##cl": 6382,
      "##ensity": 6383,
      "etern": 6384,
      "rationalize": 6385,
      "##ula": 6386,
      "dedicate": 6387,
      "anarch": 6388,
      "tolerate": 6389,
      "occup": 6390,
      "##tif": 6391,
      "##ove": 6392,
      "validate": 6393,
      "comedy": 6394,
      "russia": 6395,
      "feminism": 6396,
      "mort": 6397,
      "worthy": 6398,
      "revolution": 6399,
      "maxim": 6400,
      "jam": 6401,
      "confusion": 6402,
      "##pg": 6403,
      "contrary": 6404,
      "praise": 6405,
      "assist": 6406,
      "narcissist": 6407,
      "court": 6408,
      "significantly": 6409,
      "literature": 6410,
      "crimin": 6411,
      "randomly": 6412,
      "requirement": 6413,
      "##bar": 6414,
      "remote": 6415,
      "breath": 6416,
      "reciproc": 6417,
      "string": 6418,
      "medicine": 6419,
      "##viously": 6420,
      "summ": 6421,
      "subt": 6422,
      "cous": 6423,
      "radio": 6424,
      "loyal": 6425,
      "transi": 6426,
      "chain": 6427,
      "dise": 6428,
      "##atics": 6429,
      "alpha": 6430,
      "dirty": 6431,
      "phenomenon": 6432,
      "bow": 6433,
      "request": 6434,
      "offense": 6435,
      "host": 6436,
      "##retch": 6437,
      "century": 6438,
      "hypoc": 6439,
      "scri": 6440,
      "archite": 6441,
      "precisely": 6442,
      "cousin": 6443,
      "intimate": 6444,
      "ath": 6445,
      "lord": 6446,
      "weah": 6447,
      "disappear": 6448,
      "saf": 6449,
      "atmo": 6450,
      "##opher": 6451,
      "conven": 6452,
      "bf": 6453,
      "hm": 6454,
      "##itive": 6455,
      "statis": 6456,
      "repeti": 6457,
      "chin": 6458,
      "##eter": 6459,
      "dive": 6460,
      "satisfaction": 6461,
      "independence": 6462,
      "nurt": 6463,
      "innoc": 6464,
      "sher": 6465,
      "##stru": 6466,
      "spark": 6467,
      "intentionally": 6468,
      "hypoth": 6469,
      "bitter": 6470,
      "##etype": 6471,
      "economics": 6472,
      "implication": 6473,
      "atmosp": 6474,
      "feminine": 6475,
      "fictional": 6476,
      "sigh": 6477,
      "election": 6478,
      "##mentally": 6479,
      "cynical": 6480,
      "##kin": 6481,
      "compete": 6482,
      "calculate": 6483,
      "##rat": 6484,
      "moderate": 6485,
      "ghost": 6486,
      "strateg": 6487,
      "brown": 6488,
      "rip": 6489,
      "bree": 6490,
      "bird": 6491,
      "creation": 6492,
      "fuel": 6493,
      "condescend": 6494,
      "empathize": 6495,
      "mechanic": 6496,
      "remark": 6497,
      "trash": 6498,
      "apparent": 6499,
      "yay": 6500,
      "previously": 6501,
      "region": 6502,
      "layer": 6503,
      "um": 6504,
      "vacation": 6505,
      "exagger": 6506,
      "##box": 6507,
      "np": 6508,
      "##urate": 6509,
      "borderline": 6510,
      "terror": 6511,
      "##anese": 6512,
      "realm": 6513,
      "silent": 6514,
      "ein": 6515,
      "##rome": 6516,
      "recover": 6517,
      "##osis": 6518,
      "progra": 6519,
      "##rict": 6520,
      "league": 6521,
      "##agon": 6522,
      "swim": 6523,
      "attachment": 6524,
      "derive": 6525,
      "##ffe": 6526,
      "formal": 6527,
      "##lective": 6528,
      "unrelated": 6529,
      "meditate": 6530,
      "elim": 6531,
      "nurture": 6532,
      "wire": 6533,
      "delusion": 6534,
      "uncert": 6535,
      "wrap": 6536,
      "boil": 6537,
      "archetype": 6538,
      "buddh": 6539,
      "premise": 6540,
      "knock": 6541,
      "craft": 6542,
      "dozen": 6543,
      "dare": 6544,
      "##down": 6545,
      "collection": 6546,
      "script": 6547,
      "dot": 6548,
      "##inity": 6549,
      "quiz": 6550,
      "##inguish": 6551,
      "##iration": 6552,
      "##dam": 6553,
      "dial": 6554,
      "ensure": 6555,
      "##ssment": 6556,
      "disconnect": 6557,
      "toy": 6558,
      "bridge": 6559,
      "texting": 6560,
      "##etal": 6561,
      "##soever": 6562,
      "criter": 6563,
      "##adays": 6564,
      "cue": 6565,
      "production": 6566,
      "carefully": 6567,
      "instant": 6568,
      "micro": 6569,
      "assessment": 6570,
      "sexy": 6571,
      "criterion": 6572,
      "fallacy": 6573,
      "##respon": 6574,
      "whoever": 6575,
      "cake": 6576,
      "##vis": 6577,
      "generalize": 6578,
      "##amine": 6579,
      "cuz": 6580,
      "##risingly": 6581,
      "whatsoever": 6582,
      "nowadays": 6583,
      "accuracy": 6584,
      "conclude": 6585,
      "disease": 6586,
      "fundamentally": 6587,
      "equivalent": 6588,
      "##of": 6589,
      "deadline": 6590,
      "##yer": 6591,
      "lovely": 6592,
      "humour": 6593,
      "flash": 6594,
      "rent": 6595,
      "labor": 6596,
      "pool": 6597,
      "chaotic": 6598,
      "ben": 6599,
      "##lege": 6600,
      "accidentally": 6601,
      "criminal": 6602,
      "clash": 6603,
      "explor": 6604,
      "bounce": 6605,
      "entitle": 6606,
      "portion": 6607,
      "inability": 6608,
      "propose": 6609,
      "##apable": 6610,
      "abandon": 6611,
      "enlight": 6612,
      "slip": 6613,
      "stoic": 6614,
      "##va": 6615,
      "coinc": 6616,
      "assertive": 6617,
      "enforce": 6618,
      "programmer": 6619,
      "##anda": 6620,
      "podcast": 6621,
      "artistic": 6622,
      "hmmm": 6623,
      "dose": 6624,
      "stretch": 6625,
      "equation": 6626,
      "##iat": 6627,
      "proceed": 6628,
      "brut": 6629,
      "fancy": 6630,
      "##ave": 6631,
      "investi": 6632,
      "spoil": 6633,
      "##isive": 6634,
      "rape": 6635,
      "concert": 6636,
      "football": 6637,
      "##stream": 6638,
      "##laim": 6639,
      "monster": 6640,
      "neglect": 6641,
      "nightm": 6642,
      "incompet": 6643,
      "heck": 6644,
      "literal": 6645,
      "entertainment": 6646,
      "hung": 6647,
      "rage": 6648,
      "japanese": 6649,
      "safety": 6650,
      "cos": 6651,
      "sam": 6652,
      "duty": 6653,
      "##arp": 6654,
      "##ued": 6655,
      "collective": 6656,
      "tempera": 6657,
      "inacc": 6658,
      "tatt": 6659,
      "swing": 6660,
      "inherent": 6661,
      "unfair": 6662,
      "ethical": 6663,
      "poly": 6664,
      "pass": 6665,
      "defe": 6666,
      "survey": 6667,
      "poetry": 6668,
      "##tless": 6669,
      "##eration": 6670,
      "hahahaha": 6671,
      "gent": 6672,
      "##arn": 6673,
      "supposedly": 6674,
      "secure": 6675,
      "daughter": 6676,
      "intimacy": 6677,
      "competent": 6678,
      "tattoo": 6679,
      "distraction": 6680,
      "ble": 6681,
      "##orge": 6682,
      "enlighten": 6683,
      "elsewhere": 6684,
      "##stery": 6685,
      "aesthe": 6686,
      "##les": 6687,
      "facial": 6688,
      "luckily": 6689,
      "sooner": 6690,
      "chicken": 6691,
      "fort": 6692,
      "merit": 6693,
      "inspiration": 6694,
      "##utor": 6695,
      "tim": 6696,
      "islam": 6697,
      "server": 6698,
      "genetic": 6699,
      "graphic": 6700,
      "shin": 6701,
      "##wn": 6702,
      "compel": 6703,
      "speaker": 6704,
      "transition": 6705,
      "tactic": 6706,
      "atmosphere": 6707,
      "##ik": 6708,
      "mystery": 6709,
      "spontaneous": 6710,
      "##entive": 6711,
      "illegal": 6712,
      "nightmare": 6713,
      "thri": 6714,
      "##duct": 6715,
      "explo": 6716,
      "##xj": 6717,
      "finance": 6718,
      "bread": 6719,
      "schiz": 6720,
      "persona": 6721,
      "indul": 6722,
      "guid": 6723,
      "heaven": 6724,
      "arrogance": 6725,
      "deem": 6726,
      "ash": 6727,
      "bend": 6728,
      "##ced": 6729,
      "apology": 6730,
      "humble": 6731,
      "versus": 6732,
      "skeptical": 6733,
      "row": 6734,
      "twenty": 6735,
      "command": 6736,
      "##school": 6737,
      "ny": 6738,
      "##bra": 6739,
      "hosp": 6740,
      "branch": 6741,
      "tick": 6742,
      "essential": 6743,
      "vocal": 6744,
      "##rier": 6745,
      "unite": 6746,
      "##ceptive": 6747,
      "cock": 6748,
      "cope": 6749,
      "ju": 6750,
      "##hhhhhhhhhhhhhhhh": 6751,
      "pse": 6752,
      "##nat": 6753,
      "interrupt": 6754,
      "autism": 6755,
      "browse": 6756,
      "psyched": 6757,
      "tonight": 6758,
      "army": 6759,
      "##olation": 6760,
      "sjs": 6761,
      "prioriti": 6762,
      "##sey": 6763,
      "insert": 6764,
      "bubble": 6765,
      "slave": 6766,
      "##personal": 6767,
      "chap": 6768,
      "mathematics": 6769,
      "concentrate": 6770,
      "pseud": 6771,
      "sir": 6772,
      "senior": 6773,
      "pursuit": 6774,
      "subscribe": 6775,
      "##lation": 6776,
      "psychiat": 6777,
      "aughing": 6778,
      "occasional": 6779,
      "##forward": 6780,
      "camera": 6781,
      "obligation": 6782,
      "##bi": 6783,
      "fruit": 6784,
      "inval": 6785,
      "insightful": 6786,
      "optimistic": 6787,
      "##xxxx": 6788,
      "##vation": 6789,
      "advise": 6790,
      "paranoid": 6791,
      "##lix": 6792,
      "ixt": 6793,
      "##enda": 6794,
      "unex": 6795,
      "##ors": 6796,
      "converse": 6797,
      "hur": 6798,
      "##aneously": 6799,
      "wal": 6800,
      "articulate": 6801,
      "##eliness": 6802,
      "##lin": 6803,
      "incapable": 6804,
      "perpet": 6805,
      "straightforward": 6806,
      "supply": 6807,
      "impose": 6808,
      "analyse": 6809,
      "stimulus": 6810,
      "rigid": 6811,
      "##off": 6812,
      "memorize": 6813,
      "##noxi": 6814,
      "temperament": 6815,
      "##bur": 6816,
      "solely": 6817,
      "generalization": 6818,
      "simu": 6819,
      "##pple": 6820,
      "wine": 6821,
      "##some": 6822,
      "violent": 6823,
      "democracy": 6824,
      "stability": 6825,
      "musical": 6826,
      "##flix": 6827,
      "obnoxi": 6828,
      "farm": 6829,
      "poll": 6830,
      "wheel": 6831,
      "mund": 6832,
      "betray": 6833,
      "##ssim": 6834,
      "##asty": 6835,
      "worldview": 6836,
      "sympathy": 6837,
      "tall": 6838,
      "netflix": 6839,
      "excel": 6840,
      "closely": 6841,
      "##eam": 6842,
      "rac": 6843,
      "central": 6844,
      "celebr": 6845,
      "procrastination": 6846,
      "aid": 6847,
      "distinct": 6848,
      "prag": 6849,
      "bonus": 6850,
      "illusion": 6851,
      "consistency": 6852,
      "examine": 6853,
      "sharp": 6854,
      "endless": 6855,
      "##cient": 6856,
      "agenda": 6857,
      "unusual": 6858,
      "##icket": 6859,
      "loneliness": 6860,
      "##ologically": 6861,
      "burst": 6862,
      "differenti": 6863,
      "hypothetical": 6864,
      "cart": 6865,
      "tight": 6866,
      "amaz": 6867,
      "scheme": 6868,
      "psychedel": 6869,
      "rab": 6870,
      "##sm": 6871,
      "weigh": 6872,
      "corporate": 6873,
      "##ca": 6874,
      "subreddits": 6875,
      "grate": 6876,
      "dragon": 6877,
      "oblivious": 6878,
      "##uri": 6879,
      "spring": 6880,
      "tease": 6881,
      "surprisingly": 6882,
      "##oral": 6883,
      "realization": 6884,
      "celebrity": 6885,
      "categorize": 6886,
      "##core": 6887,
      "piz": 6888,
      "xs": 6889,
      "##utation": 6890,
      "actor": 6891,
      "mys": 6892,
      "acceptance": 6893,
      "all": 6894,
      "##pection": 6895,
      "sufficient": 6896,
      "session": 6897,
      "##ited": 6898,
      "arrange": 6899,
      "float": 6900,
      "grain": 6901,
      "cave": 6902,
      "jean": 6903,
      "coop": 6904,
      "gross": 6905,
      "spanish": 6906,
      "shrug": 6907,
      "##ato": 6908,
      "##bal": 6909,
      "vegan": 6910,
      "hypothesis": 6911,
      "##ja": 6912,
      "##ked": 6913,
      "philosopher": 6914,
      "assignment": 6915,
      "##sday": 6916,
      "immig": 6917,
      "asper": 6918,
      "pron": 6919,
      "mill": 6920,
      "##bage": 6921,
      "flight": 6922,
      "cuures": 6923,
      "excitement": 6924,
      "mainstream": 6925,
      "##ton": 6926,
      "##gic": 6927,
      "##stanti": 6928,
      "flexible": 6929,
      "classify": 6930,
      "##respect": 6931,
      "lat": 6932,
      "activ": 6933,
      "acquire": 6934,
      "romantically": 6935,
      "canada": 6936,
      "eliminate": 6937,
      "disturb": 6938,
      "##itor": 6939,
      "##inder": 6940,
      "boredom": 6941,
      "pessim": 6942,
      "##jectivity": 6943,
      "##igner": 6944,
      "goddam": 6945,
      "childish": 6946,
      "##natural": 6947,
      "bullet": 6948,
      "adver": 6949,
      "overthinking": 6950,
      "fortun": 6951,
      "achievement": 6952,
      "constructive": 6953,
      "einstein": 6954,
      "##bow": 6955,
      "disrespect": 6956,
      "sherlock": 6957,
      "pit": 6958,
      "variation": 6959,
      "dictate": 6960,
      "eight": 6961,
      "union": 6962,
      "mundane": 6963,
      "hr": 6964,
      "narrative": 6965,
      "trivial": 6966,
      "appreciation": 6967,
      "cuddle": 6968,
      "##ta": 6969,
      "asian": 6970,
      "nap": 6971,
      "veri": 6972,
      "device": 6973,
      "clin": 6974,
      "orange": 6975,
      "textbook": 6976,
      "discovery": 6977,
      "slam": 6978,
      "consu": 6979,
      "jun": 6980,
      "##illed": 6981,
      "prison": 6982,
      "masculine": 6983,
      "terribly": 6984,
      "commonly": 6985,
      "award": 6986,
      "celebrate": 6987,
      "chine": 6988,
      "pile": 6989,
      "conce": 6990,
      "openly": 6991,
      "mobile": 6992,
      "nur": 6993,
      "caffe": 6994,
      "ironically": 6995,
      "phd": 6996,
      "horm": 6997,
      "##ortive": 6998,
      "distinguish": 6999,
      "chinese": 7000,
      "teeth": 7001,
      "validity": 7002,
      "recogni": 7003,
      "gentle": 7004,
      "##storm": 7005,
      "brush": 7006,
      "portray": 7007,
      "##oly": 7008,
      "##vable": 7009,
      "clarity": 7010,
      "##social": 7011,
      "quant": 7012,
      "hah": 7013,
      "##ache": 7014,
      "assert": 7015,
      "ponder": 7016,
      "assure": 7017,
      "rick": 7018,
      "hack": 7019,
      "probability": 7020,
      "racism": 7021,
      "agreement": 7022,
      "scratch": 7023,
      "reinforce": 7024,
      "tank": 7025,
      "upvot": 7026,
      "paral": 7027,
      "presentation": 7028,
      "additional": 7029,
      "oo": 7030,
      "##eral": 7031,
      "chore": 7032,
      "##tial": 7033,
      "lifetime": 7034,
      "conceptual": 7035,
      "tele": 7036,
      "##pected": 7037,
      "thoughtful": 7038,
      "douche": 7039,
      "sjw": 7040,
      "ell": 7041,
      "publish": 7042,
      "choc": 7043,
      "lawyer": 7044,
      "friday": 7045,
      "component": 7046,
      "progressive": 7047,
      "impulsive": 7048,
      "##fuck": 7049,
      "partially": 7050,
      "##ziness": 7051,
      "reass": 7052,
      "makeup": 7053,
      "simuaneously": 7054,
      "villain": 7055,
      "unint": 7056,
      "afric": 7057,
      "##ulously": 7058,
      "partly": 7059,
      "supportive": 7060,
      "motor": 7061,
      "interpersonal": 7062,
      "reader": 7063,
      "essence": 7064,
      "##cery": 7065,
      "unexpected": 7066,
      "freeze": 7067,
      "##lr": 7068,
      "##ling": 7069,
      "reasonably": 7070,
      "refine": 7071,
      "exhibit": 7072,
      "applic": 7073,
      "pizza": 7074,
      "dys": 7075,
      "developer": 7076,
      "indicator": 7077,
      "tort": 7078,
      "thrive": 7079,
      "navig": 7080,
      "incon": 7081,
      "societal": 7082,
      "importantly": 7083,
      "fade": 7084,
      "##osexual": 7085,
      "quantum": 7086,
      "bc": 7087,
      "inno": 7088,
      "nihilism": 7089,
      "##rove": 7090,
      "equality": 7091,
      "mutually": 7092,
      "musician": 7093,
      "ambition": 7094,
      "##icle": 7095,
      "extraversion": 7096,
      "purch": 7097,
      "capitalist": 7098,
      "doom": 7099,
      "hospital": 7100,
      "emphasis": 7101,
      "garbage": 7102,
      "legitimate": 7103,
      "repro": 7104,
      "complexity": 7105,
      "clock": 7106,
      "naive": 7107,
      "obnoxious": 7108,
      "##bid": 7109,
      "protest": 7110,
      "obsessive": 7111,
      "thoroughly": 7112,
      "ness": 7113,
      "accom": 7114,
      "inaccurate": 7115,
      "##vention": 7116,
      "compla": 7117,
      "##aptop": 7118,
      "purchase": 7119,
      "fond": 7120,
      "immense": 7121,
      "##iveness": 7122,
      "gard": 7123,
      "stimulation": 7124,
      "laptop": 7125,
      "explicitly": 7126,
      "subconsciously": 7127,
      "someday": 7128,
      "sober": 7129,
      "ironic": 7130,
      "##ib": 7131,
      "##diction": 7132,
      "##ially": 7133,
      "horror": 7134,
      "magical": 7135,
      "penis": 7136,
      "##atical": 7137,
      "##nn": 7138,
      "##fly": 7139,
      "caffeine": 7140,
      "##port": 7141,
      "##nia": 7142,
      "##interpret": 7143,
      "prioritize": 7144,
      "kit": 7145,
      "lsd": 7146,
      "cure": 7147,
      "cognition": 7148,
      "##uc": 7149,
      "storm": 7150,
      "neck": 7151,
      "equip": 7152,
      "hillary": 7153,
      "##mark": 7154,
      "flower": 7155,
      "nfs": 7156,
      "##ena": 7157,
      "tor": 7158,
      "radical": 7159,
      "happily": 7160,
      "pray": 7161,
      "##ept": 7162,
      "height": 7163,
      "traffic": 7164,
      "illust": 7165,
      "recommendation": 7166,
      "creator": 7167,
      "muse": 7168,
      "dramatic": 7169,
      "unreal": 7170,
      "leap": 7171,
      "sexually": 7172,
      "historical": 7173,
      "integrate": 7174,
      "advertise": 7175,
      "##rish": 7176,
      "openness": 7177,
      "expressive": 7178,
      "frequent": 7179,
      "bach": 7180,
      "tangent": 7181,
      "retire": 7182,
      "outlook": 7183,
      "beach": 7184,
      "tumb": 7185,
      "chocolate": 7186,
      "communism": 7187,
      "privacy": 7188,
      "grocery": 7189,
      "breakup": 7190,
      "autistic": 7191,
      "steam": 7192,
      "##och": 7193,
      "##agram": 7194,
      "##ompt": 7195,
      "##steri": 7196,
      "yog": 7197,
      "trauma": 7198,
      "exaggerate": 7199,
      "ix": 7200,
      "##ino": 7201,
      "petty": 7202,
      "rationality": 7203,
      "##fi": 7204,
      "usa": 7205,
      "##gen": 7206,
      "marx": 7207,
      "worthless": 7208,
      "trial": 7209,
      "hier": 7210,
      "corporation": 7211,
      "destructive": 7212,
      "kitch": 7213,
      "congrat": 7214,
      "utterly": 7215,
      "asp": 7216,
      "innocent": 7217,
      "sink": 7218,
      "motion": 7219,
      "british": 7220,
      "despise": 7221,
      "quad": 7222,
      "aesthetic": 7223,
      "cig": 7224,
      "mission": 7225,
      "sequ": 7226,
      "affirmation": 7227,
      "temporary": 7228,
      "nurse": 7229,
      "china": 7230,
      "kitchen": 7231,
      "superiority": 7232,
      "oil": 7233,
      "wolf": 7234,
      "ik": 7235,
      "bold": 7236,
      "chair": 7237,
      "empirical": 7238,
      "reciprocate": 7239,
      "tong": 7240,
      "veget": 7241,
      "##ensitive": 7242,
      "handful": 7243,
      "chapter": 7244,
      "bone": 7245,
      "bless": 7246,
      "hungry": 7247,
      "morally": 7248,
      "loyay": 7249,
      "##ilst": 7250,
      "imper": 7251,
      "kan": 7252,
      "ticket": 7253,
      "##ilot": 7254,
      "association": 7255,
      "##tist": 7256,
      "controver": 7257,
      "downvoted": 7258,
      "mand": 7259,
      "sweat": 7260,
      "honor": 7261,
      "discri": 7262,
      "##athe": 7263,
      "print": 7264,
      "island": 7265,
      "electronic": 7266,
      "whilst": 7267,
      "submit": 7268,
      "setting": 7269,
      "gest": 7270,
      "outright": 7271,
      "##hear": 7272,
      "needy": 7273,
      "reci": 7274,
      "ambig": 7275,
      "golden": 7276,
      "seven": 7277,
      "excessive": 7278,
      "tail": 7279,
      "dipl": 7280,
      "dwell": 7281,
      "square": 7282,
      "##fast": 7283,
      "confirmation": 7284,
      "don": 7285,
      "introspection": 7286,
      "tex": 7287,
      "curse": 7288,
      "thrill": 7289,
      "##onald": 7290,
      "bake": 7291,
      "##ko": 7292,
      "##enance": 7293,
      "tumblr": 7294,
      "agre": 7295,
      "solo": 7296,
      "##mind": 7297,
      "ppl": 7298,
      "undergra": 7299,
      "decl": 7300,
      "tongue": 7301,
      "killer": 7302,
      "strictly": 7303,
      "entity": 7304,
      "##cho": 7305,
      "##rack": 7306,
      "territ": 7307,
      "harry": 7308,
      "secretly": 7309,
      "clos": 7310,
      "highschool": 7311,
      "##utch": 7312,
      "entry": 7313,
      "indiffer": 7314,
      "differentiate": 7315,
      "diplom": 7316,
      "fourth": 7317,
      "breed": 7318,
      "##write": 7319,
      "emerg": 7320,
      "pretentious": 7321,
      "institution": 7322,
      "upvote": 7323,
      "##orthy": 7324,
      "upper": 7325,
      "comprehend": 7326,
      "wage": 7327,
      "transfer": 7328,
      "tolerance": 7329,
      "workplace": 7330,
      "##vilege": 7331,
      "##care": 7332,
      "##fs": 7333,
      "motif": 7334,
      "backwards": 7335,
      "campa": 7336,
      "bip": 7337,
      "##xim": 7338,
      "coin": 7339,
      "headphone": 7340,
      "insuing": 7341,
      "ink": 7342,
      "##ied": 7343,
      "drift": 7344,
      "straw": 7345,
      "bathroom": 7346,
      "roughly": 7347,
      "utilize": 7348,
      "electric": 7349,
      "nose": 7350,
      "##word": 7351,
      "idealistic": 7352,
      "misinterpret": 7353,
      "enjoyment": 7354,
      "##ethe": 7355,
      "nostal": 7356,
      "station": 7357,
      "hardcore": 7358,
      "solitude": 7359,
      "boot": 7360,
      "##etz": 7361,
      "spare": 7362,
      "lur": 7363,
      "##fa": 7364,
      "certainty": 7365,
      "boost": 7366,
      "remotely": 7367,
      "tack": 7368,
      "era": 7369,
      "impulse": 7370,
      "downvote": 7371,
      "dread": 7372,
      "sorta": 7373,
      "##wa": 7374,
      "persist": 7375,
      "soooo": 7376,
      "legend": 7377,
      "##roid": 7378,
      "mock": 7379,
      "explode": 7380,
      "##ease": 7381,
      "unit": 7382,
      "##hhh": 7383,
      "disagreement": 7384,
      "republican": 7385,
      "##hael": 7386,
      "recognition": 7387,
      "bee": 7388,
      "stead": 7389,
      "compens": 7390,
      "anecdot": 7391,
      "outs": 7392,
      "pokemon": 7393,
      "campaign": 7394,
      "kindness": 7395,
      "intensity": 7396,
      "consens": 7397,
      "outlet": 7398,
      "##sche": 7399,
      "expense": 7400,
      "budget": 7401,
      "##coming": 7402,
      "zomb": 7403,
      "##estimate": 7404,
      "twitter": 7405,
      "junk": 7406,
      "modi": 7407,
      "##uster": 7408,
      "##edness": 7409,
      "bump": 7410,
      "pity": 7411,
      "##ium": 7412,
      "##lead": 7413,
      "han": 7414,
      "anonym": 7415,
      "tempt": 7416,
      "recon": 7417,
      "herm": 7418,
      "anth": 7419,
      "profound": 7420,
      "paradox": 7421,
      "synd": 7422,
      "capt": 7423,
      "luc": 7424,
      "legit": 7425,
      "twin": 7426,
      "##astic": 7427,
      "mysteri": 7428,
      "narcissism": 7429,
      "##oti": 7430,
      "worthwhile": 7431,
      "mui": 7432,
      "relatable": 7433,
      "awake": 7434,
      "oddly": 7435,
      "privilege": 7436,
      "environmental": 7437,
      "cheese": 7438,
      "simplify": 7439,
      "climate": 7440,
      "overlap": 7441,
      "rpg": 7442,
      "##ledg": 7443,
      "wo": 7444,
      "##ulator": 7445,
      "sund": 7446,
      "orientation": 7447,
      "##gu": 7448,
      "##utter": 7449,
      "michael": 7450,
      "##fact": 7451,
      "likewise": 7452,
      "##idal": 7453,
      "negatively": 7454,
      "formula": 7455,
      "meanwhile": 7456,
      "witness": 7457,
      "civilization": 7458,
      "##tio": 7459,
      "skew": 7460,
      "accommo": 7461,
      "##unction": 7462,
      "combat": 7463,
      "atheism": 7464,
      "elementary": 7465,
      "employer": 7466,
      "kore": 7467,
      "##herent": 7468,
      "mum": 7469,
      "##ictive": 7470,
      "anytime": 7471,
      "##amed": 7472,
      "unfortunate": 7473,
      "representation": 7474,
      "og": 7475,
      "refresh": 7476,
      "propag": 7477,
      "oce": 7478,
      "##rust": 7479,
      "relief": 7480,
      "trail": 7481,
      "capability": 7482,
      "sexuality": 7483,
      "cher": 7484,
      "##atar": 7485,
      "##ts": 7486,
      "ongue": 7487,
      "contradiction": 7488,
      "##sexual": 7489,
      "edgy": 7490,
      "navigate": 7491,
      "tension": 7492,
      "obe": 7493,
      "lic": 7494,
      "rebel": 7495,
      "##ops": 7496,
      "monog": 7497,
      "nod": 7498,
      "lens": 7499,
      "maintenance": 7500,
      "inevitable": 7501,
      "##gor": 7502,
      "digital": 7503,
      "exploit": 7504,
      "##amp": 7505,
      "oneself": 7506,
      "enthusiasm": 7507,
      "gate": 7508,
      "unst": 7509,
      "energ": 7510,
      "photography": 7511,
      "reminder": 7512,
      "execute": 7513,
      "garden": 7514,
      "stumble": 7515,
      "blat": 7516,
      "stalk": 7517,
      "picky": 7518,
      "austral": 7519,
      "lame": 7520,
      "cream": 7521,
      "reputation": 7522,
      "iden": 7523,
      "productivity": 7524,
      "talkative": 7525,
      "david": 7526,
      "bipolar": 7527,
      "ocean": 7528,
      "##leas": 7529,
      "##organ": 7530,
      "laziness": 7531,
      "permanent": 7532,
      "torture": 7533,
      "ft": 7534,
      "goddamn": 7535,
      "lover": 7536,
      "compul": 7537,
      "couch": 7538,
      "alike": 7539,
      "nuclear": 7540,
      "virgin": 7541,
      "classmate": 7542,
      "spiral": 7543,
      "milk": 7544,
      "##gage": 7545,
      "nerve": 7546,
      "nietz": 7547,
      "combo": 7548,
      "tangible": 7549,
      "youth": 7550,
      "##nife": 7551,
      "tes": 7552,
      "##cially": 7553,
      "mechanical": 7554,
      "buzz": 7555,
      "ancient": 7556,
      "adorable": 7557,
      "highlight": 7558,
      "##night": 7559,
      "shout": 7560,
      "reck": 7561,
      "owe": 7562,
      "potter": 7563,
      "judgmental": 7564,
      "virtue": 7565,
      "##ex": 7566,
      "##ho": 7567,
      "incident": 7568,
      "nicely": 7569,
      "substanti": 7570,
      "##osc": 7571,
      "isolation": 7572,
      "pregn": 7573,
      "monkey": 7574,
      "##az": 7575,
      "officer": 7576,
      "gesture": 7577,
      "ol": 7578,
      "##beit": 7579,
      "basket": 7580,
      "barrier": 7581,
      "grateful": 7582,
      "##ora": 7583,
      "forest": 7584,
      "exploration": 7585,
      "rot": 7586,
      "##law": 7587,
      "beg": 7588,
      "masturb": 7589,
      "hypocri": 7590,
      "##zer": 7591,
      "insurance": 7592,
      "jazz": 7593,
      "meta": 7594,
      "exclusively": 7595,
      "defeat": 7596,
      "pocket": 7597,
      "ntp": 7598,
      "fart": 7599,
      "prompt": 7600,
      "monogam": 7601,
      "wrest": 7602,
      "impressive": 7603,
      "sidebar": 7604,
      "##atedly": 7605,
      "discrim": 7606,
      "##ba": 7607,
      "##ating": 7608,
      "cance": 7609,
      "numer": 7610,
      "knife": 7611,
      "territory": 7612,
      "persu": 7613,
      "documentary": 7614,
      "zombie": 7615,
      "pier": 7616,
      "stab": 7617,
      "scare": 7618,
      "dull": 7619,
      "clingy": 7620,
      "xst": 7621,
      "fluid": 7622,
      "vulnerability": 7623,
      "mysterious": 7624,
      "##geon": 7625,
      "##quer": 7626,
      "detect": 7627,
      "regulation": 7628,
      "communist": 7629,
      "abortion": 7630,
      "##flake": 7631,
      "indulge": 7632,
      "adore": 7633,
      "irony": 7634,
      "champ": 7635,
      "resume": 7636,
      "instruction": 7637,
      "obtain": 7638,
      "thankfully": 7639,
      "accent": 7640,
      "##ans": 7641,
      "##ication": 7642,
      "##front": 7643,
      "##rial": 7644,
      "france": 7645,
      "colleague": 7646,
      "occupy": 7647,
      "##sta": 7648,
      "blend": 7649,
      "##yl": 7650,
      "teenage": 7651,
      "binge": 7652,
      "courage": 7653,
      "japan": 7654,
      "ip": 7655,
      "nit": 7656,
      "cliche": 7657,
      "##cut": 7658,
      "psyche": 7659,
      "angel": 7660,
      "capture": 7661,
      "albeit": 7662,
      "variant": 7663,
      "ideally": 7664,
      "##illing": 7665,
      "cruel": 7666,
      "dialogue": 7667,
      "##ux": 7668,
      "##reck": 7669,
      "empire": 7670,
      "exclude": 7671,
      "retreat": 7672,
      "rabbit": 7673,
      "poem": 7674,
      "selection": 7675,
      "nick": 7676,
      "aww": 7677,
      "stupidity": 7678,
      "platform": 7679,
      "identical": 7680,
      "##inton": 7681,
      "necessity": 7682,
      "dop": 7683,
      "##ronic": 7684,
      "ratio": 7685,
      "rhet": 7686,
      "tact": 7687,
      "complement": 7688,
      "intrins": 7689,
      "shot": 7690,
      "nietzsche": 7691,
      "##ermind": 7692,
      "convert": 7693,
      "vocab": 7694,
      "cancel": 7695,
      "hed": 7696,
      "##getic": 7697,
      "yoga": 7698,
      "proc": 7699,
      "knowledg": 7700,
      "miscon": 7701,
      "prec": 7702,
      "cigar": 7703,
      "loathe": 7704,
      "slide": 7705,
      "greek": 7706,
      "eternal": 7707,
      "mart": 7708,
      "confe": 7709,
      "psycho": 7710,
      "liar": 7711,
      "compan": 7712,
      "extensive": 7713,
      "obsc": 7714,
      "purple": 7715,
      "##bring": 7716,
      "diagnosis": 7717,
      "outwardly": 7718,
      "##isc": 7719,
      "applicable": 7720,
      "sneak": 7721,
      "devote": 7722,
      "snowflake": 7723,
      "##roke": 7724,
      "mush": 7725,
      "flavor": 7726,
      "halfway": 7727,
      "companion": 7728,
      "usage": 7729,
      "tricky": 7730,
      "sunday": 7731,
      "interfer": 7732,
      "accomplishment": 7733,
      "pour": 7734,
      "rum": 7735,
      "mentor": 7736,
      "##ithm": 7737,
      "##thermore": 7738,
      "repeatedly": 7739,
      "verbally": 7740,
      "ought": 7741,
      "pyth": 7742,
      "thro": 7743,
      "chest": 7744,
      "##iac": 7745,
      "##antic": 7746,
      "devi": 7747,
      "pause": 7748,
      "##bringing": 7749,
      "##leon": 7750,
      "coworker": 7751,
      "linear": 7752,
      "mastermind": 7753,
      "biz": 7754,
      "void": 7755,
      "upbringing": 7756,
      "harass": 7757,
      "idealist": 7758,
      "puppy": 7759,
      "bru": 7760,
      "envy": 7761,
      "incorpor": 7762,
      "goss": 7763,
      "##worthy": 7764,
      "##uise": 7765,
      "gau": 7766,
      "nic": 7767,
      "##bri": 7768,
      "rationally": 7769,
      "understandable": 7770,
      "nerdy": 7771,
      "##lessness": 7772,
      "resort": 7773,
      "quirk": 7774,
      "rhetor": 7775,
      "##ruption": 7776,
      "epic": 7777,
      "##lapse": 7778,
      "inevitably": 7779,
      "bast": 7780,
      "loan": 7781,
      "uninterest": 7782,
      "furthermore": 7783,
      "repetitive": 7784,
      "gossip": 7785,
      "fold": 7786,
      "hormone": 7787,
      "tid": 7788,
      "##bs": 7789,
      "##sty": 7790,
      "feder": 7791,
      "peaceful": 7792,
      "unaware": 7793,
      "cauti": 7794,
      "listener": 7795,
      "hen": 7796,
      "breakfast": 7797,
      "raven": 7798,
      "hatred": 7799,
      "fw": 7800,
      "pee": 7801,
      "##ceiver": 7802,
      "alarm": 7803,
      "brag": 7804,
      "emphasize": 7805,
      "amongst": 7806,
      "respective": 7807,
      "blan": 7808,
      "avatar": 7809,
      "internalize": 7810,
      "##isp": 7811,
      "opponent": 7812,
      "##vate": 7813,
      "soph": 7814,
      "tutor": 7815,
      "inapp": 7816,
      "household": 7817,
      "beta": 7818,
      "hal": 7819,
      "chame": 7820,
      "dras": 7821,
      "##oscope": 7822,
      "##irable": 7823,
      "ec": 7824,
      "enable": 7825,
      "algor": 7826,
      "##inal": 7827,
      "transform": 7828,
      "congratulation": 7829,
      "buck": 7830,
      "ven": 7831,
      "pose": 7832,
      "mail": 7833,
      "goofy": 7834,
      "ocd": 7835,
      "standpoint": 7836,
      "acid": 7837,
      "polar": 7838,
      "vict": 7839,
      "##post": 7840,
      "##fx": 7841,
      "definite": 7842,
      "congrats": 7843,
      "##ulary": 7844,
      "##ju": 7845,
      "consci": 7846,
      "veh": 7847,
      "bass": 7848,
      "##ike": 7849,
      "##zzy": 7850,
      "nega": 7851,
      "prediction": 7852,
      "stom": 7853,
      "pros": 7854,
      "authoritarian": 7855,
      "##jud": 7856,
      "needle": 7857,
      "generic": 7858,
      "limitation": 7859,
      "lb": 7860,
      "unpleas": 7861,
      "chameleon": 7862,
      "##crat": 7863,
      "queen": 7864,
      "scope": 7865,
      "som": 7866,
      "##top": 7867,
      "##jerk": 7868,
      "ridiculously": 7869,
      "algorithm": 7870,
      "corrupt": 7871,
      "sword": 7872,
      "slap": 7873,
      "workout": 7874,
      "administ": 7875,
      "bachel": 7876,
      "bastard": 7877,
      "##sight": 7878,
      "aloof": 7879,
      "collapse": 7880,
      "discourage": 7881,
      "recipe": 7882,
      "chuck": 7883,
      "designer": 7884,
      "critique": 7885,
      "##attery": 7886,
      "counselor": 7887,
      "ii": 7888,
      "explos": 7889,
      "retail": 7890,
      "unreason": 7891,
      "##bear": 7892,
      "quanti": 7893,
      "incorporate": 7894,
      "##med": 7895,
      "margin": 7896,
      "bedroom": 7897,
      "stomach": 7898,
      "swed": 7899,
      "uncomm": 7900,
      "moron": 7901,
      "indec": 7902,
      "##itant": 7903,
      "skype": 7904,
      "predictable": 7905,
      "incompetent": 7906,
      "consensus": 7907,
      "##sible": 7908,
      "caus": 7909,
      "integr": 7910,
      "##ament": 7911,
      "##orious": 7912,
      "uncle": 7913,
      "international": 7914,
      "democratic": 7915,
      "syndrome": 7916,
      "sle": 7917,
      "sab": 7918,
      "sensitivity": 7919,
      "punk": 7920,
      "summary": 7921,
      "hierarchy": 7922,
      "whatnot": 7923,
      "bell": 7924,
      "geek": 7925,
      "loser": 7926,
      "##mother": 7927,
      "skilled": 7928,
      "casually": 7929,
      "eastern": 7930,
      "contemplate": 7931,
      "##nis": 7932,
      "##wood": 7933,
      "brainstorm": 7934,
      "negoti": 7935,
      "externally": 7936,
      "##net": 7937,
      "##sect": 7938,
      "##sial": 7939,
      "license": 7940,
      "sheep": 7941,
      "curve": 7942,
      "desperate": 7943,
      "nasty": 7944,
      "worship": 7945,
      "buff": 7946,
      "##uff": 7947,
      "aernate": 7948,
      "aogether": 7949,
      "dae": 7950,
      "campus": 7951,
      "unrealistic": 7952,
      "##quis": 7953,
      "vehicle": 7954,
      "preach": 7955,
      "energize": 7956,
      "iphone": 7957,
      "mari": 7958,
      "breakdown": 7959,
      "additionally": 7960,
      "toss": 7961,
      "agency": 7962,
      "esp": 7963,
      "bb": 7964,
      "bob": 7965,
      "indirect": 7966,
      "unpleasant": 7967,
      "ber": 7968,
      "fate": 7969,
      "grace": 7970,
      "punishment": 7971,
      "conscientious": 7972,
      "dub": 7973,
      "truck": 7974,
      "stag": 7975,
      "subtype": 7976,
      "pierce": 7977,
      "clinton": 7978,
      "##itious": 7979,
      "bachelor": 7980,
      "uncommon": 7981,
      "psychiatrist": 7982,
      "blanket": 7983,
      "pragmatic": 7984,
      "##arter": 7985,
      "ambiver": 7986,
      "##illa": 7987,
      "hahah": 7988,
      "heahcare": 7989,
      "approve": 7990,
      "##lay": 7991,
      "##mean": 7992,
      "projection": 7993,
      "python": 7994,
      "##ix": 7995,
      "imaginary": 7996,
      "integrity": 7997,
      "rit": 7998,
      "adder": 7999,
      "awkwardness": 8000,
      "##sen": 8001,
      "suicidal": 8002,
      "ashamed": 8003,
      "pound": 8004,
      "##very": 8005,
      "ord": 8006,
      "auton": 8007,
      "harmful": 8008,
      "river": 8009,
      "manual": 8010,
      "tedi": 8011,
      "blast": 8012,
      "justification": 8013,
      "##oooooooo": 8014,
      "carl": 8015,
      "##respond": 8016,
      "toe": 8017,
      "reli": 8018,
      "evolutionary": 8019,
      "ry": 8020,
      "##itable": 8021,
      "stroke": 8022,
      "##angle": 8023,
      "quietly": 8024,
      "stats": 8025,
      "correspond": 8026,
      "horoscope": 8027,
      "restrict": 8028,
      "mas": 8029,
      "legitim": 8030,
      "##etheless": 8031,
      "vocabulary": 8032,
      "tour": 8033,
      "insensitive": 8034,
      "numb": 8035,
      "pathetic": 8036,
      "chip": 8037,
      "nonetheless": 8038,
      "##icorn": 8039,
      "##fall": 8040,
      "adam": 8041,
      "badass": 8042,
      "factual": 8043,
      "ham": 8044,
      "unemp": 8045,
      "calculus": 8046,
      "neuros": 8047,
      "##uuuu": 8048,
      "duck": 8049,
      "##vin": 8050,
      "polr": 8051,
      "assertion": 8052,
      "anticip": 8053,
      "cab": 8054,
      "strip": 8055,
      "anecdotal": 8056,
      "controversial": 8057,
      "fer": 8058,
      "##break": 8059,
      "contribution": 8060,
      "abstraction": 8061,
      "confrontation": 8062,
      "monitor": 8063,
      "knee": 8064,
      "proportion": 8065,
      "disprove": 8066,
      "gauge": 8067,
      "playful": 8068,
      "outline": 8069,
      "whine": 8070,
      "efficiently": 8071,
      "violate": 8072,
      "simulation": 8073,
      "lucid": 8074,
      "##nel": 8075,
      "charismatic": 8076,
      "convenient": 8077,
      "mold": 8078,
      "yellow": 8079,
      "provoke": 8080,
      "soc": 8081,
      "eld": 8082,
      "##urday": 8083,
      "karma": 8084,
      "jim": 8085,
      "##bert": 8086,
      "glance": 8087,
      "lux": 8088,
      "complaint": 8089,
      "##entric": 8090,
      "more": 8091,
      "sold": 8092,
      "paul": 8093,
      "freely": 8094,
      "entrep": 8095,
      "lend": 8096,
      "slack": 8097,
      "whim": 8098,
      "sly": 8099,
      "tro": 8100,
      "crappy": 8101,
      "organise": 8102,
      "saturday": 8103,
      "cautious": 8104,
      "##ya": 8105,
      "##versity": 8106,
      "brave": 8107,
      "lingu": 8108,
      "exposure": 8109,
      "statistically": 8110,
      "outdo": 8111,
      "keyboard": 8112,
      "cite": 8113,
      "ww": 8114,
      "##iously": 8115,
      "##inent": 8116,
      "conviction": 8117,
      "pitch": 8118,
      "##arre": 8119,
      "cli": 8120,
      "gravity": 8121,
      "knowledgeable": 8122,
      "##ten": 8123,
      "disaster": 8124,
      "apps": 8125,
      "speculation": 8126,
      "nag": 8127,
      "behavioral": 8128,
      "compatibility": 8129,
      "unicorn": 8130,
      "spa": 8131,
      "contradictory": 8132,
      "tert": 8133,
      "deliberately": 8134,
      "commer": 8135,
      "##rene": 8136,
      "##lel": 8137,
      "decline": 8138,
      "uncertainty": 8139,
      "facil": 8140,
      "weirdo": 8141,
      "unpre": 8142,
      "##xps": 8143,
      "scatter": 8144,
      "butterfly": 8145,
      "##life": 8146,
      "successfully": 8147,
      "ambitious": 8148,
      "platonic": 8149,
      "mathematical": 8150,
      "dopamine": 8151,
      "##name": 8152,
      "##quate": 8153,
      "##uity": 8154,
      "ko": 8155,
      "##xic": 8156,
      "enh": 8157,
      "##inem": 8158,
      "medioc": 8159,
      "accommodate": 8160,
      "##mic": 8161,
      "concise": 8162,
      "selective": 8163,
      "fiance": 8164,
      "mislead": 8165,
      "nutri": 8166,
      "demean": 8167,
      "plane": 8168,
      "nor": 8169,
      "##wl": 8170,
      "shove": 8171,
      "##anter": 8172,
      "recre": 8173,
      "homeless": 8174,
      "accordingly": 8175,
      "##hen": 8176,
      "##rue": 8177,
      "appy": 8178,
      "mindfulness": 8179,
      "resistance": 8180,
      "lurk": 8181,
      "polish": 8182,
      "mini": 8183,
      "vivid": 8184,
      "specialize": 8185,
      "peak": 8186,
      "##uum": 8187,
      "weekly": 8188,
      "spirituality": 8189,
      "buddhism": 8190,
      "insus": 8191,
      "martial": 8192,
      "dominance": 8193,
      "trem": 8194,
      "tinder": 8195,
      "##rac": 8196,
      "prime": 8197,
      "thumb": 8198,
      "dictator": 8199,
      "##nic": 8200,
      "thick": 8201,
      "detri": 8202,
      "poison": 8203,
      "verify": 8204,
      "ade": 8205,
      "##develop": 8206,
      "singular": 8207,
      "fence": 8208,
      "prejud": 8209,
      "ital": 8210,
      "genetics": 8211,
      "numerous": 8212,
      "##fle": 8213,
      "downside": 8214,
      "binary": 8215,
      "sket": 8216,
      "##sb": 8217,
      "synth": 8218,
      "wreck": 8219,
      "##aked": 8220,
      "george": 8221,
      "undergrad": 8222,
      "ixx": 8223,
      "introspective": 8224,
      "chronic": 8225,
      "download": 8226,
      "##eeeeeeee": 8227,
      "##qual": 8228,
      "wherever": 8229,
      "unpro": 8230,
      "respectful": 8231,
      "compensate": 8232,
      "##rease": 8233,
      "##raine": 8234,
      "operation": 8235,
      "warrant": 8236,
      "##ourse": 8237,
      "extension": 8238,
      "drum": 8239,
      "staff": 8240,
      "sketch": 8241,
      "coincidence": 8242,
      "rainbow": 8243,
      "mildly": 8244,
      "hoard": 8245,
      "psychedelics": 8246,
      "cali": 8247,
      "##liness": 8248,
      "financially": 8249,
      "##fect": 8250,
      "output": 8251,
      "##tible": 8252,
      "counterp": 8253,
      "bizarre": 8254,
      "entreprene": 8255,
      "##gia": 8256,
      "##verty": 8257,
      "relieve": 8258,
      "decrease": 8259,
      "dishone": 8260,
      "ritual": 8261,
      "poverty": 8262,
      "impati": 8263,
      "democrat": 8264,
      "dar": 8265,
      "pump": 8266,
      "bern": 8267,
      "perceiver": 8268,
      "##hib": 8269,
      "modify": 8270,
      "##ai": 8271,
      "##ban": 8272,
      "volume": 8273,
      "consum": 8274,
      "characteri": 8275,
      "##kind": 8276,
      "charity": 8277,
      "mmm": 8278,
      "infat": 8279,
      "##berg": 8280,
      "##gery": 8281,
      "prejudice": 8282,
      "##mine": 8283,
      "theoretically": 8284,
      "register": 8285,
      "preferably": 8286,
      "sexist": 8287,
      "admittedly": 8288,
      "proced": 8289,
      "fab": 8290,
      "rapid": 8291,
      "transport": 8292,
      "declare": 8293,
      "readily": 8294,
      "invis": 8295,
      "grandmother": 8296,
      "scan": 8297,
      "recognise": 8298,
      "unwilling": 8299,
      "federal": 8300,
      "unemploy": 8301,
      "##erver": 8302,
      "visible": 8303,
      "batman": 8304,
      "tackle": 8305,
      "adderall": 8306,
      "##rael": 8307,
      "strategic": 8308,
      "tedious": 8309,
      "##rint": 8310,
      "intuit": 8311,
      "quest": 8312,
      "freel": 8313,
      "candy": 8314,
      "sane": 8315,
      "elev": 8316,
      "naked": 8317,
      "##zard": 8318,
      "##fire": 8319,
      "estimate": 8320,
      "boom": 8321,
      "architecture": 8322,
      "legitimately": 8323,
      "drown": 8324,
      "realistically": 8325,
      "sf": 8326,
      "circlejerk": 8327,
      "tremend": 8328,
      "##uman": 8329,
      "inappropriate": 8330,
      "iv": 8331,
      "clarification": 8332,
      "##utive": 8333,
      "##atis": 8334,
      "underdevelop": 8335,
      "overlook": 8336,
      "##anny": 8337,
      "pt": 8338,
      "resolution": 8339,
      "talented": 8340,
      "coc": 8341,
      "##rim": 8342,
      "decor": 8343,
      "coach": 8344,
      "novey": 8345,
      "flood": 8346,
      "translation": 8347,
      "inward": 8348,
      "witch": 8349,
      "smash": 8350,
      "inefficient": 8351,
      "audio": 8352,
      "echo": 8353,
      "salary": 8354,
      "pilot": 8355,
      "antisocial": 8356,
      "flesh": 8357,
      "chunk": 8358,
      "starve": 8359,
      "facet": 8360,
      "niche": 8361,
      "seman": 8362,
      "categor": 8363,
      "##house": 8364,
      "##erge": 8365,
      "##olly": 8366,
      "##father": 8367,
      "inconsistency": 8368,
      "sock": 8369,
      "throne": 8370,
      "coast": 8371,
      "cigarette": 8372,
      "befriend": 8373,
      "xntp": 8374,
      "enthusiastic": 8375,
      "##win": 8376,
      "intensely": 8377,
      "loner": 8378,
      "scot": 8379,
      "sav": 8380,
      "bury": 8381,
      "innate": 8382,
      "soldier": 8383,
      "dm": 8384,
      "##wk": 8385,
      "##shop": 8386,
      "##dient": 8387,
      "perfectionist": 8388,
      "apathy": 8389,
      "rust": 8390,
      "hunter": 8391,
      "clinical": 8392,
      "negativity": 8393,
      "ost": 8394,
      "##icit": 8395,
      "##mos": 8396,
      "##shell": 8397,
      "israel": 8398,
      "pussy": 8399,
      "construction": 8400,
      "unreasonable": 8401,
      "dit": 8402,
      "lou": 8403,
      "heahier": 8404,
      "energetic": 8405,
      "authenticity": 8406,
      "enhance": 8407,
      "##cile": 8408,
      "optimal": 8409,
      "##hes": 8410,
      "repair": 8411,
      "obscure": 8412,
      "memor": 8413,
      "horribly": 8414,
      "vit": 8415,
      "##ura": 8416,
      "##vas": 8417,
      "socc": 8418,
      "coord": 8419,
      "mig": 8420,
      "goodness": 8421,
      "discomfort": 8422,
      "fitness": 8423,
      "observer": 8424,
      "initiative": 8425,
      "conduct": 8426,
      "theater": 8427,
      "escal": 8428,
      "soccer": 8429,
      "##boy": 8430,
      "affectionate": 8431,
      "amazon": 8432,
      "sheet": 8433,
      "politically": 8434,
      "##roph": 8435,
      "##icism": 8436,
      "avoidant": 8437,
      "toile": 8438,
      "suff": 8439,
      "obama": 8440,
      "fran": 8441,
      "disappointment": 8442,
      "##otion": 8443,
      "gray": 8444,
      "err": 8445,
      "freshman": 8446,
      "induce": 8447,
      "##olol": 8448,
      "jar": 8449,
      "##mart": 8450,
      "banter": 8451,
      "admi": 8452,
      "director": 8453,
      "delay": 8454,
      "##uct": 8455,
      "spouse": 8456,
      "desperately": 8457,
      "absence": 8458,
      "##erson": 8459,
      "supervis": 8460,
      "resemble": 8461,
      "conquer": 8462,
      "incl": 8463,
      "spam": 8464,
      "disclaim": 8465,
      "unpredict": 8466,
      "ara": 8467,
      "sid": 8468,
      "representative": 8469,
      "indie": 8470,
      "frag": 8471,
      "sincerely": 8472,
      "battery": 8473,
      "retain": 8474,
      "parallel": 8475,
      "soo": 8476,
      "atm": 8477,
      "cong": 8478,
      "##ocal": 8479,
      "grass": 8480,
      "brutal": 8481,
      "investigate": 8482,
      "##rade": 8483,
      "toilet": 8484,
      "mm": 8485,
      "ted": 8486,
      "metric": 8487,
      "immensely": 8488,
      "woo": 8489,
      "##xjs": 8490,
      "shade": 8491,
      "ntps": 8492,
      "outsider": 8493,
      "constitution": 8494,
      "##cription": 8495,
      "package": 8496,
      "##track": 8497,
      "gravitate": 8498,
      "ikke": 8499,
      "sham": 8500,
      "march": 8501,
      "##iiii": 8502,
      "fps": 8503,
      "heel": 8504,
      "ree": 8505,
      "prospect": 8506,
      "interfere": 8507,
      "##cha": 8508,
      "emotionless": 8509,
      "monop": 8510,
      "emerge": 8511,
      "hostile": 8512,
      "emergency": 8513,
      "dust": 8514,
      "##gent": 8515,
      "##pd": 8516,
      "steer": 8517,
      "##scape": 8518,
      "greet": 8519,
      "industrial": 8520,
      "trek": 8521,
      "asexual": 8522,
      "sus": 8523,
      "##istics": 8524,
      "retro": 8525,
      "patri": 8526,
      "delve": 8527,
      "ji": 8528,
      "##road": 8529,
      "spati": 8530,
      "pseudo": 8531,
      "##organize": 8532,
      "approval": 8533,
      "visualize": 8534,
      "butth": 8535,
      "concentration": 8536,
      "typo": 8537,
      "liberty": 8538,
      "pronounce": 8539,
      "disclaimer": 8540,
      "##rix": 8541,
      "aru": 8542,
      "consent": 8543,
      "md": 8544,
      "##aline": 8545,
      "plug": 8546,
      "##mma": 8547,
      "whis": 8548,
      "quirky": 8549,
      "throat": 8550,
      "##mes": 8551,
      "handy": 8552,
      "wrestle": 8553,
      "bush": 8554,
      "##enger": 8555,
      "gala": 8556,
      "junior": 8557,
      "bal": 8558,
      "##claw": 8559,
      "revel": 8560,
      "arc": 8561,
      "spider": 8562,
      "appoint": 8563,
      "laund": 8564,
      "reform": 8565,
      "##hahahaha": 8566,
      "vastly": 8567,
      "anecdote": 8568,
      "propaganda": 8569,
      "##agonist": 8570,
      "atom": 8571,
      "inconsistent": 8572,
      "quadra": 8573,
      "freelance": 8574,
      "supervisor": 8575,
      "##oom": 8576,
      "objectivity": 8577,
      "coll": 8578,
      "diction": 8579,
      "##orous": 8580,
      "ahh": 8581,
      "static": 8582,
      "quo": 8583,
      "honey": 8584,
      "bowl": 8585,
      "equate": 8586,
      "secondly": 8587,
      "imagin": 8588,
      "utility": 8589,
      "jan": 8590,
      "android": 8591,
      "cens": 8592,
      "hood": 8593,
      "##ologue": 8594,
      "restric": 8595,
      "##gers": 8596,
      "extrap": 8597,
      "keen": 8598,
      "unconsciously": 8599,
      "abra": 8600,
      "charisma": 8601,
      "bout": 8602,
      "each": 8603,
      "##allow": 8604,
      "follower": 8605,
      "guideline": 8606,
      "##fc": 8607,
      "unstable": 8608,
      "##stone": 8609,
      "credi": 8610,
      "severely": 8611,
      "califor": 8612,
      "##gi": 8613,
      "tribe": 8614,
      "##ification": 8615,
      "##rot": 8616,
      "minus": 8617,
      "auto": 8618,
      "mouse": 8619,
      "diverse": 8620,
      "spar": 8621,
      "denial": 8622,
      "revolve": 8623,
      "automatic": 8624,
      "athle": 8625,
      "##erence": 8626,
      "endea": 8627,
      "intuitively": 8628,
      "frequency": 8629,
      "eachother": 8630,
      "##ingness": 8631,
      "supernatural": 8632,
      "silver": 8633,
      "countless": 8634,
      "astron": 8635,
      "fortunately": 8636,
      "##su": 8637,
      "supplement": 8638,
      "jealousy": 8639,
      "##inator": 8640,
      "scientifically": 8641,
      "giggle": 8642,
      "consumer": 8643,
      "laundry": 8644,
      "bum": 8645,
      "artificial": 8646,
      "volunt": 8647,
      "incompati": 8648,
      "misconception": 8649,
      "scroll": 8650,
      "captain": 8651,
      "analyst": 8652,
      "##king": 8653,
      "##ffy": 8654,
      "playlist": 8655,
      "verse": 8656,
      "venture": 8657,
      "oops": 8658,
      "##ader": 8659,
      "mexic": 8660,
      "clip": 8661,
      "immoral": 8662,
      "##weight": 8663,
      "contest": 8664,
      "indo": 8665,
      "galaxy": 8666,
      "cui": 8667,
      "prol": 8668,
      "chew": 8669,
      "latin": 8670,
      "commercial": 8671,
      "dna": 8672,
      "##cup": 8673,
      "problematic": 8674,
      "homosexual": 8675,
      "tale": 8676,
      "ravenclaw": 8677,
      "serial": 8678,
      "##yyyy": 8679,
      "indifferent": 8680,
      "##juana": 8681,
      "yr": 8682,
      "##opp": 8683,
      "org": 8684,
      "regulate": 8685,
      "positively": 8686,
      "calor": 8687,
      "ntj": 8688,
      "australia": 8689,
      "cater": 8690,
      "jac": 8691,
      "approxim": 8692,
      "immort": 8693,
      "closet": 8694,
      "before": 8695,
      "brit": 8696,
      "cafe": 8697,
      "minimize": 8698,
      "apathetic": 8699,
      "obsta": 8700,
      "suspicious": 8701,
      "obstacle": 8702,
      "cough": 8703,
      "xx": 8704,
      "coat": 8705,
      "jackass": 8706,
      "virtually": 8707,
      "tier": 8708,
      "reluct": 8709,
      "##ami": 8710,
      "melanch": 8711,
      "lip": 8712,
      "potato": 8713,
      "marijuana": 8714,
      "ye": 8715,
      "stagn": 8716,
      "alge": 8717,
      "protection": 8718,
      "feely": 8719,
      "alienate": 8720,
      "beforehand": 8721,
      "expan": 8722,
      "preserve": 8723,
      "museum": 8724,
      "algebra": 8725,
      "mim": 8726,
      "underestimate": 8727,
      "##going": 8728,
      "##ersonal": 8729,
      "inclination": 8730,
      "compose": 8731,
      "slyther": 8732,
      "touchy": 8733,
      "cease": 8734,
      "##ule": 8735,
      "##vil": 8736,
      "##adv": 8737,
      "conventional": 8738,
      "illustrate": 8739,
      "ng": 8740,
      "bliss": 8741,
      "joe": 8742,
      "steady": 8743,
      "##rem": 8744,
      "##ado": 8745,
      "coherent": 8746,
      "aggression": 8747,
      "knight": 8748,
      "unintention": 8749,
      "liqu": 8750,
      "arrest": 8751,
      "domain": 8752,
      "viable": 8753,
      "widely": 8754,
      "rebell": 8755,
      "hammer": 8756,
      "funeral": 8757,
      "sociable": 8758,
      "delicious": 8759,
      "##rence": 8760,
      "##orse": 8761,
      "##lier": 8762,
      "eager": 8763,
      "fb": 8764,
      "absent": 8765,
      "wipe": 8766,
      "neuroscience": 8767,
      "##bag": 8768,
      "bio": 8769,
      "metaphys": 8770,
      "##beat": 8771,
      "pig": 8772,
      "accum": 8773,
      "argu": 8774,
      "shed": 8775,
      "##fty": 8776,
      "transcend": 8777,
      "reassure": 8778,
      "##een": 8779,
      "fif": 8780,
      "cripple": 8781,
      "idealize": 8782,
      "millen": 8783,
      "ka": 8784,
      "particle": 8785,
      "flame": 8786,
      "##ston": 8787,
      "spoiler": 8788,
      "cartoon": 8789,
      "##itype": 8790,
      "##ormal": 8791,
      "depressive": 8792,
      "darkness": 8793,
      "determin": 8794,
      "aunt": 8795,
      "##away": 8796,
      "adren": 8797,
      "##amin": 8798,
      "headache": 8799,
      "revenge": 8800,
      "##bon": 8801,
      "##dr": 8802,
      "##cycle": 8803,
      "rer": 8804,
      "fuckin": 8805,
      "discern": 8806,
      "swap": 8807,
      "affair": 8808,
      "fleet": 8809,
      "downvotes": 8810,
      "##ned": 8811,
      "whoa": 8812,
      "speculate": 8813,
      "everytime": 8814,
      "##obia": 8815,
      "##uild": 8816,
      "architect": 8817,
      "delusional": 8818,
      "##ogen": 8819,
      "scholar": 8820,
      "difficuies": 8821,
      "neuroticism": 8822,
      "patch": 8823,
      "##usible": 8824,
      "mole": 8825,
      "pessimistic": 8826,
      "quantity": 8827,
      "aqu": 8828,
      "jer": 8829,
      "jail": 8830,
      "grudge": 8831,
      "nine": 8832,
      "##ctr": 8833,
      "monologue": 8834,
      "independently": 8835,
      "competence": 8836,
      "oct": 8837,
      "##zation": 8838,
      "launch": 8839,
      "intentional": 8840,
      "indication": 8841,
      "wet": 8842,
      "seriousness": 8843,
      "zen": 8844,
      "strain": 8845,
      "cunt": 8846,
      "obligate": 8847,
      "##ames": 8848,
      "presume": 8849,
      "distress": 8850,
      "##alyze": 8851,
      "tld": 8852,
      "exit": 8853,
      "##teen": 8854,
      "dece": 8855,
      "decisive": 8856,
      "aftern": 8857,
      "italian": 8858,
      "suffic": 8859,
      "awww": 8860,
      "ooh": 8861,
      "afternoon": 8862,
      "ecc": 8863,
      "gpa": 8864,
      "hunch": 8865,
      "quarter": 8866,
      "firstly": 8867,
      "moderation": 8868,
      "roller": 8869,
      "##bleness": 8870,
      "xxx": 8871,
      "hurtful": 8872,
      "tun": 8873,
      "##ril": 8874,
      "summar": 8875,
      "tritype": 8876,
      "attain": 8877,
      "draft": 8878,
      "umm": 8879,
      "##wich": 8880,
      "mach": 8881,
      "procedure": 8882,
      "fox": 8883,
      "##shot": 8884,
      "currency": 8885,
      "gradually": 8886,
      "##ara": 8887,
      "phy": 8888,
      "##cript": 8889,
      "surgery": 8890,
      "mc": 8891,
      "horiz": 8892,
      "hermit": 8893,
      "nom": 8894,
      "overs": 8895,
      "thom": 8896,
      "distribution": 8897,
      "tm": 8898,
      "##umber": 8899,
      "warmth": 8900,
      "canadian": 8901,
      "equipment": 8902,
      "##ov": 8903,
      "unin": 8904,
      "sweep": 8905,
      "##lage": 8906,
      "spite": 8907,
      "bigot": 8908,
      "annoyance": 8909,
      "grandma": 8910,
      "##burst": 8911,
      "motorcycle": 8912,
      "california": 8913,
      "len": 8914,
      "bubbly": 8915,
      "turb": 8916,
      "##inctive": 8917,
      "inconven": 8918,
      "arguably": 8919,
      "tldr": 8920,
      "welf": 8921,
      "##step": 8922,
      "confid": 8923,
      "invisible": 8924,
      "##vol": 8925,
      "intx": 8926,
      "spit": 8927,
      "solar": 8928,
      "anarchist": 8929,
      "entrepreneur": 8930,
      "welfare": 8931,
      "considerate": 8932,
      "poland": 8933,
      "##grade": 8934,
      "hoc": 8935,
      "##rous": 8936,
      "anticipate": 8937,
      "dab": 8938,
      "##ji": 8939,
      "##ria": 8940,
      "##isexual": 8941,
      "foster": 8942,
      "maximum": 8943,
      "snake": 8944,
      "neighborhood": 8945,
      "cc": 8946,
      "##tte": 8947,
      "beast": 8948,
      "compassionate": 8949,
      "immigrant": 8950,
      "spatial": 8951,
      "bog": 8952,
      "fry": 8953,
      "limb": 8954,
      "manu": 8955,
      "minecraft": 8956,
      "dictionary": 8957,
      "atle": 8958,
      "adhere": 8959,
      "##oia": 8960,
      "sentimental": 8961,
      "deity": 8962,
      "glo": 8963,
      "resuing": 8964,
      "organic": 8965,
      "quan": 8966,
      "righte": 8967,
      "incentive": 8968,
      "##tie": 8969,
      "##cest": 8970,
      "##ptive": 8971,
      "##used": 8972,
      "believer": 8973,
      "formulate": 8974,
      "universally": 8975,
      "delivery": 8976,
      "calorie": 8977,
      "lash": 8978,
      "donald": 8979,
      "adventur": 8980,
      "yah": 8981,
      "##oodle": 8982,
      "precious": 8983,
      "insign": 8984,
      "supporter": 8985,
      "specify": 8986,
      "sandwich": 8987,
      "unpredictable": 8988,
      "##pick": 8989,
      "evaluation": 8990,
      "accus": 8991,
      "opposition": 8992,
      "educational": 8993,
      "hipster": 8994,
      "mimic": 8995,
      "slytherin": 8996,
      "monday": 8997,
      "##aaa": 8998,
      "automate": 8999,
      "sequence": 9000,
      "vag": 9001,
      "##rator": 9002,
      "##sole": 9003,
      "compass": 9004,
      "asset": 9005,
      "alcoholic": 9006,
      "ambiguous": 9007,
      "##anth": 9008,
      "foolish": 9009,
      "plague": 9010,
      "atleast": 9011,
      "##inform": 9012,
      "##olo": 9013,
      "outburst": 9014,
      "##rian": 9015,
      "##oter": 9016,
      "paste": 9017,
      "beard": 9018,
      "##ythm": 9019,
      "##sky": 9020,
      "opt": 9021,
      "argumentative": 9022,
      "basketball": 9023,
      "gang": 9024,
      "hype": 9025,
      "##mal": 9026,
      "stark": 9027,
      "desirable": 9028,
      "##obic": 9029,
      "shitpost": 9030,
      "tapat": 9031,
      "nin": 9032,
      "wiz": 9033,
      "##hab": 9034,
      "##bed": 9035,
      "##lift": 9036,
      "classroom": 9037,
      "##aaaaaaaa": 9038,
      "##fiable": 9039,
      "enorm": 9040,
      "imho": 9041,
      "autonomy": 9042,
      "tapatalk": 9043,
      "##erse": 9044,
      "paranoia": 9045,
      "substantial": 9046,
      "insignific": 9047,
      "dod": 9048,
      "diversity": 9049,
      "roc": 9050,
      "##ctiv": 9051,
      "##fin": 9052,
      "shield": 9053,
      "az": 9054,
      "##ists": 9055,
      "##hhhhhhhhhhhhhhhhhhhhhhhhhhhhhhhh": 9056,
      "peg": 9057,
      "champion": 9058,
      "sway": 9059,
      "neur": 9060,
      "cooky": 9061,
      "briefly": 9062,
      "alert": 9063,
      "videog": 9064,
      "censor": 9065,
      "jk": 9066,
      "ren": 9067,
      "##rooms": 9068,
      "confrontational": 9069,
      "woah": 9070,
      "##iture": 9071,
      "sag": 9072,
      "inch": 9073,
      "interestingly": 9074,
      "lastly": 9075,
      "anonymous": 9076,
      "##oton": 9077,
      "##asm": 9078,
      "instagram": 9079,
      "hopeless": 9080,
      "internship": 9081,
      "significance": 9082,
      "turkey": 9083,
      "##can": 9084,
      "succ": 9085,
      "monopoly": 9086,
      "dorm": 9087,
      "expend": 9088,
      "ira": 9089,
      "las": 9090,
      "connot": 9091,
      "butthurt": 9092,
      "ot": 9093,
      "plate": 9094,
      "socialization": 9095,
      "hearted": 9096,
      "impatient": 9097,
      "##asingly": 9098,
      "datab": 9099,
      "nearby": 9100,
      "bernie": 9101,
      "notebook": 9102,
      "##ophren": 9103,
      "injury": 9104,
      "disadv": 9105,
      "##yping": 9106,
      "county": 9107,
      "dismissive": 9108,
      "##ppet": 9109,
      "disney": 9110,
      "disinterest": 9111,
      "hotel": 9112,
      "robert": 9113,
      "fright": 9114,
      "lane": 9115,
      "##graph": 9116,
      "faus": 9117,
      "sps": 9118,
      "introduction": 9119,
      "optimism": 9120,
      "terrorist": 9121,
      "disadvantage": 9122,
      "telev": 9123,
      "theorize": 9124,
      "unimp": 9125,
      "righteous": 9126,
      "sander": 9127,
      "##iw": 9128,
      "diam": 9129,
      "increasingly": 9130,
      "plausible": 9131,
      "nostalgia": 9132,
      "##balance": 9133,
      "cere": 9134,
      "##bel": 9135,
      "appropri": 9136,
      "noticeable": 9137,
      "dil": 9138,
      "slavery": 9139,
      "richard": 9140,
      "##endar": 9141,
      "cheek": 9142,
      "manufact": 9143,
      "##uce": 9144,
      "##field": 9145,
      "factory": 9146,
      "##eableness": 9147,
      "thesis": 9148,
      "nuanced": 9149,
      "alex": 9150,
      "aspergers": 9151,
      "##tional": 9152,
      "##ada": 9153,
      "starter": 9154,
      "definitive": 9155,
      "blur": 9156,
      "linux": 9157,
      "investig": 9158,
      "##iel": 9159,
      "##dian": 9160,
      "param": 9161,
      "psychic": 9162,
      "connotation": 9163,
      "##function": 9164,
      "seed": 9165,
      "agent": 9166,
      "facade": 9167,
      "fid": 9168,
      "##cel": 9169,
      "labour": 9170,
      "elder": 9171,
      "television": 9172,
      "iam": 9173,
      "ns": 9174,
      "##hy": 9175,
      "stake": 9176,
      "exper": 9177,
      "sanity": 9178,
      "schizophren": 9179,
      "bure": 9180,
      "##wash": 9181,
      "##ham": 9182,
      "studio": 9183,
      "punct": 9184,
      "adrenaline": 9185,
      "##aire": 9186,
      "##till": 9187,
      "##state": 9188,
      "lob": 9189,
      "soundtrack": 9190,
      "##ervation": 9191,
      "poker": 9192,
      "guest": 9193,
      "reread": 9194,
      "manic": 9195,
      "weirdly": 9196,
      "arab": 9197,
      "gosh": 9198,
      "inexp": 9199,
      "executive": 9200,
      "bleed": 9201,
      "receptive": 9202,
      "##see": 9203,
      "thresh": 9204,
      "endure": 9205,
      "escalate": 9206,
      "extrapolate": 9207,
      "ay": 9208,
      "got": 9209,
      "##ompass": 9210,
      "manifestation": 9211,
      "lap": 9212,
      "##vity": 9213,
      "calendar": 9214,
      "louis": 9215,
      "vom": 9216,
      "##irc": 9217,
      "satan": 9218,
      "##gma": 9219,
      "grump": 9220,
      "bash": 9221,
      "fuzzy": 9222,
      "hunger": 9223,
      "database": 9224,
      "anthrop": 9225,
      "aha": 9226,
      "advis": 9227,
      "conversational": 9228,
      "idealism": 9229,
      "ceo": 9230,
      "##missive": 9231,
      "motherfuck": 9232,
      "##struct": 9233,
      "drastically": 9234,
      "mediocre": 9235,
      "gem": 9236,
      "sig": 9237,
      "##ones": 9238,
      "hesitant": 9239,
      "ally": 9240,
      "undermine": 9241,
      "prescribe": 9242,
      "encompass": 9243,
      "insanely": 9244,
      "crucial": 9245,
      "division": 9246,
      "physi": 9247,
      "handwrite": 9248,
      "deliberate": 9249,
      "donate": 9250,
      "dile": 9251,
      "grief": 9252,
      "destruction": 9253,
      "##structure": 9254,
      "##rew": 9255,
      "##ardi": 9256,
      "individually": 9257,
      "turbul": 9258,
      "##uary": 9259,
      "brick": 9260,
      "refute": 9261,
      "kink": 9262,
      "fes": 9263,
      "spill": 9264,
      "socialise": 9265,
      "idiotic": 9266,
      "ownership": 9267,
      "robotic": 9268,
      "mushroom": 9269,
      "wag": 9270,
      "yield": 9271,
      "keir": 9272,
      "risky": 9273,
      "agreeableness": 9274,
      "conscientiousness": 9275,
      "poop": 9276,
      "diver": 9277,
      "##uously": 9278,
      "lef": 9279,
      "matrix": 9280,
      "overload": 9281,
      "reconcile": 9282,
      "console": 9283,
      "adept": 9284,
      "winner": 9285,
      "corruption": 9286,
      "judgemental": 9287,
      "continually": 9288,
      "resentment": 9289,
      "eccentric": 9290,
      "ket": 9291,
      "stp": 9292,
      "plastic": 9293,
      "discount": 9294,
      "planner": 9295,
      "painfully": 9296,
      "academia": 9297,
      "compulsive": 9298,
      "bureau": 9299,
      "guardian": 9300,
      "buddhist": 9301,
      "endeavor": 9302,
      "##urable": 9303,
      "mindless": 9304,
      "addictive": 9305,
      "africa": 9306,
      "reproduce": 9307,
      "lion": 9308,
      "apt": 9309,
      "modest": 9310,
      "destination": 9311,
      "grandfather": 9312,
      "tj": 9313,
      "##anta": 9314,
      "##ined": 9315,
      "ward": 9316,
      "##ica": 9317,
      "blindly": 9318,
      "baffle": 9319,
      "willpower": 9320,
      "irish": 9321,
      "roy": 9322,
      "##orp": 9323,
      "##times": 9324,
      "prick": 9325,
      "oppress": 9326,
      "tower": 9327,
      "indicative": 9328,
      "desktop": 9329,
      "bun": 9330,
      "##ons": 9331,
      "shrooms": 9332,
      "utilitarian": 9333,
      "furn": 9334,
      "wil": 9335,
      "nj": 9336,
      "##men": 9337,
      "duh": 9338,
      "insignificant": 9339,
      "york": 9340,
      "extraord": 9341,
      "shyness": 9342,
      "vaguely": 9343,
      "##rent": 9344,
      "permission": 9345,
      "profic": 9346,
      "evident": 9347,
      "##ugee": 9348,
      "flatter": 9349,
      "borrow": 9350,
      "##irk": 9351,
      "extrem": 9352,
      "uncertain": 9353,
      "vomit": 9354,
      "accessible": 9355,
      "hesitate": 9356,
      "sail": 9357,
      "wizard": 9358,
      "weahy": 9359,
      "##bour": 9360,
      "##sed": 9361,
      "##eez": 9362,
      "##raint": 9363,
      "measurement": 9364,
      "arist": 9365,
      "bay": 9366,
      "##space": 9367,
      "jeg": 9368,
      "threshold": 9369,
      "bust": 9370,
      "##velope": 9371,
      "knit": 9372,
      "willingness": 9373,
      "nickname": 9374,
      "rhetoric": 9375,
      "demeanor": 9376,
      "##reland": 9377,
      "guidance": 9378,
      "##lab": 9379,
      "england": 9380,
      "upgrade": 9381,
      "leverage": 9382,
      "bloody": 9383,
      "skinny": 9384,
      "firmly": 9385,
      "keirsey": 9386,
      "ditch": 9387,
      "##bye": 9388,
      "hardware": 9389,
      "officially": 9390,
      "asperger": 9391,
      "##hibition": 9392,
      "kay": 9393,
      "ura": 9394,
      "african": 9395,
      "ireland": 9396,
      "##ooter": 9397,
      "discard": 9398,
      "professionally": 9399,
      "ethnic": 9400,
      "wildly": 9401,
      "summarize": 9402,
      "rocket": 9403,
      "##anity": 9404,
      "solitary": 9405,
      "refugee": 9406,
      "fas": 9407,
      "ooo": 9408,
      "##shine": 9409,
      "##kk": 9410,
      "anyhow": 9411,
      "demograph": 9412,
      "unreli": 9413,
      "dome": 9414,
      "centre": 9415,
      "##vy": 9416,
      "steve": 9417,
      "##ocalyp": 9418,
      "thankful": 9419,
      "theor": 9420,
      "setup": 9421,
      "aernatives": 9422,
      "clueless": 9423,
      "dishonest": 9424,
      "##vative": 9425,
      "##ini": 9426,
      "relev": 9427,
      "skim": 9428,
      "fighter": 9429,
      "bait": 9430,
      "vacuum": 9431,
      "rhythm": 9432,
      "##watch": 9433,
      "##ypical": 9434,
      "snark": 9435,
      "ordinary": 9436,
      "abn": 9437,
      "ze": 9438,
      "mindful": 9439,
      "##flow": 9440,
      "fetish": 9441,
      "outfit": 9442,
      "fallout": 9443,
      "steel": 9444,
      "misc": 9445,
      "delight": 9446,
      "##elly": 9447,
      "souther": 9448,
      "electrical": 9449,
      "##rical": 9450,
      "##kel": 9451,
      "characterize": 9452,
      "##sw": 9453,
      "reign": 9454,
      "dige": 9455,
      "##izer": 9456,
      "cheesy": 9457,
      "likeli": 9458,
      "strangely": 9459,
      "shiny": 9460,
      "##tious": 9461,
      "protagonist": 9462,
      "statistical": 9463,
      "expertise": 9464,
      "pole": 9465,
      "conting": 9466,
      "theat": 9467,
      "activate": 9468,
      "dilemma": 9469,
      "fet": 9470,
      "chop": 9471,
      "temperature": 9472,
      "sli": 9473,
      "##neath": 9474,
      "adventurous": 9475,
      "intp": 9476,
      "transg": 9477,
      "engagement": 9478,
      "employment": 9479,
      "synonym": 9480,
      "stereotypically": 9481,
      "duality": 9482,
      "sooo": 9483,
      "redu": 9484,
      "closure": 9485,
      "distrust": 9486,
      "thou": 9487,
      "lesb": 9488,
      "underneath": 9489,
      "java": 9490,
      "lower": 9491,
      "motive": 9492,
      "fairy": 9493,
      "laughter": 9494,
      "pregnant": 9495,
[...]
