{
  "version": "1.0",
  "truncation": null,
  "padding": null,
  "added_tokens": [
    {
      "id": 0,
      "content": "__pad__",
      "single_word": false,
      "lstrip": false,
      "rstrip": false,
      "normalized": false,
      "special": true
    },
    {
      "id": 1,
      "content": "__url__",
      "single_word": false,
      "lstrip": false,
      "rstrip": false,
      "normalized": false,
      "special": true
    },
    {
      "id": 2,
      "content": "__sep__",
      "single_word": false,
      "lstrip": false,
      "rstrip": false,
      "normalized": false,
      "special": true
    },
    {
      "id": 3,
      "content": "__tar__",
      "single_word": false,
      "lstrip": false,
      "rstrip": false,
      "normalized": false,
      "special": true
    },
    {
      "id": 4,
      "content": "__unk__",
      "single_word": false,
      "lstrip": false,
      "rstrip": false,
      "normalized": false,
      "special": true
    }
  ],
  "normalizer": {
    "type": "BertNormalizer",
    "clean_text": true,
    "handle_chinese_chars": true,
    "strip_accents": null,
    "lowercase": true
  },
  "pre_tokenizer": {
    "type": "BertPreTokenizer"
  },
  "post_processor": null,
  "decoder": null,
  "model": {
    "type": "WordPiece",
    "unk_token": "__unk__",
    "continuing_subword_prefix": "##",
    "max_input_chars_per_word": 100,
    "vocab": {
      "__pad__": 0,
      "__url__": 1,
      "__sep__": 2,
      "__tar__": 3,
      "__unk__": 4,
      "_": 5,
      "a": 6,
      "b": 7,
      "c": 8,
      "d": 9,
      "e": 10,
      "f": 11,
      "g": 12,
      "h": 13,
      "i": 14,
      "j": 15,
      "k": 16,
      "l": 17,
      "m": 18,
      "n": 19,
      "o": 20,
      "p": 21,
      "q": 22,
      "r": 23,
      "s": 24,
      "t": 25,
      "u": 26,
      "v": 27,
      "w": 28,
      "x": 29,
      "y": 30,
      "z": 31,
      "º": 32,
      "ß": 33,
      "æ": 34,
      "ð": 35,
      "ø": 36,
      "þ": 37,
      "ħ": 38,
      "ı": 39,
      "ł": 40,
      "ŋ": 41,
      "œ": 42,
      "ŧ": 43,
      "ƨ": 44,
      "ǝ": 45,
      "ə": 46,
      "ɛ": 47,
      "ɪ": 48,
      "ʁ": 49,
      "ʃ": 50,
      "ʊ": 51,
      "ʌ": 52,
      "ʖ": 53,
      "ʰ": 54,
      "ʳ": 55,
      "ʷ": 56,
      "ˡ": 57,
      "ˢ": 58,
      "ᴗ": 59,
      "ᴵ": 60,
      "ᵃ": 61,
      "ᵇ": 62,
      "ᵈ": 63,
      "ᵉ": 64,
      "ᵍ": 65,
      "ᵏ": 66,
      "ᵐ": 67,
      "ᵒ": 68,
      "ᵖ": 69,
      "ᵗ": 70,
      "ᵘ": 71,
      "ᵛ": 72,
      "ᶜ": 73,
      "ᶠ": 74,
      "ᶦ": 75,
      "ⁿ": 76,
      "ａ": 77,
      "ｃ": 78,
      "ｄ": 79,
      "ｅ": 80,
      "ｆ": 81,
      "ｈ": 82,
      "ｉ": 83,
      "ｌ": 84,
      "ｍ": 85,
      "ｎ": 86,
      "ｏ": 87,
      "ｓ": 88,
      "ｔ": 89,
      "ｕ": 90,
      "ｖ": 91,
      "ｙ": 92,
      "##u": 93,
      "##b": 94,
      "##m": 95,
      "##i": 96,
      "##t": 97,
      "##e": 98,
      "##r": 99,
      "##l": 100,
      "##o": 101,
      "##n": 102,
      "##c": 103,
      "##h": 104,
      "##a": 105,
      "##g": 106,
      "##w": 107,
      "##y": 108,
      "##d": 109,
      "##s": 110,
      "##k": 111,
      "##p": 112,
      "##x": 113,
      "##v": 114,
      "##j": 115,
      "##f": 116,
      "##z": 117,
      "##q": 118,
      "##ø": 119,
      "##æ": 120,
      "##ß": 121,
      "##ð": 122,
      "##ə": 123,
      "##ｕ": 124,
      "##ｎ": 125,
      "##ʊ": 126,
      "##ʃ": 127,
      "##ɪ": 128,
      "##ʁ": 129,
      "##ŋ": 130,
      "##ᵛ": 131,
      "##ᵉ": 132,
      "##ʳ": 133,
      "##ᵖ": 134,
      "##ˢ": 135,
      "##ⁿ": 136,
      "##ᵗ": 137,
      "##ƨ": 138,
      "##ʌ": 139,
      "##ｈ": 140,
      "##ｅ": 141,
      "##ł": 142,
      "##ᵒ": 143,
      "##ˡ": 144,
      "##ᶦ": 145,
      "##ʰ": 146,
      "##ʷ": 147,
      "##ᵍ": 148,
      "##œ": 149,
      "##þ": 150,
      "##ᶠ": 151,
      "##ｃ": 152,
      "##ᵈ": 153,
      "##ħ": 154,
      "##ŧ": 155,
      "##ᵃ": 156,
      "##ｉ": 157,
      "##ｓ": 158,
      "##ｏ": 159,
      "##ɛ": 160,
      "##ｖ": 161,
      "##ᵘ": 162,
      "##ᶜ": 163,
      "##ᵏ": 164,
      "##ａ": 165,
      "##ｙ": 166,
      "##ｍ": 167,
      "##ᵐ": 168,
      "##ᵇ": 169,
      "##ｄ": 170,
      "##er": 171,
      "##on": 172,
      "##in": 173,
      "##ar": 174,
      "##en": 175,
      "##al": 176,
      "##ti": 177,
      "##ly": 178,
      "##an": 179,
      "##le": 180,
      "##re": 181,
      "##st": 182,
      "##ou": 183,
      "##or": 184,
      "##it": 185,
      "##om": 186,
      "re": 187,
      "##at": 188,
      "##ke": 189,
      "th": 190,
      "##ay": 191,
      "##et": 192,
      "##el": 193,
      "##tion": 194,
      "##ve": 195,
      "##ce": 196,
      "##se": 197,
      "li": 198,
      "##ing": 199,
      "##ss": 200,
      "in": 201,
      "##ally": 202,
      "##ver": 203,
      "##op": 204,
      "##ic": 205,
      "##ow": 206,
      "##ent": 207,
      "##oo": 208,
      "##ee": 209,
      "##gh": 210,
      "st": 211,
      "tar": 212,
      "##ct": 213,
      "##ld": 214,
      "##ate": 215,
      "like": 216,
      "##ch": 217,
      "##ri": 218,
      "##ro": 219,
      "##ea": 220,
      "##me": 221,
      "##th": 222,
      "##ink": 223,
      "##ake": 224,
      "ex": 225,
      "al": 226,
      "de": 227,
      "##ome": 228,
      "think": 229,
      "##pe": 230,
      "##ra": 231,
      "lo": 232,
      "##id": 233,
      "pe": 234,
      "##is": 235,
      "##ople": 236,
      "people": 237,
      "con": 238,
      "fe": 239,
      "##ation": 240,
      "##end": 241,
      "get": 242,
      "##ne": 243,
      "##ant": 244,
      "##ge": 245,
      "##nd": 246,
      "su": 247,
      "##ould": 248,
      "##one": 249,
      "##ad": 250,
      "an": 251,
      "int": 252,
      "##ind": 253,
      "##igh": 254,
      "go": 255,
      "##ck": 256,
      "##ue": 257,
      "ti": 258,
      "##ers": 259,
      "wor": 260,
      "ne": 261,
      "##un": 262,
      "##ble": 263,
      "##ell": 264,
      "##ff": 265,
      "po": 266,
      "##il": 267,
      "##now": 268,
      "##ci": 269,
      "see": 270,
      "ch": 271,
      "##as": 272,
      "know": 273,
      "##ry": 274,
      "make": 275,
      "##ir": 276,
      "##ite": 277,
      "pro": 278,
      "en": 279,
      "##ood": 280,
      "##mp": 281,
      "thing": 282,
      "##pp": 283,
      "feel": 284,
      "com": 285,
      "##ul": 286,
      "##ity": 287,
      "##ut": 288,
      "one": 289,
      "##ight": 290,
      "say": 291,
      "##and": 292,
      "me": 293,
      "##ol": 294,
      "would": 295,
      "##est": 296,
      "time": 297,
      "mu": 298,
      "sh": 299,
      "good": 300,
      "really": 301,
      "##ear": 302,
      "di": 303,
      "##ur": 304,
      "##la": 305,
      "ever": 306,
      "##ough": 307,
      "##ype": 308,
      "##eth": 309,
      "pers": 310,
      "some": 311,
      "##tive": 312,
      "##ion": 313,
      "fa": 314,
      "pre": 315,
      "##ine": 316,
      "##ong": 317,
      "##ction": 318,
      "##us": 319,
      "want": 320,
      "##art": 321,
      "##ard": 322,
      "##ment": 323,
      "##ence": 324,
      "person": 325,
      "type": 326,
      "##ort": 327,
      "##ive": 328,
      "ev": 329,
      "##tic": 330,
      "way": 331,
      "##ot": 332,
      "##riend": 333,
      "every": 334,
      "##ig": 335,
      "##ure": 336,
      "##ous": 337,
      "##are": 338,
      "##ually": 339,
      "##tt": 340,
      "ar": 341,
      "##so": 342,
      "ha": 343,
      "##ie": 344,
      "##way": 345,
      "##fe": 346,
      "work": 347,
      "##ound": 348,
      "inter": 349,
      "##ook": 350,
      "also": 351,
      "un": 352,
      "much": 353,
      "friend": 354,
      "##thing": 355,
      "som": 356,
      "sp": 357,
      "##mo": 358,
      "##ide": 359,
      "exp": 360,
      "se": 361,
      "someth": 362,
      "something": 363,
      "fun": 364,
      "any": 365,
      "try": 366,
      "##eed": 367,
      "##her": 368,
      "take": 369,
      "use": 370,
      "mo": 371,
      "##ist": 372,
      "well": 373,
      "even": 374,
      "find": 375,
      "##eri": 376,
      "##all": 377,
      "##ru": 378,
      "lot": 379,
      "act": 380,
      "##ip": 381,
      "ba": 382,
      "be": 383,
      "man": 384,
      "##og": 385,
      "##alk": 386,
      "though": 387,
      "rel": 388,
      "##sh": 389,
      "##int": 390,
      "need": 391,
      "comp": 392,
      "##um": 393,
      "love": 394,
      "##ab": 395,
      "##ud": 396,
      "si": 397,
      "##ll": 398,
      "mean": 399,
      "##ze": 400,
      "may": 401,
      "so": 402,
      "wh": 403,
      "pl": 404,
      "ac": 405,
      "diff": 406,
      "ad": 407,
      "##ree": 408,
      "##ha": 409,
      "##ps": 410,
      "id": 411,
      "##be": 412,
      "lea": 413,
      "come": 414,
      "someone": 415,
      "##ast": 416,
      "sti": 417,
      "look": 418,
      "dis": 419,
      "talk": 420,
      "##ways": 421,
      "##ain": 422,
      "could": 423,
      "life": 424,
      "##able": 425,
      "##nder": 426,
      "qu": 427,
      "##ter": 428,
      "##age": 429,
      "##te": 430,
      "##ice": 431,
      "##ress": 432,
      "##our": 433,
      "always": 434,
      "##es": 435,
      "res": 436,
      "##rea": 437,
      "differ": 438,
      "##ance": 439,
      "under": 440,
      "inf": 441,
      "give": 442,
      "op": 443,
      "seem": 444,
      "##ful": 445,
      "##ther": 446,
      "le": 447,
      "fi": 448,
      "happ": 449,
      "hel": 450,
      "##lo": 451,
      "help": 452,
      "right": 453,
      "##stand": 454,
      "function": 455,
      "##orm": 456,
      "never": 457,
      "sen": 458,
      "wr": 459,
      "as": 460,
      "actually": 461,
      "##act": 462,
      "te": 463,
      "soci": 464,
      "real": 465,
      "imp": 466,
      "bo": 467,
      "no": 468,
      "interest": 469,
      "us": 470,
      "part": 471,
      "##oun": 472,
      "##js": 473,
      "##tty": 474,
      "##ag": 475,
      "pretty": 476,
      "understand": 477,
      "des": 478,
      "##eep": 479,
      "##eah": 480,
      "read": 481,
      "ca": 482,
      "tell": 483,
      "per": 484,
      "sure": 485,
      "def": 486,
      "still": 487,
      "##ably": 488,
      "##ize": 489,
      "##ship": 490,
      "##ank": 491,
      "year": 492,
      "##rover": 493,
      "##ory": 494,
      "##reat": 495,
      "kind": 496,
      "ext": 497,
      "##di": 498,
      "##der": 499,
      "im": 500,
      "##ft": 501,
      "gr": 502,
      "##ish": 503,
      "##ual": 504,
      "point": 505,
      "ag": 506,
      "##ool": 507,
      "gen": 508,
      "day": 509,
      "##ick": 510,
      "##ead": 511,
      "prob": 512,
      "app": 513,
      "##ily": 514,
      "gu": 515,
      "##ical": 516,
      "bad": 517,
      "tr": 518,
      "different": 519,
      "probably": 520,
      "emo": 521,
      "lit": 522,
      "fir": 523,
      "back": 524,
      "cons": 525,
      "##ber": 526,
      "##tle": 527,
      "ob": 528,
      "##ange": 529,
      "jo": 530,
      "emotion": 531,
      "##od": 532,
      "##ary": 533,
      "care": 534,
      "##ame": 535,
      "hard": 536,
      "first": 537,
      "##peci": 538,
      "##li": 539,
      "start": 540,
      "around": 541,
      "cont": 542,
      "stu": 543,
      "might": 544,
      "relation": 545,
      "##pt": 546,
      "long": 547,
      "post": 548,
      "##thers": 549,
      "##uck": 550,
      "others": 551,
      "anything": 552,
      "best": 553,
      "##time": 554,
      "personal": 555,
      "##ill": 556,
      "thank": 557,
      "experi": 558,
      "##ith": 559,
      "##out": 560,
      "mat": 561,
      "for": 562,
      "tra": 563,
      "##oy": 564,
      "##ctive": 565,
      "maybe": 566,
      "##vel": 567,
      "##cess": 568,
      "##stion": 569,
      "str": 570,
      "##ore": 571,
      "relationship": 572,
      "par": 573,
      "que": 574,
      "comm": 575,
      "idea": 576,
      "tw": 577,
      "ask": 578,
      "att": 579,
      "##vi": 580,
      "##ui": 581,
      "sub": 582,
      "ab": 583,
      "##low": 584,
      "let": 585,
      "##come": 586,
      "many": 587,
      "experience": 588,
      "mind": 589,
      "##ason": 590,
      "##read": 591,
      "sa": 592,
      "sc": 593,
      "bel": 594,
      "la": 595,
      "ph": 596,
      "##pect": 597,
      "world": 598,
      "question": 599,
      "high": 600,
      "##blem": 601,
      "sound": 602,
      "sometime": 603,
      "aw": 604,
      "reason": 605,
      "problem": 606,
      "new": 607,
      "##ssi": 608,
      "##less": 609,
      "##use": 610,
      "sm": 611,
      "##je": 612,
      "sit": 613,
      "sometimes": 614,
      "live": 615,
      "end": 616,
      "with": 617,
      "##ise": 618,
      "##ince": 619,
      "am": 620,
      "defin": 621,
      "##ang": 622,
      "pa": 623,
      "##erm": 624,
      "keep": 625,
      "yeah": 626,
      "##rovert": 627,
      "##ically": 628,
      "yes": 629,
      "great": 630,
      "conf": 631,
      "sense": 632,
      "##oc": 633,
      "gener": 634,
      "lear": 635,
      "learn": 636,
      "eas": 637,
      "belie": 638,
      "##si": 639,
      "play": 640,
      "usually": 641,
      "social": 642,
      "##dit": 643,
      "lol": 644,
      "##am": 645,
      "##ert": 646,
      "everyone": 647,
      "es": 648,
      "dep": 649,
      "##cri": 650,
      "happen": 651,
      "little": 652,
      "##elf": 653,
      "ass": 654,
      "sch": 655,
      "##ather": 656,
      "##con": 657,
      "##ute": 658,
      "change": 659,
      "mb": 660,
      "tend": 661,
      "tru": 662,
      "ni": 663,
      "val": 664,
      "dec": 665,
      "ma": 666,
      "##enti": 667,
      "##ole": 668,
      "##ount": 669,
      "guy": 670,
      "mbti": 671,
      "acc": 672,
      "##mple": 673,
      "two": 674,
      "clo": 675,
      "##ose": 676,
      "el": 677,
      "self": 678,
      "put": 679,
      "bite": 680,
      "pr": 681,
      "everything": 682,
      "since": 683,
      "##ope": 684,
      "##ften": 685,
      "##ath": 686,
      "gue": 687,
      "##ep": 688,
      "often": 689,
      "stuff": 690,
      "##oup": 691,
      "co": 692,
      "##ether": 693,
      "##du": 694,
      "rec": 695,
      "##im": 696,
      "hear": 697,
      "enough": 698,
      "det": 699,
      "##cept": 700,
      "##xt": 701,
      "##lace": 702,
      "##itely": 703,
      "##ither": 704,
      "guess": 705,
      "fact": 706,
      "##ention": 707,
      "test": 708,
      "##em": 709,
      "##atch": 710,
      "##ict": 711,
      "##fer": 712,
      "shit": 713,
      "##ently": 714,
      "inc": 715,
      "definitely": 716,
      "##vers": 717,
      "inst": 718,
      "else": 719,
      "list": 720,
      "comple": 721,
      "fuck": 722,
      "show": 723,
      "ins": 724,
      "##ness": 725,
      "descri": 726,
      "##ever": 727,
      "##uation": 728,
      "or": 729,
      "write": 730,
      "##os": 731,
      "##ility": 732,
      "##pon": 733,
      "agree": 734,
      "##eak": 735,
      "believe": 736,
      "we": 737,
      "##stly": 738,
      "##ner": 739,
      "big": 740,
      "introvert": 741,
      "##arly": 742,
      "##ism": 743,
      "word": 744,
      "et": 745,
      "without": 746,
      "##per": 747,
      "##ider": 748,
      "##joy": 749,
      "possi": 750,
      "wrong": 751,
      "enjoy": 752,
      "become": 753,
      "##ude": 754,
      "least": 755,
      "close": 756,
      "school": 757,
      "out": 758,
      "##other": 759,
      "##fy": 760,
      "##ere": 761,
      "place": 762,
      "col": 763,
      "ro": 764,
      "hum": 765,
      "situation": 766,
      "dom": 767,
      "##wer": 768,
      "game": 769,
      "either": 770,
      "##de": 771,
      "personality": 772,
      "cla": 773,
      "##ote": 774,
      "##ap": 775,
      "another": 776,
      "##ative": 777,
      "meet": 778,
      "ans": 779,
      "##fic": 780,
      "call": 781,
      "##ously": 782,
      "##reak": 783,
      "over": 784,
      "hone": 785,
      "sy": 786,
      "answer": 787,
      "br": 788,
      "supp": 789,
      "##ari": 790,
      "##fort": 791,
      "##ssion": 792,
      "ho": 793,
      "##tiv": 794,
      "haha": 795,
      "##cy": 796,
      "##ale": 797,
      "base": 798,
      "leave": 799,
      "easy": 800,
      "mom": 801,
      "consider": 802,
      "##oman": 803,
      "##ign": 804,
      "##mber": 805,
      "etc": 806,
      "hand": 807,
      "oh": 808,
      "##tice": 809,
      "rep": 810,
      "ok": 811,
      "job": 812,
      "rather": 813,
      "value": 814,
      "nothing": 815,
      "##urn": 816,
      "eff": 817,
      "##ach": 818,
      "exa": 819,
      "##olog": 820,
      "true": 821,
      "bas": 822,
      "##rect": 823,
      "cert": 824,
      "cl": 825,
      "complete": 826,
      "the": 827,
      "example": 828,
      "##lain": 829,
      "last": 830,
      "disc": 831,
      "cu": 832,
      "quite": 833,
      "speci": 834,
      "far": 835,
      "cle": 836,
      "win": 837,
      "##ption": 838,
      "sk": 839,
      "log": 840,
      "mus": 841,
      "anyone": 842,
      "##mil": 843,
      "bl": 844,
      "ap": 845,
      "certain": 846,
      "able": 847,
      "nice": 848,
      "##ull": 849,
      "plan": 850,
      "##ys": 851,
      "##mm": 852,
      "happy": 853,
      "exact": 854,
      "relate": 855,
      "reg": 856,
      "open": 857,
      "mon": 858,
      "##irl": 859,
      "respon": 860,
      "nat": 861,
      "##ject": 862,
      "adv": 863,
      "##ety": 864,
      "##pecially": 865,
      "especially": 866,
      "char": 867,
      "##ail": 868,
      "mi": 869,
      "pri": 870,
      "##ene": 871,
      "##ately": 872,
      "state": 873,
      "head": 874,
      "girl": 875,
      "tea": 876,
      "strong": 877,
      "old": 878,
      "cor": 879,
      "he": 880,
      "move": 881,
      "off": 882,
      "hate": 883,
      "arg": 884,
      "break": 885,
      "##yp": 886,
      "how": 887,
      "ru": 888,
      "##ase": 889,
      "sur": 890,
      "ah": 891,
      "mar": 892,
      "top": 893,
      "##ward": 894,
      "convers": 895,
      "prefer": 896,
      "##eek": 897,
      "watch": 898,
      "dra": 899,
      "however": 900,
      "##most": 901,
      "conversation": 902,
      "##ocus": 903,
      "conc": 904,
      "##qu": 905,
      "gra": 906,
      "##tical": 907,
      "sw": 908,
      "likely": 909,
      "focus": 910,
      "##iew": 911,
      "##ird": 912,
      "##ild": 913,
      "stop": 914,
      "group": 915,
      "import": 916,
      "almost": 917,
      "##ack": 918,
      "reme": 919,
      "##lic": 920,
      "dr": 921,
      "away": 922,
      "##ssue": 923,
      "au": 924,
      "general": 925,
      "opp": 926,
      "issue": 927,
      "##ire": 928,
      "fam": 929,
      "remember": 930,
      "simil": 931,
      "matter": 932,
      "human": 933,
      "##line": 934,
      "week": 935,
      "commun": 936,
      "spend": 937,
      "alone": 938,
      "share": 939,
      "listen": 940,
      "##gg": 941,
      "music": 942,
      "side": 943,
      "set": 944,
      "stud": 945,
      "hu": 946,
      "hope": 947,
      "alread": 948,
      "jud": 949,
      "already": 950,
      "fin": 951,
      "sort": 952,
      "speak": 953,
      "whole": 954,
      "che": 955,
      "cour": 956,
      "cra": 957,
      "##velop": 958,
      "date": 959,
      "##ann": 960,
      "##ty": 961,
      "min": 962,
      "class": 963,
      "fol": 964,
      "sol": 965,
      "add": 966,
      "##ed": 967,
      "book": 968,
      "bu": 969,
      "important": 970,
      "tow": 971,
      "seri": 972,
      "comment": 973,
      "##sy": 974,
      "exactly": 975,
      "case": 976,
      "##ream": 977,
      "##ni": 978,
      "similar": 979,
      "develop": 980,
      "explain": 981,
      "family": 982,
      "exc": 983,
      "##ision": 984,
      "deal": 985,
      "completely": 986,
      "##inion": 987,
      "##row": 988,
      "fig": 989,
      "whate": 990,
      "fl": 991,
      "##ush": 992,
      "emotional": 993,
      "opinion": 994,
      "##ogether": 995,
      "ra": 996,
      "free": 997,
      "face": 998,
      "##fps": 999,
      "whatever": 1000,
      "##ma": 1001,
      "cre": 1002,
      "past": 1003,
      "##ern": 1004,
      "deep": 1005,
      "##ile": 1006,
      "##vor": 1007,
      "intui": 1008,
      "##ody": 1009,
      "figure": 1010,
      "emp": 1011,
      "stand": 1012,
      "sor": 1013,
      "##rive": 1014,
      "eng": 1015,
      "intern": 1016,
      "inform": 1017,
      "realize": 1018,
      "super": 1019,
      "late": 1020,
      "##gra": 1021,
      "pres": 1022,
      "course": 1023,
      "edit": 1024,
      "ent": 1025,
      "together": 1026,
      "count": 1027,
      "turn": 1028,
      "home": 1029,
      "wa": 1030,
      "on": 1031,
      "beha": 1032,
      "woman": 1033,
      "##ght": 1034,
      "##side": 1035,
      "##here": 1036,
      "abs": 1037,
      "form": 1038,
      "##gin": 1039,
      "god": 1040,
      "sorry": 1041,
      "##cond": 1042,
      "ple": 1043,
      "##ord": 1044,
      "##ron": 1045,
      "##ens": 1046,
      "##ular": 1047,
      "##ression": 1048,
      "is": 1049,
      "second": 1050,
      "##lect": 1051,
      "describe": 1052,
      "dist": 1053,
      "small": 1054,
      "instead": 1055,
      "##body": 1056,
      "cur": 1057,
      "depend": 1058,
      "av": 1059,
      "inv": 1060,
      "##ume": 1061,
      "run": 1062,
      "##rol": 1063,
      "##ub": 1064,
      "thread": 1065,
      "child": 1066,
      "lead": 1067,
      "##xi": 1068,
      "##iness": 1069,
      "lose": 1070,
      "thought": 1071,
      "fit": 1072,
      "##onder": 1073,
      "##stem": 1074,
      "term": 1075,
      "expect": 1076,
      "##get": 1077,
      "notice": 1078,
      "conne": 1079,
      "##urt": 1080,
      "tot": 1081,
      "system": 1082,
      "uni": 1083,
      "moment": 1084,
      "af": 1085,
      "ind": 1086,
      "grow": 1087,
      "cri": 1088,
      "##gy": 1089,
      "kid": 1090,
      "yet": 1091,
      "har": 1092,
      "process": 1093,
      "sex": 1094,
      "possible": 1095,
      "exist": 1096,
      "along": 1097,
      "##zy": 1098,
      "bra": 1099,
      "weird": 1100,
      "##ye": 1101,
      "cause": 1102,
      "##ted": 1103,
      "user": 1104,
      "comfort": 1105,
      "##ract": 1106,
      "level": 1107,
      "month": 1108,
      "##action": 1109,
      "##istic": 1110,
      "follow": 1111,
      "pra": 1112,
      "##iz": 1113,
      "##dy": 1114,
      "information": 1115,
      "wonder": 1116,
      "posi": 1117,
      "cool": 1118,
      "mostly": 1119,
      "order": 1120,
      "phys": 1121,
      "view": 1122,
      "extre": 1123,
      "##erve": 1124,
      "##ciate": 1125,
      "toward": 1126,
      "##any": 1127,
      "mor": 1128,
      "perfe": 1129,
      "norm": 1130,
      "##ret": 1131,
      "const": 1132,
      "er": 1133,
      "pur": 1134,
      "indi": 1135,
      "bring": 1136,
      "##dge": 1137,
      "##mit": 1138,
      "##ph": 1139,
      "vi": 1140,
      "bla": 1141,
      "##fjs": 1142,
      "hour": 1143,
      "personally": 1144,
      "ter": 1145,
      "##oid": 1146,
      "##ality": 1147,
      "##ower": 1148,
      "##ny": 1149,
      "obvi": 1150,
      "enti": 1151,
      "charact": 1152,
      "war": 1153,
      "extreme": 1154,
      "##ument": 1155,
      "car": 1156,
      "##tis": 1157,
      "##erv": 1158,
      "perce": 1159,
      "##bly": 1160,
      "vide": 1161,
      "imag": 1162,
      "##ouse": 1163,
      "red": 1164,
      "event": 1165,
      "##cc": 1166,
      "basically": 1167,
      "psy": 1168,
      "##oice": 1169,
      "##lish": 1170,
      "colle": 1171,
      "behavi": 1172,
      "##vid": 1173,
      "whether": 1174,
      "common": 1175,
      "theory": 1176,
      "pick": 1177,
      "difference": 1178,
      "judge": 1179,
      "stay": 1180,
      "##eal": 1181,
      "accept": 1182,
      "honestly": 1183,
      "psych": 1184,
      "##ology": 1185,
      "##oose": 1186,
      "story": 1187,
      "character": 1188,
      "##ect": 1189,
      "bi": 1190,
      "control": 1191,
      "##oney": 1192,
      "necess": 1193,
      "##tern": 1194,
      "video": 1195,
      "teach": 1196,
      "ang": 1197,
      "##erior": 1198,
      "rem": 1199,
      "wish": 1200,
      "##oot": 1201,
      "action": 1202,
      "money": 1203,
      "aff": 1204,
      "stru": 1205,
      "pay": 1206,
      "ref": 1207,
      "curr": 1208,
      "next": 1209,
      "##bility": 1210,
      "neg": 1211,
      "fair": 1212,
      "simp": 1213,
      "party": 1214,
      "sci": 1215,
      "sens": 1216,
      "generally": 1217,
      "unless": 1218,
      "bus": 1219,
      "ment": 1220,
      "anal": 1221,
      "partic": 1222,
      "##vie": 1223,
      "##ash": 1224,
      "rest": 1225,
      "hold": 1226,
      "##ution": 1227,
      "favor": 1228,
      "##day": 1229,
      "##icu": 1230,
      "bore": 1231,
      "description": 1232,
      "low": 1233,
      "ann": 1234,
      "decide": 1235,
      "bro": 1236,
      "##ark": 1237,
      "hurt": 1238,
      "study": 1239,
      "fut": 1240,
      "hell": 1241,
      "eye": 1242,
      "movie": 1243,
      "domin": 1244,
      "sing": 1245,
      "okay": 1246,
      "drive": 1247,
      "perfect": 1248,
      "natur": 1249,
      "entire": 1250,
      "must": 1251,
      "men": 1252,
      "##ency": 1253,
      "worth": 1254,
      "mess": 1255,
      "##ace": 1256,
      "##tivity": 1257,
      "advice": 1258,
      "##olute": 1259,
      "stress": 1260,
      "anxi": 1261,
      "do": 1262,
      "night": 1263,
      "germ": 1264,
      "pop": 1265,
      "##gn": 1266,
      "future": 1267,
      "prac": 1268,
      "argument": 1269,
      "##ense": 1270,
      "##ici": 1271,
      "trust": 1272,
      "##gram": 1273,
      "##pective": 1274,
      "create": 1275,
      "##where": 1276,
      "##sp": 1277,
      "assume": 1278,
      "power": 1279,
      "fem": 1280,
      "##ump": 1281,
      "absolute": 1282,
      "difficu": 1283,
      "appre": 1284,
      "mis": 1285,
      "##rate": 1286,
      "stere": 1287,
      "mist": 1288,
      "##ross": 1289,
      "anyway": 1290,
      "est": 1291,
      "##ogni": 1292,
      "liter": 1293,
      "##ational": 1294,
      "stereot": 1295,
      "sad": 1296,
      "totally": 1297,
      "individ": 1298,
      "##olve": 1299,
      "##jective": 1300,
      "ahough": 1301,
      "##gan": 1302,
      "##antly": 1303,
      "ener": 1304,
      "##iti": 1305,
      "stick": 1306,
      "room": 1307,
      "##by": 1308,
      "check": 1309,
      "goal": 1310,
      "please": 1311,
      "##ats": 1312,
      "##jor": 1313,
      "##eahy": 1314,
      "sl": 1315,
      "dou": 1316,
      "wait": 1317,
      "non": 1318,
      "sign": 1319,
      "##cle": 1320,
      "##dition": 1321,
      "##itch": 1322,
      "decision": 1323,
      "##oung": 1324,
      "young": 1325,
      "typ": 1326,
      "house": 1327,
      "sug": 1328,
      "honest": 1329,
      "bui": 1330,
      "tri": 1331,
      "worry": 1332,
      "mention": 1333,
      "##leep": 1334,
      "brain": 1335,
      "##arily": 1336,
      "lack": 1337,
      "simply": 1338,
      "##wh": 1339,
      "ago": 1340,
      "em": 1341,
      "major": 1342,
      "drink": 1343,
      "suppose": 1344,
      "individual": 1345,
      "annoy": 1346,
      "##dd": 1347,
      "##arge": 1348,
      "forget": 1349,
      "easily": 1350,
      "parent": 1351,
      "communic": 1352,
      "fine": 1353,
      "lang": 1354,
      "hang": 1355,
      "##ane": 1356,
      "force": 1357,
      "avoid": 1358,
      "towards": 1359,
      "##ian": 1360,
      "##lude": 1361,
      "choose": 1362,
      "outside": 1363,
      "ist": 1364,
      "name": 1365,
      "song": 1366,
      "coup": 1367,
      "identi": 1368,
      "intjs": 1369,
      "##pid": 1370,
      "rule": 1371,
      "cogni": 1372,
      "ir": 1373,
      "ori": 1374,
      "ign": 1375,
      "##friend": 1376,
      "##idence": 1377,
      "fla": 1378,
      "##na": 1379,
      "topic": 1380,
      "couple": 1381,
      "direct": 1382,
      "quick": 1383,
      "detail": 1384,
      "##arch": 1385,
      "main": 1386,
      "##qui": 1387,
      "##uage": 1388,
      "gl": 1389,
      "fall": 1390,
      "support": 1391,
      "##ident": 1392,
      "language": 1393,
      "infjs": 1394,
      "##oud": 1395,
      "express": 1396,
      "stupid": 1397,
      "##ork": 1398,
      "appreciate": 1399,
      "##usion": 1400,
      "college": 1401,
      "logic": 1402,
      "prop": 1403,
      "eat": 1404,
      "walk": 1405,
      "country": 1406,
      "behavior": 1407,
      "dream": 1408,
      "sugge": 1409,
      "funny": 1410,
      "miss": 1411,
      "reality": 1412,
      "extrover": 1413,
      "attention": 1414,
      "favorite": 1415,
      "short": 1416,
      "perspective": 1417,
      "##red": 1418,
      "regard": 1419,
      "##unch": 1420,
      "##ust": 1421,
      "##own": 1422,
      "num": 1423,
      "##ich": 1424,
      "correct": 1425,
      "intps": 1426,
      "##ugh": 1427,
      "inferior": 1428,
      "appe": 1429,
      "line": 1430,
      "##ia": 1431,
      "relig": 1432,
      "response": 1433,
      "pict": 1434,
      "accur": 1435,
      "hal": 1436,
      "##bt": 1437,
      "allow": 1438,
      "joke": 1439,
      "rela": 1440,
      "boy": 1441,
      "picture": 1442,
      "respect": 1443,
      "##ket": 1444,
      "##eas": 1445,
      "poli": 1446,
      "da": 1447,
      "##iss": 1448,
      "imagine": 1449,
      "dam": 1450,
      "clear": 1451,
      "sleep": 1452,
      "die": 1453,
      "infps": 1454,
      "absolutely": 1455,
      "energy": 1456,
      "truth": 1457,
      "appro": 1458,
      "awes": 1459,
      "dominant": 1460,
      "extra": 1461,
      "##aste": 1462,
      "kinda": 1463,
      "##like": 1464,
      "specific": 1465,
      "obs": 1466,
      "intuitive": 1467,
      "##cip": 1468,
      "full": 1469,
      "awesome": 1470,
      "mine": 1471,
      "cap": 1472,
      "comfortable": 1473,
      "rare": 1474,
      "##ledge": 1475,
      "organ": 1476,
      "cognitive": 1477,
      "bea": 1478,
      "fight": 1479,
      "age": 1480,
      "##up": 1481,
      "negative": 1482,
      "extremely": 1483,
      "trait": 1484,
      "hey": 1485,
      "##rise": 1486,
      "env": 1487,
      "ret": 1488,
      "##ans": 1489,
      "art": 1490,
      "present": 1491,
      "na": 1492,
      "skill": 1493,
      "##ulation": 1494,
      "hit": 1495,
      "suck": 1496,
      "bri": 1497,
      "literally": 1498,
      "mid": 1499,
      "step": 1500,
      "online": 1501,
      "luck": 1502,
      "##ration": 1503,
      "apply": 1504,
      "##ource": 1505,
      "##tim": 1506,
      "cal": 1507,
      "##tically": 1508,
      "seriously": 1509,
      "##ulate": 1510,
      "anxiety": 1511,
      "due": 1512,
      "build": 1513,
      "conv": 1514,
      "occ": 1515,
      "lie": 1516,
      "text": 1517,
      "mem": 1518,
      "kill": 1519,
      "##haps": 1520,
      "link": 1521,
      "effort": 1522,
      "##ellig": 1523,
      "##ung": 1524,
      "##quire": 1525,
      "rand": 1526,
      "perhaps": 1527,
      "buy": 1528,
      "##que": 1529,
      "##the": 1530,
      "smart": 1531,
      "early": 1532,
      "##mon": 1533,
      "##oph": 1534,
      "##fully": 1535,
      "##ential": 1536,
      "surp": 1537,
      "##aa": 1538,
      "half": 1539,
      "ama": 1540,
      "include": 1541,
      "large": 1542,
      "aware": 1543,
      "stereotype": 1544,
      "fail": 1545,
      "physical": 1546,
      "cry": 1547,
      "logical": 1548,
      "##dle": 1549,
      "##ggle": 1550,
      "hor": 1551,
      "##eness": 1552,
      "nature": 1553,
      "##ront": 1554,
      "intellig": 1555,
      "number": 1556,
      "pat": 1557,
      "##ination": 1558,
      "tod": 1559,
      "##ac": 1560,
      "##wise": 1561,
      "except": 1562,
      "draw": 1563,
      "chance": 1564,
      "extrovert": 1565,
      "cir": 1566,
      "##ade": 1567,
      "##ond": 1568,
      "pot": 1569,
      "##go": 1570,
      "single": 1571,
      "sensor": 1572,
      "##cious": 1573,
      "##hh": 1574,
      "##ics": 1575,
      "stra": 1576,
      "##eld": 1577,
      "med": 1578,
      "rese": 1579,
      "push": 1580,
      "mod": 1581,
      "random": 1582,
      "je": 1583,
      "curi": 1584,
      "bother": 1585,
      "##ouch": 1586,
      "society": 1587,
      "dad": 1588,
      "##iet": 1589,
      "vari": 1590,
      "huge": 1591,
      "normal": 1592,
      "purp": 1593,
      "space": 1594,
      "minute": 1595,
      "accurate": 1596,
      "ideal": 1597,
      "##vide": 1598,
      "light": 1599,
      "cr": 1600,
      "##yle": 1601,
      "##onment": 1602,
      "suc": 1603,
      "laugh": 1604,
      "internet": 1605,
      "today": 1606,
      "choice": 1607,
      "impro": 1608,
      "ill": 1609,
      "produ": 1610,
      "partner": 1611,
      "heart": 1612,
      "female": 1613,
      "envir": 1614,
      "amp": 1615,
      "##rust": 1616,
      "##bit": 1617,
      "##osite": 1618,
      "extroverted": 1619,
      "##ater": 1620,
      "at": 1621,
      "require": 1622,
      "enfps": 1623,
      "begin": 1624,
      "quiet": 1625,
      "body": 1626,
      "cann": 1627,
      "project": 1628,
      "opposite": 1629,
      "ability": 1630,
      "ke": 1631,
      "beh": 1632,
      "struggle": 1633,
      "weak": 1634,
      "connection": 1635,
      "doubt": 1636,
      "ignore": 1637,
      "environment": 1638,
      "concept": 1639,
      "treat": 1640,
      "fix": 1641,
      "tech": 1642,
      "amount": 1643,
      "deb": 1644,
      "##more": 1645,
      "##rible": 1646,
      "pub": 1647,
      "##tit": 1648,
      "food": 1649,
      "approach": 1650,
      "hist": 1651,
      "note": 1652,
      "saw": 1653,
      "##com": 1654,
      "friendship": 1655,
      "serious": 1656,
      "##ister": 1657,
      "crazy": 1658,
      "necessarily": 1659,
      "fr": 1660,
      "##mpt": 1661,
      "simple": 1662,
      "hi": 1663,
      "pol": 1664,
      "motiv": 1665,
      "hat": 1666,
      "confuse": 1667,
      "involve": 1668,
      "fear": 1669,
      "argue": 1670,
      "obviously": 1671,
      "fore": 1672,
      "wel": 1673,
      "law": 1674,
      "research": 1675,
      "perceive": 1676,
      "sil": 1677,
      "other": 1678,
      "##over": 1679,
      "actual": 1680,
      "##ift": 1681,
      "male": 1682,
      "##ussion": 1683,
      "sever": 1684,
      "##ition": 1685,
      "chri": 1686,
      "leg": 1687,
      "crea": 1688,
      "constantly": 1689,
      "mental": 1690,
      "vis": 1691,
      "recently": 1692,
      "##ric": 1693,
      "cannot": 1694,
      "wow": 1695,
      "ear": 1696,
      "send": 1697,
      "contin": 1698,
      "black": 1699,
      "##eric": 1700,
      "throw": 1701,
      "##verse": 1702,
      "within": 1703,
      "dat": 1704,
      "vers": 1705,
      "##ster": 1706,
      "otherwise": 1707,
      "identify": 1708,
      "suggest": 1709,
      "surprise": 1710,
      "science": 1711,
      "thats": 1712,
      "area": 1713,
      "up": 1714,
      "##ization": 1715,
      "##ingly": 1716,
      "reddit": 1717,
      "gon": 1718,
      "fre": 1719,
      "##gress": 1720,
      "sec": 1721,
      "##umb": 1722,
      "compare": 1723,
      "ful": 1724,
      "disag": 1725,
      "possibility": 1726,
      "business": 1727,
      "amaze": 1728,
      "##no": 1729,
      "##lev": 1730,
      "three": 1731,
      "fu": 1732,
      "##res": 1733,
      "##inate": 1734,
      "##enge": 1735,
      "refer": 1736,
      "improve": 1737,
      "##fit": 1738,
      "seek": 1739,
      "disagree": 1740,
      "positive": 1741,
      "roman": 1742,
      "##irt": 1743,
      "##ularly": 1744,
      "gonna": 1745,
      "brother": 1746,
      "mother": 1747,
      "welcome": 1748,
      "##man": 1749,
      "##work": 1750,
      "##bor": 1751,
      "##round": 1752,
      "entps": 1753,
      "nar": 1754,
      "##sion": 1755,
      "discussion": 1756,
      "math": 1757,
      "##omm": 1758,
      "glad": 1759,
      "resu": 1760,
      "memory": 1761,
      "purpose": 1762,
      "quality": 1763,
      "fast": 1764,
      "deg": 1765,
      "connect": 1766,
      "om": 1767,
      "company": 1768,
      "del": 1769,
      "confl": 1770,
      "analy": 1771,
      "behind": 1772,
      "imm": 1773,
      "damn": 1774,
      "pain": 1775,
      "##uti": 1776,
      "touch": 1777,
      "reply": 1778,
      "forum": 1779,
      "appear": 1780,
      "cut": 1781,
      "##ask": 1782,
      "interaction": 1783,
      "across": 1784,
      "truly": 1785,
      "##ii": 1786,
      "##enh": 1787,
      "phil": 1788,
      "knowledge": 1789,
      "eq": 1790,
      "frust": 1791,
      "empath": 1792,
      "##ies": 1793,
      "resus": 1794,
      "incre": 1795,
      "intuition": 1796,
      "subject": 1797,
      "##iction": 1798,
      "##ator": 1799,
      "conte": 1800,
      "americ": 1801,
      "straight": 1802,
      "wear": 1803,
      "##lusion": 1804,
      "##unt": 1805,
      "awk": 1806,
      "particular": 1807,
      "manage": 1808,
      "anymore": 1809,
      "##cra": 1810,
      "desire": 1811,
      "excite": 1812,
      "respond": 1813,
      "degree": 1814,
      "slow": 1815,
      "awkward": 1816,
      "conflict": 1817,
      "##uine": 1818,
      "useful": 1819,
      "den": 1820,
      "auth": 1821,
      "##cture": 1822,
      "provide": 1823,
      "##ability": 1824,
      "certainly": 1825,
      "wi": 1826,
      "##alance": 1827,
      "prove": 1828,
      "option": 1829,
      "position": 1830,
      "city": 1831,
      "##bo": 1832,
      "public": 1833,
      "##he": 1834,
      "##omp": 1835,
      "met": 1836,
      "rid": 1837,
      "desp": 1838,
      "remind": 1839,
      "success": 1840,
      "debate": 1841,
      "special": 1842,
      "##cise": 1843,
      "style": 1844,
      "offer": 1845,
      "inside": 1846,
      "explo": 1847,
      "##ature": 1848,
      "genuine": 1849,
      "##rib": 1850,
      "account": 1851,
      "belief": 1852,
      "sensi": 1853,
      "conclusion": 1854,
      "clearly": 1855,
      "catch": 1856,
      "##rel": 1857,
      "german": 1858,
      "bene": 1859,
      "objective": 1860,
      "data": 1861,
      "incredi": 1862,
      "history": 1863,
      "ton": 1864,
      "##nea": 1865,
      "cent": 1866,
      "concern": 1867,
      "dark": 1868,
      "nt": 1869,
      "ta": 1870,
      "xd": 1871,
      "pattern": 1872,
      "##ious": 1873,
      "limit": 1874,
      "current": 1875,
      "##oint": 1876,
      "ennea": 1877,
      "soon": 1878,
      "middle": 1879,
      "##aster": 1880,
      "philos": 1881,
      "trou": 1882,
      "phone": 1883,
      "white": 1884,
      "curious": 1885,
      "pie": 1886,
      "trans": 1887,
      "fairly": 1888,
      "##pl": 1889,
      "origin": 1890,
      "hea": 1891,
      "depression": 1892,
      "practice": 1893,
      "enneagram": 1894,
      "emotionally": 1895,
      "##rug": 1896,
      "##sti": 1897,
      "##medi": 1898,
      "chall": 1899,
      "##order": 1900,
      "bias": 1901,
      "eventually": 1902,
      "trouble": 1903,
      "bar": 1904,
      "initi": 1905,
      "match": 1906,
      "recomm": 1907,
      "handle": 1908,
      "finish": 1909,
      "affect": 1910,
      "interp": 1911,
      "##ender": 1912,
      "sou": 1913,
      "##irm": 1914,
      "depress": 1915,
      "##ati": 1916,
      "recommend": 1917,
      "manip": 1918,
      "gre": 1919,
      "preference": 1920,
      "natural": 1921,
      "active": 1922,
      "challenge": 1923,
      "artic": 1924,
      "passion": 1925,
      "dog": 1926,
      "##dom": 1927,
      "valid": 1928,
      "several": 1929,
      "ser": 1930,
      "pas": 1931,
      "activity": 1932,
      "hmm": 1933,
      "cold": 1934,
      "fan": 1935,
      "infl": 1936,
      "death": 1937,
      "##ger": 1938,
      "source": 1939,
      "spot": 1940,
      "community": 1941,
      "heahy": 1942,
      "immedi": 1943,
      "claim": 1944,
      "effect": 1945,
      "angry": 1946,
      "##ortun": 1947,
      "discus": 1948,
      "quickly": 1949,
      "sister": 1950,
      "##vern": 1951,
      "obvious": 1952,
      "naturally": 1953,
      "mistake": 1954,
      "dude": 1955,
      "suff": 1956,
      "rational": 1957,
      "ups": 1958,
      "enc": 1959,
      "dead": 1960,
      "##ass": 1961,
      "##ning": 1962,
      "define": 1963,
      "continue": 1964,
      "##ssive": 1965,
      "currently": 1966,
      "cat": 1967,
      "##kke": 1968,
      "##book": 1969,
      "determ": 1970,
      "balance": 1971,
      "##imal": 1972,
      "##ape": 1973,
      "aspect": 1974,
      "og": 1975,
      "engage": 1976,
      "entjs": 1977,
      "##oooo": 1978,
      "##what": 1979,
      "##asion": 1980,
      "train": 1981,
      "message": 1982,
      "highly": 1983,
      "boyfriend": 1984,
      "piece": 1985,
      "waste": 1986,
      "role": 1987,
      "somewhat": 1988,
      "appar": 1989,
      "##antas": 1990,
      "slight": 1991,
      "heav": 1992,
      "##bby": 1993,
      "govern": 1994,
      "##ieve": 1995,
      "interact": 1996,
      "reaction": 1997,
      "##verage": 1998,
      "socion": 1999,
      "religion": 2000,
      "##form": 2001,
      "attra": 2002,
      "solve": 2003,
      "bet": 2004,
      "strange": 2005,
      "finally": 2006,
      "reach": 2007,
      "smile": 2008,
      "##ensive": 2009,
      "fantas": 2010,
      "swe": 2011,
      "beauti": 2012,
      "dislike": 2013,
      "attract": 2014,
      "hahaha": 2015,
      "ess": 2016,
      "moral": 2017,
      "card": 2018,
      "##ror": 2019,
      "coun": 2020,
      "down": 2021,
      "##tics": 2022,
      "career": 2023,
      "ach": 2024,
      "##anger": 2025,
      "##reddit": 2026,
      "unh": 2027,
      "sn": 2028,
      "##for": 2029,
      "##rage": 2030,
      "commit": 2031,
      "medi": 2032,
      "##val": 2033,
      "helpful": 2034,
      "##duc": 2035,
      "mood": 2036,
      "bull": 2037,
      "til": 2038,
      "profe": 2039,
      "##mental": 2040,
      "definition": 2041,
      "fra": 2042,
      "pull": 2043,
      "prom": 2044,
      "socionics": 2045,
      "enter": 2046,
      "hide": 2047,
      "##uter": 2048,
      "consist": 2049,
      "letter": 2050,
      "bear": 2051,
      "comb": 2052,
      "lab": 2053,
      "context": 2054,
      "abst": 2055,
      "creative": 2056,
      "##empt": 2057,
      "##ak": 2058,
      "statement": 2059,
      "teacher": 2060,
      "germany": 2061,
      "communication": 2062,
      "philosoph": 2063,
      "upset": 2064,
      "star": 2065,
      "english": 2066,
      "influ": 2067,
      "##raid": 2068,
      "somewhere": 2069,
      "##ority": 2070,
      "##shit": 2071,
      "admit": 2072,
      "subreddit": 2073,
      "bunch": 2074,
      "marry": 2075,
      "##mate": 2076,
      "poor": 2077,
      "but": 2078,
      "computer": 2079,
      "##yn": 2080,
      "afraid": 2081,
      "univers": 2082,
      "heah": 2083,
      "##ific": 2084,
      "##view": 2085,
      "particularly": 2086,
      "contact": 2087,
      "attack": 2088,
      "save": 2089,
      "model": 2090,
      "techn": 2091,
      "##co": 2092,
      "##cons": 2093,
      "##levant": 2094,
      "cuure": 2095,
      "beautiful": 2096,
      "attempt": 2097,
      "key": 2098,
      "ikke": 2099,
      "mag": 2100,
      "##ogn": 2101,
      "bed": 2102,
      "front": 2103,
      "program": 2104,
      "insight": 2105,
      "##omy": 2106,
      "color": 2107,
      "student": 2108,
      "despite": 2109,
      "blue": 2110,
      "quote": 2111,
      "field": 2112,
      "istps": 2113,
      "##enever": 2114,
      "plus": 2115,
      "whenever": 2116,
      "tradition": 2117,
      "solution": 2118,
      "standard": 2119,
      "goo": 2120,
      "##enty": 2121,
      "##land": 2122,
      "meth": 2123,
      "##mb": 2124,
      "##rop": 2125,
      "##how": 2126,
      "##urity": 2127,
      "rarely": 2128,
      "article": 2129,
      "##ital": 2130,
      "clean": 2131,
      "occasion": 2132,
      "government": 2133,
      "apart": 2134,
      "evidence": 2135,
      "team": 2136,
      "frustrate": 2137,
      "educ": 2138,
      "press": 2139,
      "nobody": 2140,
      "communicate": 2141,
      "tv": 2142,
      "uncom": 2143,
      "voice": 2144,
      "opportun": 2145,
      "##ternal": 2146,
      "aut": 2147,
      "eur": 2148,
      "my": 2149,
      "recogn": 2150,
      "average": 2151,
      "fire": 2152,
      "drop": 2153,
      "sensitive": 2154,
      "influence": 2155,
      "basic": 2156,
      "interpret": 2157,
      "romantic": 2158,
      "hus": 2159,
      "##ateg": 2160,
      "hot": 2161,
      "intention": 2162,
      "ele": 2163,
      "path": 2164,
      "to": 2165,
      "spir": 2166,
      "##oll": 2167,
      "none": 2168,
      "convince": 2169,
      "four": 2170,
      "##fortun": 2171,
      "internal": 2172,
      "unheahy": 2173,
      "unfortun": 2174,
      "prim": 2175,
      "incredibly": 2176,
      "determine": 2177,
      "achieve": 2178,
      "water": 2179,
      "tire": 2180,
      "bullshit": 2181,
      "du": 2182,
      "fell": 2183,
      "anti": 2184,
      "hobby": 2185,
      "page": 2186,
      "jump": 2187,
      "expl": 2188,
      "relax": 2189,
      "organize": 2190,
      "opportunity": 2191,
      "##iv": 2192,
      "##au": 2193,
      "peri": 2194,
      "jus": 2195,
      "##gue": 2196,
      "possibly": 2197,
      "terrible": 2198,
      "##band": 2199,
      "##right": 2200,
      "entirely": 2201,
      "task": 2202,
      "door": 2203,
      "loud": 2204,
      "##mmer": 2205,
      "europe": 2206,
      "inve": 2207,
      "jung": 2208,
      "##titude": 2209,
      "##ker": 2210,
      "##par": 2211,
      "aux": 2212,
      "potential": 2213,
      "lay": 2214,
      "##ourage": 2215,
      "there": 2216,
      "ther": 2217,
      "pred": 2218,
      "method": 2219,
      "benefit": 2220,
      "##cial": 2221,
      "dumb": 2222,
      "##ral": 2223,
      "##iver": 2224,
      "muip": 2225,
      "##ode": 2226,
      "conscious": 2227,
      "##hole": 2228,
      "tendency": 2229,
      "rock": 2230,
      "##isk": 2231,
      "strenh": 2232,
      "subjective": 2233,
      "vote": 2234,
      "##asc": 2235,
      "##zz": 2236,
      "priv": 2237,
      "trade": 2238,
      "dest": 2239,
      "intelligence": 2240,
      "accord": 2241,
      "odd": 2242,
      "sport": 2243,
      "##entially": 2244,
      "period": 2245,
      "drug": 2246,
      "##sec": 2247,
      "##anna": 2248,
      "istjs": 2249,
      "ver": 2250,
      "##gle": 2251,
      "abstract": 2252,
      "##to": 2253,
      "##fically": 2254,
      "sta": 2255,
      "dem": 2256,
      "responsi": 2257,
      "animal": 2258,
      "sho": 2259,
      "husband": 2260,
      "##fore": 2261,
      "complex": 2262,
      "uim": 2263,
      "##ribute": 2264,
      "score": 2265,
      "confidence": 2266,
      "version": 2267,
      "intro": 2268,
      "##ager": 2269,
      "calm": 2270,
      "somehow": 2271,
      "##roll": 2272,
      "majority": 2273,
      "intel": 2274,
      "##ial": 2275,
      "##erate": 2276,
      "shy": 2277,
      "hug": 2278,
      "##ception": 2279,
      "join": 2280,
      "american": 2281,
      "nf": 2282,
      "##tain": 2283,
      "##raph": 2284,
      "temp": 2285,
      "liber": 2286,
      "shoot": 2287,
      "medium": 2288,
      "travel": 2289,
      "confident": 2290,
      "master": 2291,
      "##ah": 2292,
      "web": 2293,
      "perception": 2294,
      "regardless": 2295,
      "gift": 2296,
      "wall": 2297,
      "##br": 2298,
      "##hood": 2299,
      "##ero": 2300,
      "intellect": 2301,
      "eu": 2302,
      "##tist": 2303,
      "extraver": 2304,
      "apparently": 2305,
      "imo": 2306,
      "grand": 2307,
      "circ": 2308,
      "isfjs": 2309,
      "external": 2310,
      "pret": 2311,
      "warm": 2312,
      "satis": 2313,
      "flow": 2314,
      "asshole": 2315,
      "pea": 2316,
      "raise": 2317,
      "recognize": 2318,
      "##old": 2319,
      "##loy": 2320,
      "wanna": 2321,
      "fully": 2322,
      "hop": 2323,
      "mad": 2324,
      "discover": 2325,
      "##if": 2326,
      "##atter": 2327,
      "beat": 2328,
      "necessary": 2329,
      "##io": 2330,
      "enfjs": 2331,
      "moder": 2332,
      "structure": 2333,
      "father": 2334,
      "near": 2335,
      "feeler": 2336,
      "dire": 2337,
      "confirm": 2338,
      "loc": 2339,
      "image": 2340,
      "content": 2341,
      "##duce": 2342,
      "asso": 2343,
      "specifically": 2344,
      "risk": 2345,
      "stack": 2346,
      "impression": 2347,
      "##epend": 2348,
      "mil": 2349,
      "adm": 2350,
      "typically": 2351,
      "smo": 2352,
      "spirit": 2353,
      "##cer": 2354,
      "cant": 2355,
      "forward": 2356,
      "emb": 2357,
      "bot": 2358,
      "sear": 2359,
      "scar": 2360,
      "factor": 2361,
      "ep": 2362,
      "pu": 2363,
      "introver": 2364,
      "observ": 2365,
      "wher": 2366,
      "orient": 2367,
      "relative": 2368,
      "##air": 2369,
      "muiple": 2370,
      "##lock": 2371,
      "political": 2372,
      "explore": 2373,
      "therap": 2374,
      "habit": 2375,
      "uncomfort": 2376,
      "gain": 2377,
      "maint": 2378,
      "signific": 2379,
      "econ": 2380,
      "lazy": 2381,
      "##ective": 2382,
      "shut": 2383,
      "react": 2384,
      "mistype": 2385,
      "proper": 2386,
      "search": 2387,
      "##app": 2388,
      "repe": 2389,
      "upon": 2390,
      "##usive": 2391,
      "humor": 2392,
      "scienti": 2393,
      "##ticism": 2394,
      "socially": 2395,
      "design": 2396,
      "stri": 2397,
      "wind": 2398,
      "##rit": 2399,
      "dev": 2400,
      "mix": 2401,
      "analyze": 2402,
      "unfortunately": 2403,
      "overall": 2404,
      "introversion": 2405,
      "uncomfortable": 2406,
      "cute": 2407,
      "impo": 2408,
      "##resent": 2409,
      "bud": 2410,
      "gui": 2411,
      "motivation": 2412,
      "suffer": 2413,
      "categ": 2414,
      "effici": 2415,
      "scre": 2416,
      "directly": 2417,
      "##under": 2418,
      "safe": 2419,
      "arm": 2420,
      "sweet": 2421,
      "attitude": 2422,
      "observe": 2423,
      "fill": 2424,
      "foot": 2425,
      "##xx": 2426,
      "ce": 2427,
      "pet": 2428,
      "sun": 2429,
      "##ym": 2430,
      "##illion": 2431,
      "among": 2432,
      "peace": 2433,
      "##ven": 2434,
      "##ario": 2435,
      "bey": 2436,
      "##arian": 2437,
      "pun": 2438,
      "somebody": 2439,
      "##ological": 2440,
      "jeg": 2441,
      "original": 2442,
      "ive": 2443,
      "teen": 2444,
      "ur": 2445,
      "##set": 2446,
      "expectation": 2447,
      "##stance": 2448,
      "##inter": 2449,
      "christi": 2450,
      "amb": 2451,
      "morning": 2452,
      "cost": 2453,
      "contra": 2454,
      "tough": 2455,
      "##ili": 2456,
      "judg": 2457,
      "practical": 2458,
      "therefore": 2459,
      "plenty": 2460,
      "##olate": 2461,
      "immediately": 2462,
      "rece": 2463,
      "member": 2464,
      "switch": 2465,
      "christian": 2466,
      "sche": 2467,
      "doms": 2468,
      "circle": 2469,
      "offend": 2470,
      "purs": 2471,
      "piss": 2472,
      "religious": 2473,
      "dance": 2474,
      "slightly": 2475,
      "air": 2476,
      "jour": 2477,
      "yep": 2478,
      "prof": 2479,
      "##haha": 2480,
      "engine": 2481,
      "can": 2482,
      "land": 2483,
      "popular": 2484,
      "##ier": 2485,
      "flaw": 2486,
      "profession": 2487,
      "sla": 2488,
      "prin": 2489,
      "impossi": 2490,
      "fake": 2491,
      "insec": 2492,
      "girlfriend": 2493,
      "trip": 2494,
      "beyond": 2495,
      "serv": 2496,
      "##ysis": 2497,
      "independ": 2498,
      "paper": 2499,
      "cop": 2500,
      "xn": 2501,
      "##erial": 2502,
      "parti": 2503,
      "soul": 2504,
      "direction": 2505,
      "intense": 2506,
      "grade": 2507,
      "eth": 2508,
      "pure": 2509,
      "##tify": 2510,
      "phot": 2511,
      "sent": 2512,
      "busy": 2513,
      "hyp": 2514,
      "inner": 2515,
      "sup": 2516,
      "##ural": 2517,
      "isfps": 2518,
      "net": 2519,
      "neither": 2520,
      "cook": 2521,
      "grind": 2522,
      "philosophy": 2523,
      "pressure": 2524,
      "##irth": 2525,
      "friendly": 2526,
      "loop": 2527,
      "strongly": 2528,
      "##tistic": 2529,
      "prote": 2530,
      "scen": 2531,
      "wife": 2532,
      "impossible": 2533,
      "##etic": 2534,
      "##lete": 2535,
      "pati": 2536,
      "universe": 2537,
      "ow": 2538,
      "##ler": 2539,
      "represent": 2540,
      "correl": 2541,
      "explan": 2542,
      "sentence": 2543,
      "typical": 2544,
      "##oof": 2545,
      "compli": 2546,
      "trump": 2547,
      "##gressive": 2548,
      "series": 2549,
      "drama": 2550,
      "tool": 2551,
      "meaning": 2552,
      "bat": 2553,
      "five": 2554,
      "##rease": 2555,
      "sell": 2556,
      "##iot": 2557,
      "perc": 2558,
      "gri": 2559,
      "##icate": 2560,
      "instance": 2561,
      "empathy": 2562,
      "gender": 2563,
      "shitty": 2564,
      "bul": 2565,
      "sj": 2566,
      "hair": 2567,
      "##room": 2568,
      "lean": 2569,
      "impact": 2570,
      "intelligent": 2571,
      "frequ": 2572,
      "birth": 2573,
      "##ible": 2574,
      "##vour": 2575,
      "uns": 2576,
      "bitch": 2577,
      "surround": 2578,
      "##dden": 2579,
      "service": 2580,
      "thinker": 2581,
      "fund": 2582,
      "happiness": 2583,
      "circum": 2584,
      "##icul": 2585,
      "drain": 2586,
      "compliment": 2587,
      "cross": 2588,
      "thus": 2589,
      "ve": 2590,
      "##tw": 2591,
      "differently": 2592,
      "cli": 2593,
      "tit": 2594,
      "west": 2595,
      "##vious": 2596,
      "sar": 2597,
      "sudden": 2598,
      "mature": 2599,
      "burn": 2600,
      "idk": 2601,
      "imply": 2602,
      "google": 2603,
      "explanation": 2604,
      "fal": 2605,
      "oppose": 2606,
      "distance": 2607,
      "earth": 2608,
      "equal": 2609,
      "cas": 2610,
      "vul": 2611,
      "##elm": 2612,
      "bos": 2613,
      "perfectly": 2614,
      "freak": 2615,
      "anger": 2616,
      "pleas": 2617,
      "##ctor": 2618,
      "effective": 2619,
      "vibe": 2620,
      "##son": 2621,
      "secret": 2622,
      "hy": 2623,
      "tb": 2624,
      "##inct": 2625,
      "##rase": 2626,
      "attractive": 2627,
      "ego": 2628,
      "relevant": 2629,
      "##umption": 2630,
      "invest": 2631,
      "##eem": 2632,
      "separ": 2633,
      "store": 2634,
      "accomp": 2635,
      "insp": 2636,
      "rob": 2637,
      "##bal": 2638,
      "bare": 2639,
      "nu": 2640,
      "paint": 2641,
      "smoke": 2642,
      "##iny": 2643,
      "##ated": 2644,
      "stim": 2645,
      "kick": 2646,
      "yea": 2647,
      "##une": 2648,
      "##vis": 2649,
      "selfish": 2650,
      "analysis": 2651,
      "maintain": 2652,
      "scenario": 2653,
      "normally": 2654,
      "cover": 2655,
      "russi": 2656,
      "##hol": 2657,
      "everybody": 2658,
      "university": 2659,
      "meas": 2660,
      "box": 2661,
      "wake": 2662,
      "baby": 2663,
      "unique": 2664,
      "crush": 2665,
      "dun": 2666,
      "artist": 2667,
      "femin": 2668,
      "taste": 2669,
      "engineer": 2670,
      "whereas": 2671,
      "feed": 2672,
      "anyways": 2673,
      "encourage": 2674,
      "pen": 2675,
      "##iar": 2676,
      "##inc": 2677,
      "##tta": 2678,
      "ready": 2679,
      "terti": 2680,
      "silly": 2681,
      "##whelm": 2682,
      "band": 2683,
      "##cas": 2684,
      "##atic": 2685,
      "##ercise": 2686,
      "compe": 2687,
      "esfjs": 2688,
      "weight": 2689,
      "psychology": 2690,
      "tertiary": 2691,
      "soft": 2692,
      "ridicul": 2693,
      "##play": 2694,
      "pretend": 2695,
      "bur": 2696,
      "nearly": 2697,
      "##olution": 2698,
      "genuinely": 2699,
      "##let": 2700,
      "weakness": 2701,
      "##aint": 2702,
      "private": 2703,
      "beside": 2704,
      "solid": 2705,
      "development": 2706,
      "##rog": 2707,
      "famil": 2708,
      "expression": 2709,
      "##ground": 2710,
      "club": 2711,
      "##outh": 2712,
      "unlike": 2713,
      "##ague": 2714,
      "coff": 2715,
      "third": 2716,
      "chill": 2717,
      "princip": 2718,
      "elect": 2719,
      "rely": 2720,
      "##ension": 2721,
      "associate": 2722,
      "##spect": 2723,
      "disorder": 2724,
      "dick": 2725,
      "fil": 2726,
      "exercise": 2727,
      "favour": 2728,
      "mode": 2729,
      "overwhelm": 2730,
      "tbh": 2731,
      "dress": 2732,
      "depth": 2733,
      "clothe": 2734,
      "entertain": 2735,
      "##ug": 2736,
      "excuse": 2737,
      "sexual": 2738,
      "population": 2739,
      "sake": 2740,
      "market": 2741,
      "facebook": 2742,
      "education": 2743,
      "mere": 2744,
      "gotta": 2745,
      "chat": 2746,
      "##ppy": 2747,
      "dig": 2748,
      "blame": 2749,
      "##understand": 2750,
      "site": 2751,
      "##tici": 2752,
      "remo": 2753,
      "deserve": 2754,
      "misunderstand": 2755,
      "green": 2756,
      "label": 2757,
      "##uu": 2758,
      "mer": 2759,
      "##ube": 2760,
      "##ball": 2761,
      "evil": 2762,
      "click": 2763,
      "nope": 2764,
      "vil": 2765,
      "vulner": 2766,
      "ine": 2767,
      "##ney": 2768,
      "der": 2769,
      "##back": 2770,
      "measure": 2771,
      "hol": 2772,
      "estjs": 2773,
      "camp": 2774,
      "yout": 2775,
      "thr": 2776,
      "coffee": 2777,
      "iron": 2778,
      "various": 2779,
      "competi": 2780,
      "troll": 2781,
      "instru": 2782,
      "lu": 2783,
      "leader": 2784,
      "lone": 2785,
      "track": 2786,
      "sarcas": 2787,
      "aern": 2788,
      "vol": 2789,
      "##mi": 2790,
      "assumption": 2791,
      "pursue": 2792,
      "rad": 2793,
      "##ery": 2794,
      "road": 2795,
      "deeply": 2796,
      "hello": 2797,
      "fau": 2798,
      "intuitives": 2799,
      "receive": 2800,
      "exha": 2801,
      "carry": 2802,
      "remain": 2803,
      "tax": 2804,
      "accomplish": 2805,
      "viol": 2806,
      "cha": 2807,
      "material": 2808,
      "uk": 2809,
      "##era": 2810,
      "arch": 2811,
      "worker": 2812,
      "realise": 2813,
      "circumstance": 2814,
      "manner": 2815,
      "trick": 2816,
      "pair": 2817,
      "##fication": 2818,
      "ly": 2819,
      "prep": 2820,
      "##rum": 2821,
      "observation": 2822,
      "alco": 2823,
      "##ogy": 2824,
      "mach": 2825,
      "employ": 2826,
      "physically": 2827,
      "remove": 2828,
      "ball": 2829,
      "perform": 2830,
      "##gger": 2831,
      "familiar": 2832,
      "uimately": 2833,
      "##rete": 2834,
      "complain": 2835,
      "object": 2836,
      "estps": 2837,
      "extraverted": 2838,
      "mut": 2839,
      "##ime": 2840,
      "##ench": 2841,
      "alcohol": 2842,
      "##yy": 2843,
      "##iter": 2844,
      "##itary": 2845,
      "rev": 2846,
      "behaviour": 2847,
      "fellow": 2848,
      "btw": 2849,
      "core": 2850,
      "##antage": 2851,
      "##lim": 2852,
      "park": 2853,
      "esfps": 2854,
      "counter": 2855,
      "suit": 2856,
      "tie": 2857,
      "total": 2858,
      "gather": 2859,
      "##ka": 2860,
      "politics": 2861,
      "idiot": 2862,
      "decent": 2863,
      "ahead": 2864,
      "folk": 2865,
      "and": 2866,
      "demo": 2867,
      "frame": 2868,
      "ya": 2869,
      "##agn": 2870,
      "capable": 2871,
      "christ": 2872,
      "##dule": 2873,
      "satisfy": 2874,
      "besides": 2875,
      "##ciss": 2876,
      "fantasy": 2877,
      "fasc": 2878,
      "tom": 2879,
      "summer": 2880,
      "extent": 2881,
      "lately": 2882,
      "##sequ": 2883,
      "mech": 2884,
      "basis": 2885,
      "blow": 2886,
      "wild": 2887,
      "##ki": 2888,
      "##uty": 2889,
      "mainly": 2890,
      "forever": 2891,
      "separate": 2892,
      "##uate": 2893,
      "##gr": 2894,
      "onto": 2895,
      "principle": 2896,
      "increase": 2897,
      "rude": 2898,
      "roll": 2899,
      "##vey": 2900,
      "resource": 2901,
      "##ropri": 2902,
      "dri": 2903,
      "##opath": 2904,
      "aggressive": 2905,
      "horrible": 2906,
      "professional": 2907,
      "gun": 2908,
      "narciss": 2909,
      "rout": 2910,
      "##put": 2911,
      "reference": 2912,
      "bound": 2913,
      "nor": 2914,
      "aside": 2915,
      "alright": 2916,
      "gold": 2917,
      "disapp": 2918,
      "pack": 2919,
      "ban": 2920,
      "##ky": 2921,
      "freedom": 2922,
      "predict": 2923,
      "pan": 2924,
      "##ton": 2925,
      "fle": 2926,
      "tho": 2927,
      "delete": 2928,
      "fiction": 2929,
      "pm": 2930,
      "##sive": 2931,
      "constant": 2932,
      "visit": 2933,
      "##bl": 2934,
      "##lig": 2935,
      "##xp": 2936,
      "socialize": 2937,
      "autom": 2938,
      "youtube": 2939,
      "sick": 2940,
      "##orn": 2941,
      "scale": 2942,
      "news": 2943,
      "##licate": 2944,
      "mechan": 2945,
      "shall": 2946,
      "anywhere": 2947,
      "hopefully": 2948,
      "crap": 2949,
      "million": 2950,
      "##ray": 2951,
      "reflect": 2952,
      "strike": 2953,
      "lad": 2954,
      "anxious": 2955,
      "intellectual": 2956,
      "und": 2957,
      "faith": 2958,
      "##tter": 2959,
      "##lication": 2960,
      "##phone": 2961,
      "refuse": 2962,
      "identity": 2963,
      "##vent": 2964,
      "criticism": 2965,
      "motivate": 2966,
      "schedule": 2967,
      "crow": 2968,
      "report": 2969,
      "concrete": 2970,
      "stereotyp": 2971,
      "##vote": 2972,
      "##ersh": 2973,
      "nah": 2974,
      "ske": 2975,
      "indeed": 2976,
      "cow": 2977,
      "fly": 2978,
      "##site": 2979,
      "chem": 2980,
      "mic": 2981,
      "##ander": 2982,
      "flirt": 2983,
      "profile": 2984,
      "exhaust": 2985,
      "tol": 2986,
      "unf": 2987,
      "serve": 2988,
      "board": 2989,
      "office": 2990,
      "daily": 2991,
      "title": 2992,
      "interview": 2993,
      "unp": 2994,
      "attach": 2995,
      "existence": 2996,
      "wonderful": 2997,
      "fulf": 2998,
      "##aw": 2999,
      "##den": 3000,
      "##inger": 3001,
      "adu": 3002,
      "disp": 3003,
      "weekend": 3004,
      "cy": 3005,
      "table": 3006,
      "vision": 3007,
      "squ": 3008,
      "zone": 3009,
      "film": 3010,
      "##onal": 3011,
      "occasionally": 3012,
      "##erk": 3013,
      "##ont": 3014,
      "##idate": 3015,
      "capital": 3016,
      "return": 3017,
      "aud": 3018,
      "ada": 3019,
      "demand": 3020,
      "tur": 3021,
      "##fj": 3022,
      "inher": 3023,
      "shad": 3024,
      "reb": 3025,
      "cele": 3026,
      "it": 3027,
      "##ga": 3028,
      "demon": 3029,
      "useless": 3030,
      "website": 3031,
      "##riage": 3032,
      "medit": 3033,
      "gradu": 3034,
      "address": 3035,
      "center": 3036,
      "now": 3037,
      "tear": 3038,
      "tap": 3039,
      "shop": 3040,
      "town": 3041,
      "background": 3042,
      "judgement": 3043,
      "element": 3044,
      "dunno": 3045,
      "prepare": 3046,
      "wise": 3047,
      "##ciously": 3048,
      "shape": 3049,
      "access": 3050,
      "esc": 3051,
      "constru": 3052,
      "significant": 3053,
      "fee": 3054,
      "##fp": 3055,
      "procra": 3056,
      "compet": 3057,
      "charge": 3058,
      "ste": 3059,
      "procrast": 3060,
      "ten": 3061,
      "marriage": 3062,
      "appeal": 3063,
      "lonely": 3064,
      "##ership": 3065,
      "dich": 3066,
      "##iant": 3067,
      "harmon": 3068,
      "routine": 3069,
      "##areness": 3070,
      "info": 3071,
      "record": 3072,
      "tal": 3073,
      "##led": 3074,
      "manif": 3075,
      "flo": 3076,
      "kan": 3077,
      "##my": 3078,
      "##cd": 3079,
      "reject": 3080,
      "##racy": 3081,
      "blind": 3082,
      "responsibility": 3083,
      "condition": 3084,
      "arrog": 3085,
      "passive": 3086,
      "ridiculous": 3087,
      "border": 3088,
      "##late": 3089,
      "##ison": 3090,
      "successful": 3091,
      "birthday": 3092,
      "port": 3093,
      "stat": 3094,
      "dear": 3095,
      "primary": 3096,
      "disappoint": 3097,
      "apolog": 3098,
      "heavy": 3099,
      "manifest": 3100,
      "wing": 3101,
      "harm": 3102,
      "boundary": 3103,
      "ali": 3104,
      "##ester": 3105,
      "din": 3106,
      "##urch": 3107,
      "awareness": 3108,
      "regular": 3109,
      "##aaaa": 3110,
      "dichot": 3111,
      "ack": 3112,
      "ge": 3113,
      "vague": 3114,
      "##ication": 3115,
      "guiy": 3116,
      "category": 3117,
      "##ina": 3118,
      "loy": 3119,
      "broad": 3120,
      "econom": 3121,
      "mistyped": 3122,
      "##light": 3123,
      "##ceed": 3124,
      "optim": 3125,
      "actively": 3126,
      "##eech": 3127,
      "exception": 3128,
      "neut": 3129,
      "favourite": 3130,
      "block": 3131,
      "##key": 3132,
      "essentially": 3133,
      "##point": 3134,
      "##ris": 3135,
      "judgment": 3136,
      "rant": 3137,
      "wit": 3138,
      "behave": 3139,
      "tone": 3140,
      "##date": 3141,
      "ide": 3142,
      "advantage": 3143,
      "progress": 3144,
      "##sition": 3145,
      "advent": 3146,
      "flu": 3147,
      "slowly": 3148,
      "##miss": 3149,
      "une": 3150,
      "##reet": 3151,
      "intim": 3152,
      "visual": 3153,
      "ax": 3154,
      "lma": 3155,
      "##omb": 3156,
      "church": 3157,
      "##ounce": 3158,
      "eh": 3159,
      "rough": 3160,
      "wide": 3161,
      "##ost": 3162,
      "##ør": 3163,
      "tip": 3164,
      "everyday": 3165,
      "scene": 3166,
      "phrase": 3167,
      "police": 3168,
      "dyn": 3169,
      "yup": 3170,
      "##iiii": 3171,
      "##labor": 3172,
      "confront": 3173,
      "##arious": 3174,
      "doctor": 3175,
      "irration": 3176,
      "dichotomy": 3177,
      "hil": 3178,
      "vary": 3179,
      "complicate": 3180,
      "##ablish": 3181,
      "repeat": 3182,
      "childhood": 3183,
      "suggestion": 3184,
      "cree": 3185,
      "gut": 3186,
      "consequ": 3187,
      "abuse": 3188,
      "adapt": 3189,
      "rich": 3190,
      "contribute": 3191,
      "awful": 3192,
      "scientific": 3193,
      "##ropriate": 3194,
      "##ection": 3195,
      "shift": 3196,
      "stranger": 3197,
      "##ficial": 3198,
      "##wards": 3199,
      "establish": 3200,
      "authority": 3201,
      "local": 3202,
      "fascinate": 3203,
      "shadow": 3204,
      "traditional": 3205,
      "suddenly": 3206,
      "snow": 3207,
      "military": 3208,
      "kn": 3209,
      "##por": 3210,
      "addition": 3211,
      "regret": 3212,
      "flair": 3213,
      "manipulate": 3214,
      "embar": 3215,
      "through": 3216,
      "##rom": 3217,
      "##inge": 3218,
      "settle": 3219,
      "##born": 3220,
      "lmao": 3221,
      "frequently": 3222,
      "acknow": 3223,
      "mouth": 3224,
      "strate": 3225,
      "player": 3226,
      "critical": 3227,
      "##eeee": 3228,
      "compar": 3229,
      "##lusive": 3230,
      "tran": 3231,
      "clari": 3232,
      "omg": 3233,
      "cru": 3234,
      "fri": 3235,
      "##min": 3236,
      "##nal": 3237,
      "speech": 3238,
      "mentally": 3239,
      "passionate": 3240,
      "strategy": 3241,
      "athe": 3242,
      "gay": 3243,
      "##zen": 3244,
      "affection": 3245,
      "dynam": 3246,
      "danger": 3247,
      "street": 3248,
      "everywhere": 3249,
      "ed": 3250,
      "spe": 3251,
      "defend": 3252,
      "##ashion": 3253,
      "##rass": 3254,
      "twice": 3255,
      "relatively": 3256,
      "inspire": 3257,
      "iq": 3258,
      "##orize": 3259,
      "indu": 3260,
      "##rupt": 3261,
      "##ograph": 3262,
      "ignor": 3263,
      "interpretation": 3264,
      "independent": 3265,
      "civ": 3266,
      "nut": 3267,
      "##ley": 3268,
      "drag": 3269,
      "occur": 3270,
      "acknowledge": 3271,
      "protect": 3272,
      "fashion": 3273,
      "trigger": 3274,
      "vulnerable": 3275,
      "throughout": 3276,
      "pi": 3277,
      "##ana": 3278,
      "##ortion": 3279,
      "input": 3280,
      "##olic": 3281,
      "unre": 3282,
      "threat": 3283,
      "sim": 3284,
      "proud": 3285,
      "insane": 3286,
      "race": 3287,
      "outcome": 3288,
      "blunt": 3289,
      "##ealous": 3290,
      "crowd": 3291,
      "##roy": 3292,
      "suspect": 3293,
      "impul": 3294,
      "ram": 3295,
      "##orrow": 3296,
      "quit": 3297,
      "blood": 3298,
      "##che": 3299,
      "##unk": 3300,
      "aernative": 3301,
      "ast": 3302,
      "clue": 3303,
      "weed": 3304,
      "stub": 3305,
      "##jection": 3306,
      "theore": 3307,
      "after": 3308,
      "justify": 3309,
      "##ox": 3310,
      "instinct": 3311,
      "movement": 3312,
      "casual": 3313,
      "previous": 3314,
      "proof": 3315,
      "holy": 3316,
      "cust": 3317,
      "combination": 3318,
      "king": 3319,
      "##iable": 3320,
      "map": 3321,
      "mass": 3322,
      "advance": 3323,
      "epis": 3324,
      "dynamic": 3325,
      "glo": 3326,
      "jealous": 3327,
      "sx": 3328,
      "##oon": 3329,
      "anybody": 3330,
      "overly": 3331,
      "avail": 3332,
      "graduate": 3333,
      "neu": 3334,
      "journal": 3335,
      "superior": 3336,
      "##ciation": 3337,
      "invite": 3338,
      "screw": 3339,
      "breat": 3340,
      "yell": 3341,
      "mur": 3342,
      "guide": 3343,
      "cheat": 3344,
      "liberal": 3345,
      "embarrass": 3346,
      "boo": 3347,
      "ner": 3348,
      "range": 3349,
      "##ring": 3350,
      "inte": 3351,
      "unc": 3352,
      "irrit": 3353,
      "modern": 3354,
      "dan": 3355,
      "east": 3356,
      "##lection": 3357,
      "##itter": 3358,
      "shame": 3359,
      "credit": 3360,
      "##itate": 3361,
      "reward": 3362,
      "promise": 3363,
      "machine": 3364,
      "##sis": 3365,
      "reserve": 3366,
      "destroy": 3367,
      "tree": 3368,
      "diagn": 3369,
      "terri": 3370,
      "meaningful": 3371,
      "ja": 3372,
      "kiss": 3373,
      "inn": 3374,
      "offici": 3375,
      "via": 3376,
      "immature": 3377,
      "neutral": 3378,
      "exam": 3379,
      "prevent": 3380,
      "incor": 3381,
      "insu": 3382,
      "humanity": 3383,
      "excell": 3384,
      "physic": 3385,
      "author": 3386,
      "lyric": 3387,
      "apologize": 3388,
      "##sson": 3389,
      "spiritual": 3390,
      "hole": 3391,
      "##att": 3392,
      "accident": 3393,
      "##osity": 3394,
      "distract": 3395,
      "funda": 3396,
      "##hn": 3397,
      "##lass": 3398,
      "conserv": 3399,
      "skin": 3400,
      "failure": 3401,
      "barely": 3402,
      "ou": 3403,
      "##ob": 3404,
      "sto": 3405,
      "sky": 3406,
      "irre": 3407,
      "lucky": 3408,
      "metal": 3409,
      "stubborn": 3410,
      "##ef": 3411,
      "##face": 3412,
      "size": 3413,
      "harsh": 3414,
      "code": 3415,
      "spect": 3416,
      "##lit": 3417,
      "who": 3418,
      "careful": 3419,
      "symp": 3420,
      "double": 3421,
      "properly": 3422,
      "false": 3423,
      "tl": 3424,
      "realistic": 3425,
      "consistent": 3426,
      "collect": 3427,
      "##aph": 3428,
      "final": 3429,
      "admire": 3430,
      "stereotypical": 3431,
      "talent": 3432,
      "hilarious": 3433,
      "jes": 3434,
      "rain": 3435,
      "sal": 3436,
      "##conscious": 3437,
      "contrad": 3438,
      "particip": 3439,
      "hypo": 3440,
      "irrational": 3441,
      "flip": 3442,
      "frank": 3443,
      "ell": 3444,
      "##rary": 3445,
      "rele": 3446,
      "##eap": 3447,
      "compati": 3448,
      "##load": 3449,
      "classic": 3450,
      "product": 3451,
      "manipul": 3452,
      "##iliary": 3453,
      "photo": 3454,
      "custom": 3455,
      "therapy": 3456,
      "yester": 3457,
      "##cist": 3458,
      "cheap": 3459,
      "reasonable": 3460,
      "roommate": 3461,
      "french": 3462,
      "america": 3463,
      "auxiliary": 3464,
      "indust": 3465,
      "yesterday": 3466,
      "growth": 3467,
      "honesty": 3468,
      "episode": 3469,
      "rap": 3470,
      "##hi": 3471,
      "scary": 3472,
      "##laborate": 3473,
      "##rist": 3474,
      "poke": 3475,
      "##annel": 3476,
      "equally": 3477,
      "adh": 3478,
      "calc": 3479,
      "status": 3480,
      "##uable": 3481,
      "##sc": 3482,
      "##itar": 3483,
      "massive": 3484,
      "efficient": 3485,
      "correlation": 3486,
      "robot": 3487,
      "creep": 3488,
      "gym": 3489,
      "##tom": 3490,
      "##cu": 3491,
      "##ww": 3492,
      "##icious": 3493,
      "lady": 3494,
      "fool": 3495,
      "seas": 3496,
      "dismiss": 3497,
      "productive": 3498,
      "consequence": 3499,
      "usual": 3500,
      "ride": 3501,
      "rise": 3502,
      "##vert": 3503,
      "##adem": 3504,
      "mark": 3505,
      "loss": 3506,
      "eval": 3507,
      "academ": 3508,
      "window": 3509,
      "battle": 3510,
      "gar": 3511,
      "ice": 3512,
      "jack": 3513,
      "##we": 3514,
      "senti": 3515,
      "outgo": 3516,
      "adhd": 3517,
      "fat": 3518,
      "ruin": 3519,
      "##sa": 3520,
      "##rap": 3521,
      "##urb": 3522,
      "price": 3523,
      "irl": 3524,
      "european": 3525,
      "national": 3526,
      "zero": 3527,
      "##reg": 3528,
      "noise": 3529,
      "crime": 3530,
      "bully": 3531,
      "##oke": 3532,
      "characteristic": 3533,
      "civil": 3534,
      "##inary": 3535,
      "prot": 3536,
      "theme": 3537,
      "heavily": 3538,
      "combine": 3539,
      "ethic": 3540,
      "neuro": 3541,
      "vent": 3542,
      "available": 3543,
      "nerv": 3544,
      "resist": 3545,
      "sam": 3546,
      "prior": 3547,
      "excellent": 3548,
      "alb": 3549,
      "parag": 3550,
      "bottom": 3551,
      "feedback": 3552,
      "gree": 3553,
      "##charge": 3554,
      "##pper": 3555,
      "creativity": 3556,
      "intend": 3557,
      "impress": 3558,
      "ground": 3559,
      "therapist": 3560,
      "væ": 3561,
      "##atically": 3562,
      "##xic": 3563,
      "smell": 3564,
      "strenhs": 3565,
      "dual": 3566,
      "son": 3567,
      "acqu": 3568,
      "display": 3569,
      "forg": 3570,
      "asser": 3571,
      "huh": 3572,
      "elaborate": 3573,
      "mir": 3574,
      "nd": 3575,
      "##ware": 3576,
      "prone": 3577,
      "recent": 3578,
      "insecurity": 3579,
      "sympath": 3580,
      "season": 3581,
      "nervous": 3582,
      "##ury": 3583,
      "##lie": 3584,
      "##sure": 3585,
      "##tem": 3586,
      "genre": 3587,
      "round": 3588,
      "##lement": 3589,
      "max": 3590,
      "patient": 3591,
      "xnt": 3592,
      "uh": 3593,
      "ud": 3594,
      "##dream": 3595,
      "anime": 3596,
      "subs": 3597,
      "assign": 3598,
      "incline": 3599,
      "typology": 3600,
      "adventure": 3601,
      "speed": 3602,
      "appropriate": 3603,
      "replace": 3604,
      "curiosity": 3605,
      "commitment": 3606,
      "paragraph": 3607,
      "dish": 3608,
      "extroversion": 3609,
      "harmony": 3610,
      "cand": 3611,
      "##acy": 3612,
      "guitar": 3613,
      "sensory": 3614,
      "##uit": 3615,
      "##dra": 3616,
      "mutual": 3617,
      "tomorrow": 3618,
      "murder": 3619,
      "release": 3620,
      "chase": 3621,
      "hardly": 3622,
      "experiment": 3623,
      "wave": 3624,
      "initiate": 3625,
      "jesus": 3626,
      "hero": 3627,
      "##rant": 3628,
      "they": 3629,
      "logically": 3630,
      "damage": 3631,
      "demonst": 3632,
      "atheist": 3633,
      "bill": 3634,
      "sjs": 3635,
      "steal": 3636,
      "##just": 3637,
      "##irty": 3638,
      "spread": 3639,
      "john": 3640,
      "organization": 3641,
      "legal": 3642,
      "conservative": 3643,
      "mate": 3644,
      "tang": 3645,
      "load": 3646,
      "##zzle": 3647,
      "shoe": 3648,
      "##mas": 3649,
      "##leg": 3650,
      "mal": 3651,
      "##ensi": 3652,
      "recharge": 3653,
      "thor": 3654,
      "##lam": 3655,
      "##ounter": 3656,
      "daydream": 3657,
      "augh": 3658,
      "initial": 3659,
      "russia": 3660,
      "mel": 3661,
      "aim": 3662,
      "##eable": 3663,
      "alive": 3664,
      "spell": 3665,
      "section": 3666,
      "what": 3667,
      "mindset": 3668,
      "incomp": 3669,
      "symb": 3670,
      "former": 3671,
      "##tism": 3672,
      "##board": 3673,
      "encounter": 3674,
      "##force": 3675,
      "ish": 3676,
      "item": 3677,
      "vic": 3678,
      "##ify": 3679,
      "##onate": 3680,
      "esteem": 3681,
      "objectively": 3682,
      "manipulative": 3683,
      "##entic": 3684,
      "##istry": 3685,
      "guard": 3686,
      "narrow": 3687,
      "shock": 3688,
      "aughing": 3689,
      "pin": 3690,
      "obse": 3691,
      "insecure": 3692,
      "acquaint": 3693,
      "bond": 3694,
      "##aly": 3695,
      "enth": 3696,
      "trend": 3697,
      "valuable": 3698,
      "arrogant": 3699,
      "##do": 3700,
      "##ooth": 3701,
      "six": 3702,
      "operate": 3703,
      "cam": 3704,
      "##vise": 3705,
      "management": 3706,
      "shallow": 3707,
      "cycle": 3708,
      "meditation": 3709,
      "root": 3710,
      "##tf": 3711,
      "stage": 3712,
      "beer": 3713,
      "immediate": 3714,
      "hint": 3715,
      "hehe": 3716,
      "correctly": 3717,
      "responsible": 3718,
      "fish": 3719,
      "rat": 3720,
      "variety": 3721,
      "creat": 3722,
      "jap": 3723,
      "##dly": 3724,
      "##ony": 3725,
      "polic": 3726,
      "charm": 3727,
      "copy": 3728,
      "album": 3729,
      "mirror": 3730,
      "hung": 3731,
      "##aur": 3732,
      "##til": 3733,
      "##atory": 3734,
      "alot": 3735,
      "scream": 3736,
      "colour": 3737,
      "syn": 3738,
      "cheer": 3739,
      "psychological": 3740,
      "##hhhh": 3741,
      "policy": 3742,
      "##iration": 3743,
      "##anch": 3744,
      "##ssy": 3745,
      "grant": 3746,
      "aust": 3747,
      "finan": 3748,
      "comparison": 3749,
      "glass": 3750,
      "channel": 3751,
      "##usi": 3752,
      "paran": 3753,
      "##ologist": 3754,
      "appearance": 3755,
      "cowork": 3756,
      "##ingu": 3757,
      "stable": 3758,
      "oblig": 3759,
      "produce": 3760,
      "jerk": 3761,
      "tiny": 3762,
      "libr": 3763,
      "suic": 3764,
      "precise": 3765,
      "perfection": 3766,
      "potentially": 3767,
      "silence": 3768,
      "update": 3769,
      "fresh": 3770,
      "fantastic": 3771,
      "dinner": 3772,
      "doc": 3773,
      "##think": 3774,
      "writer": 3775,
      "exclusive": 3776,
      "democra": 3777,
      "cond": 3778,
      "unw": 3779,
      "spont": 3780,
      "joy": 3781,
      "retard": 3782,
      "illness": 3783,
      "percent": 3784,
      "bsp": 3785,
      "rate": 3786,
      "##vive": 3787,
      "lock": 3788,
      "meme": 3789,
      "comprom": 3790,
      "lesson": 3791,
      "survive": 3792,
      "metaph": 3793,
      "compromise": 3794,
      "han": 3795,
      "hom": 3796,
      "kar": 3797,
      "voc": 3798,
      "##ggs": 3799,
      "email": 3800,
      "magic": 3801,
      "pleasure": 3802,
      "##ticize": 3803,
      "bank": 3804,
      "ene": 3805,
      "nation": 3806,
      "##sel": 3807,
      "##ste": 3808,
      "manager": 3809,
      "plat": 3810,
      "qual": 3811,
      "attribute": 3812,
      "##ocate": 3813,
      "mile": 3814,
      "fulfil": 3815,
      "escape": 3816,
      "she": 3817,
      "asse": 3818,
      "novel": 3819,
      "minim": 3820,
      "ug": 3821,
      "##sm": 3822,
      "lif": 3823,
      "congr": 3824,
      "ship": 3825,
      "strict": 3826,
      "screen": 3827,
      "dea": 3828,
      "loose": 3829,
      "ugh": 3830,
      "##anti": 3831,
      "unable": 3832,
      "fier": 3833,
      "imagination": 3834,
      "deny": 3835,
      "spontane": 3836,
      "ane": 3837,
      "sale": 3838,
      "tre": 3839,
      "##ik": 3840,
      "capt": 3841,
      "wood": 3842,
      "##sse": 3843,
      "shirt": 3844,
      "pointless": 3845,
      "attraction": 3846,
      "introduce": 3847,
      "##gen": 3848,
      "axis": 3849,
      "##ior": 3850,
      "##assion": 3851,
      "poster": 3852,
      "priority": 3853,
      "wtf": 3854,
      "##cend": 3855,
      "##orb": 3856,
      "discip": 3857,
      "usern": 3858,
      "alien": 3859,
      "irritate": 3860,
      "spectrum": 3861,
      "##tish": 3862,
      "exe": 3863,
      "##entious": 3864,
      "recall": 3865,
      "pride": 3866,
      "clarify": 3867,
      "##draw": 3868,
      "enthusi": 3869,
      "ix": 3870,
      "lon": 3871,
      "##und": 3872,
      "##arant": 3873,
      "desk": 3874,
      "belong": 3875,
      "withdraw": 3876,
      "powerful": 3877,
      "hyper": 3878,
      "forgive": 3879,
      "pha": 3880,
      "sat": 3881,
      "##acc": 3882,
      "till": 3883,
      "downvote": 3884,
      "framework": 3885,
      "irrelevant": 3886,
      "username": 3887,
      "pal": 3888,
      "tune": 3889,
      "vast": 3890,
      "neigh": 3891,
      "trap": 3892,
      "regularly": 3893,
      "xs": 3894,
      "stressful": 3895,
      "south": 3896,
      "##ius": 3897,
      "##cast": 3898,
      "##active": 3899,
      "##lab": 3900,
      "guarant": 3901,
      "minor": 3902,
      "sensation": 3903,
      "pic": 3904,
      "tac": 3905,
      "expert": 3906,
      "badly": 3907,
      "flag": 3908,
      "foreign": 3909,
      "apartment": 3910,
      "nowhere": 3911,
      "library": 3912,
      "##ok": 3913,
      "##zi": 3914,
      "mob": 3915,
      "##ama": 3916,
      "detach": 3917,
      "justice": 3918,
      "statistic": 3919,
      "christmas": 3920,
      "acquaintance": 3921,
      "phase": 3922,
      "vac": 3923,
      "##ulus": 3924,
      "adjust": 3925,
      "attend": 3926,
      "overcome": 3927,
      "security": 3928,
      "north": 3929,
      "industry": 3930,
      "guarantee": 3931,
      "plain": 3932,
      "rh": 3933,
      "rig": 3934,
      "##osition": 3935,
      "income": 3936,
      "chick": 3937,
      "reliable": 3938,
      "##version": 3939,
      "presence": 3940,
      "nons": 3941,
      "##ser": 3942,
      "stem": 3943,
      "functional": 3944,
      "planet": 3945,
      "ongue": 3946,
      "indicate": 3947,
      "##ography": 3948,
      "nail": 3949,
      "##nes": 3950,
      "sum": 3951,
      "authentic": 3952,
      "translate": 3953,
      "##incere": 3954,
      "official": 3955,
      "cod": 3956,
      "ring": 3957,
      "sig": 3958,
      "##ram": 3959,
      "chee": 3960,
      "split": 3961,
      "competitive": 3962,
      "vir": 3963,
      "##ient": 3964,
      "peer": 3965,
      "whats": 3966,
      "appy": 3967,
      "##erty": 3968,
      "grab": 3969,
      "warn": 3970,
      "hall": 3971,
      "rom": 3972,
      "##ience": 3973,
      "amuse": 3974,
      "decade": 3975,
      "briggs": 3976,
      "polite": 3977,
      "improvement": 3978,
      "puzzle": 3979,
      "gru": 3980,
      "sel": 3981,
      "##ren": 3982,
      "##fi": 3983,
      "##race": 3984,
      "##cribe": 3985,
      "blog": 3986,
      "flat": 3987,
      "beauty": 3988,
      "inherently": 3989,
      "discipline": 3990,
      "hence": 3991,
      "latter": 3992,
      "sand": 3993,
      "##ssor": 3994,
      "stone": 3995,
      "comic": 3996,
      "technical": 3997,
      "sarcastic": 3998,
      "##porate": 3999,
      "dict": 4000,
      "rd": 4001,
      "##erable": 4002,
      "unk": 4003,
      "crisis": 4004,
      "technically": 4005,
      "correlate": 4006,
      "automatically": 4007,
      "participate": 4008,
      "enemy": 4009,
      "##has": 4010,
      "defau": 4011,
      "heh": 4012,
      "frustration": 4013,
      "button": 4014,
      "hos": 4015,
      "##uous": 4016,
      "##gma": 4017,
      "##well": 4018,
      "##fl": 4019,
      "##za": 4020,
      "##atalk": 4021,
      "bright": 4022,
      "contrast": 4023,
      "tapatalk": 4024,
      "spec": 4025,
      "thorough": 4026,
      "found": 4027,
      "ty": 4028,
      "firm": 4029,
      "forth": 4030,
      "corner": 4031,
      "surface": 4032,
      "evaluate": 4033,
      "ju": 4034,
      "ration": 4035,
      "sight": 4036,
      "##mer": 4037,
      "##erg": 4038,
      "bub": 4039,
      "equ": 4040,
      "mr": 4041,
      "semi": 4042,
      "awh": 4043,
      "shower": 4044,
      "isolate": 4045,
      "primarily": 4046,
      "buddy": 4047,
      "merely": 4048,
      "chemistry": 4049,
      "victim": 4050,
      "wea": 4051,
      "##reh": 4052,
      "##rative": 4053,
      "expand": 4054,
      "##lessly": 4055,
      "error": 4056,
      "property": 4057,
      "accurately": 4058,
      "intros": 4059,
      "unsure": 4060,
      "finger": 4061,
      "sin": 4062,
      "um": 4063,
      "vice": 4064,
      "##kin": 4065,
      "##stal": 4066,
      "##raction": 4067,
      "brand": 4068,
      "skip": 4069,
      "grasp": 4070,
      "whose": 4071,
      "procrastinate": 4072,
      "bon": 4073,
      "##not": 4074,
      "defense": 4075,
      "consistently": 4076,
      "##astic": 4077,
      "fac": 4078,
      "evolution": 4079,
      "##ousand": 4080,
      "##ogical": 4081,
      "earn": 4082,
      "network": 4083,
      "unlikely": 4084,
      "edge": 4085,
      "##list": 4086,
      "##hold": 4087,
      "thousand": 4088,
      "neat": 4089,
      "application": 4090,
      "##mmar": 4091,
      "brief": 4092,
      "patience": 4093,
      "metaphor": 4094,
      "##sch": 4095,
      "##place": 4096,
      "##xual": 4097,
      "compassion": 4098,
      "##esis": 4099,
      "crack": 4100,
      "absorb": 4101,
      "morality": 4102,
      "restaur": 4103,
      "myers": 4104,
      "russian": 4105,
      "ramble": 4106,
      "diagnose": 4107,
      "awhile": 4108,
      "hook": 4109,
      "lin": 4110,
      "pill": 4111,
      "susp": 4112,
      "##oulder": 4113,
      "plot": 4114,
      "adop": 4115,
      "##tiveness": 4116,
      "##icient": 4117,
      "skep": 4118,
      "restaurant": 4119,
      "xst": 4120,
      "##otic": 4121,
      "##gust": 4122,
      "##vit": 4123,
      "##ersonal": 4124,
      "swear": 4125,
      "cud": 4126,
      "##etry": 4127,
      "##anda": 4128,
      "brown": 4129,
      "loyal": 4130,
      "contradict": 4131,
      "theyre": 4132,
      "lunch": 4133,
      "will": 4134,
      "##rite": 4135,
      "##ptive": 4136,
      "##xj": 4137,
      "theoretical": 4138,
      "hm": 4139,
      "##sd": 4140,
      "##iday": 4141,
      "##ffle": 4142,
      "shake": 4143,
      "##ief": 4144,
      "expensive": 4145,
      "harry": 4146,
      "consciousness": 4147,
      "customer": 4148,
      "rush": 4149,
      "##ctivity": 4150,
      "##roc": 4151,
      "##estyle": 4152,
      "uncon": 4153,
      "subtle": 4154,
      "cuz": 4155,
      "cuural": 4156,
      "emphas": 4157,
      "journey": 4158,
      "western": 4159,
      "floor": 4160,
      "symbol": 4161,
      "her": 4162,
      "hon": 4163,
      "not": 4164,
      "wash": 4165,
      "##rict": 4166,
      "bag": 4167,
      "##appe": 4168,
      "grad": 4169,
      "succeed": 4170,
      "hmmm": 4171,
      "counsel": 4172,
      "holiday": 4173,
      "hip": 4174,
      "np": 4175,
      "yay": 4176,
      "##look": 4177,
      "##rable": 4178,
      "profit": 4179,
      "seme": 4180,
      "lovely": 4181,
      "repress": 4182,
      "criticize": 4183,
      "difficuy": 4184,
      "punish": 4185,
      "anecd": 4186,
      "sincere": 4187,
      "reve": 4188,
      "##ooo": 4189,
      "ded": 4190,
      "##ada": 4191,
      "resonate": 4192,
      "extend": 4193,
      "concent": 4194,
      "bike": 4195,
      "analogy": 4196,
      "##acity": 4197,
      "technology": 4198,
      "panic": 4199,
      "dangerous": 4200,
      "nerd": 4201,
      "unknow": 4202,
      "ga": 4203,
      "internally": 4204,
      "verbal": 4205,
      "bath": 4206,
      "pla": 4207,
      "reduce": 4208,
      "feature": 4209,
      "span": 4210,
      "implement": 4211,
      "##agger": 4212,
      "##ronic": 4213,
      "psychopath": 4214,
      "nazi": 4215,
      "sarcasm": 4216,
      "reveal": 4217,
      "nog": 4218,
      "var": 4219,
      "sacri": 4220,
      "legiti": 4221,
      "dump": 4222,
      "lenh": 4223,
      "##type": 4224,
      "##vot": 4225,
      "##tise": 4226,
      "divide": 4227,
      "spo": 4228,
      "quir": 4229,
      "smooth": 4230,
      "##conne": 4231,
      "weather": 4232,
      "enjoyable": 4233,
      "hund": 4234,
      "leadership": 4235,
      "##while": 4236,
      "##titution": 4237,
      "mathem": 4238,
      "lifestyle": 4239,
      "semester": 4240,
      "iphone": 4241,
      "##fice": 4242,
      "meh": 4243,
      "meat": 4244,
      "resent": 4245,
      "clash": 4246,
      "cloud": 4247,
      "initially": 4248,
      "grey": 4249,
      "economy": 4250,
      "grip": 4251,
      "competition": 4252,
      "hire": 4253,
      "ixt": 4254,
      "##of": 4255,
      "##cket": 4256,
      "##rep": 4257,
      "empty": 4258,
      "afford": 4259,
      "##quest": 4260,
      "professor": 4261,
      "incorrect": 4262,
      "##pa": 4263,
      "##ær": 4264,
      "##ette": 4265,
      "genius": 4266,
      "traum": 4267,
      "outward": 4268,
      "embrace": 4269,
      "bre": 4270,
      "fo": 4271,
      "gam": 4272,
      "virt": 4273,
      "##change": 4274,
      "sole": 4275,
      "##teer": 4276,
      "infin": 4277,
      "gene": 4278,
      "messy": 4279,
      "employee": 4280,
      "hill": 4281,
      "pink": 4282,
      "desper": 4283,
      "socialist": 4284,
      "overthink": 4285,
      "reflection": 4286,
      "immig": 4287,
      "dry": 4288,
      "gas": 4289,
      "align": 4290,
      "consciously": 4291,
      "muslim": 4292,
      "racist": 4293,
      "snap": 4294,
      "hundred": 4295,
      "cath": 4296,
      "mask": 4297,
      "importance": 4298,
      "texting": 4299,
      "driver": 4300,
      "academic": 4301,
      "gh": 4302,
      "masc": 4303,
      "ut": 4304,
      "##ja": 4305,
      "##onent": 4306,
      "stream": 4307,
      "quad": 4308,
      "contain": 4309,
      "acceptable": 4310,
      "nav": 4311,
      "teenager": 4312,
      "lord": 4313,
      "##lin": 4314,
      "reverse": 4315,
      "##unteer": 4316,
      "##esthe": 4317,
      "shoulder": 4318,
      "compreh": 4319,
      "sociopath": 4320,
      "award": 4321,
      "manipulation": 4322,
      "##minal": 4323,
      "document": 4324,
      "##les": 4325,
      "quiz": 4326,
      "advocate": 4327,
      "economic": 4328,
      "winter": 4329,
      "##ko": 4330,
      "##rest": 4331,
      "secondary": 4332,
      "##phic": 4333,
      "affirm": 4334,
      "hike": 4335,
      "uimate": 4336,
      "##tician": 4337,
      "volunteer": 4338,
      "construct": 4339,
      "sacrifice": 4340,
      "gent": 4341,
      "##ba": 4342,
      "##mark": 4343,
      "target": 4344,
      "##ende": 4345,
      "posse": 4346,
      "unne": 4347,
      "##timate": 4348,
      "horse": 4349,
      "election": 4350,
      "##lablab": 4351,
      "nonsense": 4352,
      "cyn": 4353,
      "ny": 4354,
      "##urance": 4355,
      "empir": 4356,
      "incredible": 4357,
      "validation": 4358,
      "efficiency": 4359,
      "eg": 4360,
      "##fg": 4361,
      "prov": 4362,
      "expose": 4363,
      "obli": 4364,
      "##ountain": 4365,
      "cling": 4366,
      "heal": 4367,
      "philosophical": 4368,
      "weapon": 4369,
      "##ling": 4370,
      "##urd": 4371,
      "seat": 4372,
      "president": 4373,
      "indic": 4374,
      "blah": 4375,
      "capacity": 4376,
      "severe": 4377,
      "temper": 4378,
      "tempera": 4379,
      "compatible": 4380,
      "##appear": 4381,
      "dar": 4382,
      "exchange": 4383,
      "chart": 4384,
      "##lap": 4385,
      "##umble": 4386,
      "survi": 4387,
      "wiki": 4388,
      "satisf": 4389,
      "nuance": 4390,
      "fundamental": 4391,
      "bomb": 4392,
      "hvis": 4393,
      "rou": 4394,
      "sigh": 4395,
      "##uracy": 4396,
      "brill": 4397,
      "violence": 4398,
      "celebr": 4399,
      "ignorant": 4400,
      "##connect": 4401,
      "unnecess": 4402,
      "bf": 4403,
      "citi": 4404,
      "##hil": 4405,
      "mum": 4406,
      "artistic": 4407,
      "similarly": 4408,
      "purely": 4409,
      "meaningless": 4410,
      "software": 4411,
      "celebrity": 4412,
      "ease": 4413,
      "il": 4414,
      "mot": 4415,
      "rank": 4416,
      "tab": 4417,
      "##arm": 4418,
      "##orable": 4419,
      "##eline": 4420,
      "ink": 4421,
      "unha": 4422,
      "plant": 4423,
      "asleep": 4424,
      "addict": 4425,
      "dominate": 4426,
      "neighbor": 4427,
      "sea": 4428,
      "tag": 4429,
      "##arity": 4430,
      "##tification": 4431,
      "incons": 4432,
      "union": 4433,
      "rub": 4434,
      "court": 4435,
      "##macy": 4436,
      "##bling": 4437,
      "terrify": 4438,
      "duty": 4439,
      "van": 4440,
      "yo": 4441,
      "rein": 4442,
      "rejection": 4443,
      "strive": 4444,
      "confusion": 4445,
      "crave": 4446,
      "jew": 4447,
      "##box": 4448,
      "extravert": 4449,
      "inevit": 4450,
      "gro": 4451,
      "hes": 4452,
      "lift": 4453,
      "disappear": 4454,
      "pace": 4455,
      "mentality": 4456,
      "deliver": 4457,
      "butter": 4458,
      "devil": 4459,
      "instrument": 4460,
      "celeb": 4461,
      "ugly": 4462,
      "tert": 4463,
      "##eve": 4464,
      "##pi": 4465,
      "##pha": 4466,
      "##atar": 4467,
      "defensive": 4468,
      "##interest": 4469,
      "mechanism": 4470,
      "adopt": 4471,
      "citizen": 4472,
      "wis": 4473,
      "##inder": 4474,
      "cup": 4475,
      "openness": 4476,
      "##ublic": 4477,
      "existential": 4478,
      "largely": 4479,
      "tonight": 4480,
      "pc": 4481,
      "##rr": 4482,
      "dim": 4483,
      "unb": 4484,
      "educate": 4485,
      "jam": 4486,
      "utter": 4487,
      "##itive": 4488,
      "##cel": 4489,
      "choc": 4490,
      "diss": 4491,
      "sibling": 4492,
      "medication": 4493,
      "painful": 4494,
      "universal": 4495,
      "scientist": 4496,
      "cast": 4497,
      "doll": 4498,
      "thri": 4499,
      "stare": 4500,
      "resolve": 4501,
      "underlie": 4502,
      "consci": 4503,
      "##stig": 4504,
      "impulsive": 4505,
      "sentiment": 4506,
      "cer": 4507,
      "pant": 4508,
      "san": 4509,
      "spring": 4510,
      "brow": 4511,
      "mild": 4512,
      "criminal": 4513,
      "sadness": 4514,
      "convention": 4515,
      "toxic": 4516,
      "##ainty": 4517,
      "creepy": 4518,
      "temperament": 4519,
      "wander": 4520,
      "##bar": 4521,
      "##itt": 4522,
      "request": 4523,
      "lecture": 4524,
      "depart": 4525,
      "republic": 4526,
      "##licit": 4527,
      "sadly": 4528,
      "poorly": 4529,
      "investig": 4530,
      "afterwards": 4531,
      "hypothe": 4532,
      "review": 4533,
      "arbit": 4534,
      "generate": 4535,
      "wed": 4536,
      "##nique": 4537,
      "raw": 4538,
      "illogical": 4539,
      "histor": 4540,
      "versa": 4541,
      "narcissistic": 4542,
      "borderline": 4543,
      "mascul": 4544,
      "practically": 4545,
      "##iche": 4546,
      "##ughter": 4547,
      "politician": 4548,
      "bottle": 4549,
      "flexi": 4550,
      "financial": 4551,
      "gf": 4552,
      "##pg": 4553,
      "generation": 4554,
      "atmo": 4555,
      "technique": 4556,
      "butt": 4557,
      "intimidate": 4558,
      "suicide": 4559,
      "romance": 4560,
      "selv": 4561,
      "bounce": 4562,
      "rip": 4563,
      "##rat": 4564,
      "##æn": 4565,
      "##lex": 4566,
      "##resh": 4567,
      "moon": 4568,
      "disreg": 4569,
      "##lify": 4570,
      "empathetic": 4571,
      "gig": 4572,
      "tid": 4573,
      "##port": 4574,
      "##onym": 4575,
      "recip": 4576,
      "divor": 4577,
      "##urate": 4578,
      "##dia": 4579,
      "instantly": 4580,
      "charism": 4581,
      "thoughtful": 4582,
      "sexy": 4583,
      "analytical": 4584,
      "chocolate": 4585,
      "atmosp": 4586,
      "divorce": 4587,
      "aka": 4588,
      "##sta": 4589,
      "stance": 4590,
      "intent": 4591,
      "##olar": 4592,
      "abusive": 4593,
      "##tedly": 4594,
      "promote": 4595,
      "destru": 4596,
      "tempor": 4597,
      "toler": 4598,
      "capitalism": 4599,
      "global": 4600,
      "spark": 4601,
      "boat": 4602,
      "bug": 4603,
      "medical": 4604,
      "originally": 4605,
      "jungian": 4606,
      "location": 4607,
      "urge": 4608,
      "stimulate": 4609,
      "disregard": 4610,
      "cous": 4611,
      "cash": 4612,
      "gap": 4613,
      "kno": 4614,
      "rent": 4615,
      "tro": 4616,
      "accuracy": 4617,
      "##valent": 4618,
      "feminine": 4619,
      "unknown": 4620,
      "wisdom": 4621,
      "bru": 4622,
      "cake": 4623,
      "fur": 4624,
      "##grate": 4625,
      "##ato": 4626,
      "select": 4627,
      "host": 4628,
      "distin": 4629,
      "validate": 4630,
      "effectively": 4631,
      "burden": 4632,
      "fictional": 4633,
      "ideology": 4634,
      "innoc": 4635,
      "være": 4636,
      "pian": 4637,
      "##tarian": 4638,
      "##rain": 4639,
      "##olf": 4640,
      "##tte": 4641,
      "offensive": 4642,
      "crash": 4643,
      "cousin": 4644,
      "native": 4645,
      "##itude": 4646,
      "exagger": 4647,
      "intri": 4648,
      "uncle": 4649,
      "surely": 4650,
      "scr": 4651,
      "offic": 4652,
      "avatar": 4653,
      "cringe": 4654,
      "omfg": 4655,
      "aesthe": 4656,
      "wo": 4657,
      "##wor": 4658,
      "##ins": 4659,
      "dive": 4660,
      "disgust": 4661,
      "superficial": 4662,
      "homework": 4663,
      "dependent": 4664,
      "invent": 4665,
      "versus": 4666,
      "minimum": 4667,
      "intrigue": 4668,
      "##itation": 4669,
      "evolve": 4670,
      "hah": 4671,
      "randomly": 4672,
      "##mptom": 4673,
      "libertarian": 4674,
      "threaten": 4675,
      "mast": 4676,
      "##da": 4677,
      "##onic": 4678,
      "##tif": 4679,
      "##ued": 4680,
      "unt": 4681,
      "talkative": 4682,
      "consideration": 4683,
      "region": 4684,
      "##archy": 4685,
      "##ribution": 4686,
      "assertive": 4687,
      "route": 4688,
      "ber": 4689,
      "ko": 4690,
      "mountain": 4691,
      "inde": 4692,
      "arrive": 4693,
      "accuse": 4694,
      "criti": 4695,
      "breathe": 4696,
      "demonstrate": 4697,
      "officer": 4698,
      "##iber": 4699,
      "##nos": 4700,
      "##eration": 4701,
      "conce": 4702,
      "prem": 4703,
      "notion": 4704,
      "saf": 4705,
      "orange": 4706,
      "symptom": 4707,
      "secure": 4708,
      "performance": 4709,
      "uncert": 4710,
      "piano": 4711,
      "nur": 4712,
      "##bur": 4713,
      "##core": 4714,
      "##alog": 4715,
      "storm": 4716,
      "excess": 4717,
      "alpha": 4718,
      "greatly": 4719,
      "specie": 4720,
      "treatment": 4721,
      "percentage": 4722,
      "unhappy": 4723,
      "bird": 4724,
      "##omen": 4725,
      "##etype": 4726,
      "inacc": 4727,
      "##icket": 4728,
      "potter": 4729,
      "persona": 4730,
      "adus": 4731,
      "distant": 4732,
      "nfs": 4733,
      "rebel": 4734,
      "##self": 4735,
      "whe": 4736,
      "apple": 4737,
      "scri": 4738,
      "terror": 4739,
      "bible": 4740,
      "army": 4741,
      "chaos": 4742,
      "##iiiiiiii": 4743,
      "transp": 4744,
      "camera": 4745,
      "gentle": 4746,
      "bend": 4747,
      "socialism": 4748,
      "insist": 4749,
      "miserable": 4750,
      "flower": 4751,
      "bread": 4752,
      "inj": 4753,
      "##rish": 4754,
      "##laim": 4755,
      "##asty": 4756,
      "##lix": 4757,
      "contrary": 4758,
      "pass": 4759,
      "conform": 4760,
      "similarity": 4761,
      "absurd": 4762,
      "psychologist": 4763,
      "nightm": 4764,
      "##consciously": 4765,
      "climb": 4766,
      "spontaneous": 4767,
      "reciproc": 4768,
      "aid": 4769,
      "cue": 4770,
      "##head": 4771,
      "##tile": 4772,
      "ped": 4773,
      "league": 4774,
      "trash": 4775,
      "##duction": 4776,
      "closely": 4777,
      "swim": 4778,
      "famous": 4779,
      "slip": 4780,
      "client": 4781,
      "pleasant": 4782,
      "dedicate": 4783,
      "satisfaction": 4784,
      "brilliant": 4785,
      "knock": 4786,
      "punch": 4787,
      "##isation": 4788,
      "convey": 4789,
      "actor": 4790,
      "offense": 4791,
      "grav": 4792,
      "expressive": 4793,
      "intentionally": 4794,
      "explor": 4795,
      "eller": 4796,
      "atmosphere": 4797,
      "nightmare": 4798,
      "##nn": 4799,
      "##xps": 4800,
      "##sey": 4801,
      "ant": 4802,
      "facial": 4803,
      "##fulness": 4804,
      "consume": 4805,
      "maturity": 4806,
      "insert": 4807,
      "openly": 4808,
      "signal": 4809,
      "empathize": 4810,
      "apparent": 4811,
      "radio": 4812,
      "andre": 4813,
      "dragon": 4814,
      "gear": 4815,
      "hvor": 4816,
      "ri": 4817,
      "##lr": 4818,
      "##zer": 4819,
      "aww": 4820,
      "##rology": 4821,
      "##anese": 4822,
      "cognition": 4823,
      "rigid": 4824,
      "ben": 4825,
      "ixx": 4826,
      "mig": 4827,
      "##write": 4828,
      "##atable": 4829,
      "##utor": 4830,
      "comedy": 4831,
      "recover": 4832,
      "grammar": 4833,
      "angle": 4834,
      "purple": 4835,
      "upvote": 4836,
      "excitement": 4837,
      "betray": 4838,
      "whoever": 4839,
      "##hibit": 4840,
      "mathema": 4841,
      "script": 4842,
      "bow": 4843,
      "dirty": 4844,
      "ie": 4845,
      "util": 4846,
      "##fa": 4847,
      "##fx": 4848,
      "##isive": 4849,
      "aband": 4850,
      "weigh": 4851,
      "heat": 4852,
      "pragma": 4853,
      "viewpoint": 4854,
      "fancy": 4855,
      "cancer": 4856,
      "accidentally": 4857,
      "sympathy": 4858,
      "distinction": 4859,
      "soooo": 4860,
      "##sk": 4861,
      "##orge": 4862,
      "conspi": 4863,
      "parad": 4864,
      "clever": 4865,
      "blank": 4866,
      "heck": 4867,
      "concert": 4868,
      "format": 4869,
      "##ensity": 4870,
      "trivi": 4871,
      "hitler": 4872,
      "catholic": 4873,
      "department": 4874,
      "##flix": 4875,
      "##tire": 4876,
      "##raine": 4877,
      "shell": 4878,
      "spin": 4879,
      "impose": 4880,
      "assist": 4881,
      "##ered": 4882,
      "islam": 4883,
      "extraversion": 4884,
      "idealistic": 4885,
      "contemp": 4886,
      "essay": 4887,
      "netflix": 4888,
      "revolution": 4889,
      "##inguish": 4890,
      "vocal": 4891,
      "thrill": 4892,
      "conspiracy": 4893,
      "dare": 4894,
      "egg": 4895,
      "giant": 4896,
      "ppl": 4897,
      "tumb": 4898,
      "##gu": 4899,
      "##va": 4900,
      "##ays": 4901,
      "##enda": 4902,
      "unus": 4903,
      "traff": 4904,
      "twist": 4905,
      "subconscious": 4906,
      "coop": 4907,
      "generalize": 4908,
      "neglect": 4909,
      "horri": 4910,
      "jean": 4911,
      "moderate": 4912,
      "friday": 4913,
      "cuddle": 4914,
      "arise": 4915,
      "gal": 4916,
      "mas": 4917,
      "sir": 4918,
      "wrap": 4919,
      "##ca": 4920,
      "##ortive": 4921,
      "unconscious": 4922,
      "nostal": 4923,
      "phen": 4924,
      "craft": 4925,
      "daughter": 4926,
      "occup": 4927,
      "piz": 4928,
      "##mind": 4929,
      "##aign": 4930,
      "##ssment": 4931,
      "anim": 4932,
      "county": 4933,
      "literature": 4934,
      "straightfor": 4935,
      "verb": 4936,
      "archetype": 4937,
      "paranoid": 4938,
      "quadra": 4939,
      "unnecessary": 4940,
      "traffic": 4941,
      "nostalg": 4942,
      "straightforward": 4943,
      "bc": 4944,
      "nurt": 4945,
      "##ting": 4946,
      "##pet": 4947,
      "##fast": 4948,
      "twenty": 4949,
      "disturb": 4950,
      "football": 4951,
      "campaign": 4952,
      "tolerate": 4953,
      "creature": 4954,
      "assessment": 4955,
      "survival": 4956,
      "wal": 4957,
      "##yer": 4958,
      "##entive": 4959,
      "##itarian": 4960,
      "poll": 4961,
      "poetry": 4962,
      "##ruit": 4963,
      "seemingly": 4964,
      "agenda": 4965,
      "obno": 4966,
      "apology": 4967,
      "collection": 4968,
      "ghost": 4969,
      "obnoxi": 4970,
      "wil": 4971,
      "##range": 4972,
      "##gression": 4973,
      "explicit": 4974,
      "implication": 4975,
      "perman": 4976,
      "supportive": 4977,
      "classical": 4978,
      "france": 4979,
      "odds": 4980,
      "bind": 4981,
      "hv": 4982,
      "porn": 4983,
      "##bul": 4984,
      "##down": 4985,
      "##fly": 4986,
      "##ked": 4987,
      "##utation": 4988,
      "diet": 4989,
      "agre": 4990,
      "skal": 4991,
      "musical": 4992,
      "energ": 4993,
      "silent": 4994,
      "hypoc": 4995,
      "stimulus": 4996,
      "compete": 4997,
      "frankly": 4998,
      "japanese": 4999,
      "vacation": 5000,
      "illeg": 5001,
      "nurse": 5002,
      "tumblr": 5003,
      "ble": 5004,
      "##etal": 5005,
      "stability": 5006,
      "##utch": 5007,
      "angel": 5008,
      "beach": 5009,
      "portray": 5010,
      "loyay": 5011,
      "intimate": 5012,
      "breath": 5013,
      "dimension": 5014,
      "##nostic": 5015,
      "##ken": 5016,
      "defe": 5017,
      "##asm": 5018,
      "usa": 5019,
      "string": 5020,
      "classi": 5021,
      "swing": 5022,
      "generalization": 5023,
      "##retch": 5024,
      "##craft": 5025,
      "beta": 5026,
      "scheme": 5027,
      "fulfill": 5028,
      "coworkers": 5029,
      "mobile": 5030,
      "foundation": 5031,
      "safety": 5032,
      "tatt": 5033,
      "div": 5034,
      "interrupt": 5035,
      "musician": 5036,
      "minimal": 5037,
      "distinguish": 5038,
      "appreciation": 5039,
      "owner": 5040,
      "inspiration": 5041,
      "narcissist": 5042,
      "qualify": 5043,
      "arbitrary": 5044,
      "phenomen": 5045,
      "gard": 5046,
      "##off": 5047,
      "##cl": 5048,
      "chain": 5049,
      "carefully": 5050,
      "subtype": 5051,
      "endless": 5052,
      "prison": 5053,
      "freeze": 5054,
      "worthy": 5055,
      "secretly": 5056,
      "stock": 5057,
      "congrat": 5058,
      "bee": 5059,
      "bless": 5060,
      "hunt": 5061,
      "tank": 5062,
      "wire": 5063,
      "##lective": 5064,
      "shar": 5065,
      "##hael": 5066,
      "mac": 5067,
      "suppress": 5068,
      "variable": 5069,
      "ogsa": 5070,
      "judgmental": 5071,
      "dramatic": 5072,
      "optimistic": 5073,
      "##risingly": 5074,
      "spoil": 5075,
      "hypothetical": 5076,
      "inaccurate": 5077,
      "##uri": 5078,
      "##sen": 5079,
      "##stru": 5080,
      "##icle": 5081,
      "polish": 5082,
      "##soever": 5083,
      "precisely": 5084,
      "democracy": 5085,
      "sheer": 5086,
      "tattoo": 5087,
      "##mble": 5088,
      "##ield": 5089,
      "##ced": 5090,
      "inti": 5091,
      "lover": 5092,
      "file": 5093,
      "sample": 5094,
      "territ": 5095,
      "idealist": 5096,
      "insightful": 5097,
      "feminism": 5098,
      "pokemon": 5099,
      "bit": 5100,
      "ticket": 5101,
      "##ium": 5102,
      "##power": 5103,
      "##steri": 5104,
      "##eter": 5105,
      "station": 5106,
      "feder": 5107,
      "##ula": 5108,
      "ade": 5109,
      "disconnect": 5110,
      "bold": 5111,
      "coinc": 5112,
      "muscle": 5113,
      "survey": 5114,
      "finance": 5115,
      "minority": 5116,
      "flash": 5117,
      "commonly": 5118,
      "sugar": 5119,
      "budd": 5120,
      "michael": 5121,
      "audience": 5122,
      "obsession": 5123,
      "##votes": 5124,
      "aer": 5125,
      "bitter": 5126,
      "##lay": 5127,
      "##hand": 5128,
      "pod": 5129,
      "meal": 5130,
      "asian": 5131,
      "humour": 5132,
      "variant": 5133,
      "poland": 5134,
      "deliber": 5135,
      "protest": 5136,
      "##ensitive": 5137,
      "whatsoever": 5138,
      "inconsist": 5139,
      "nurture": 5140,
      "cart": 5141,
      "rage": 5142,
      "##nat": 5143,
      "##ino": 5144,
      "thin": 5145,
      "##adays": 5146,
      "##itype": 5147,
      "unrel": 5148,
      "##viously": 5149,
      "hoard": 5150,
      "empire": 5151,
      "remark": 5152,
      "consistency": 5153,
      "layer": 5154,
      "admin": 5155,
      "float": 5156,
      "ignorance": 5157,
      "obligation": 5158,
      "cheese": 5159,
      "honor": 5160,
      "unite": 5161,
      "differenti": 5162,
      "brut": 5163,
      "grain": 5164,
      "swed": 5165,
      "british": 5166,
      "##hhh": 5167,
      "##titute": 5168,
      "server": 5169,
      "nowadays": 5170,
      "edgy": 5171,
      "maxim": 5172,
      "condes": 5173,
      "pool": 5174,
      "##oti": 5175,
      "##kel": 5176,
      "converse": 5177,
      "##duct": 5178,
      "childish": 5179,
      "praise": 5180,
      "picky": 5181,
      "textbook": 5182,
      "subreddits": 5183,
      "myth": 5184,
      "significantly": 5185,
      "witty": 5186,
      "aesthetic": 5187,
      "billion": 5188,
      "##ta": 5189,
      "stretch": 5190,
      "sund": 5191,
      "realm": 5192,
      "##tless": 5193,
      "speaker": 5194,
      "inval": 5195,
      "romantically": 5196,
      "##cery": 5197,
      "christianity": 5198,
      "ineff": 5199,
      "chemical": 5200,
      "chicken": 5201,
      "concentrate": 5202,
      "celebrate": 5203,
      "pizza": 5204,
      "ash": 5205,
      "equi": 5206,
      "gest": 5207,
      "wine": 5208,
      "##dam": 5209,
      "chore": 5210,
      "ensure": 5211,
      "adore": 5212,
      "senior": 5213,
      "grate": 5214,
      "contract": 5215,
      "nihil": 5216,
      "agreement": 5217,
      "breakup": 5218,
      "bump": 5219,
      "indul": 5220,
      "bridge": 5221,
      "amaz": 5222,
      "fuel": 5223,
      "mysteri": 5224,
      "derive": 5225,
      "prioriti": 5226,
      "intimacy": 5227,
      "bli": 5228,
      "ol": 5229,
      "ry": 5230,
      "##amp": 5231,
      "goss": 5232,
      "##ffy": 5233,
      "##illed": 5234,
      "agnostic": 5235,
      "tritype": 5236,
      "sorta": 5237,
      "addiction": 5238,
      "remote": 5239,
      "conven": 5240,
      "##respon": 5241,
      "delusion": 5242,
      "independence": 5243,
      "burst": 5244,
      "astrology": 5245,
      "dictate": 5246,
      "exaggerate": 5247,
      "abandon": 5248,
      "obnoxious": 5249,
      "fond": 5250,
      "ved": 5251,
      "##inity": 5252,
      "##ancy": 5253,
      "##cean": 5254,
      "stea": 5255,
      "##ited": 5256,
      "previously": 5257,
      "session": 5258,
      "boil": 5259,
      "queen": 5260,
      "century": 5261,
      "##oooooooo": 5262,
      "privacy": 5263,
      "solely": 5264,
      "affirmation": 5265,
      "innocent": 5266,
      "wheel": 5267,
      "gossip": 5268,
      "herm": 5269,
      "##some": 5270,
      "reass": 5271,
      "stp": 5272,
      "adorable": 5273,
      "humble": 5274,
      "monster": 5275,
      "tease": 5276,
      "breakfast": 5277,
      "memorize": 5278,
      "medic": 5279,
      "slam": 5280,
      "investment": 5281,
      "drift": 5282,
      "austral": 5283,
      "thoroughly": 5284,
      "navig": 5285,
      "cell": 5286,
      "deem": 5287,
      "kun": 5288,
      "tight": 5289,
      "##ts": 5290,
      "##ave": 5291,
      "##ya": 5292,
      "##xy": 5293,
      "stalk": 5294,
      "ham": 5295,
      "workplace": 5296,
      "beg": 5297,
      "asp": 5298,
      "##agram": 5299,
      "scot": 5300,
      "elsewhere": 5301,
      "propose": 5302,
      "beneficial": 5303,
      "essential": 5304,
      "##iveness": 5305,
      "violent": 5306,
      "attachment": 5307,
      "grocery": 5308,
      "fort": 5309,
      "mort": 5310,
      "##cism": 5311,
      "##lead": 5312,
      "summ": 5313,
      "chair": 5314,
      "combo": 5315,
      "tele": 5316,
      "##agon": 5317,
      "guid": 5318,
      "hardcore": 5319,
      "schiz": 5320,
      "pray": 5321,
      "apath": 5322,
      "##nia": 5323,
      "collective": 5324,
      "dozen": 5325,
      "heaven": 5326,
      "peaceful": 5327,
      "canada": 5328,
      "unfair": 5329,
      "integrate": 5330,
      "dollar": 5331,
      "masculine": 5332,
      "unusual": 5333,
      "gross": 5334,
      "hur": 5335,
      "lur": 5336,
      "mand": 5337,
      "oo": 5338,
      "ocean": 5339,
      "rick": 5340,
      "tall": 5341,
      "##ors": 5342,
      "##chase": 5343,
      "unint": 5344,
      "anytime": 5345,
      "headphone": 5346,
      "afric": 5347,
      "purchase": 5348,
      "acceptance": 5349,
      "sooner": 5350,
      "hahahaha": 5351,
      "calculate": 5352,
      "illegal": 5353,
      "unrelated": 5354,
      "ath": 5355,
      "bone": 5356,
      "elim": 5357,
      "toy": 5358,
      "wolf": 5359,
      "##kt": 5360,
      "teeth": 5361,
      "instant": 5362,
      "biology": 5363,
      "luckily": 5364,
      "horror": 5365,
      "deadline": 5366,
      "association": 5367,
      "petty": 5368,
      "stimulation": 5369,
      "feminist": 5370,
      "subscribe": 5371,
      "energize": 5372,
      "##natural": 5373,
      "cream": 5374,
      "dot": 5375,
      "hun": 5376,
      "rot": 5377,
      "##bi": 5378,
      "all": 5379,
      "##pection": 5380,
      "confe": 5381,
      "handful": 5382,
      "island": 5383,
      "literal": 5384,
      "variation": 5385,
      "interpersonal": 5386,
      "hungry": 5387,
      "downvoted": 5388,
      "skeptical": 5389,
      "empirical": 5390,
      "premise": 5391,
      "reciprocate": 5392,
      "bip": 5393,
      "mart": 5394,
      "weah": 5395,
      "##ks": 5396,
      "##ilot": 5397,
      "needy": 5398,
      "kindness": 5399,
      "command": 5400,
      "assure": 5401,
      "formal": 5402,
      "surprisingly": 5403,
      "##stery": 5404,
      "##onald": 5405,
      "transition": 5406,
      "capture": 5407,
      "sharp": 5408,
      "hind": 5409,
      "tm": 5410,
      "##tra": 5411,
      "debt": 5412,
      "##olation": 5413,
      "##mentally": 5414,
      "accom": 5415,
      "incident": 5416,
      "entitle": 5417,
      "incompet": 5418,
      "bathroom": 5419,
      "mysterious": 5420,
      "cope": 5421,
      "river": 5422,
      "sf": 5423,
      "##ena": 5424,
      "##stanti": 5425,
      "anarch": 5426,
      "intr": 5427,
      "##erson": 5428,
      "arrange": 5429,
      "activ": 5430,
      "##ductive": 5431,
      "##osis": 5432,
      "rust": 5433,
      "graphic": 5434,
      "production": 5435,
      "mystery": 5436,
      "##uuuu": 5437,
      "elementary": 5438,
      "unex": 5439,
      "stoic": 5440,
      "hosp": 5441,
      "cynical": 5442,
      "don": 5443,
      "dose": 5444,
      "row": 5445,
      "sle": 5446,
      "##ament": 5447,
      "##stain": 5448,
      "mock": 5449,
      "relief": 5450,
      "meanwhile": 5451,
      "adver": 5452,
      "ord": 5453,
      "mission": 5454,
      "corporate": 5455,
      "##coming": 5456,
      "instruction": 5457,
      "##mission": 5458,
      "eastern": 5459,
      "garden": 5460,
      "ft": 5461,
      "##bage": 5462,
      "##rome": 5463,
      "##wi": 5464,
      "##xjs": 5465,
      "thrive": 5466,
      "tim": 5467,
      "##law": 5468,
      "##inese": 5469,
      "sps": 5470,
      "compel": 5471,
      "advise": 5472,
      "tex": 5473,
      "realization": 5474,
      "decl": 5475,
      "cock": 5476,
      "##ache": 5477,
      "marx": 5478,
      "conclude": 5479,
      "criter": 5480,
      "ethical": 5481,
      "photography": 5482,
      "ironically": 5483,
      "mechanic": 5484,
      "audio": 5485,
      "bubble": 5486,
      "trauma": 5487,
      "congratulation": 5488,
      "territory": 5489,
      "podcast": 5490,
      "condescend": 5491,
      "sunday": 5492,
      "gesture": 5493,
      "criterion": 5494,
      "lat": 5495,
      "portion": 5496,
      "tick": 5497,
      "xxx": 5498,
      "##ops": 5499,
      "sustain": 5500,
      "##ffer": 5501,
      "chap": 5502,
      "chinese": 5503,
      "compla": 5504,
      "societal": 5505,
      "height": 5506,
      "solo": 5507,
      "racism": 5508,
      "distinct": 5509,
      "perceiver": 5510,
      "psyche": 5511,
      "miscon": 5512,
      "essence": 5513,
      "intellectually": 5514,
      "confirmation": 5515,
      "partially": 5516,
      "sjw": 5517,
      "villain": 5518,
      "micro": 5519,
      "fundamentally": 5520,
      "exec": 5521,
      "tactic": 5522,
      "conscientious": 5523,
      "flexible": 5524,
      "dub": 5525,
      "pier": 5526,
      "ven": 5527,
      "##uff": 5528,
      "##ai": 5529,
      "##stream": 5530,
      "##pple": 5531,
      "##mother": 5532,
      "disres": 5533,
      "##thern": 5534,
      "happily": 5535,
      "##athe": 5536,
      "skew": 5537,
      "impulse": 5538,
      "assignment": 5539,
      "excessive": 5540,
      "equivalent": 5541,
      "disrespect": 5542,
      "pee": 5543,
      "tort": 5544,
      "##bow": 5545,
      "##lation": 5546,
      "dece": 5547,
      "shrug": 5548,
      "##ied": 5549,
      "seven": 5550,
      "leap": 5551,
      "pron": 5552,
      "reputation": 5553,
      "international": 5554,
      "##aneously": 5555,
      "legit": 5556,
      "goofy": 5557,
      "competent": 5558,
      "emphasis": 5559,
      "anecdot": 5560,
      "spanish": 5561,
      "motor": 5562,
      "browse": 5563,
      "bake": 5564,
      "dwell": 5565,
      "hr": 5566,
      "ponder": 5567,
      "##nership": 5568,
      "##rier": 5569,
      "poem": 5570,
      "enforce": 5571,
      "communist": 5572,
      "listener": 5573,
      "curse": 5574,
      "sexually": 5575,
      "negoti": 5576,
      "supposedly": 5577,
      "##interp": 5578,
      "falla": 5579,
      "champ": 5580,
      "boost": 5581,
      "candidate": 5582,
      "##flake": 5583,
      "bonus": 5584,
      "trivial": 5585,
      "buddh": 5586,
      "differentiate": 5587,
      "bipolar": 5588,
      "fade": 5589,
      "mys": 5590,
      "##boy": 5591,
      "##yth": 5592,
      "##storm": 5593,
      "incon": 5594,
      "##pedia": 5595,
      "progra": 5596,
      "dise": 5597,
      "##igner": 5598,
      "reader": 5599,
      "##bert": 5600,
      "creation": 5601,
      "imagin": 5602,
      "analyse": 5603,
      "sensitivity": 5604,
      "sweat": 5605,
      "bedroom": 5606,
      "chaotic": 5607,
      "examine": 5608,
      "unexpect": 5609,
      "dys": 5610,
      "fps": 5611,
      "nj": 5612,
      "nerve": 5613,
      "rab": 5614,
      "roud": 5615,
      "tor": 5616,
      "##vin": 5617,
      "reck": 5618,
      "##eliness": 5619,
      "cher": 5620,
      "china": 5621,
      "persu": 5622,
      "strateg": 5623,
      "branch": 5624,
      "requirement": 5625,
      "slave": 5626,
      "obsessive": 5627,
      "phenomenon": 5628,
      "unexpected": 5629,
      "upper": 5630,
      "##itor": 5631,
      "##ria": 5632,
      "makeup": 5633,
      "ted": 5634,
      "cafe": 5635,
      "##ssim": 5636,
      "outlet": 5637,
      "brit": 5638,
      "##mma": 5639,
      "conceptual": 5640,
      "categorize": 5641,
      "vulnerability": 5642,
      "##stein": 5643,
      "wikipedia": 5644,
      "##interpret": 5645,
      "pit": 5646,
      "##irable": 5647,
      "##oly": 5648,
      "##vable": 5649,
      "inability": 5650,
      "##getic": 5651,
      "shout": 5652,
      "compens": 5653,
      "##estimate": 5654,
      "cave": 5655,
      "trial": 5656,
      "publish": 5657,
      "cuures": 5658,
      "bullet": 5659,
      "terribly": 5660,
      "infinite": 5661,
      "oblivious": 5662,
      "scratch": 5663,
      "eliminate": 5664,
      "kitch": 5665,
      "nap": 5666,
      "zomb": 5667,
      "##ige": 5668,
      "##net": 5669,
      "lic": 5670,
      "##thy": 5671,
      "##ffe": 5672,
      "mund": 5673,
      "##social": 5674,
      "##iper": 5675,
      "distraction": 5676,
      "##naire": 5677,
      "equation": 5678,
      "##ledg": 5679,
      "snowflake": 5680,
      "unreal": 5681,
      "clingy": 5682,
      "navigate": 5683,
      "kitchen": 5684,
      "fortun": 5685,
      "mm": 5686,
      "yog": 5687,
      "##bid": 5688,
      "##ora": 5689,
      "##thesis": 5690,
      "pessim": 5691,
      "poly": 5692,
      "cauti": 5693,
      "applic": 5694,
      "questionnaire": 5695,
      "autism": 5696,
      "chess": 5697,
      "refresh": 5698,
      "despise": 5699,
      "ironic": 5700,
      "procrastination": 5701,
      "loneliness": 5702,
      "reinforce": 5703,
      "federal": 5704,
      "prioritize": 5705,
      "accommo": 5706,
      "bang": 5707,
      "cig": 5708,
      "hen": 5709,
      "nasty": 5710,
      "##ho": 5711,
      "##opher": 5712,
      "##unction": 5713,
      "chest": 5714,
      "##utter": 5715,
      "someday": 5716,
      "badass": 5717,
      "twitter": 5718,
      "awww": 5719,
      "recogni": 5720,
      "goddam": 5721,
      "presentation": 5722,
      "lawyer": 5723,
      "articulate": 5724,
      "statis": 5725,
      "veh": 5726,
      "##ugee": 5727,
      "hospital": 5728,
      "advertise": 5729,
      "blo": 5730,
      "lou": 5731,
      "pse": 5732,
      "pity": 5733,
      "rpg": 5734,
      "##bra": 5735,
      "##vation": 5736,
      "##alian": 5737,
      "##leas": 5738,
      "##itant": 5739,
      "lid": 5740,
      "##med": 5741,
      "alle": 5742,
      "proceed": 5743,
      "muse": 5744,
      "substance": 5745,
      "refugee": 5746,
      "polr": 5747,
      "butth": 5748,
      "occasional": 5749,
      "repeti": 5750,
      "budget": 5751,
      "tricky": 5752,
      "speculation": 5753,
      "legitimate": 5754,
      "indicator": 5755,
      "programmer": 5756,
      "lane": 5757,
      "ww": 5758,
      "##ix": 5759,
      "##cil": 5760,
      "##reck": 5761,
      "##organ": 5762,
      "likewise": 5763,
      "##urday": 5764,
      "expense": 5765,
      "sold": 5766,
      "partly": 5767,
      "scare": 5768,
      "farm": 5769,
      "sidebar": 5770,
      "setting": 5771,
      "importantly": 5772,
      "refine": 5773,
      "mentor": 5774,
      "organise": 5775,
      "naive": 5776,
      "forest": 5777,
      "toe": 5778,
      "frequent": 5779,
      "##aaaaaaaa": 5780,
      "simu": 5781,
      "greek": 5782,
      "saturday": 5783,
      "introspection": 5784,
      "disease": 5785,
      "pseud": 5786,
      "cc": 5787,
      "nick": 5788,
      "ting": 5789,
      "tact": 5790,
      "##fuck": 5791,
      "ing": 5792,
      "unit": 5793,
      "motion": 5794,
      "prime": 5795,
      "bund": 5796,
      "legend": 5797,
      "sufficient": 5798,
      "##yyyy": 5799,
      "inherent": 5800,
      "alike": 5801,
      "insuing": 5802,
      "japan": 5803,
      "steam": 5804,
      "sid": 5805,
      "##wood": 5806,
      "##vention": 5807,
      "##zzy": 5808,
      "##oral": 5809,
      "inno": 5810,
      "##cient": 5811,
      "motif": 5812,
      "bossy": 5813,
      "perpet": 5814,
      "##jectivity": 5815,
      "esp": 5816,
      "brush": 5817,
      "indie": 5818,
      "mainstream": 5819,
      "negatively": 5820,
      "cali": 5821,
      "discovery": 5822,
      "karma": 5823,
      "equip": 5824,
      "quirk": 5825,
      "grateful": 5826,
      "duck": 5827,
      "eight": 5828,
      "ip": 5829,
      "len": 5830,
      "tour": 5831,
      "##oe": 5832,
      "##itty": 5833,
      "anonym": 5834,
      "intensity": 5835,
      "neck": 5836,
      "pose": 5837,
      "clarity": 5838,
      "blan": 5839,
      "##liness": 5840,
      "excel": 5841,
      "flight": 5842,
      "propag": 5843,
      "killer": 5844,
      "recommendation": 5845,
      "toss": 5846,
      "orientation": 5847,
      "teenage": 5848,
      "ideally": 5849,
      "confrontation": 5850,
      "compatibility": 5851,
      "coworker": 5852,
      "sincerely": 5853,
      "cautious": 5854,
      "vehicle": 5855,
      "boot": 5856,
      "nag": 5857,
      "pile": 5858,
      "##iat": 5859,
      "##night": 5860,
      "##hear": 5861,
      "##word": 5862,
      "##eral": 5863,
      "##tial": 5864,
      "retire": 5865,
      "knowledg": 5866,
      "arti": 5867,
      "##shine": 5868,
      "respective": 5869,
      "thankfully": 5870,
      "buzz": 5871,
      "raven": 5872,
      "biological": 5873,
      "retail": 5874,
      "immense": 5875,
      "central": 5876,
      "rationalize": 5877,
      "milk": 5878,
      "cancel": 5879,
      "##atedly": 5880,
      "arrogance": 5881,
      "additional": 5882,
      "captain": 5883,
      "introspective": 5884,
      "overthinking": 5885,
      "##alogue": 5886,
      "classify": 5887,
      "ji": 5888,
      "xx": 5889,
      "##bear": 5890,
      "##sday": 5891,
      "##inging": 5892,
      "anth": 5893,
      "ness": 5894,
      "enlight": 5895,
      "tempt": 5896,
      "##amed": 5897,
      "worldview": 5898,
      "##osure": 5899,
      "classmate": 5900,
      "nega": 5901,
      "##itious": 5902,
      "david": 5903,
      "achievement": 5904,
      "mutually": 5905,
      "witness": 5906,
      "noget": 5907,
      "verbally": 5908,
      "bree": 5909,
      "courage": 5910,
      "gau": 5911,
      "sink": 5912,
      "veri": 5913,
      "##yl": 5914,
      "pocket": 5915,
      "##ethe": 5916,
      "fiance": 5917,
      "controver": 5918,
      "incap": 5919,
      "supply": 5920,
      "clin": 5921,
      "##nife": 5922,
      "harass": 5923,
      "boredom": 5924,
      "douche": 5925,
      "household": 5926,
      "narrative": 5927,
      "pretentious": 5928,
      "creator": 5929,
      "tolerance": 5930,
      "mathematics": 5931,
      "occupy": 5932,
      "ein": 5933,
      "##iry": 5934,
      "##dr": 5935,
      "##ziness": 5936,
      "##ating": 5937,
      "##ilst": 5938,
      "progressive": 5939,
      "discri": 5940,
      "paral": 5941,
      "insurance": 5942,
      "labor": 5943,
      "unfortunate": 5944,
      "euro": 5945,
      "ambition": 5946,
      "butterfly": 5947,
      "medicine": 5948,
      "simuaneously": 5949,
      "knife": 5950,
      "youth": 5951,
      "##ban": 5952,
      "##az": 5953,
      "##ingness": 5954,
      "sus": 5955,
      "definitive": 5956,
      "print": 5957,
      "exclude": 5958,
      "homeless": 5959,
      "misinterpret": 5960,
      "##bringing": 5961,
      "repeatedly": 5962,
      "casually": 5963,
      "archite": 5964,
      "garbage": 5965,
      "outwardly": 5966,
      "republican": 5967,
      "exploration": 5968,
      "utilize": 5969,
      "pierce": 5970,
      "mundane": 5971,
      "couch": 5972,
      "fer": 5973,
      "lens": 5974,
      "tail": 5975,
      "##av": 5976,
      "##erne": 5977,
      "##omfort": 5978,
      "exhibit": 5979,
      "dipl": 5980,
      "##ongue": 5981,
      "whilst": 5982,
      "reasonably": 5983,
      "considerate": 5984,
      "solitude": 5985,
      "quietly": 5986,
      "upbringing": 5987,
      "ntj": 5988,
      "##hahahaha": 5989,
      "representation": 5990,
      "radical": 5991,
      "cruel": 5992,
      "yellow": 5993,
      "virgin": 5994,
      "immigrant": 5995,
      "lurk": 5996,
      "license": 5997,
      "enlighten": 5998,
      "diplom": 5999,
      "bb": 6000,
      "jer": 6001,
      "jim": 6002,
      "sag": 6003,
      "##roph": 6004,
      "##wl": 6005,
      "stab": 6006,
      "goodness": 6007,
      "hav": 6008,
      "hack": 6009,
      "unaw": 6010,
      "lifetime": 6011,
      "clock": 6012,
      "institution": 6013,
      "retreat": 6014,
      "fran": 6015,
      "combat": 6016,
      "digital": 6017,
      "square": 6018,
      "talented": 6019,
      "tangible": 6020,
      "congrats": 6021,
      "##school": 6022,
      "critique": 6023,
      "fruit": 6024,
      "ng": 6025,
      "sly": 6026,
      "vict": 6027,
      "##uc": 6028,
      "##rue": 6029,
      "##fall": 6030,
      "stead": 6031,
      "stumble": 6032,
      "##rim": 6033,
      "enable": 6034,
      "obama": 6035,
      "##ptop": 6036,
      "outlook": 6037,
      "psychiat": 6038,
      "slide": 6039,
      "fighter": 6040,
      "envy": 6041,
      "explode": 6042,
      "##reland": 6043,
      "validity": 6044,
      "prompt": 6045,
      "grandmother": 6046,
      "ambig": 6047,
      "ambitious": 6048,
      "##bleness": 6049,
      "constructive": 6050,
      "whatnot": 6051,
      "strictly": 6052,
      "hvad": 6053,
      "defeat": 6054,
      "aunt": 6055,
      "gate": 6056,
      "hunch": 6057,
      "iv": 6058,
      "soo": 6059,
      "tutor": 6060,
      "##win": 6061,
      "##orate": 6062,
      "relatable": 6063,
      "component": 6064,
      "agency": 6065,
      "trail": 6066,
      "supervis": 6067,
      "doom": 6068,
      "numer": 6069,
      "hier": 6070,
      "magical": 6071,
      "pursuit": 6072,
      "equality": 6073,
      "incorporate": 6074,
      "indec": 6075,
      "pragmatic": 6076,
      "remotely": 6077,
      "blanket": 6078,
      "gauge": 6079,
      "ireland": 6080,
      "tongue": 6081,
      "convert": 6082,
      "proc": 6083,
      "spare": 6084,
      "extensive": 6085,
      "laptop": 6086,
      "definite": 6087,
      "playful": 6088,
      "mail": 6089,
      "discomfort": 6090,
      "skilled": 6091,
      "mislead": 6092,
      "punk": 6093,
      "entertainment": 6094,
      "merit": 6095,
      "capitalist": 6096,
      "comprehend": 6097,
      "explicitly": 6098,
      "indulge": 6099,
      "fallacy": 6100,
      "bell": 6101,
      "biz": 6102,
      "jk": 6103,
      "##ike": 6104,
      "##pr": 6105,
      "##post": 6106,
      "##enance": 6107,
      "stj": 6108,
      "##geon": 6109,
      "##cience": 6110,
      "mush": 6111,
      "##inton": 6112,
      "nod": 6113,
      "commer": 6114,
      "outright": 6115,
      "overlook": 6116,
      "overlap": 6117,
      "skype": 6118,
      "nicely": 6119,
      "brave": 6120,
      "restrict": 6121,
      "worthless": 6122,
      "glance": 6123,
      "capability": 6124,
      "conviction": 6125,
      "ambiver": 6126,
      "electric": 6127,
      "luc": 6128,
      "unpleas": 6129,
      "turkey": 6130,
      "meditate": 6131,
      "jazz": 6132,
      "enthusiastic": 6133,
      "temporary": 6134,
      "recognition": 6135,
      "soldier": 6136,
      "knowledgeable": 6137,
      "cro": 6138,
      "sket": 6139,
      "##break": 6140,
      "##cut": 6141,
      "##fc": 6142,
      "##tible": 6143,
      "##anter": 6144,
      "persist": 6145,
      "imper": 6146,
      "accent": 6147,
      "insensitive": 6148,
      "certainty": 6149,
      "##edness": 6150,
      "razy": 6151,
      "entry": 6152,
      "morally": 6153,
      "transfer": 6154,
      "nucle": 6155,
      "dispro": 6156,
      "roughly": 6157,
      "clarification": 6158,
      "declare": 6159,
      "unaware": 6160,
      "ara": 6161,
      "dutch": 6162,
      "oil": 6163,
      "##nic": 6164,
      "recon": 6165,
      "##cep": 6166,
      "lige": 6167,
      "##roke": 6168,
      "##ease": 6169,
      "##eableness": 6170,
      "uninterest": 6171,
      "compul": 6172,
      "submit": 6173,
      "subconsciously": 6174,
      "pause": 6175,
      "assert": 6176,
      "detect": 6177,
      "clip": 6178,
      "cliche": 6179,
      "autistic": 6180,
      "district": 6181,
      "reminder": 6182,
      "philosopher": 6183,
      "internalize": 6184,
      "oddly": 6185,
      "maintenance": 6186,
      "vegan": 6187,
      "ridiculously": 6188,
      "tangent": 6189,
      "democratic": 6190,
      "inevitable": 6191,
      "hypocri": 6192,
      "zombie": 6193,
      "cigar": 6194,
      "unpleasant": 6195,
      "eld": 6196,
      "lend": 6197,
      "lame": 6198,
      "obe": 6199,
      "wage": 6200,
      "wreck": 6201,
      "yang": 6202,
      "##ission": 6203,
      "##eet": 6204,
      "##house": 6205,
      "##jud": 6206,
      "##aline": 6207,
      "##tig": 6208,
      "##rael": 6209,
      "oneself": 6210,
      "shot": 6211,
      "##lage": 6212,
      "unst": 6213,
      "##beit": 6214,
      "resort": 6215,
      "##lige": 6216,
      "hahah": 6217,
      "theater": 6218,
      "godt": 6219,
      "energetic": 6220,
      "approve": 6221,
      "polar": 6222,
      "electronic": 6223,
      "campus": 6224,
      "golden": 6225,
      "economics": 6226,
      "xntp": 6227,
      "desperate": 6228,
      "charismatic": 6229,
      "destructive": 6230,
      "complaint": 6231,
      "torture": 6232,
      "yoga": 6233,
      "accommodate": 6234,
      "incapable": 6235,
      "pitch": 6236,
      "##tly": 6237,
      "##sty": 6238,
      "loathe": 6239,
      "precious": 6240,
      "backwards": 6241,
      "twin": 6242,
      "awake": 6243,
      "##used": 6244,
      "##aria": 6245,
      "blat": 6246,
      "violate": 6247,
      "imaginary": 6248,
      "colleague": 6249,
      "psyched": 6250,
      "dominance": 6251,
      "awkwardness": 6252,
      "fourth": 6253,
      "prediction": 6254,
      "wherever": 6255,
      "ukraine": 6256,
      "##poration": 6257,
      "##lablablablab": 6258,
      "supervisor": 6259,
      "dit": 6260,
      "era": 6261,
      "fold": 6262,
      "hood": 6263,
      "tj": 6264,
      "tension": 6265,
      "##icy": 6266,
      "##ictive": 6267,
      "stats": 6268,
      "##ader": 6269,
      "intuit": 6270,
      "##ogam": 6271,
      "compose": 6272,
      "whine": 6273,
      "nok": 6274,
      "understandable": 6275,
      "blend": 6276,
      "indirect": 6277,
      "emerg": 6278,
      "complexity": 6279,
      "nfp": 6280,
      "sunshine": 6281,
      "deres": 6282,
      "italian": 6283,
      "integr": 6284,
      "hillary": 6285,
      "gravitate": 6286,
      "imaginative": 6287,
      "louis": 6288,
      "discrim": 6289,
      "sketch": 6290,
      "nuclear": 6291,
      "gang": 6292,
      "jun": 6293,
      "##vate": 6294,
      "reci": 6295,
      "##icorn": 6296,
      "##mean": 6297,
      "##idal": 6298,
      "projection": 6299,
      "needle": 6300,
      "sober": 6301,
      "substanti": 6302,
      "highlight": 6303,
      "##ologically": 6304,
      "bury": 6305,
      "freely": 6306,
      "indiffer": 6307,
      "dae": 6308,
      "halfway": 6309,
      "delicious": 6310,
      "sneak": 6311,
      "predictable": 6312,
      "##eeeeeeee": 6313,
      "unwill": 6314,
      "punishment": 6315,
      "quirky": 6316,
      "historical": 6317,
      "troop": 6318,
      "contemplate": 6319,
      "pilot": 6320,
      "##pd": 6321,
      "##vs": 6322,
      "##ju": 6323,
      "##arre": 6324,
      "sher": 6325,
      "prec": 6326,
      "bob": 6327,
      "##fty": 6328,
      "appoint": 6329,
      "consu": 6330,
      "smash": 6331,
      "truck": 6332,
      "fuckin": 6333,
      "monogam": 6334,
      "invis": 6335,
      "blast": 6336,
      "simplify": 6337,
      "respectful": 6338,
      "idealize": 6339,
      "idealism": 6340,
      "silver": 6341,
      "disagreement": 6342,
      "barrier": 6343,
      "affectionate": 6344,
      "authenticity": 6345,
      "provoke": 6346,
      "paradox": 6347,
      "applicable": 6348,
      "gør": 6349,
      "kat": 6350,
      "mmm": 6351,
      "sv": 6352,
      "##kk": 6353,
      "##aked": 6354,
      "##herent": 6355,
      "##shop": 6356,
      "acquire": 6357,
      "adren": 6358,
      "##lessness": 6359,
      "coin": 6360,
      "##matic": 6361,
      "brag": 6362,
      "atm": 6363,
      "frag": 6364,
      "devote": 6365,
      "slap": 6366,
      "batman": 6367,
      "contradiction": 6368,
      "enthusiasm": 6369,
      "investigate": 6370,
      "agreeableness": 6371,
      "administ": 6372,
      "anecdotal": 6373,
      "integrity": 6374,
      "overs": 6375,
      "ocd": 6376,
      "pig": 6377,
      "##mend": 6378,
      "##rical": 6379,
      "##nel": 6380,
      "##nis": 6381,
      "##care": 6382,
      "##su": 6383,
      "gosh": 6384,
      "##cially": 6385,
      "unicorn": 6386,
      "spam": 6387,
      "more": 6388,
      "mold": 6389,
      "operation": 6390,
      "impati": 6391,
      "extension": 6392,
      "paul": 6393,
      "complement": 6394,
      "enjoyment": 6395,
      "repair": 6396,
      "breakdown": 6397,
      "israel": 6398,
      "weirdo": 6399,
      "hatred": 6400,
      "ntp": 6401,
      "uncommon": 6402,
      "owe": 6403,
      "lux": 6404,
      "jealousy": 6405,
      "unrealistic": 6406,
      "bal": 6407,
      "each": 6408,
      "fox": 6409,
      "##ctiveness": 6410,
      "##fs": 6411,
      "##orious": 6412,
      "stroke": 6413,
      "##roid": 6414,
      "##road": 6415,
      "ancient": 6416,
      "chronic": 6417,
      "##ulator": 6418,
      "joe": 6419,
      "scope": 6420,
      "outline": 6421,
      "outdo": 6422,
      "handwrite": 6423,
      "register": 6424,
      "##anny": 6425,
      "##grade": 6426,
      "productivity": 6427,
      "spiral": 6428,
      "puppy": 6429,
      "strip": 6430,
      "intensely": 6431,
      "roller": 6432,
      "george": 6433,
      "theoretically": 6434,
      "nerdy": 6435,
      "danish": 6436,
      "greece": 6437,
      "impressive": 6438,
      "perfectionist": 6439,
      "grudge": 6440,
      "chapter": 6441,
      "misconception": 6442,
      "conscientiousness": 6443,
      "goddamn": 6444,
      "negativity": 6445,
      "dull": 6446,
      "kom": 6447,
      "naked": 6448,
      "oops": 6449,
      "##bye": 6450,
      "##claw": 6451,
      "##hr": 6452,
      "##ini": 6453,
      "##stard": 6454,
      "##icit": 6455,
      "stark": 6456,
      "dialogue": 6457,
      "##ruption": 6458,
      "genetic": 6459,
      "##oca": 6460,
      "instagram": 6461,
      "##develop": 6462,
      "clinton": 6463,
      "##acky": 6464,
      "mini": 6465,
      "rape": 6466,
      "standpoint": 6467,
      "isolation": 6468,
      "##ternally": 6469,
      "brainstorm": 6470,
      "flavor": 6471,
      "keen": 6472,
      "auton": 6473,
      "recognise": 6474,
      "pathetic": 6475,
      "shyness": 6476,
      "warmth": 6477,
      "representative": 6478,
      "irony": 6479,
      "resistance": 6480,
      "##respond": 6481,
      "compensate": 6482,
      "commercial": 6483,
      "sherlock": 6484,
      "eachother": 6485,
      "ech": 6486,
      "eternal": 6487,
      "fj": 6488,
      "gi": 6489,
      "ii": 6490,
      "mill": 6491,
      "witch": 6492,
      "thumb": 6493,
      "##rian": 6494,
      "demean": 6495,
      "##illa": 6496,
      "##olly": 6497,
      "shade": 6498,
      "befriend": 6499,
      "iden": 6500,
      "##beat": 6501,
      "undergra": 6502,
      "readily": 6503,
      "##berg": 6504,
      "scroll": 6505,
      "correspond": 6506,
      "ahh": 6507,
      "distress": 6508,
      "accordingly": 6509,
      "grandma": 6510,
      "ville": 6511,
      "narcissism": 6512,
      "knee": 6513,
      "rapid": 6514,
      "duality": 6515,
      "melanch": 6516,
      "ashamed": 6517,
      "lidt": 6518,
      "bizarre": 6519,
      "banter": 6520,
      "dread": 6521,
      "jar": 6522,
      "mc": 6523,
      "##bour": 6524,
      "##crat": 6525,
      "##front": 6526,
      "ree": 6527,
      "inward": 6528,
      "albeit": 6529,
      "mange": 6530,
      "highschool": 6531,
      "hed": 6532,
      "formula": 6533,
      "exploit": 6534,
      "profound": 6535,
      "throne": 6536,
      "counterp": 6537,
      "unemp": 6538,
      "tremend": 6539,
      "dictator": 6540,
      "suspicious": 6541,
      "counselor": 6542,
      "utterly": 6543,
      "horribly": 6544,
      "australia": 6545,
      "butthurt": 6546,
      "ravenclaw": 6547,
      "cite": 6548,
      "irish": 6549,
      "jan": 6550,
      "kon": 6551,
      "slo": 6552,
      "##father": 6553,
      "##inent": 6554,
      "##lel": 6555,
      "##omach": 6556,
      "lip": 6557,
      "liar": 6558,
      "aloof": 6559,
      "##shell": 6560,
      "sock": 6561,
      "disney": 6562,
      "quanti": 6563,
      "usage": 6564,
      "apps": 6565,
      "##ami": 6566,
      "coast": 6567,
      "disclaim": 6568,
      "monitor": 6569,
      "##yping": 6570,
      "##quer": 6571,
      "grace": 6572,
      "weekly": 6573,
      "err": 6574,
      "keyboard": 6575,
      "epic": 6576,
      "categor": 6577,
      "amongst": 6578,
      "veget": 6579,
      "stereotypically": 6580,
      "fluid": 6581,
      "superiority": 6582,
      "anecdote": 6583,
      "##track": 6584,
      "aogether": 6585,
      "buck": 6586,
      "lake": 6587,
      "pump": 6588,
      "rog": 6589,
      "##fire": 6590,
      "thick": 6591,
      "##etz": 6592,
      "##rid": 6593,
      "conduct": 6594,
      "##ado": 6595,
      "goodbye": 6596,
      "bass": 6597,
      "playlist": 6598,
      "incl": 6599,
      "outs": 6600,
      "corporation": 6601,
      "flatter": 6602,
      "proportion": 6603,
      "behavioral": 6604,
      "##comp": 6605,
      "transform": 6606,
      "hypothesis": 6607,
      "nostalgia": 6608,
      "permanent": 6609,
      "califor": 6610,
      "psychedel": 6611,
      "bun": 6612,
      "bum": 6613,
      "cens": 6614,
      "jon": 6615,
      "nic": 6616,
      "ooo": 6617,
      "##vo": 6618,
      "##ara": 6619,
      "stomach": 6620,
      "##rac": 6621,
      "loan": 6622,
      "##isp": 6623,
      "##iser": 6624,
      "meget": 6625,
      "sheep": 6626,
      "arrest": 6627,
      "selective": 6628,
      "bastard": 6629,
      "pls": 6630,
      "underdevelop": 6631,
      "##thermore": 6632,
      "consens": 6633,
      "emotionless": 6634,
      "laziness": 6635,
      "##sible": 6636,
      "decisive": 6637,
      "coord": 6638,
      "opponent": 6639,
      "necessity": 6640,
      "obsc": 6641,
      "cooky": 6642,
      "feely": 6643,
      "rainbow": 6644,
      "exclusively": 6645,
      "emphasize": 6646,
      "unintention": 6647,
      "slyther": 6648,
      "disclaimer": 6649,
      "ost": 6650,
      "patch": 6651,
      "rum": 6652,
      "tou": 6653,
      "##uf": 6654,
      "##away": 6655,
      "##sche": 6656,
      "##enger": 6657,
      "##iture": 6658,
      "inapp": 6659,
      "stag": 6660,
      "alarm": 6661,
      "chip": 6662,
      "##urous": 6663,
      "sequ": 6664,
      "bach": 6665,
      "whis": 6666,
      "##bej": 6667,
      "obsta": 6668,
      "discourage": 6669,
      "monkey": 6670,
      "preferably": 6671,
      "##quate": 6672,
      "drown": 6673,
      "entity": 6674,
      "bio": 6675,
      "director": 6676,
      "halo": 6677,
      "politically": 6678,
      "visible": 6679,
      "initiative": 6680,
      "greet": 6681,
      "rebell": 6682,
      "ought": 6683,
      "neuroticism": 6684,
      "bubbly": 6685,
      "compassionate": 6686,
      "resentment": 6687,
      "adrenaline": 6688,
      "obstacle": 6689,
      "ai": 6690,
      "##top": 6691,
      "##del": 6692,
      "stjs": 6693,
      "connot": 6694,
      "##sial": 6695,
      "##ologue": 6696,
      "sword": 6697,
      "vivid": 6698,
      "nonethe": 6699,
      "numb": 6700,
      "resemble": 6701,
      "illusion": 6702,
      "delve": 6703,
      "aernate": 6704,
      "mechanical": 6705,
      "construction": 6706,
      "incompetent": 6707,
      "numerous": 6708,
      "nonetheless": 6709,
      "cough": 6710,
      "eli": 6711,
      "fry": 6712,
      "horm": 6713,
      "kal": 6714,
      "##uum": 6715,
      "##bs": 6716,
      "##tch": 6717,
      "##af": 6718,
      "##atis": 6719,
      "##stic": 6720,
      "##pal": 6721,
      "##arn": 6722,
      "##stone": 6723,
      "##step": 6724,
      "##verty": 6725,
      "pole": 6726,
      "poverty": 6727,
      "prol": 6728,
      "spider": 6729,
      "exposure": 6730,
      "adam": 6731,
      "resume": 6732,
      "nose": 6733,
      "obtain": 6734,
      "decrease": 6735,
      "##osc": 6736,
      "basket": 6737,
      "plane": 6738,
      "crappy": 6739,
      "developer": 6740,
      "moron": 6741,
      "approval": 6742,
      "potato": 6743,
      "abstraction": 6744,
      "revenge": 6745,
      "obligate": 6746,
      "sheet": 6747,
      "rationality": 6748,
      "linear": 6749,
      "hipster": 6750,
      "##worthy": 6751,
      "uncertain": 6752,
      "coincidence": 6753,
      "ooh": 6754,
      "champion": 6755,
      "immensely": 6756,
      "steady": 6757,
      "fence": 6758,
      "junk": 6759,
      "lash": 6760,
      "oct": 6761,
      "tes": 6762,
      "tale": 6763,
      "zo": 6764,
      "##name": 6765,
      "##alf": 6766,
      "##ces": 6767,
      "##mes": 6768,
      "loser": 6769,
      "peg": 6770,
      "concise": 6771,
      "chuck": 6772,
      "disaster": 6773,
      "novey": 6774,
      "contribution": 6775,
      "minus": 6776,
      "##spok": 6777,
      "##redict": 6778,
      "horiz": 6779,
      "translation": 6780,
      "justification": 6781,
      "unpredict": 6782,
      "harmful": 6783,
      "whoa": 6784,
      "calculus": 6785,
      "loner": 6786,
      "##repr": 6787,
      "immigration": 6788,
      "inevitably": 6789,
      "furthermore": 6790,
      "identical": 6791,
      "inclination": 6792,
      "connotation": 6793,
      "##spoken": 6794,
      "cure": 6795,
      "jab": 6796,
      "lush": 6797,
      "pt": 6798,
      "pound": 6799,
      "soph": 6800,
      "void": 6801,
      "##gi": 6802,
      "##vil": 6803,
      "##inal": 6804,
      "##entric": 6805,
      "fes": 6806,
      "shin": 6807,
      "##oter": 6808,
      "spati": 6809,
      "##allow": 6810,
      "##uman": 6811,
      "underestimate": 6812,
      "scatter": 6813,
      "phd": 6814,
      "hearted": 6815,
      "eta": 6816,
      "honey": 6817,
      "##aaa": 6818,
      "touchy": 6819,
      "darkness": 6820,
      "sniper": 6821,
      "disappointment": 6822,
      "knight": 6823,
      "platform": 6824,
      "rhet": 6825,
      "uncertainty": 6826,
      "transport": 6827,
      "verify": 6828,
      "batter": 6829,
      "eager": 6830,
      "kc": 6831,
      "ye": 6832,
      "zen": 6833,
      "##ysi": 6834,
      "##sight": 6835,
      "##puff": 6836,
      "##jerk": 6837,
      "##tie": 6838,
      "thro": 6839,
      "##icism": 6840,
      "chunk": 6841,
      "##olo": 6842,
      "diam": 6843,
      "pregn": 6844,
      "##usation": 6845,
      "spite": 6846,
      "spill": 6847,
      "sovi": 6848,
      "socc": 6849,
      "sociable": 6850,
      "interestingly": 6851,
      "caffe": 6852,
      "scan": 6853,
      "confid": 6854,
      "guest": 6855,
      "theat": 6856,
      "monday": 6857,
      "immer": 6858,
      "static": 6859,
      "device": 6860,
      "ownership": 6861,
      "revolve": 6862,
      "escal": 6863,
      "diagnosis": 6864,
      "sentimental": 6865,
      "contradictory": 6866,
      "masturb": 6867,
      "intrins": 6868,
      "##organize": 6869,
      "lucid": 6870,
      "invisible": 6871,
      "california": 6872,
      "soccer": 6873,
      "bush": 6874,
      "fate": 6875,
      "gry": 6876,
      "gem": 6877,
      "itte": 6878,
      "lb": 6879,
      "lingu": 6880,
      "lsd": 6881,
      "mouse": 6882,
      "pour": 6883,
      "sab": 6884,
      "##ura": 6885,
      "##men": 6886,
      "##wa": 6887,
      "##elle": 6888,
      "##ooter": 6889,
      "tier": 6890,
      "##ffind": 6891,
      "spar": 6892,
      "probability": 6893,
      "thankful": 6894,
      "##vile": 6895,
      "##uild": 6896,
      "abra": 6897,
      "generic": 6898,
      "##osexual": 6899,
      "recre": 6900,
      "insign": 6901,
      "synd": 6902,
      "oppress": 6903,
      "aftern": 6904,
      "indo": 6905,
      "warrant": 6906,
      "worthwhile": 6907,
      "avoidant": 6908,
      "patri": 6909,
      "straw": 6910,
      "modest": 6911,
      "illust": 6912,
      "anticip": 6913,
      "efficiently": 6914,
      "employer": 6915,
      "unpro": 6916,
      "##field": 6917,
      "neighborhood": 6918,
      "##burst": 6919,
      "bowl": 6920,
      "cartoon": 6921,
      "controversial": 6922,
      "itteh": 6923,
      "ak": 6924,
      "binge": 6925,
      "dod": 6926,
      "lan": 6927,
      "ron": 6928,
      "ren": 6929,
      "york": 6930,
      "##ex": 6931,
      "##lar": 6932,
      "##tio": 6933,
      "chan": 6934,
      "proced": 6935,
      "enh": 6936,
      "mui": 6937,
      "##inem": 6938,
      "resolution": 6939,
      "asper": 6940,
      "##lier": 6941,
      "sav": 6942,
      "decline": 6943,
      "insus": 6944,
      "mistyping": 6945,
      "typo": 6946,
      "retro": 6947,
      "delay": 6948,
      "meta": 6949,
      "downside": 6950,
      "merkel": 6951,
      "turk": 6952,
      "vaguely": 6953,
      "candy": 6954,
      "virtue": 6955,
      "##lapse": 6956,
      "deliberately": 6957,
      "nihilism": 6958,
      "propaganda": 6959,
      "consensus": 6960,
      "slytherin": 6961,
      "soviet": 6962,
      "afternoon": 6963,
      "bout": 6964,
      "cab": 6965,
      "ek": 6966,
      "lag": 6967,
      "nit": 6968,
      "sooo": 6969,
      "woo": 6970,
      "yr": 6971,
      "##rence": 6972,
      "##otion": 6973,
      "##hen": 6974,
      "##vas": 6975,
      "##leon": 6976,
      "##oric": 6977,
      "##sexual": 6978,
      "##ril": 6979,
      "devi": 6980,
      "##oodle": 6981,
      "arc": 6982,
      "workout": 6983,
      "modi": 6984,
      "##inte": 6985,
      "##dient": 6986,
      "constitution": 6987,
      "##liament": 6988,
      "fors": 6989,
      "quest": 6990,
      "detri": 6991,
      "factual": 6992,
      "monologue": 6993,
      "martial": 6994,
      "supernatural": 6995,
      "carl": 6996,
      "resuing": 6997,
      "successfully": 6998,
      "pussy": 6999,
      "accomplishment": 7000,
      "additionally": 7001,
      "innate": 7002,
      "officially": 7003,
      "guardian": 7004,
      "freshman": 7005,
      "genetics": 7006,
      "desperately": 7007,
      "nuanced": 7008,
      "hesitant": 7009,
      "reassure": 7010,
      "pronounce": 7011,
      "##oscope": 7012,
      "caffeine": 7013,
      "gryffind": 7014,
      "ari": 7015,
      "hoc": 7016,
      "nin": 7017,
      "niche": 7018,
      "tack": 7019,
      "##ux": 7020,
      "##ns": 7021,
      "##antic": 7022,
      "##else": 7023,
      "externally": 7024,
      "chame": 7025,
      "everytime": 7026,
      "imperial": 7027,
      "##agle": 7028,
      "consent": 7029,
      "parliament": 7030,
      "problematic": 7031,
      "collapse": 7032,
      "sweep": 7033,
      "buff": 7034,
      "england": 7035,
      "entrepr": 7036,
      "curve": 7037,
      "follower": 7038,
      "singular": 7039,
      "signature": 7040,
      "keir": 7041,
      "centre": 7042,
      "downvotes": 7043,
      "starve": 7044,
      "costume": 7045,
      "spirituality": 7046,
      "##hib": 7047,
      "##scape": 7048,
      "dishone": 7049,
      "##alyze": 7050,
      "suicidal": 7051,
      "vocab": 7052,
      "hostile": 7053,
      "xstj": 7054,
      "documentary": 7055,
      "convenient": 7056,
      "respectively": 7057,
      "hierarchy": 7058,
      "cigarette": 7059,
      "unemploy": 7060,
      "insignific": 7061,
      "entreprene": 7062,
      "gee": 7063,
      "gul": 7064,
      "hash": 7065,
      "nine": 7066,
      "rural": 7067,
      "##eous": 7068,
      "##rick": 7069,
      "##gent": 7070,
      "##function": 7071,
      "liqu": 7072,
      "##ned": 7073,
      "##ppet": 7074,
      "reli": 7075,
      "plastic": 7076,
      "##versity": 7077,
      "outburst": 7078,
      "headache": 7079,
      "huffle": 7080,
      "##uster": 7081,
      "fuzzy": 7082,
      "toile": 7083,
      "verse": 7084,
      "xnfp": 7085,
      "democrat": 7086,
      "confrontational": 7087,
      "giggle": 7088,
      "charisma": 7089,
      "woah": 7090,
      "berlin": 7091,
      "breed": 7092,
      "emergency": 7093,
      "fas": 7094,
      "ky": 7095,
      "mun": 7096,
      "voter": 7097,
      "##uct": 7098,
      "##bian": 7099,
      "##mine": 7100,
      "##erver": 7101,
      "##thes": 7102,
      "pros": 7103,
      "prejud": 7104,
      "##arter": 7105,
      "interfer": 7106,
      "##shot": 7107,
      "righteous": 7108,
      "aggression": 7109,
      "##life": 7110,
      "mindfulness": 7111,
      "##athon": 7112,
      "##fici": 7113,
      "blur": 7114,
      "regulation": 7115,
      "nato": 7116,
      "heel": 7117,
      "##quis": 7118,
      "hopeless": 7119,
      "characteri": 7120,
      "psychic": 7121,
      "hurtful": 7122,
      "intuitively": 7123,
      "admittedly": 7124,
      "antisocial": 7125,
      "shove": 7126,
      "sexuality": 7127,
      "volume": 7128,
      "unreason": 7129,
      "financially": 7130,
      "parano": 7131,
      "rationally": 7132,
      "pillow": 7133,
      "unstable": 7134,
      "recipe": 7135,
      "bachel": 7136,
      "lushed": 7137,
      "gryffindor": 7138,
      "aqu": 7139,
      "bil": 7140,
      "eagle": 7141,
      "les": 7142,
      "tent": 7143,
      "tun": 7144,
      "##bon": 7145,
      "##gic": 7146,
      "##watch": 7147,
      "##zard": 7148,
      "##ali": 7149,
      "stad": 7150,
      "exit": 7151,
      "worship": 7152,
      "##cile": 7153,
      "##olol": 7154,
      "bagg": 7155,
      "##ourse": 7156,
      "laund": 7157,
      "soundtrack": 7158,
      "estimate": 7159,
      "coat": 7160,
      "repro": 7161,
      "clum": 7162,
      "specify": 7163,
      "planner": 7164,
      "communism": 7165,
      "studio": 7166,
      "chew": 7167,
      "serial": 7168,
      "paste": 7169,
      "reform": 7170,
      "##cutive": 7171,
      "xntj": 7172,
      "legitim": 7173,
      "ixtp": 7174,
      "##iiiiiiiiiiiiiiii": 7175,
      "african": 7176,
      "quantity": 7177,
      "battery": 7178,
      "hufflepuff": 7179,
      "toilet": 7180,
      "paranoia": 7181,
      "elo": 7182,
      "elev": 7183,
      "furn": 7184,
      "ofc": 7185,
      "roc": 7186,
      "ward": 7187,
      "wiz": 7188,
      "##uary": 7189,
      "##bble": 7190,
      "##hes": 7191,
      "##gar": 7192,
      "##fter": 7193,
      "##qual": 7194,
      "##enni": 7195,
      "##sect": 7196,
      "stal": 7197,
      "##rial": 7198,
      "##rior": 7199,
      "cheek": 7200,
      "##ulary": 7201,
      "sham": 7202,
      "shield": 7203,
      "whore": 7204,
      "##teen": 7205,
      "fif": 7206,
      "gray": 7207,
      "##orean": 7208,
      "##ermind": 7209,
      "##cript": 7210,
      "ratio": 7211,
      "preserve": 7212,
      "invade": 7213,
      "extrem": 7214,
      "tribe": 7215,
      "##going": 7216,
      "##ricate": 7217,
      "limitation": 7218,
      "##gery": 7219,
      "download": 7220,
      "circlejerk": 7221,
      "steel": 7222,
      "adventurous": 7223,
      "widely": 7224,
      "platonic": 7225,
      "anarchist": 7226,
      "latin": 7227,
      "censor": 7228,
      "chameleon": 7229,
      "keirsey": 7230,
      "prejudice": 7231,
      "dang": 7232,
      "donald": 7233,
      "fid": 7234,
      "gif": 7235,
      "komm": 7236,
      "lm": 7237,
      "mell": 7238,
      "vid": 7239,
      "wrest": 7240,
      "##ov": 7241,
      "##xim": 7242,
      "##øre": 7243,
      "##erge": 7244,
      "##inator": 7245,
      "poison": 7246,
      "mexic": 7247,
      "dile": 7248,
      "fairy": 7249,
      "preach": 7250,
      "expend": 7251,
      "expans": 7252,
      "reluct": 7253,
      "plate": 7254,
      "##dian": 7255,
      "outfit": 7256,
      "robo": 7257,
      "march": 7258,
      "indication": 7259,
      "psycho": 7260,
      "avoidance": 7261,
      "flame": 7262,
      "supporter": 7263,
      "observer": 7264,
      "beast": 7265,
      "upload": 7266,
      "heahier": 7267,
      "heahcare": 7268,
      "intentional": 7269,
      "nfj": 7270,
      "fleet": 7271,
      "authoritarian": 7272,
      "civilization": 7273,
      "alienate": 7274,
      "executive": 7275,
      "mildly": 7276,
      "conventional": 7277,
      "inconsistent": 7278,
      "athle": 7279,
      "confess": 7280,
      "repetitive": 7281,
      "echo": 7282,
      "laundry": 7283,
      "bay": 7284,
      "læ": 7285,
      "tinder": 7286,
      "##bie": 7287,
      "##een": 7288,
      "##ji": 7289,
      "##state": 7290,
      "##elly": 7291,
      "##see": 7292,
      "##opp": 7293,
      "##rot": 7294,
      "before": 7295,
      "tedi": 7296,
      "fordi": 7297,
      "launch": 7298,
      "believer": 7299,
      "##amili": 7300,
      "coal": 7301,
      "coherent": 7302,
      "corrupt": 7303,
      "classroom": 7304,
      "flood": 7305,
      "##istics": 7306,
      "##ervation": 7307,
      "announce": 7308,
      "##ondon": 7309,
      "environmental": 7310,
      "chris": 7311,
      "positively": 7312,
      "beard": 7313,
      "staff": 7314,
      "protective": 7315,
      "robin": 7316,
      "steve": 7317,
      "incompati": 7318,
      "concentration": 7319,
      "mastermind": 7320,
      "sweden": 7321,
      "amazon": 7322,
      "execute": 7323,
      "motorcy": 7324,
      "rabbit": 7325,
      "museum": 7326,
      "unpredictable": 7327,
      "spatial": 7328,
      "##vilege": 7329,
      "bachelor": 7330,
      "beforehand": 7331,
      "alex": 7332,
      "cunt": 7333,
      "dorm": 7334,
      "dirt": 7335,
      "london": 7336,
      "rag": 7337,
      "umm": 7338,
      "##mal": 7339,
      "##cup": 7340,
      "##els": 7341,
      "##very": 7342,
      "##isc": 7343,
      "##mos": 7344,
      "selection": 7345,
      "bav": 7346,
      "manic": 7347,
      "whim": 7348,
      "physi": 7349,
      "nietz": 7350,
      "##arius": 7351,
      "margin": 7352,
      "credi": 7353,
      "dreamer": 7354,
      "horoscope": 7355,
      "observant": 7356,
      "automatic": 7357,
      "##obia": 7358,
      "neurotic": 7359,
      "venture": 7360,
      "cheesy": 7361,
      "speculate": 7362,
      "spoiler": 7363,
      "delusional": 7364,
      "summary": 7365,
      "anonymous": 7366,
      "fragile": 7367,
      "undergrad": 7368,
      "outsider": 7369,
      "inappropriate": 7370,
      "immerse": 7371,
      "bure": 7372,
      "bog": 7373,
      "geek": 7374,
      "kink": 7375,
      "##uce": 7376,
      "##bag": 7377,
      "##balance": 7378,
      "##iel": 7379,
      "##wich": 7380,
      "##kan": 7381,
      "##panda": 7382,
      "##anion": 7383,
      "##ston": 7384,
      "##adian": 7385,
      "relieve": 7386,
      "companion": 7387,
      "sob": 7388,
      "##ham": 7389,
      "##bed": 7390,
      "##tival": 7391,
      "flirty": 7392,
      "noticeable": 7393,
      "slut": 7394,
      "##ification": 7395,
      "##lands": 7396,
      "mercy": 7397,
      "alcoholic": 7398,
      "optimism": 7399,
      "xsfj": 7400,
      "willingness": 7401,
      "brex": 7402,
      "activate": 7403,
      "psychiatrist": 7404,
      "autonomy": 7405,
      "obscure": 7406,
      "enhance": 7407,
      "bern": 7408,
      "dy": 7409,
      "jac": 7410,
      "sli": 7411,
      "ura": 7412,
      "xxt": 7413,
      "##gor": 7414,
      "##wn": 7415,
      "##dog": 7416,
      "##øj": 7417,
      "##ons": 7418,
      "##till": 7419,
      "##ved": 7420,
      "##ica": 7421,
      "intx": 7422,
      "hammer": 7423,
      "disable": 7424,
      "quo": 7425,
      "agent": 7426,
      "abroad": 7427,
      "overbear": 7428,
      "argu": 7429,
      "surgery": 7430,
      "grass": 7431,
      "fitness": 7432,
      "cripple": 7433,
      "warrior": 7434,
      "mennes": 7435,
      "##ician": 7436,
      "emerge": 7437,
      "denial": 7438,
      "auto": 7439,
      "grandfather": 7440,
      "nearby": 7441,
      "significance": 7442,
      "protection": 7443,
      "unfamili": 7444,
      "competence": 7445,
      "fluffy": 7446,
      "knit": 7447,
      "realistically": 7448,
      "ixfp": 7449,
      "indicative": 7450,
      "korea": 7451,
      "guideline": 7452,
      "parallel": 7453,
      "indifferent": 7454,
      "appointment": 7455,
      "festival": 7456,
      "procedure": 7457,
      "insignificant": 7458,
      "legitimately": 7459,
      "motorcycle": 7460,
      "ecc": 7461,
      "fy": 7462,
      "gpa": 7463,
      "kay": 7464,
      "mul": 7465,
      "vit": 7466,
      "##ione": 7467,
      "##rink": 7468,
      "##aper": 7469,
      "##aire": 7470,
      "##gel": 7471,
      "##zone": 7472,
      "##inform": 7473,
      "##stop": 7474,
      "inch": 7475,
      "fetish": 7476,
      "##adv": 7477,
      "neo": 7478,
      "firstly": 7479,
      "discern": 7480,
      "marathon": 7481,
      "swap": 7482,
      "affair": 7483,
      "hangout": 7484,
      "retain": 7485,
      "##iotic": 7486,
      "ceo": 7487,
      "punct": 7488,
      "climate": 7489,
      "grump": 7490,
      "equate": 7491,
      "##agonist": 7492,
      "texas": 7493,
      "buddhism": 7494,
      "clinical": 7495,
      "elder": 7496,
      "demeanor": 7497,
      "throat": 7498,
      "vocabulary": 7499,
      "dm": 7500,
      "dust": 7501,
      "ec": 7502,
      "ich": 7503,
      "nom": 7504,
      "pad": 7505,
      "peak": 7506,
      "rit": 7507,
      "sfj": 7508,
      "vel": 7509,
      "##ten": 7510,
      "##writ": 7511,
      "##vy": 7512,
      "##æl": 7513,
      "lion": 7514,
      "inxx": 7515,
      "##ulous": 7516,
      "shed": 7517,
      "spy": 7518,
      "funeral": 7519,
      "anyhow": 7520,
      "comedian": 7521,
      "infat": 7522,
      "designer": 7523,
      "objectivity": 7524,
      "closet": 7525,
      "closure": 7526,
      "discount": 7527,
      "privilege": 7528,
      "solitary": 7529,
      "##gration": 7530,
      "memor": 7531,
      "strangely": 7532,
      "hotel": 7533,
      "smother": 7534,
      "slack": 7535,
      "grief": 7536,
      "italy": 7537,
      "steer": 7538,
      "evaluation": 7539,
      "##hhhhhhhh": 7540,
      "facet": 7541,
      "briefly": 7542,
      "virtually": 7543,
      "terrorist": 7544,
      "brutal": 7545,
      "kunne": 7546,
      "sleeve": 7547,
      "fortunately": 7548,
      "fascist": 7549,
      "nietzsche": 7550,
      "brexit": 7551,
      "hype": 7552,
      "rer": 7553,
      "uti": 7554,
      "##greg": 7555,
      "##itzer": 7556,
      "lil": 7557,
      "##icion": 7558,
      "##uto": 7559,
      "shiny": 7560,
      "##fect": 7561,
      "extj": 7562,
      "contest": 7563,
      "##ocal": 7564,
      "output": 7565,
      "overload": 7566,
      "ski": 7567,
      "skim": 7568,
      "singer": 7569,
      "difficuies": 7570,
      "individually": 7571,
      "strain": 7572,
      "notebook": 7573,
      "delight": 7574,
      "ntps": 7575,
      "peter": 7576,
      "popularity": 7577,
      "manifestation": 7578,
      "dismissive": 7579,
      "neuros": 7580,
      "minimize": 7581,
      "sandwich": 7582,
      "darn": 7583,
      "tidy": 7584,
      "swedish": 7585,
      "inconven": 7586,
      "arab": 7587,
      "wizard": 7588,
      "dilemma": 7589,
      "unfamiliar": 7590,
      "dw": 7591,
      "diction": 7592,
      "fb": 7593,
      "ps": 7594,
      "roy": 7595,
      "sane": 7596,
      "##mun": 7597,
      "##iest": 7598,
      "##case": 7599,
      "##hab": 7600,
      "##king": 7601,
      "##erence": 7602,
      "##ingen": 7603,
      "poop": 7604,
      "##irk": 7605,
      "##eria": 7606,
      "manual": 7607,
      "compass": 7608,
      "socialization": 7609,
      "shitpost": 7610,
      "bash": 7611,
      "lastly": 7612,
      "##izer": 7613,
      "judgemental": 7614,
      "fallout": 7615,
      "determination": 7616,
      "doors": 7617,
      "canadian": 7618,
      "princess": 7619,
      "luke": 7620,
      "wildly": 7621,
      "subscri": 7622,
      "suspicion": 7623,
      "gradually": 7624,
      "destruction": 7625,
      "##world": 7626,
      "pessimistic": 7627,
      "indecisive": 7628,
      "compulsive": 7629,
      "horizon": 7630,
      "diamond": 7631,
      "bureau": 7632,
      "cage": 7633,
      "cater": 7634,
      "just": 7635,
      "kr": 7636,
      "kin": 7637,
      "mary": 7638,
      "pru": 7639,
      "tp": 7640,
      "##hy": 7641,
      "recons": 7642,
      "ally": 7643,
      "conquer": 7644,
      "##ffff": 7645,
      "diale": 7646,
      "##sole": 7647,
      "spl": 7648,
      "plug": 7649,
      "##ormal": 7650,
      "boom": 7651,
      "prick": 7652,
      "incentive": 7653,
      "supplement": 7654,
      "rave": 7655,
      "absent": 7656,
      "secondly": 7657,
      "seeker": 7658,
      "motherfuck": 7659,
      "specialize": 7660,
      "##value": 7661,
      "moody": 7662,
      "universally": 7663,
      "goof": 7664,
      "loudly": 7665,
      "devast": 7666,
      "demogra": 7667,
      "nutri": 7668,
      "instinctual": 7669,
      "evolutionary": 7670,
      "foster": 7671,
      "delivery": 7672,
      "cherish": 7673,
      "strategic": 7674,
      "statistically": 7675,
      "rpgs": 7676,
      "pseudo": 7677,
      "disprove": 7678,
      "impatient": 7679,
      "syndrome": 7680,
      "clumsy": 7681,
      "rocket": 7682,
      "arguably": 7683,
      "aha": 7684,
      "ahaha": 7685,
      "cease": 7686,
      "dans": 7687,
      "korean": 7688,
      "md": 7689,
      "xbox": 7690,
      "##bb": 7691,
      "##lor": 7692,
      "##ku": 7693,
      "thur": 7694,
      "them": 7695,
      "##asse": 7696,
      "##irate": 7697,
      "progression": 7698,
      "diverse": 7699,
      "sep": 7700,
      "##umn": 7701,
      "sore": 7702,
      "oper": 7703,
      "theorize": 7704,
      "topps": 7705,
      "switzer": 7706,
      "internship": 7707,
      "absence": 7708,
      "distrust": 7709,
      "distribution": 7710,
      "annoyance": 7711,
      "upvotes": 7712,
      "smiley": 7713,
      "fantasize": 7714,
      "penis": 7715,
      "package": 7716,
      "duals": 7717,
      "hunger": 7718,
      "gamma": 7719,
      "severely": 7720,
      "animate": 7721,
      "nostalgic": 7722,
      "bleed": 7723,
      "subtypes": 7724,
      "mandatory": 7725,
      "hunter": 7726,
      "ordinary": 7727,
      "havde": 7728,
      "unwilling": 7729,
      "hormone": 7730,
      "escalate": 7731,
      "entrepreneur": 7732,
      "switzerland": 7733,
      "az": 7734,
      "ald": 7735,
      "cui": 7736,
      "drum": 7737,
      "fist": 7738,
      "kit": 7739,
      "lun": 7740,
      "mit": 7741,
      "mari": 7742,
      "pyth": 7743,
      "ze": 7744,
      "##mart": 7745,
      "##giv": 7746,
      "##wash": 7747,
      "##ds": 7748,
      "##itable": 7749,
      "rey": 7750,
      "stagn": 7751,
      "##rix": 7752,
      "alert": 7753,
      "console": 7754,
      "chime": 7755,
      "prospect": 7756,
      "##urally": 7757,
      "unconsciously": 7758,
      "stigma": 7759,
      "##liam": 7760,
      "paris": 7761,
      "decorate": 7762,
      "skate": 7763,
      "envision": 7764,
      "laughter": 7765,
      "painfully": 7766,
      "ntjs": 7767,
      "hahahahaha": 7768,
      "risky": 7769,
      "paperwork": 7770,
      "ethnic": 7771,
      "cookie": 7772,
      "owl": 7773,
      "turbul": 7774,
      "graduation": 7775,
      "salary": 7776,
      "firmly": 7777,
      "xstp": 7778,
      "hesitate": 7779,
      "gala": 7780,
      "tedious": 7781,
      "ay": 7782,
      "fright": 7783,
      "ken": 7784,
      "ray": 7785,
      "vom": 7786,
      "yu": 7787,
      "##uity": 7788,
      "##brow": 7789,
      "##mar": 7790,
      "##rator": 7791,
      "##cue": 7792,
      "##aff": 7793,
      "##veness": 7794,
      "##fu": 7795,
      "##fw": 7796,
      "##star": 7797,
      "##orie": 7798,
      "##ittle": 7799,
      "reven": 7800,
      "##vere": 7801,
      "alge": 7802,
      "##rait": 7803,
      "##neath": 7804,
      "shooter": 7805,
      "adhere": 7806,
      "resident": 7807,
      "aggress": 7808,
      "scrap": 7809,
      "smith": 7810,
      "##angle": 7811,
      "selfless": 7812,
      "coach": 7813,
      "synes": 7814,
      "hock": 7815,
      "skul": 7816,
      "bland": 7817,
      "prize": 7818,
      "graph": 7819,
      "sexist": 7820,
      "fairness": 7821,
      "seriousness": 7822,
      "##cratic": 7823,
      "labour": 7824,
      "mastery": 7825,
      "receptive": 7826,
      "independently": 7827,
      "blindly": 7828,
      "bloody": 7829,
      "##obic": 7830,
      "vastly": 7831,
      "gaze": 7832,
      "##æng": 7833,
      "unclear": 7834,
      "inefficient": 7835,
      "mushroom": 7836,
      "tackle": 7837,
      "reconsider": 7838,
      "galaxy": 7839,
      "algebra": 7840,
      "blev": 7841,
      "jail": 7842,
      "tld": 7843,
      "uhh": 7844,
      "wag": 7845,
      "zu": 7846,
      "##rent": 7847,
      "##nam": 7848,
      "##cate": 7849,
      "##orous": 7850,
      "##cest": 7851,
      "anni": 7852,
      "tiger": 7853,
      "##asa": 7854,
      "metic": 7855,
      "##esteem": 7856,
      "mud": 7857,
      "diary": 7858,
      "fab": 7859,
      "evident": 7860,
      "telev": 7861,
      "consum": 7862,
      "phar": 7863,
      "##amine": 7864,
      "elite": 7865,
      "selfesteem": 7866,
      "orch": 7867,
      "overrea": 7868,
      "discre": 7869,
      "surf": 7870,
      "formulate": 7871,
      "indian": 7872,
      "calorie": 7873,
      "##ophren": 7874,
      "crystal": 7875,
      "pushy": 7876,
      "##aker": 7877,
      "magaz": 7878,
      "duh": 7879,
      "destiny": 7880,
      "urban": 7881,
      "electron": 7882,
      "dispute": 7883,
      "visualize": 7884,
      "pix": 7885,
      "temporarily": 7886,
      "division": 7887,
      "invalid": 7888,
      "amazingly": 7889,
      "hermit": 7890,
      "apathetic": 7891,
      "equipment": 7892,
      "suscep": 7893,
      "moreso": 7894,
      "counterpart": 7895,
      "unintentionally": 7896,
      "lmfa": 7897,
      "dictionary": 7898,
      "magazine": 7899,
      "ace": 7900,
      "cable": 7901,
      "dil": 7902,
      "ej": 7903,
      "sander": 7904,
      "##bel": 7905,
      "##bro": 7906,
      "##rich": 7907,
      "##onde": 7908,
      "##tition": 7909,
      "##anic": 7910,
      "##rection": 7911,
      "##ouri": 7912,
      "##orph": 7913,
      "##eee": 7914,
      "succ": 7915,
      "summar": 7916,
      "intol": 7917,
      "##asi": 7918,
      "##abe": 7919,
      "idi": 7920,
      "disadv": 7921,
      "underneath": 7922,
      "##times": 7923,
      "##lown": 7924,
      "##osal": 7925,
      "robert": 7926,
      "regulate": 7927,
      "##iciency": 7928,
      "stupidity": 7929,
      "shortcoming": 7930,
      "dave": 7931,
      "extrap": 7932,
      "legally": 7933,
      "datab": 7934,
      "freud": 7935,
      "metric": 7936,
      "snack": 7937,
      "destination": 7938,
      "##missive": 7939,
      "atheism": 7940,
      "journalist": 7941,
      "pinpoint": 7942,
      "vacuum": 7943,
      "transpar": 7944,
      "adept": 7945,
      "schizophren": 7946,
      "apathy": 7947,
      "einstein": 7948,
      "architecture": 7949,
      "indirectly": 7950,
      "tourist": 7951,
      "ptsd": 7952,
      "anticipate": 7953,
      "hockey": 7954,
      "ritual": 7955,
      "revenue": 7956,
      "television": 7957,
      "disadvantage": 7958,
      "nether": 7959,
      "soup": 7960,
      "vag": 7961,
      "weahy": 7962,
      "##cis": 7963,
      "##ctiv": 7964,
      "##zation": 7965,
      "##inon": 7966,
      "thesis": 7967,
      "inxp": 7968,
      "##entine": 7969,
      "conj": 7970,
      "seed": 7971,
      "aru": 7972,
      "undermine": 7973,
      "impersonal": 7974,
      "accum": 7975,
      "tower": 7976,
      "flor": 7977,
      "presume": 7978,
      "videog": 7979,
      "argumentative": 7980,
      "missouri": 7981,
      "freel": 7982,
      "medioc": 7983,
      "##aken": 7984,
      "educational": 7985,
      "practicality": 7986,
      "android": 7987,
      "portrait": 7988,
      "treas": 7989,
      "ixfj": 7990,
      "investigation": 7991,
      "tolerant": 7992,
      "upvoted": 7993,
      "victory": 7994,
      "hedon": 7995,
      "theatre": 7996,
      "unreasonable": 7997,
      "mellow": 7998,
      "eccentric": 7999,
      "tldr": 8000,
      "asexual": 8001,
      "dome": 8002,
      "ka": 8003,
      "mall": 8004,
      "mim": 8005,
      "pag": 8006,
      "sna": 8007,
      "uph": 8008,
      "vet": 8009,
      "##rey": 8010,
      "##anta": 8011,
      "##ones": 8012,
      "anne": 8013,
      "chop": 8014,
      "prosec": 8015,
      "unatt": 8016,
      "bait": 8017,
      "##ogen": 8018,
      "infuri": 8019,
      "genoc": 8020,
      "##lift": 8021,
      "experimental": 8022,
      "##ithm": 8023,
      "mindless": 8024,
      "generous": 8025,
      "situational": 8026,
      "specially": 8027,
      "monop": 8028,
      "breaker": 8029,
      "ruth": 8030,
      "wholehear": 8031,
      "reflex": 8032,
      "misinform": 8033,
      "dreamy": 8034,
      "jeff": 8035,
      "wipe": 8036,
      "southern": 8037,
      "depressive": 8038,
      "instrumental": 8039,
      "unde": 8040,
      "##awn": 8041,
      "skinny": 8042,
      "industrial": 8043,
      "assertiveness": 8044,
      "austria": 8045,
      "##voting": 8046,
      "william": 8047,
      "hermione": 8048,
      "hypocritical": 8049,
      "intrinsic": 8050,
      "##thesize": 8051,
      "fyi": 8052,
      "reread": 8053,
      "demographic": 8054,
      "atle": 8055,
      "lg": 8056,
      "nfps": 8057,
      "ot": 8058,
      "von": 8059,
      "wet": 8060,
      "##rance": 8061,
      "##roman": 8062,
      "##ock": 8063,
      "##walk": 8064,
      "##pick": 8065,
      "##free": 8066,
      "##ænd": 8067,
      "##tik": 8068,
      "##orse": 8069,
      "reactive": 8070,
      "gol": 8071,
      "##ila": 8072,
      "manga": 8073,
      "##sheet": 8074,
      "##umber": 8075,
      "adder": 8076,
      "disinterest": 8077,
      "quarter": 8078,
      "abortion": 8079,
      "highway": 8080,
      "awe": 8081,
      "confine": 8082,
      "esxp": 8083,
      "domain": 8084,
      "brick": 8085,
      "handy": 8086,
      "clutter": 8087,
      "blot": 8088,
      "blush": 8089,
      "ramp": 8090,
      "eyebrow": 8091,
      "sticky": 8092,
      "emulate": 8093,
      "dammit": 8094,
      "continually": 8095,
      "upfront": 8096,
      "countless": 8097,
      "introduction": 8098,
      "mistypes": 8099,
      "violation": 8100,
      "northern": 8101,
      "kanye": 8102,
      "unreli": 8103,
      "clueless": 8104,
      "skyrim": 8105,
      "foolish": 8106,
      "castle": 8107,
      "injury": 8108,
      "inconsistency": 8109,
      "guidance": 8110,
      "peeve": 8111,
      "ambiguous": 8112,
      "oooh": 8113,
      "furniture": 8114,
      "athletic": 8115,
      "bernie": 8116,
      "doorslam": 8117,
      "skulle": 8118,
      "orchest": 8119,
      "database": 8120,
      "videogame": 8121,
      "bol": 8122,
      "bye": 8123,
      "dj": 8124,
      "fro": 8125,
      "gorge": 8126,
      "jaw": 8127,
      "lee": 8128,
      "tense": 8129,
      "vamp": 8130,
      "##urable": 8131,
      "##bru": 8132,
      "##vet": 8133,
      "##eng": 8134,
      "relev": 8135,
      "thresh": 8136,
      "ingen": 8137,
      "pepper": 8138,
      "chi": 8139,
      "faus": 8140,
      "##iece": 8141,
      "kindof": 8142,
      "imho": 8143,
      "starter": 8144,
      "trace": 8145,
      "endea": 8146,
      "ohh": 8147,
      "conversational": 8148,
      "opposition": 8149,
      "unimp": 8150,
      "slice": 8151,
      "midnight": 8152,
      "admiration": 8153,
      "observable": 8154,
      "bitchy": 8155,
      "volunt": 8156,
      "whoop": 8157,
      "sympathize": 8158,
      "malicious": 8159,
      "melody": 8160,
      "synonym": 8161,
      "uncondition": 8162,
      "ixtj": 8163,
      "##itten": 8164,
      "criticise": 8165,
      "gravity": 8166,
      "ixxp": 8167,
      "beef": 8168,
      "##structure": 8169,
      "invalidate": 8170,
      "bliss": 8171,
      "negotiate": 8172,
      "junior": 8173,
      "rebellious": 8174,
      "basketball": 8175,
      "modify": 8176,
      "stalin": 8177,
      "grumpy": 8178,
      "devastate": 8179,
      "lmfao": 8180,
      "wholeheartedly": 8181,
      "apt": 8182,
      "arist": 8183,
      "bart": 8184,
      "borrow": 8185,
      "dol": 8186,
      "giver": 8187,
      "ira": 8188,
      "ome": 8189,
      "por": 8190,
      "rome": 8191,
      "wound": 8192,
      "##bet": 8193,
      "##iously": 8194,
      "##tal": 8195,
      "##rous": 8196,
      "##lus": 8197,
      "##gon": 8198,
      "##vative": 8199,
      "##ala": 8200,
      "thou": 8201,
      "##ings": 8202,
      "inade": 8203,
      "inxj": 8204,
      "sting": 8205,
      "exfj": 8206,
      "ala": 8207,
      "algor": 8208,
      "##racle": 8209,
      "##ged": 8210,
      "pov": 8211,
      "proactive": 8212,
      "enxp": 8213,
      "##igan": 8214,
      "arse": 8215,
      "unin": 8216,
      "unch": 8217,
      "motive": 8218,
      "manuf": 8219,
      "asap": 8220,
      "##isexual": 8221,
      "##simp": 8222,
      "##amin": 8223,
      "outrage": 8224,
      "oversimp": 8225,
      "brood": 8226,
      "discord": 8227,
      "charity": 8228,
      "charlie": 8229,
      "draft": 8230,
      "aura": 8231,
      "minister": 8232,
      "imagery": 8233,
      "reflective": 8234,
      "simpl": 8235,
      "restric": 8236,
      "visually": 8237,
      "immune": 8238,
      "hmmmm": 8239,
      "engagement": 8240,
      "snake": 8241,
      "liberty": 8242,
      "boob": 8243,
      "##weight": 8244,
      "assertion": 8245,
      "desktop": 8246,
      "juice": 8247,
      "plague": 8248,
      "untrue": 8249,
      "divine": 8250,
      "##struct": 8251,
      "africa": 8252,
      "disrespectful": 8253,
      "##ythm": 8254,
      "reconcile": 8255,
      "precision": 8256,
      "prolong": 8257,
      "detrimental": 8258,
      "mennesker": 8259,
      "thursday": 8260,
      "vomit": 8261,
      "infuriate": 8262,
      "binary": 8263,
      "ey": 8264,
      "fjs": 8265,
      "fwi": 8266,
      "kor": 8267,
      "kim": 8268,
      "las": 8269,
      "made": 8270,
      "roof": 8271,
      "riot": 8272,
      "sni": 8273,
      "tay": 8274,
      "tread": 8275,
      "uber": 8276,
      "yield": 8277,
      "##met": 8278,
      "##mme": 8279,
      "##ew": 8280,
      "##och": 8281,
      "##vell": 8282,
      "##tize": 8283,
      "ster": 8284,
      "##ctr": 8285,
      "pean": 8286,
      "dip": 8287,
      "seman": 8288,
      "##ists": 8289,
      "##shi": 8290,
      "composition": 8291,
      "meantime": 8292,
      "acid": 8293,
      "##psy": 8294,
      "infra": 8295,
      "nove": 8296,
      "probable": 8297,
      "tror": 8298,
      "##via": 8299,
      "sauce": 8300,
      "endure": 8301,
      "asset": 8302,
      "assass": 8303,
      "outspoken": 8304,
      "roast": 8305,
      "winner": 8306,
      "ahhh": 8307,
      "swiss": 8308,
      "swift": 8309,
      "swallow": 8310,
      "hopeful": 8311,
      "courte": 8312,
      "raid": 8313,
      "viable": 8314,
      "##tisk": 8315,
      "extraord": 8316,
      "organisation": 8317,
      "##ansa": 8318,
      "artsy": 8319,
      "##commun": 8320,
      "researcher": 8321,
      "analyst": 8322,
      "sensible": 8323,
      "greg": 8324,
      "promotion": 8325,
      "airport": 8326,
      "frequency": 8327,
      "encouragement": 8328,
      "flesh": 8329,
      "sims": 8330,
      "astron": 8331,
      "protagonist": 8332,
      "rhythm": 8333,
      "rationale": 8334,
      "unconvention": 8335,
      "symbolism": 8336,
      "nogen": 8337,
      "gamble": 8338,
      "navy": 8339,
      "temperature": 8340,
      "flexibility": 8341,
      "pedest": 8342,
      "nickname": 8343,
      "##ractical": 8344,
      "dodge": 8345,
      "##hibition": 8346,
      "characterize": 8347,
      "robotic": 8348,
      "consumer": 8349,
      "atleast": 8350,
      "unreliable": 8351,
      "algorithm": 8352,
      "manufact": 8353,
      "bpd": 8354,
      "jane": 8355,
      "jug": 8356,
      "nsure": 8357,
      "rut": 8358,
      "wat": 8359,
      "##col": 8360,
      "##pack": 8361,
      "##jo": 8362,
      "##flow": 8363,
      "##icked": 8364,
      "##asingly": 8365,
      "ens": 8366,
      "diversity": 8367,
      "##usible": 8368,
      "haunt": 8369,
      "unav": 8370,
      "spa": 8371,
      "spit": 8372,
      "spouse": 8373,
      "sector": 8374,
      "bean": 8375,
      "nevermind": 8376,
      "asia": 8377,
      "realist": 8378,
      "caution": 8379,
      "backst": 8380,
      "mindful": 8381,
      "valentine": 8382,
      "##xture": 8383,
      "repost": 8384,
      "replay": 8385,
      "monot": 8386,
      "addictive": 8387,
      "informative": 8388,
      "##nya": 8389,
      "sadan": 8390,
      "organic": 8391,
      "politely": 8392,
      "upgrade": 8393,
      "increasingly": 8394,
      "##parent": 8395,
      "photograph": 8396,
      "westport": 8397,
      "rebuild": 8398,
      "optimal": 8399,
      "aernatively": 8400,
      "spontaneity": 8401,
      "facade": 8402,
      "smoothly": 8403,
      "concede": 8404,
      "assistant": 8405,
      "permanently": 8406,
      "discriminate": 8407,
      "luxury": 8408,
      "confidently": 8409,
      "susceptible": 8410,
      "netherlands": 8411,
      "freelance": 8412,
      "treasure": 8413,
      "fwiw": 8414,
      "peanut": 8415,
      "unconventional": 8416,
      "bor": 8417,
      "dag": 8418,
      "fet": 8419,
      "gall": 8420,
      "ik": 8421,
      "nich": 8422,
      "rail": 8423,
      "sway": 8424,
      "wary": 8425,
      "##trol": 8426,
      "##cent": 8427,
      "##tious": 8428,
      "##section": 8429,
      "induce": 8430,
      "stake": 8431,
      "deut": 8432,
      "##irc": 8433,
      "enig": 8434,
      "##oli": 8435,
      "##usal": 8436,
      "##arten": 8437,
      "evoke": 8438,
      "mole": 8439,
      "##ized": 8440,
      "appropri": 8441,
      "submissive": 8442,
      "assau": 8443,
      "hob": 8444,
      "hateful": 8445,
      "commentary": 8446,
      "critic": 8447,
      "perceptive": 8448,
      "##space": 8449,
      "convo": 8450,
      "fixate": 8451,
      "immoral": 8452,
      "denmark": 8453,
      "##atile": 8454,
      "mannerism": 8455,
      "adaptable": 8456,
      "nutshell": 8457,
      "insanely": 8458,
      "condem": 8459,
      "homosexual": 8460,
      "trek": 8461,
      "xsfp": 8462,
      "psychopathy": 8463,
      "jewish": 8464,
      "agreeable": 8465,
      "deliberate": 8466,
      "brutally": 8467,
      "mystical": 8468,
      "expansion": 8469,
      "incompatible": 8470,
      "jacket": 8471,
      "frighten": 8472,
      "monopoly": 8473,
      "simplistic": 8474,
      "donate": 8475,
      "icon": 8476,
      "mcc": 8477,
      "ool": 8478,
      "vader": 8479,
      "welf": 8480,
      "yard": 8481,
      "##len": 8482,
      "##lord": 8483,
      "##hu": 8484,
      "##pro": 8485,
      "##fin": 8486,
      "##æld": 8487,
      "##anth": 8488,
      "##lem": 8489,
      "##oul": 8490,
      "revel": 8491,
      "thom": 8492,
      "inception": 8493,
      "##ighed": 8494,
      "meg": 8495,
      "haw": 8496,
      "unlock": 8497,
      "##iph": 8498,
      "stir": 8499,
      "disorganize": 8500,
      "lef": 8501,
      "permit": 8502,
      "pertain": 8503,
      "extp": 8504,
      "commission": 8505,
      "attain": 8506,
      "abn": 8507,
      "smack": 8508,
      "amend": 8509,
      "accusation": 8510,
      "putin": 8511,
      "coaster": 8512,
      "bron": 8513,
      "blonde": 8514,
      "corruption": 8515,
      "preservation": 8516,
      "entail": 8517,
      "isxj": 8518,
      "weirdly": 8519,
      "restrain": 8520,
      "misread": 8521,
      "##dddd": 8522,
      "gladly": 8523,
      "purposely": 8524,
      "grieve": 8525,
      "chatty": 8526,
      "inexp": 8527,
      "suitable": 8528,
      "simulation": 8529,
      "samme": 8530,
      "demonstrative": 8531,
      "buddhist": 8532,
      "teddy": 8533,
      "anthrop": 8534,
      "blatantly": 8535,
      "january": 8536,
      "psychedelics": 8537,
      "nitpick": 8538,
      "interfere": 8539,
      "reluctant": 8540,
      "neuroscience": 8541,
      "motherfucker": 8542,
      "domestic": 8543,
      "unattra": 8544,
      "gorgeous": 8545,
      "welfare": 8546,
      "bin": 8547,
      "cog": 8548,
      "dow": 8549,
      "dope": 8550,
      "dense": 8551,
      "ditch": 8552,
      "erase": 8553,
      "fea": 8554,
      "gim": 8555,
      "iirc": 8556,
      "km": 8557,
      "ket": 8558,
      "kitten": 8559,
      "lower": 8560,
      "nig": 8561,
      "sfjs": 8562,
      "tant": 8563,
      "xy": 8564,
      "##uously": 8565,
      "##ben": 8566,
      "##aid": 8567,
      "##vol": 8568,
      "##ona": 8569,
      "##lee": 8570,
      "sty": 8571,
      "##nest": 8572,
      "##ilize": 8573,
      "spur": 8574,
      "idiotic": 8575,
      "resued": 8576,
      "impractical": 8577,
      "perk": 8578,
      "permission": 8579,
      "imbalance": 8580,
      "fork": 8581,
      "sac": 8582,
      "scor": 8583,
      "##erman": 8584,
      "scholar": 8585,
      "recur": 8586,
      "##atively": 8587,
      "##fiction": 8588,
      "basement": 8589,
      "april": 8590,
      "##ypical": 8591,
      "##ased": 8592,
      "crawl": 8593,
      "superpower": 8594,
      "ongoing": 8595,
      "alongside": 8596,
      "comfortably": 8597,
      "trustworthy": 8598,
      "minecraft": 8599,
      "atl": 8600,
      "publicly": 8601,
      "transcend": 8602,
      "upside": 8603,
      "moderation": 8604,
      "xnfj": 8605,
      "supre": 8606,
      "instructor": 8607,
      "crucial": 8608,
      "simulator": 8609,
      "perfectionism": 8610,
      "tywin": 8611,
      "traumatic": 8612,
      "##burg": 8613,
      "bliver": 8614,
      "reassurance": 8615,
      "martin": 8616,
      "marxist": 8617,
      "reckon": 8618,
      "uninteresting": 8619,
      "abrasive": 8620,
      "tunnel": 8621,
      "extremist": 8622,
      "mimic": 8623,
      "lgbt": 8624,
      "vampire": 8625,
      "november": 8626,
      "condemn": 8627,
      "pony": 8628,
      "sour": 8629,
      "tps": 8630,
      "##ctic": 8631,
      "##aik": 8632,
      "##dp": 8633,
      "##kind": 8634,
      "##fol": 8635,
      "##real": 8636,
      "reign": 8637,
      "##elie": 8638,
      "limb": 8639,
      "stor": 8640,
      "##ratic": 8641,
      "##rade": 8642,
      "##ortant": 8643,
      "##otype": 8644,
      "unnatural": 8645,
      "spain": 8646,
      "idol": 8647,
      "disrupt": 8648,
      "##tember": 8649,
      "opt": 8650,
      "lemon": 8651,
      "leverage": 8652,
      "grin": 8653,
      "##velope": 8654,
      "sail": 8655,
      "maker": 8656,
      "install": 8657,
      "humility": 8658,
      "meetup": 8659,
      "crew": 8660,
      "empower": 8661,
      "##phant": 8662,
      "currency": 8663,
      "individualistic": 8664,
      "glorious": 8665,
      "determin": 8666,
      "council": 8667,
      "locate": 8668,
      "professionally": 8669,
      "clique": 8670,
      "richard": 8671,
      "comparable": 8672,
      "siger": 8673,
      "plausible": 8674,
      "possession": 8675,
      "maximum": 8676,
      "morty": 8677,
      "arrangement": 8678,
      "excessively": 8679,
      "dysfunction": 8680,
      "substantial": 8681,
      "tremendous": 8682,
      "vegetarian": 8683,
      "jabber": 8684,
      "pregnant": 8685,
      "dishonest": 8686,
      "wrestle": 8687,
      "##ocalyp": 8688,
      "dialect": 8689,
      "september": 8690,
      "genocide": 8691,
      "threshold": 8692,
      "cere": 8693,
      "fw": 8694,
      "isi": 8695,
      "mull": 8696,
      "mich": 8697,
      "sno": 8698,
      "wee": 8699,
      "wicked": 8700,
      "##ups": 8701,
      "##mail": 8702,
      "##town": 8703,
      "##hed": 8704,
      "##gl": 8705,
      "##fle": 8706,
      "##onia": 8707,
      "##ourish": 8708,
      "##orney": 8709,
      "##keep": 8710,
      "##chem": 8711,
      "exfp": 8712,
      "##ida": 8713,
      "##ella": 8714,
      "poker": 8715,
      "cho": 8716,
      "chin": 8717,
      "##irly": 8718,
      "shine": 8719,
      "arbej": 8720,
      "leia": 8721,
      "forbid": 8722,
      "attorney": 8723,
      "confide": 8724,
      "coke": 8725,
      "cosm": 8726,
      "overan": 8727,
      "effe": 8728,
      "farmer": 8729,
      "apocalyp": 8730,
      "judger": 8731,
      "##rown": 8732,
      "flick": 8733,
      "individuality": 8734,
      "snark": 8735,
      "grandpa": 8736,
      "sunny": 8737,
      "landscape": 8738,
      "dramatically": 8739,
      "village": 8740,
      "aernatives": 8741,
      "kingdom": 8742,
      "##litarian": 8743,
      "willpower": 8744,
      "incorrectly": 8745,
      "mathematical": 8746,
      "quadras": 8747,
      "soothe": 8748,
      "credibility": 8749,
      "adderall": 8750,
      "unimportant": 8751,
      "cs": 8752,
      "dum": 8753,
      "eb": 8754,
      "gy": 8755,
      "gli": 8756,
      "jr": 8757,
      "lul": 8758,
      "ldr": 8759,
      "mp": 8760,
      "pirate": 8761,
      "tan": 8762,
      "##logy": 8763,
      "##nt": 8764,
      "##hrase": 8765,
      "##human": 8766,
      "##gers": 8767,
      "##west": 8768,
      "##sl": 8769,
      "##sw": 8770,
      "##ød": 8771,
      "##aring": 8772,
      "##ener": 8773,
      "##ano": 8774,
      "##iterate": 8775,
      "##raint": 8776,
      "febru": 8777,
      "##endo": 8778,
      "##ilitate": 8779,
      "diver": 8780,
      "faction": 8781,
      "##ota": 8782,
      "sphere": 8783,
      "besti": 8784,
      "which": 8785,
      "undert": 8786,
      "sociology": 8787,
      "noble": 8788,
      "desert": 8789,
      "kinderg": 8790,
      "learner": 8791,
      "prank": 8792,
      "rephrase": 8793,
      "clone": 8794,
      "theor": 8795,
      "mike": 8796,
      "mixture": 8797,
      "rug": 8798,
      "drone": 8799,
      "setup": 8800,
      "flake": 8801,
      "prescribe": 8802,
      "wavel": 8803,
      "##theless": 8804,
      "motivational": 8805,
      "foreigner": 8806,
      "legis": 8807,
      "visi": 8808,
      "awkwardly": 8809,
      "despair": 8810,
      "heap": 8811,
      "spotlight": 8812,
      "prominent": 8813,
      "magnet": 8814,
      "##roportion": 8815,
      "methodology": 8816,
      "grandparent": 8817,
      "ambi": 8818,
      "##yyy": 8819,
      "microman": 8820,
      "disproportion": 8821,
      "massively": 8822,
      "sympathetic": 8823,
      "withdrawal": 8824,
      "##nesday": 8825,
      "infinitely": 8826,
      "wednesday": 8827,
      "revolutionary": 8828,
      "cooperate": 8829,
      "wallet": 8830,
      "persuade": 8831,
      "britain": 8832,
      "##tigate": 8833,
      "##juana": 8834,
      "outdoor": 8835,
      "illustrate": 8836,
      "lesbian": 8837,
      "mexican": 8838,
      "utilitarian": 8839,
      "##giving": 8840,
      "turbulent": 8841,
      "infrastructure": 8842,
      "##communication": 8843,
      "unattractive": 8844,
      "february": 8845,
      "aa": 8846,
      "bid": 8847,
      "bench": 8848,
      "fp": 8849,
      "før": 8850,
      "næ": 8851,
      "pry": 8852,
      "tad": 8853,
      "##het": 8854,
      "##gment": 8855,
      "##gian": 8856,
      "##yme": 8857,
      "##inctive": 8858,
      "##tian": 8859,
      "##tional": 8860,
      "##opular": 8861,
      "stun": 8862,
      "streak": 8863,
      "##rion": 8864,
      "##ride": 8865,
      "lobby": 8866,
      "##gedy": 8867,
      "goat": 8868,
      "shred": 8869,
      "shatter": 8870,
      "##urer": 8871,
      "precon": 8872,
      "baffle": 8873,
      "sige": 8874,
      "adole": 8875,
      "leak": 8876,
      "##astroph": 8877,
      "rescue": 8878,
      "##berry": 8879,
      "tragedy": 8880,
      "param": 8881,
      "scand": 8882,
      "endear": 8883,
      "paci": 8884,
      "##entile": 8885,
      "clay": 8886,
      "blink": 8887,
      "corp": 8888,
      "dras": 8889,
      "bucket": 8890,
      "editor": 8891,
      "afaik": 8892,
      "trilogy": 8893,
      "brainwash": 8894,
      "##iac": 8895,
      "approxim": 8896,
      "lightly": 8897,
      "heartbreak": 8898,
      "behold": 8899,
      "frat": 8900,
      "explosion": 8901,
      "deadp": 8902,
      "downright": 8903,
      "calmly": 8904,
      "percentile": 8905,
      "##rooms": 8906,
      "radi": 8907,
      "banana": 8908,
      "turtle": 8909,
      "inherit": 8910,
      "accessible": 8911,
      "exceptionally": 8912,
      "booze": 8913,
      "integration": 8914,
      "academia": 8915,
      "nationalism": 8916,
      "##tility": 8917,
      "fierce": 8918,
      "neighbour": 8919,
      "halluc": 8920,
      "dedication": 8921,
      "lenhy": 8922,
      "conscience": 8923,
      "sanity": 8924,
      "betrayal": 8925,
      "cooperation": 8926,
      "hypocrite": 8927,
      "scotland": 8928,
      "harassment": 8929,
      "##lablablablablablablablab": 8930,
      "monogamous": 8931,
      "whisper": 8932,
      "liquid": 8933,
      "stadig": 8934,
      "fifth": 8935,
      "marijuana": 8936,
      "extrapolate": 8937,
      "golf": 8938,
      "taylor": 8939,
      "whichever": 8940,
      "wavelenh": 8941,
      "adolesc": 8942,
      "byp": 8943,
      "coca": 8944,
      "dab": 8945,
      "dash": 8946,
      "ect": 8947,
      "eks": 8948,
      "fart": 8949,
      "gently": 8950,
      "loo": 8951,
      "mant": 8952,
      "ops": 8953,
      "render": 8954,
      "tue": 8955,
      "vo": 8956,
      "vap": 8957,
      "##wacky": 8958,
      "##kable": 8959,
      "revis": 8960,
      "##ped": 8961,
      "##pport": 8962,
      "shave": 8963,
      "bail": 8964,
      "##udge": 8965,
      "##udover": 8966,
      "underground": 8967,
      "infx": 8968,
      "##ago": 8969,
      "desirable": 8970,
      "badge": 8971,
      "backpack": 8972,
      "constitute": 8973,
      "##lihood": 8974,
      "attentive": 8975,
      "submission": 8976,
      "heartless": 8977,
      "marker": 8978,
      "flere": 8979,
      "prescri": 8980,
      "refute": 8981,
      "particle": 8982,
      "patron": 8983,
      "beginner": 8984,
      "accountable": 8985,
      "catastroph": 8986,
      "downvoting": 8987,
      "magically": 8988,
      "elephant": 8989,
      "dumbass": 8990,
      "strenhen": 8991,
      "epiph": 8992,
      "pencil": 8993,
      "##rumble": 8994,
      "andet": 8995,
      "undes": 8996,
      "unpopular": 8997,
      "apologise": 8998,
      "bluntly": 8999,
      "embarrassment": 9000,
      "codepend": 9001,
      "utop": 9002,
      "cashier": 9003,
      "fortunate": 9004,
      "bundle": 9005,
      "innovation": 9006,
      "lenin": 9007,
      "tailor": 9008,
      "uninterested": 9009,
      "rapidly": 9010,
      "kalo": 9011,
      "python": 9012,
      "overreact": 9013,
      "summarize": 9014,
      "endeavor": 9015,
      "jabberwacky": 9016,
      "epiphany": 9017,
      "by": 9018,
      "cd": 9019,
      "dru": 9020,
      "girly": 9021,
      "jet": 9022,
      "kitty": 9023,
      "linger": 9024,
      "ml": 9025,
      "mcd": 9026,
      "rn": 9027,
      "rice": 9028,
      "tee": 9029,
      "tjs": 9030,
      "##iased": 9031,
      "##han": 9032,
      "##you": 9033,
      "##dan": 9034,
      "##kker": 9035,
      "##itory": 9036,
      "thir": 9037,
      "thunder": 9038,
      "thirty": 9039,
      "##ssen": 9040,
      "likelihood": 9041,
      "goth": 9042,
      "poetic": 9043,
      "chic": 9044,
      "enxps": 9045,
      "comfy": 9046,
      "mega": 9047,
      "##olish": 9048,
      "##urg": 9049,
      "##ustice": 9050,
      "exper": 9051,
      "soap": 9052,
      "quan": 9053,
      "##ptor": 9054,
      "mindre": 9055,
      "endlessly": 9056,
      "instinctive": 9057,
      "insued": 9058,
      "descriptive": 9059,
      "outta": 9060,
      "outlier": 9061,
      "colon": 9062,
      "discard": 9063,
      "cub": 9064,
      "miracle": 9065,
      "august": 9066,
      "uniform": 9067,
      "sexism": 9068,
      "hella": 9069,
      "foremost": 9070,
      "welp": 9071,
      "achie": 9072,
      "subjectively": 9073,
      "wallow": 9074,
      "admirable": 9075,
      "derudover": 9076,
      "employment": 9077,
      "norway": 9078,
      "harshly": 9079,
      "nationalist": 9080,
      "hallow": 9081,
      "skepticism": 9082,
      "willingly": 9083,
      "unbiased": 9084,
      "certify": 9085,
      "masculinity": 9086,
      "injustice": 9087,
      "ixxj": 9088,
      "assistance": 9089,
      "animation": 9090,
      "aspire": 9091,
      "cherry": 9092,
      "ambivert": 9093,
      "sequence": 9094,
      "rhetoric": 9095,
      "savage": 9096,
      "unemployed": 9097,
      "kommer": 9098,
      "intoler": 9099,
      "mediocre": 9100,
      "juga": 9101,
      "tantrum": 9102,
      "xyz": 9103,
      "drastically": 9104,
      "revisit": 9105,
      "akin": 9106,
      "dork": 9107,
      "frown": 9108,
      "iam": 9109,
      "rally": 9110,
      "rud": 9111,
      "sr": 9112,
      "xp": 9113,
      "yah": 9114,
      "##uss": 9115,
      "##kring": 9116,
      "redu": 9117,
      "rede": 9118,
      "##rie": 9119,
      "deck": 9120,
      "pepp": 9121,
      "##endar": 9122,
      "##anted": 9123,
      "gotch": 9124,
      "ned": 9125,
      "neur": 9126,
      "##ciative": 9127,
      "disson": 9128,
      "predom": 9129,
      "workah": 9130,
      "interior": 9131,
      "spd": 9132,
      "##umably": 9133,
      "wholly": 9134,
      "quant": 9135,
      "suburb": 9136,
[...]
