{
  "version": "1.0",
  "truncation": null,
  "padding": null,
  "added_tokens": [
    {
      "id": 0,
      "content": "__pad__",
      "single_word": false,
      "lstrip": false,
      "rstrip": false,
      "normalized": false,
      "special": true
    },
    {
      "id": 1,
      "content": "__url__",
      "single_word": false,
      "lstrip": false,
      "rstrip": false,
      "normalized": false,
      "special": true
    },
    {
      "id": 2,
      "content": "__sep__",
      "single_word": false,
      "lstrip": false,
      "rstrip": false,
      "normalized": false,
      "special": true
    },
    {
      "id": 3,
      "content": "__tar__",
      "single_word": false,
      "lstrip": false,
      "rstrip": false,
      "normalized": false,
      "special": true
    },
    {
      "id": 4,
      "content": "__unk__",
      "single_word": false,
      "lstrip": false,
      "rstrip": false,
      "normalized": false,
      "special": true
    }
  ],
  "normalizer": {
    "type": "BertNormalizer",
    "clean_text": true,
    "handle_chinese_chars": true,
    "strip_accents": null,
    "lowercase": true
  },
  "pre_tokenizer": {
    "type": "BertPreTokenizer"
  },
  "post_processor": null,
  "decoder": null,
  "model": {
    "type": "WordPiece",
    "unk_token": "__unk__",
    "continuing_subword_prefix": "##",
    "max_input_chars_per_word": 100,
    "vocab": {
      "__pad__": 0,
      "__url__": 1,
      "__sep__": 2,
      "__tar__": 3,
      "__unk__": 4,
      "_": 5,
      "a": 6,
      "b": 7,
      "c": 8,
      "d": 9,
      "e": 10,
      "f": 11,
      "g": 12,
      "h": 13,
      "i": 14,
      "j": 15,
      "k": 16,
      "l": 17,
      "m": 18,
      "n": 19,
      "o": 20,
      "p": 21,
      "q": 22,
      "r": 23,
      "s": 24,
      "t": 25,
      "u": 26,
      "v": 27,
      "w": 28,
      "x": 29,
      "y": 30,
      "z": 31,
      "²": 32,
      "³": 33,
      "µ": 34,
      "º": 35,
      "½": 36,
      "ß": 37,
      "æ": 38,
      "ð": 39,
      "ø": 40,
      "þ": 41,
      "ħ": 42,
      "ı": 43,
      "ł": 44,
      "ŋ": 45,
      "œ": 46,
      "ŧ": 47,
      "ƨ": 48,
      "ǝ": 49,
      "ə": 50,
      "ɛ": 51,
      "ɪ": 52,
      "ʁ": 53,
      "ʃ": 54,
      "ʊ": 55,
      "ʌ": 56,
      "ʖ": 57,
      "ʰ": 58,
      "ʳ": 59,
      "ʷ": 60,
      "ˈ": 61,
      "ˌ": 62,
      "ː": 63,
      "ˡ": 64,
      "ˢ": 65,
      "α": 66,
      "β": 67,
      "γ": 68,
      "δ": 69,
      "ε": 70,
      "η": 71,
      "θ": 72,
      "ι": 73,
      "λ": 74,
      "μ": 75,
      "ο": 76,
      "π": 77,
      "ρ": 78,
      "ς": 79,
      "σ": 80,
      "τ": 81,
      "υ": 82,
      "χ": 83,
      "ω": 84,
      "а": 85,
      "б": 86,
      "в": 87,
      "г": 88,
      "д": 89,
      "е": 90,
      "ж": 91,
      "з": 92,
      "и": 93,
      "к": 94,
      "л": 95,
      "м": 96,
      "н": 97,
      "о": 98,
      "п": 99,
      "р": 100,
      "с": 101,
      "т": 102,
      "у": 103,
      "х": 104,
      "ч": 105,
      "ш": 106,
      "щ": 107,
      "ъ": 108,
      "ы": 109,
      "ь": 110,
      "э": 111,
      "ю": 112,
      "я": 113,
      "ح": 114,
      "د": 115,
      "ل": 116,
      "م": 117,
      "ڡ": 118,
      "ಠ": 119,
      "ಥ": 120,
      "ง": 121,
      "ว": 122,
      "ຈ": 123,
      "ლ": 124,
      "ᄀ": 125,
      "ᄆ": 126,
      "ᄋ": 127,
      "ᅡ": 128,
      "ᅩ": 129,
      "ᅯ": 130,
      "ᐛ": 131,
      "ᕕ": 132,
      "ᕗ": 133,
      "ᕙ": 134,
      "ᘍ": 135,
      "ᘔ": 136,
      "ᚠ": 137,
      "ᛟ": 138,
      "ᴗ": 139,
      "ᴵ": 140,
      "ᵃ": 141,
      "ᵇ": 142,
      "ᵈ": 143,
      "ᵉ": 144,
      "ᵍ": 145,
      "ᵏ": 146,
      "ᵐ": 147,
      "ᵒ": 148,
      "ᵖ": 149,
      "ᵗ": 150,
      "ᵘ": 151,
      "ᵛ": 152,
      "ᶜ": 153,
      "ᶠ": 154,
      "ᶦ": 155,
      "ⁿ": 156,
      "々": 157,
      "あ": 158,
      "い": 159,
      "き": 160,
      "し": 161,
      "す": 162,
      "つ": 163,
      "な": 164,
      "に": 165,
      "の": 166,
      "は": 167,
      "ま": 168,
      "も": 169,
      "や": 170,
      "り": 171,
      "る": 172,
      "イ": 173,
      "カ": 174,
      "タ": 175,
      "ツ": 176,
      "テ": 177,
      "ト": 178,
      "ニ": 179,
      "ノ": 180,
      "ホ": 181,
      "ル": 182,
      "ロ": 183,
      "ヮ": 184,
      "ワ": 185,
      "ー": 186,
      "ヽ": 187,
      "ㅜ": 188,
      "ㅠ": 189,
      "一": 190,
      "三": 191,
      "下": 192,
      "不": 193,
      "东": 194,
      "丝": 195,
      "丢": 196,
      "个": 197,
      "中": 198,
      "为": 199,
      "乁": 200,
      "么": 201,
      "义": 202,
      "也": 203,
      "买": 204,
      "了": 205,
      "二": 206,
      "些": 207,
      "京": 208,
      "人": 209,
      "什": 210,
      "从": 211,
      "他": 212,
      "以": 213,
      "们": 214,
      "会": 215,
      "但": 216,
      "你": 217,
      "便": 218,
      "保": 219,
      "做": 220,
      "像": 221,
      "儿": 222,
      "其": 223,
      "出": 224,
      "刚": 225,
      "别": 226,
      "包": 227,
      "北": 228,
      "南": 229,
      "印": 230,
      "厅": 231,
      "去": 232,
      "又": 233,
      "叉": 234,
      "只": 235,
      "叫": 236,
      "可": 237,
      "台": 238,
      "吃": 239,
      "名": 240,
      "吗": 241,
      "吧": 242,
      "听": 243,
      "味": 244,
      "和": 245,
      "品": 246,
      "啊": 247,
      "喔": 248,
      "喜": 249,
      "嗯": 250,
      "四": 251,
      "国": 252,
      "國": 253,
      "在": 254,
      "地": 255,
      "城": 256,
      "外": 257,
      "多": 258,
      "夜": 259,
      "夢": 260,
      "大": 261,
      "天": 262,
      "太": 263,
      "好": 264,
      "如": 265,
      "妖": 266,
      "子": 267,
      "存": 268,
      "它": 269,
      "定": 270,
      "宜": 271,
      "实": 272,
      "家": 273,
      "对": 274,
      "小": 275,
      "就": 276,
      "尾": 277,
      "山": 278,
      "川": 279,
      "州": 280,
      "希": 281,
      "常": 282,
      "广": 283,
      "应": 284,
      "店": 285,
      "廉": 286,
      "开": 287,
      "当": 288,
      "彡": 289,
      "很": 290,
      "得": 291,
      "心": 292,
      "快": 293,
      "怕": 294,
      "恥": 295,
      "恶": 296,
      "悉": 297,
      "想": 298,
      "我": 299,
      "或": 300,
      "才": 301,
      "扬": 302,
      "拌": 303,
      "持": 304,
      "新": 305,
      "方": 306,
      "於": 307,
      "日": 308,
      "是": 309,
      "曰": 310,
      "更": 311,
      "最": 312,
      "有": 313,
      "望": 314,
      "来": 315,
      "松": 316,
      "极": 317,
      "枉": 318,
      "果": 319,
      "样": 320,
      "次": 321,
      "欢": 322,
      "比": 323,
      "没": 324,
      "深": 325,
      "湖": 326,
      "湾": 327,
      "炒": 328,
      "点": 329,
      "為": 330,
      "烧": 331,
      "然": 332,
      "熟": 333,
      "燒": 334,
      "特": 335,
      "生": 336,
      "用": 337,
      "的": 338,
      "益": 339,
      "真": 340,
      "石": 341,
      "礼": 342,
      "离": 343,
      "私": 344,
      "种": 345,
      "等": 346,
      "算": 347,
      "管": 348,
      "群": 349,
      "老": 350,
      "者": 351,
      "耻": 352,
      "肉": 353,
      "自": 354,
      "节": 355,
      "花": 356,
      "英": 357,
      "菜": 358,
      "蔽": 359,
      "虚": 360,
      "要": 361,
      "觉": 362,
      "解": 363,
      "試": 364,
      "誕": 365,
      "词": 366,
      "试": 367,
      "诚": 368,
      "话": 369,
      "该": 370,
      "说": 371,
      "读": 372,
      "谦": 373,
      "象": 374,
      "起": 375,
      "超": 376,
      "車": 377,
      "辱": 378,
      "过": 379,
      "近": 380,
      "还": 381,
      "这": 382,
      "进": 383,
      "远": 384,
      "连": 385,
      "逾": 386,
      "還": 387,
      "那": 388,
      "都": 389,
      "里": 390,
      "鍋": 391,
      "错": 392,
      "開": 393,
      "门": 394,
      "随": 395,
      "電": 396,
      "非": 397,
      "面": 398,
      "韓": 399,
      "韩": 400,
      "音": 401,
      "食": 402,
      "飯": 403,
      "餐": 404,
      "饭": 405,
      "饺": 406,
      "馆": 407,
      "馬": 408,
      "鸡": 409,
      "麵": 410,
      "麽": 411,
      "ａ": 412,
      "ｃ": 413,
      "ｄ": 414,
      "ｅ": 415,
      "ｆ": 416,
      "ｈ": 417,
      "ｉ": 418,
      "ｌ": 419,
      "ｍ": 420,
      "ｎ": 421,
      "ｏ": 422,
      "ｓ": 423,
      "ｔ": 424,
      "ｕ": 425,
      "ｖ": 426,
      "ｙ": 427,
      "ﾉ": 428,
      "ﾛ": 429,
      "ﾟ": 430,
      "##r": 431,
      "##a": 432,
      "##n": 433,
      "##g": 434,
      "##e": 435,
      "##t": 436,
      "##i": 437,
      "##c": 438,
      "##u": 439,
      "##b": 440,
      "##k": 441,
      "##y": 442,
      "##p": 443,
      "##o": 444,
      "##v": 445,
      "##d": 446,
      "##s": 447,
      "##h": 448,
      "##l": 449,
      "##m": 450,
      "##j": 451,
      "##f": 452,
      "##x": 453,
      "##ø": 454,
      "##w": 455,
      "##z": 456,
      "##q": 457,
      "##æ": 458,
      "##ß": 459,
      "##ｎ": 460,
      "##л": 461,
      "##я": 462,
      "##т": 463,
      "##ヮ": 464,
      "##ﾟ": 465,
      "##ы": 466,
      "##д": 467,
      "##а": 468,
      "##в": 469,
      "##ь": 470,
      "##ʳ": 471,
      "##ᶦ": 472,
      "##ᵖ": 473,
      "##ˡ": 474,
      "##ⁿ": 475,
      "##ᵍ": 476,
      "##ð": 477,
      "##ᵉ": 478,
      "##ˢ": 479,
      "##ᵒ": 480,
      "##о": 481,
      "##х": 482,
      "##е": 483,
      "##н": 484,
      "##ч": 485,
      "##υ": 486,
      "##τ": 487,
      "##ο": 488,
      "##ς": 489,
      "##ᵛ": 490,
      "##ᵗ": 491,
      "##р": 492,
      "##ᘍ": 493,
      "##ノ": 494,
      "##λ": 495,
      "##ｄ": 496,
      "##с": 497,
      "##ə": 498,
      "##ˈ": 499,
      "##²": 500,
      "##ᵘ": 501,
      "##ᶜ": 502,
      "##ᵐ": 503,
      "##ᵇ": 504,
      "##ł": 505,
      "##ಥ": 506,
      "##з": 507,
      "##ʰ": 508,
      "##ｅ": 509,
      "##ᶠ": 510,
      "##ʊ": 511,
      "##ʃ": 512,
      "##ɪ": 513,
      "##ｏ": 514,
      "##и": 515,
      "##π": 516,
      "##α": 517,
      "##θ": 518,
      "##ε": 519,
      "##ι": 520,
      "##あ": 521,
      "##い": 522,
      "##や": 523,
      "##ლ": 524,
      "##у": 525,
      "##г": 526,
      "##ｖ": 527,
      "##ρ": 528,
      "##п": 529,
      "##ъ": 530,
      "##м": 531,
      "##η": 532,
      "##γ": 533,
      "##ƨ": 534,
      "##β": 535,
      "##ｕ": 536,
      "##þ": 537,
      "##ː": 538,
      "##ａ": 539,
      "##ｙ": 540,
      "##ｍ": 541,
      "##ш": 542,
      "##ᵏ": 543,
      "##ᵃ": 544,
      "##ح": 545,
      "##م": 546,
      "##د": 547,
      "##к": 548,
      "##ຈ": 549,
      "##ل": 550,
      "##ᕗ": 551,
      "##ニ": 552,
      "##ツ": 553,
      "##ˌ": 554,
      "##ﾛ": 555,
      "##ㅜ": 556,
      "##σ": 557,
      "##ಠ": 558,
      "##ʁ": 559,
      "##ŋ": 560,
      "##ʷ": 561,
      "##б": 562,
      "##ю": 563,
      "##ħ": 564,
      "##ŧ": 565,
      "##щ": 566,
      "##ｈ": 567,
      "##ｉ": 568,
      "##ｓ": 569,
      "##ω": 570,
      "##ﾉ": 571,
      "##ɛ": 572,
      "##ᅩ": 573,
      "##ᄆ": 574,
      "##ᅡ": 575,
      "##ᄋ": 576,
      "##ᅯ": 577,
      "##ж": 578,
      "##き": 579,
      "##つ": 580,
      "##す": 581,
      "##る": 582,
      "##œ": 583,
      "##ʌ": 584,
      "##ワ": 585,
      "##の": 586,
      "##ｃ": 587,
      "##ー": 588,
      "##カ": 589,
      "##ル": 590,
      "##ま": 591,
      "##り": 592,
      "##に": 593,
      "##も": 594,
      "##タ": 595,
      "##イ": 596,
      "##ト": 597,
      "##な": 598,
      "##ᵈ": 599,
      "##er": 600,
      "##on": 601,
      "##in": 602,
      "##ar": 603,
      "##en": 604,
      "##al": 605,
      "##ti": 606,
      "##ly": 607,
      "##an": 608,
      "##le": 609,
      "##re": 610,
      "##st": 611,
      "##ou": 612,
      "##or": 613,
      "##it": 614,
      "##om": 615,
      "re": 616,
      "##at": 617,
      "##ke": 618,
      "th": 619,
      "##ay": 620,
      "##et": 621,
      "##el": 622,
      "##tion": 623,
      "##ve": 624,
      "##ce": 625,
      "##se": 626,
      "li": 627,
      "##ing": 628,
      "##ss": 629,
      "in": 630,
      "##ally": 631,
      "##ver": 632,
      "##op": 633,
      "##ic": 634,
      "##ow": 635,
      "##ent": 636,
      "##oo": 637,
      "##ee": 638,
      "##gh": 639,
      "st": 640,
      "tar": 641,
      "##ct": 642,
      "##ld": 643,
      "##ate": 644,
      "like": 645,
      "##ch": 646,
      "##ri": 647,
      "##ro": 648,
      "##ea": 649,
      "##me": 650,
      "##th": 651,
      "##ink": 652,
      "##ake": 653,
      "ex": 654,
      "al": 655,
      "de": 656,
      "##ome": 657,
      "think": 658,
      "##pe": 659,
      "##ra": 660,
      "lo": 661,
      "##id": 662,
      "pe": 663,
      "##is": 664,
      "##ople": 665,
      "people": 666,
      "con": 667,
      "fe": 668,
      "##ation": 669,
      "##end": 670,
      "get": 671,
      "##ne": 672,
      "##ant": 673,
      "##ge": 674,
      "##nd": 675,
      "su": 676,
      "##ould": 677,
      "##one": 678,
      "##ad": 679,
      "an": 680,
      "int": 681,
      "##ind": 682,
      "##igh": 683,
      "go": 684,
      "##ck": 685,
      "##ue": 686,
      "ti": 687,
      "##ers": 688,
      "wor": 689,
      "ne": 690,
      "##un": 691,
      "##ble": 692,
      "##ell": 693,
      "##ff": 694,
      "po": 695,
      "##il": 696,
      "##now": 697,
      "##ci": 698,
      "see": 699,
      "ch": 700,
      "##as": 701,
      "know": 702,
      "##ry": 703,
      "make": 704,
      "##ir": 705,
      "##ite": 706,
      "pro": 707,
      "en": 708,
      "##ood": 709,
      "##mp": 710,
      "thing": 711,
      "##pp": 712,
      "feel": 713,
      "com": 714,
      "##ul": 715,
      "##ity": 716,
      "##ut": 717,
      "one": 718,
      "##ight": 719,
      "say": 720,
      "##and": 721,
      "me": 722,
      "##ol": 723,
      "would": 724,
      "##est": 725,
      "time": 726,
      "mu": 727,
      "sh": 728,
      "good": 729,
      "really": 730,
      "##ear": 731,
      "di": 732,
      "##ur": 733,
      "##la": 734,
      "ever": 735,
      "##ough": 736,
      "##ype": 737,
      "##eth": 738,
      "pers": 739,
      "some": 740,
      "##tive": 741,
      "##ion": 742,
      "fa": 743,
      "pre": 744,
      "##ine": 745,
      "##ong": 746,
      "##ction": 747,
      "##us": 748,
      "want": 749,
      "##art": 750,
      "##ard": 751,
      "##ment": 752,
      "##ence": 753,
      "person": 754,
      "type": 755,
      "##ort": 756,
      "##ive": 757,
      "ev": 758,
      "##tic": 759,
      "way": 760,
      "##ot": 761,
      "##riend": 762,
      "every": 763,
      "##ig": 764,
      "##ure": 765,
      "##ous": 766,
      "##are": 767,
      "##ually": 768,
      "##tt": 769,
      "ar": 770,
      "##so": 771,
      "ha": 772,
      "##ie": 773,
      "##way": 774,
      "##fe": 775,
      "work": 776,
      "##ound": 777,
      "inter": 778,
      "##ook": 779,
      "also": 780,
      "un": 781,
      "much": 782,
      "friend": 783,
      "##thing": 784,
      "som": 785,
      "sp": 786,
      "##mo": 787,
      "##ide": 788,
      "exp": 789,
      "se": 790,
      "someth": 791,
      "something": 792,
      "fun": 793,
      "any": 794,
      "try": 795,
      "##eed": 796,
      "##her": 797,
      "take": 798,
      "use": 799,
      "mo": 800,
      "##ist": 801,
      "well": 802,
      "even": 803,
      "find": 804,
      "##eri": 805,
      "##all": 806,
      "##ru": 807,
      "lot": 808,
      "act": 809,
      "##ip": 810,
      "ba": 811,
      "be": 812,
      "man": 813,
      "##og": 814,
      "##alk": 815,
      "though": 816,
      "rel": 817,
      "##sh": 818,
      "##int": 819,
      "need": 820,
      "comp": 821,
      "##um": 822,
      "love": 823,
      "##ab": 824,
      "##ud": 825,
      "si": 826,
      "##ll": 827,
      "mean": 828,
      "##ze": 829,
      "may": 830,
      "so": 831,
      "wh": 832,
      "pl": 833,
      "ac": 834,
      "diff": 835,
      "ad": 836,
      "##ree": 837,
      "##ha": 838,
      "##ps": 839,
      "id": 840,
      "##be": 841,
      "lea": 842,
      "come": 843,
      "someone": 844,
      "##ast": 845,
      "sti": 846,
      "look": 847,
      "dis": 848,
      "talk": 849,
      "##ways": 850,
      "##ain": 851,
      "could": 852,
      "life": 853,
      "##able": 854,
      "##nder": 855,
      "qu": 856,
      "##ter": 857,
      "##age": 858,
      "##te": 859,
      "##ice": 860,
      "##ress": 861,
      "##our": 862,
      "always": 863,
      "##es": 864,
      "res": 865,
      "##rea": 866,
      "differ": 867,
      "##ance": 868,
      "under": 869,
      "inf": 870,
      "give": 871,
      "op": 872,
      "seem": 873,
      "##ful": 874,
      "##ther": 875,
      "le": 876,
      "fi": 877,
      "happ": 878,
      "hel": 879,
      "##lo": 880,
      "help": 881,
      "right": 882,
      "##stand": 883,
      "function": 884,
      "##orm": 885,
      "never": 886,
      "sen": 887,
      "wr": 888,
      "as": 889,
      "actually": 890,
      "##act": 891,
      "te": 892,
      "soci": 893,
      "real": 894,
      "imp": 895,
      "bo": 896,
      "no": 897,
      "interest": 898,
      "us": 899,
      "part": 900,
      "##oun": 901,
      "##js": 902,
      "##tty": 903,
      "##ag": 904,
      "pretty": 905,
      "understand": 906,
      "des": 907,
      "##eep": 908,
      "##eah": 909,
      "read": 910,
      "ca": 911,
      "tell": 912,
      "per": 913,
      "sure": 914,
      "def": 915,
      "still": 916,
      "##ably": 917,
      "##ize": 918,
      "##ship": 919,
      "##ank": 920,
      "year": 921,
      "##rover": 922,
      "##ory": 923,
      "##reat": 924,
      "kind": 925,
      "ext": 926,
      "##di": 927,
      "##der": 928,
      "im": 929,
      "##ft": 930,
      "gr": 931,
      "##ish": 932,
      "##ual": 933,
      "point": 934,
      "ag": 935,
      "##ool": 936,
      "gen": 937,
      "day": 938,
      "##ick": 939,
      "##ead": 940,
      "prob": 941,
      "app": 942,
      "##ily": 943,
      "gu": 944,
      "##ical": 945,
      "bad": 946,
      "tr": 947,
      "different": 948,
      "probably": 949,
      "emo": 950,
      "lit": 951,
      "fir": 952,
      "back": 953,
      "cons": 954,
      "##ber": 955,
      "##tle": 956,
      "ob": 957,
      "##ange": 958,
      "jo": 959,
      "emotion": 960,
      "##od": 961,
      "##ary": 962,
      "care": 963,
      "##ame": 964,
      "hard": 965,
      "first": 966,
      "##peci": 967,
      "##li": 968,
      "start": 969,
      "around": 970,
      "cont": 971,
      "stu": 972,
      "might": 973,
      "relation": 974,
      "##pt": 975,
      "long": 976,
      "post": 977,
      "##thers": 978,
      "##uck": 979,
      "others": 980,
      "anything": 981,
      "best": 982,
      "##time": 983,
      "personal": 984,
      "##ill": 985,
      "thank": 986,
      "experi": 987,
      "##ith": 988,
      "##out": 989,
      "mat": 990,
      "for": 991,
      "tra": 992,
      "##oy": 993,
      "##ctive": 994,
      "maybe": 995,
      "##vel": 996,
      "##cess": 997,
      "##stion": 998,
      "str": 999,
      "##ore": 1000,
      "relationship": 1001,
      "par": 1002,
      "que": 1003,
      "comm": 1004,
      "idea": 1005,
      "tw": 1006,
      "ask": 1007,
      "att": 1008,
      "##vi": 1009,
      "##ui": 1010,
      "sub": 1011,
      "ab": 1012,
      "##low": 1013,
      "let": 1014,
      "##come": 1015,
      "many": 1016,
      "experience": 1017,
      "mind": 1018,
      "##ason": 1019,
      "##read": 1020,
      "sa": 1021,
      "sc": 1022,
      "bel": 1023,
      "la": 1024,
      "ph": 1025,
      "##pect": 1026,
      "world": 1027,
      "question": 1028,
      "high": 1029,
      "##blem": 1030,
      "sound": 1031,
      "sometime": 1032,
      "aw": 1033,
      "reason": 1034,
      "problem": 1035,
      "new": 1036,
      "##ssi": 1037,
      "##less": 1038,
      "##use": 1039,
      "sm": 1040,
      "##je": 1041,
      "sit": 1042,
      "sometimes": 1043,
      "live": 1044,
      "end": 1045,
      "with": 1046,
      "##ise": 1047,
      "##ince": 1048,
      "am": 1049,
      "defin": 1050,
      "##ang": 1051,
      "pa": 1052,
      "##erm": 1053,
      "keep": 1054,
      "yeah": 1055,
      "##rovert": 1056,
      "##ically": 1057,
      "yes": 1058,
      "great": 1059,
      "conf": 1060,
      "sense": 1061,
      "##oc": 1062,
      "gener": 1063,
      "lear": 1064,
      "learn": 1065,
      "eas": 1066,
      "belie": 1067,
      "##si": 1068,
      "play": 1069,
      "usually": 1070,
      "social": 1071,
      "##dit": 1072,
      "lol": 1073,
      "##am": 1074,
      "##ert": 1075,
      "everyone": 1076,
      "es": 1077,
      "dep": 1078,
      "##cri": 1079,
      "happen": 1080,
      "little": 1081,
      "##elf": 1082,
      "ass": 1083,
      "sch": 1084,
      "##ather": 1085,
      "##con": 1086,
      "##ute": 1087,
      "change": 1088,
      "mb": 1089,
      "tend": 1090,
      "tru": 1091,
      "ni": 1092,
      "val": 1093,
      "dec": 1094,
      "ma": 1095,
      "##enti": 1096,
      "##ole": 1097,
      "##ount": 1098,
      "guy": 1099,
      "mbti": 1100,
      "acc": 1101,
      "##mple": 1102,
      "two": 1103,
      "clo": 1104,
      "##ose": 1105,
      "el": 1106,
      "self": 1107,
      "put": 1108,
      "bite": 1109,
      "pr": 1110,
      "everything": 1111,
      "since": 1112,
      "##ope": 1113,
      "##ften": 1114,
      "##ath": 1115,
      "gue": 1116,
      "##ep": 1117,
      "often": 1118,
      "stuff": 1119,
      "##oup": 1120,
      "co": 1121,
      "##ether": 1122,
      "##du": 1123,
      "rec": 1124,
      "##im": 1125,
      "hear": 1126,
      "enough": 1127,
      "det": 1128,
      "##cept": 1129,
      "##xt": 1130,
      "##lace": 1131,
      "##itely": 1132,
      "##ither": 1133,
      "guess": 1134,
      "fact": 1135,
      "##ention": 1136,
      "test": 1137,
      "##em": 1138,
      "##atch": 1139,
      "##ict": 1140,
      "##fer": 1141,
      "shit": 1142,
      "##ently": 1143,
      "inc": 1144,
      "definitely": 1145,
      "##vers": 1146,
      "inst": 1147,
      "else": 1148,
      "list": 1149,
      "comple": 1150,
      "fuck": 1151,
      "show": 1152,
      "ins": 1153,
      "##ness": 1154,
      "descri": 1155,
      "##ever": 1156,
      "##uation": 1157,
      "or": 1158,
      "write": 1159,
      "##os": 1160,
      "##ility": 1161,
      "##pon": 1162,
      "agree": 1163,
      "##eak": 1164,
      "believe": 1165,
      "we": 1166,
      "##stly": 1167,
      "##ner": 1168,
      "big": 1169,
      "introvert": 1170,
      "##arly": 1171,
      "##ism": 1172,
      "word": 1173,
      "et": 1174,
      "without": 1175,
      "##per": 1176,
      "##ider": 1177,
      "##joy": 1178,
      "possi": 1179,
      "wrong": 1180,
      "enjoy": 1181,
      "become": 1182,
      "##ude": 1183,
      "least": 1184,
      "close": 1185,
      "school": 1186,
      "out": 1187,
      "##other": 1188,
      "##fy": 1189,
      "##ere": 1190,
      "place": 1191,
      "col": 1192,
      "ro": 1193,
      "hum": 1194,
      "situation": 1195,
      "dom": 1196,
      "##wer": 1197,
      "game": 1198,
      "either": 1199,
      "##de": 1200,
      "personality": 1201,
      "cla": 1202,
      "##ote": 1203,
      "##ap": 1204,
      "another": 1205,
      "##ative": 1206,
      "meet": 1207,
      "ans": 1208,
      "##fic": 1209,
      "call": 1210,
      "##ously": 1211,
      "##reak": 1212,
      "over": 1213,
      "hone": 1214,
      "sy": 1215,
      "answer": 1216,
      "br": 1217,
      "supp": 1218,
      "##ari": 1219,
      "##fort": 1220,
      "##ssion": 1221,
      "ho": 1222,
      "##tiv": 1223,
      "haha": 1224,
      "##cy": 1225,
      "##ale": 1226,
      "base": 1227,
      "leave": 1228,
      "easy": 1229,
      "mom": 1230,
      "consider": 1231,
      "##oman": 1232,
      "##ign": 1233,
      "##mber": 1234,
      "etc": 1235,
      "hand": 1236,
      "oh": 1237,
      "##tice": 1238,
      "rep": 1239,
      "ok": 1240,
      "job": 1241,
      "rather": 1242,
      "value": 1243,
      "nothing": 1244,
      "##urn": 1245,
      "eff": 1246,
      "##ach": 1247,
      "exa": 1248,
      "##olog": 1249,
      "true": 1250,
      "bas": 1251,
      "##rect": 1252,
      "cert": 1253,
      "cl": 1254,
      "complete": 1255,
      "the": 1256,
      "example": 1257,
      "##lain": 1258,
      "last": 1259,
      "disc": 1260,
      "cu": 1261,
      "quite": 1262,
      "speci": 1263,
      "far": 1264,
      "cle": 1265,
      "win": 1266,
      "##ption": 1267,
      "sk": 1268,
      "log": 1269,
      "mus": 1270,
      "anyone": 1271,
      "##mil": 1272,
      "bl": 1273,
      "ap": 1274,
      "certain": 1275,
      "able": 1276,
      "nice": 1277,
      "##ull": 1278,
      "plan": 1279,
      "##ys": 1280,
      "##mm": 1281,
      "happy": 1282,
      "exact": 1283,
      "relate": 1284,
      "reg": 1285,
      "open": 1286,
      "mon": 1287,
      "##irl": 1288,
      "respon": 1289,
      "nat": 1290,
      "##ject": 1291,
      "adv": 1292,
      "##ety": 1293,
      "##pecially": 1294,
      "especially": 1295,
      "char": 1296,
      "##ail": 1297,
      "mi": 1298,
      "pri": 1299,
      "##ene": 1300,
      "##ately": 1301,
      "state": 1302,
      "head": 1303,
      "girl": 1304,
      "tea": 1305,
      "strong": 1306,
      "old": 1307,
      "cor": 1308,
      "he": 1309,
      "move": 1310,
      "off": 1311,
      "hate": 1312,
      "arg": 1313,
      "break": 1314,
      "##yp": 1315,
      "how": 1316,
      "ru": 1317,
      "##ase": 1318,
      "sur": 1319,
      "ah": 1320,
      "mar": 1321,
      "top": 1322,
      "##ward": 1323,
      "convers": 1324,
      "prefer": 1325,
      "##eek": 1326,
      "watch": 1327,
      "however": 1328,
      "dra": 1329,
      "##most": 1330,
      "conversation": 1331,
      "##ocus": 1332,
      "conc": 1333,
      "##qu": 1334,
      "gra": 1335,
      "##tical": 1336,
      "sw": 1337,
      "likely": 1338,
      "focus": 1339,
      "##iew": 1340,
      "##ird": 1341,
      "##ild": 1342,
      "stop": 1343,
      "group": 1344,
      "import": 1345,
      "almost": 1346,
      "##ack": 1347,
      "reme": 1348,
      "##lic": 1349,
      "dr": 1350,
      "away": 1351,
      "##ssue": 1352,
      "au": 1353,
      "general": 1354,
      "opp": 1355,
      "issue": 1356,
      "##ire": 1357,
      "fam": 1358,
      "remember": 1359,
      "simil": 1360,
      "matter": 1361,
      "human": 1362,
      "##line": 1363,
      "week": 1364,
      "commun": 1365,
      "spend": 1366,
      "alone": 1367,
      "share": 1368,
      "listen": 1369,
      "##gg": 1370,
      "music": 1371,
      "side": 1372,
      "set": 1373,
      "stud": 1374,
      "hu": 1375,
      "hope": 1376,
      "alread": 1377,
      "jud": 1378,
      "already": 1379,
      "fin": 1380,
      "sort": 1381,
      "speak": 1382,
      "whole": 1383,
      "che": 1384,
      "cour": 1385,
      "cra": 1386,
      "##velop": 1387,
      "date": 1388,
      "##ann": 1389,
      "##ty": 1390,
      "min": 1391,
      "class": 1392,
      "fol": 1393,
      "sol": 1394,
      "add": 1395,
      "##ed": 1396,
      "book": 1397,
      "bu": 1398,
      "important": 1399,
      "tow": 1400,
      "seri": 1401,
      "comment": 1402,
      "##sy": 1403,
      "exactly": 1404,
      "case": 1405,
      "##ream": 1406,
      "##ni": 1407,
      "similar": 1408,
      "develop": 1409,
      "explain": 1410,
      "family": 1411,
      "exc": 1412,
      "##ision": 1413,
      "deal": 1414,
      "completely": 1415,
      "##inion": 1416,
      "##row": 1417,
      "fig": 1418,
      "whate": 1419,
      "fl": 1420,
      "##ush": 1421,
      "emotional": 1422,
      "opinion": 1423,
      "##ogether": 1424,
      "ra": 1425,
      "free": 1426,
      "face": 1427,
      "##fps": 1428,
      "whatever": 1429,
      "##ma": 1430,
      "cre": 1431,
      "past": 1432,
      "##ern": 1433,
      "deep": 1434,
      "##ile": 1435,
      "##vor": 1436,
      "intui": 1437,
      "##ody": 1438,
      "figure": 1439,
      "emp": 1440,
      "stand": 1441,
      "sor": 1442,
      "##rive": 1443,
      "eng": 1444,
      "intern": 1445,
      "inform": 1446,
      "realize": 1447,
      "super": 1448,
      "late": 1449,
      "##gra": 1450,
      "pres": 1451,
      "course": 1452,
      "edit": 1453,
      "ent": 1454,
      "together": 1455,
      "count": 1456,
      "turn": 1457,
      "home": 1458,
      "wa": 1459,
      "on": 1460,
      "beha": 1461,
      "woman": 1462,
      "##ght": 1463,
      "##side": 1464,
      "##here": 1465,
      "abs": 1466,
      "form": 1467,
      "##gin": 1468,
      "god": 1469,
      "sorry": 1470,
      "##cond": 1471,
      "ple": 1472,
      "##ord": 1473,
      "##ron": 1474,
      "##ens": 1475,
      "##ular": 1476,
      "##ression": 1477,
      "is": 1478,
      "second": 1479,
      "##lect": 1480,
      "describe": 1481,
      "dist": 1482,
      "small": 1483,
      "instead": 1484,
      "##body": 1485,
      "cur": 1486,
      "depend": 1487,
      "av": 1488,
      "inv": 1489,
      "##ume": 1490,
      "run": 1491,
      "##rol": 1492,
      "##ub": 1493,
      "thread": 1494,
      "child": 1495,
      "lead": 1496,
      "##xi": 1497,
      "##iness": 1498,
      "lose": 1499,
      "thought": 1500,
      "fit": 1501,
      "##onder": 1502,
      "##stem": 1503,
      "term": 1504,
      "expect": 1505,
      "##get": 1506,
      "notice": 1507,
      "conne": 1508,
      "##urt": 1509,
      "tot": 1510,
      "system": 1511,
      "uni": 1512,
      "moment": 1513,
      "af": 1514,
      "ind": 1515,
      "grow": 1516,
      "cri": 1517,
      "##gy": 1518,
      "kid": 1519,
      "yet": 1520,
      "har": 1521,
      "process": 1522,
      "sex": 1523,
      "possible": 1524,
      "exist": 1525,
      "along": 1526,
      "##zy": 1527,
      "bra": 1528,
      "weird": 1529,
      "##ye": 1530,
      "cause": 1531,
      "##ted": 1532,
      "user": 1533,
      "comfort": 1534,
      "##ract": 1535,
      "level": 1536,
      "month": 1537,
      "##action": 1538,
      "##istic": 1539,
      "follow": 1540,
      "pra": 1541,
      "##iz": 1542,
      "##dy": 1543,
      "information": 1544,
      "wonder": 1545,
      "posi": 1546,
      "cool": 1547,
      "mostly": 1548,
      "order": 1549,
      "phys": 1550,
      "view": 1551,
      "extre": 1552,
      "##erve": 1553,
      "##ciate": 1554,
      "toward": 1555,
      "##any": 1556,
      "mor": 1557,
      "perfe": 1558,
      "norm": 1559,
      "##ret": 1560,
      "const": 1561,
      "er": 1562,
      "pur": 1563,
      "indi": 1564,
      "bring": 1565,
      "##dge": 1566,
      "##mit": 1567,
      "##ph": 1568,
      "vi": 1569,
      "bla": 1570,
      "##fjs": 1571,
      "hour": 1572,
      "personally": 1573,
      "ter": 1574,
      "##oid": 1575,
      "##ality": 1576,
      "##ower": 1577,
      "##ny": 1578,
      "obvi": 1579,
      "enti": 1580,
      "charact": 1581,
      "war": 1582,
      "extreme": 1583,
      "##ument": 1584,
      "car": 1585,
      "##tis": 1586,
      "##erv": 1587,
      "perce": 1588,
      "##bly": 1589,
      "vide": 1590,
      "imag": 1591,
      "##ouse": 1592,
      "red": 1593,
      "event": 1594,
      "##cc": 1595,
      "basically": 1596,
      "psy": 1597,
      "##oice": 1598,
      "##lish": 1599,
      "colle": 1600,
      "behavi": 1601,
      "##vid": 1602,
      "whether": 1603,
      "common": 1604,
      "theory": 1605,
      "pick": 1606,
      "difference": 1607,
      "judge": 1608,
      "stay": 1609,
      "##eal": 1610,
      "accept": 1611,
      "honestly": 1612,
      "psych": 1613,
      "##ology": 1614,
      "##oose": 1615,
      "story": 1616,
      "character": 1617,
      "##ect": 1618,
      "bi": 1619,
      "control": 1620,
      "##oney": 1621,
      "necess": 1622,
      "##tern": 1623,
      "video": 1624,
      "teach": 1625,
      "ang": 1626,
      "##erior": 1627,
      "rem": 1628,
      "wish": 1629,
      "##oot": 1630,
      "action": 1631,
      "money": 1632,
      "aff": 1633,
      "stru": 1634,
      "pay": 1635,
      "ref": 1636,
      "curr": 1637,
      "next": 1638,
      "##bility": 1639,
      "neg": 1640,
      "fair": 1641,
      "simp": 1642,
      "party": 1643,
      "sci": 1644,
      "sens": 1645,
      "generally": 1646,
      "unless": 1647,
      "bus": 1648,
      "ment": 1649,
      "anal": 1650,
      "partic": 1651,
      "##vie": 1652,
      "##ash": 1653,
      "rest": 1654,
      "hold": 1655,
      "##ution": 1656,
      "favor": 1657,
      "##day": 1658,
      "##icu": 1659,
      "bore": 1660,
      "description": 1661,
      "low": 1662,
      "ann": 1663,
      "decide": 1664,
      "bro": 1665,
      "##ark": 1666,
      "hurt": 1667,
      "study": 1668,
      "fut": 1669,
      "hell": 1670,
      "eye": 1671,
      "movie": 1672,
      "domin": 1673,
      "okay": 1674,
      "drive": 1675,
      "sing": 1676,
      "perfect": 1677,
      "natur": 1678,
      "entire": 1679,
      "must": 1680,
      "men": 1681,
      "##ency": 1682,
      "worth": 1683,
      "mess": 1684,
      "##ace": 1685,
      "##tivity": 1686,
      "advice": 1687,
      "##olute": 1688,
      "stress": 1689,
      "anxi": 1690,
      "do": 1691,
      "night": 1692,
      "germ": 1693,
      "pop": 1694,
      "##gn": 1695,
      "future": 1696,
      "prac": 1697,
      "argument": 1698,
      "##ense": 1699,
      "##ici": 1700,
      "trust": 1701,
      "##gram": 1702,
      "##pective": 1703,
      "create": 1704,
      "##sp": 1705,
      "##where": 1706,
      "assume": 1707,
      "power": 1708,
      "fem": 1709,
      "##ump": 1710,
      "absolute": 1711,
      "difficu": 1712,
      "appre": 1713,
      "mis": 1714,
      "##rate": 1715,
      "stere": 1716,
      "mist": 1717,
      "##ross": 1718,
      "anyway": 1719,
      "est": 1720,
      "##ogni": 1721,
      "liter": 1722,
      "##ational": 1723,
      "stereot": 1724,
      "sad": 1725,
      "totally": 1726,
      "individ": 1727,
      "##olve": 1728,
      "##jective": 1729,
      "ahough": 1730,
      "##gan": 1731,
      "##antly": 1732,
      "ener": 1733,
      "##iti": 1734,
      "stick": 1735,
      "room": 1736,
      "##by": 1737,
      "check": 1738,
      "goal": 1739,
      "please": 1740,
      "##ats": 1741,
      "##jor": 1742,
      "##eahy": 1743,
      "sl": 1744,
      "dou": 1745,
      "wait": 1746,
      "non": 1747,
      "sign": 1748,
      "##cle": 1749,
      "##dition": 1750,
      "##itch": 1751,
      "decision": 1752,
      "##oung": 1753,
      "young": 1754,
      "typ": 1755,
      "house": 1756,
      "sug": 1757,
      "honest": 1758,
      "bui": 1759,
      "tri": 1760,
      "worry": 1761,
      "mention": 1762,
      "##leep": 1763,
      "brain": 1764,
      "##arily": 1765,
      "lack": 1766,
      "simply": 1767,
      "##wh": 1768,
      "ago": 1769,
      "em": 1770,
      "major": 1771,
      "drink": 1772,
      "suppose": 1773,
      "individual": 1774,
      "annoy": 1775,
      "##dd": 1776,
      "##arge": 1777,
      "forget": 1778,
      "easily": 1779,
      "parent": 1780,
      "communic": 1781,
      "fine": 1782,
      "lang": 1783,
      "hang": 1784,
      "##ane": 1785,
      "force": 1786,
      "avoid": 1787,
      "towards": 1788,
      "##ian": 1789,
      "##lude": 1790,
      "choose": 1791,
      "outside": 1792,
      "ist": 1793,
      "name": 1794,
      "song": 1795,
      "coup": 1796,
      "identi": 1797,
      "intjs": 1798,
      "##pid": 1799,
      "rule": 1800,
      "cogni": 1801,
      "ir": 1802,
      "ori": 1803,
      "ign": 1804,
      "##friend": 1805,
      "##idence": 1806,
      "fla": 1807,
      "##na": 1808,
      "topic": 1809,
      "couple": 1810,
      "direct": 1811,
      "quick": 1812,
      "detail": 1813,
      "##arch": 1814,
      "main": 1815,
      "##qui": 1816,
      "##uage": 1817,
      "gl": 1818,
      "fall": 1819,
      "support": 1820,
      "##ident": 1821,
      "language": 1822,
      "infjs": 1823,
      "##oud": 1824,
      "express": 1825,
      "stupid": 1826,
      "##ork": 1827,
      "appreciate": 1828,
      "##usion": 1829,
      "college": 1830,
      "logic": 1831,
      "prop": 1832,
      "eat": 1833,
      "walk": 1834,
      "country": 1835,
      "behavior": 1836,
      "dream": 1837,
      "sugge": 1838,
      "funny": 1839,
      "miss": 1840,
      "reality": 1841,
      "extrover": 1842,
      "attention": 1843,
      "favorite": 1844,
      "short": 1845,
      "perspective": 1846,
      "##red": 1847,
      "regard": 1848,
      "##unch": 1849,
      "##ust": 1850,
      "##own": 1851,
      "num": 1852,
      "##ich": 1853,
      "correct": 1854,
      "intps": 1855,
      "##ugh": 1856,
      "inferior": 1857,
      "appe": 1858,
      "line": 1859,
      "##ia": 1860,
      "relig": 1861,
      "response": 1862,
      "pict": 1863,
      "accur": 1864,
      "hal": 1865,
      "##bt": 1866,
      "allow": 1867,
      "joke": 1868,
      "rela": 1869,
      "boy": 1870,
      "picture": 1871,
      "respect": 1872,
      "##ket": 1873,
      "##eas": 1874,
      "poli": 1875,
      "da": 1876,
      "##iss": 1877,
      "imagine": 1878,
      "dam": 1879,
      "clear": 1880,
      "sleep": 1881,
      "die": 1882,
      "infps": 1883,
      "absolutely": 1884,
      "energy": 1885,
      "truth": 1886,
      "appro": 1887,
      "awes": 1888,
      "dominant": 1889,
      "extra": 1890,
      "##aste": 1891,
      "kinda": 1892,
      "##like": 1893,
      "specific": 1894,
      "obs": 1895,
      "intuitive": 1896,
      "##cip": 1897,
      "full": 1898,
      "awesome": 1899,
      "mine": 1900,
      "cap": 1901,
      "comfortable": 1902,
      "rare": 1903,
      "##ledge": 1904,
      "organ": 1905,
      "cognitive": 1906,
      "bea": 1907,
      "fight": 1908,
      "age": 1909,
      "##up": 1910,
      "negative": 1911,
      "extremely": 1912,
      "trait": 1913,
      "hey": 1914,
      "##rise": 1915,
      "env": 1916,
      "ret": 1917,
      "##ans": 1918,
      "art": 1919,
      "present": 1920,
      "na": 1921,
      "skill": 1922,
      "##ulation": 1923,
      "hit": 1924,
      "suck": 1925,
      "bri": 1926,
      "literally": 1927,
      "mid": 1928,
      "step": 1929,
      "online": 1930,
      "luck": 1931,
      "##ration": 1932,
      "apply": 1933,
      "##ource": 1934,
      "##tim": 1935,
      "cal": 1936,
      "##tically": 1937,
      "seriously": 1938,
      "##ulate": 1939,
      "anxiety": 1940,
      "due": 1941,
      "build": 1942,
      "conv": 1943,
      "occ": 1944,
      "lie": 1945,
      "text": 1946,
      "mem": 1947,
      "kill": 1948,
      "##haps": 1949,
      "link": 1950,
      "effort": 1951,
      "##ellig": 1952,
      "##ung": 1953,
      "##quire": 1954,
      "rand": 1955,
      "perhaps": 1956,
      "buy": 1957,
      "##que": 1958,
      "##the": 1959,
      "smart": 1960,
      "early": 1961,
      "##mon": 1962,
      "##oph": 1963,
      "##fully": 1964,
      "##ential": 1965,
      "surp": 1966,
      "##aa": 1967,
      "half": 1968,
      "ama": 1969,
      "include": 1970,
      "large": 1971,
      "aware": 1972,
      "stereotype": 1973,
      "fail": 1974,
      "physical": 1975,
      "cry": 1976,
      "logical": 1977,
      "##dle": 1978,
      "##ggle": 1979,
      "hor": 1980,
      "##eness": 1981,
      "nature": 1982,
      "##ront": 1983,
      "intellig": 1984,
      "number": 1985,
      "pat": 1986,
      "##ination": 1987,
      "tod": 1988,
      "##ac": 1989,
      "##wise": 1990,
      "except": 1991,
      "chance": 1992,
      "draw": 1993,
      "extrovert": 1994,
      "cir": 1995,
      "##ade": 1996,
      "##ond": 1997,
      "pot": 1998,
      "##go": 1999,
      "single": 2000,
      "sensor": 2001,
      "##cious": 2002,
      "##hh": 2003,
      "##ics": 2004,
      "stra": 2005,
      "##eld": 2006,
      "med": 2007,
      "rese": 2008,
      "push": 2009,
      "mod": 2010,
      "random": 2011,
      "je": 2012,
      "curi": 2013,
      "bother": 2014,
      "##ouch": 2015,
      "society": 2016,
      "dad": 2017,
      "##iet": 2018,
      "vari": 2019,
      "huge": 2020,
      "normal": 2021,
      "purp": 2022,
      "space": 2023,
      "minute": 2024,
      "accurate": 2025,
      "ideal": 2026,
      "##vide": 2027,
      "light": 2028,
      "cr": 2029,
      "##yle": 2030,
      "##onment": 2031,
      "suc": 2032,
      "laugh": 2033,
      "internet": 2034,
      "today": 2035,
      "choice": 2036,
      "impro": 2037,
      "ill": 2038,
      "produ": 2039,
      "partner": 2040,
      "heart": 2041,
      "female": 2042,
      "envir": 2043,
      "amp": 2044,
      "##rust": 2045,
      "##bit": 2046,
      "##osite": 2047,
      "extroverted": 2048,
      "##ater": 2049,
      "at": 2050,
      "require": 2051,
      "enfps": 2052,
      "begin": 2053,
      "quiet": 2054,
      "body": 2055,
      "cann": 2056,
      "project": 2057,
      "opposite": 2058,
      "ability": 2059,
      "ke": 2060,
      "beh": 2061,
      "struggle": 2062,
      "weak": 2063,
      "connection": 2064,
      "doubt": 2065,
      "ignore": 2066,
      "environment": 2067,
      "concept": 2068,
      "treat": 2069,
      "fix": 2070,
      "tech": 2071,
      "amount": 2072,
      "deb": 2073,
      "##more": 2074,
      "##rible": 2075,
      "pub": 2076,
      "##tit": 2077,
      "food": 2078,
      "approach": 2079,
      "hist": 2080,
      "note": 2081,
      "saw": 2082,
      "##com": 2083,
      "friendship": 2084,
      "serious": 2085,
      "##ister": 2086,
      "crazy": 2087,
      "necessarily": 2088,
      "fr": 2089,
      "##mpt": 2090,
      "simple": 2091,
      "hi": 2092,
      "pol": 2093,
      "motiv": 2094,
      "hat": 2095,
      "confuse": 2096,
      "involve": 2097,
      "fear": 2098,
      "argue": 2099,
      "obviously": 2100,
      "fore": 2101,
      "wel": 2102,
      "law": 2103,
      "research": 2104,
      "perceive": 2105,
      "sil": 2106,
      "other": 2107,
      "##over": 2108,
      "actual": 2109,
      "##ift": 2110,
      "male": 2111,
      "##ussion": 2112,
      "sever": 2113,
      "##ition": 2114,
      "chri": 2115,
      "leg": 2116,
      "crea": 2117,
      "constantly": 2118,
      "mental": 2119,
      "vis": 2120,
      "recently": 2121,
      "##ric": 2122,
      "cannot": 2123,
      "wow": 2124,
      "ear": 2125,
      "send": 2126,
      "contin": 2127,
      "black": 2128,
      "##eric": 2129,
      "throw": 2130,
      "##verse": 2131,
      "within": 2132,
      "dat": 2133,
      "vers": 2134,
      "##ster": 2135,
      "otherwise": 2136,
      "identify": 2137,
      "suggest": 2138,
      "surprise": 2139,
      "science": 2140,
      "thats": 2141,
      "area": 2142,
      "up": 2143,
      "##ization": 2144,
      "##ingly": 2145,
      "reddit": 2146,
      "gon": 2147,
      "fre": 2148,
      "##gress": 2149,
      "sec": 2150,
      "##umb": 2151,
      "compare": 2152,
      "ful": 2153,
      "disag": 2154,
      "possibility": 2155,
      "business": 2156,
      "amaze": 2157,
      "##no": 2158,
      "##lev": 2159,
      "three": 2160,
      "fu": 2161,
      "##res": 2162,
      "##inate": 2163,
      "##enge": 2164,
      "refer": 2165,
      "improve": 2166,
      "##fit": 2167,
      "seek": 2168,
      "disagree": 2169,
      "positive": 2170,
      "roman": 2171,
      "##irt": 2172,
      "##ularly": 2173,
      "gonna": 2174,
      "brother": 2175,
      "mother": 2176,
      "welcome": 2177,
      "##man": 2178,
      "##work": 2179,
      "##round": 2180,
      "##bor": 2181,
      "entps": 2182,
      "nar": 2183,
      "##sion": 2184,
      "discussion": 2185,
      "math": 2186,
      "##omm": 2187,
      "glad": 2188,
      "resu": 2189,
      "memory": 2190,
      "purpose": 2191,
      "quality": 2192,
      "fast": 2193,
      "deg": 2194,
      "connect": 2195,
      "om": 2196,
      "company": 2197,
      "del": 2198,
      "confl": 2199,
      "analy": 2200,
      "behind": 2201,
      "imm": 2202,
      "damn": 2203,
      "pain": 2204,
      "##uti": 2205,
      "touch": 2206,
      "reply": 2207,
      "forum": 2208,
      "appear": 2209,
      "cut": 2210,
      "##ask": 2211,
      "interaction": 2212,
      "across": 2213,
      "truly": 2214,
      "##ii": 2215,
      "##enh": 2216,
      "phil": 2217,
      "knowledge": 2218,
      "eq": 2219,
      "frust": 2220,
      "empath": 2221,
      "##ies": 2222,
      "resus": 2223,
      "incre": 2224,
      "intuition": 2225,
      "subject": 2226,
      "##iction": 2227,
      "##ator": 2228,
      "conte": 2229,
      "americ": 2230,
      "straight": 2231,
      "wear": 2232,
      "##lusion": 2233,
      "##unt": 2234,
      "awk": 2235,
      "particular": 2236,
      "manage": 2237,
      "anymore": 2238,
      "##cra": 2239,
      "desire": 2240,
      "excite": 2241,
      "respond": 2242,
      "degree": 2243,
      "slow": 2244,
      "awkward": 2245,
      "conflict": 2246,
      "##uine": 2247,
      "useful": 2248,
      "den": 2249,
      "auth": 2250,
      "##cture": 2251,
      "provide": 2252,
      "##ability": 2253,
      "certainly": 2254,
      "wi": 2255,
      "##alance": 2256,
      "prove": 2257,
      "option": 2258,
      "position": 2259,
      "city": 2260,
      "##bo": 2261,
      "public": 2262,
      "##he": 2263,
      "##omp": 2264,
      "met": 2265,
      "rid": 2266,
      "desp": 2267,
      "remind": 2268,
      "success": 2269,
      "debate": 2270,
      "special": 2271,
      "##cise": 2272,
      "style": 2273,
      "offer": 2274,
      "inside": 2275,
      "explo": 2276,
      "##ature": 2277,
      "genuine": 2278,
      "##rib": 2279,
      "account": 2280,
      "belief": 2281,
      "sensi": 2282,
      "conclusion": 2283,
      "clearly": 2284,
      "catch": 2285,
      "##rel": 2286,
      "german": 2287,
      "bene": 2288,
      "objective": 2289,
      "data": 2290,
      "incredi": 2291,
      "history": 2292,
      "ton": 2293,
      "##nea": 2294,
      "cent": 2295,
      "concern": 2296,
      "dark": 2297,
      "nt": 2298,
      "ta": 2299,
      "xd": 2300,
      "pattern": 2301,
      "##ious": 2302,
      "limit": 2303,
      "current": 2304,
      "##oint": 2305,
      "ennea": 2306,
      "soon": 2307,
      "middle": 2308,
      "##aster": 2309,
      "philos": 2310,
      "trou": 2311,
      "phone": 2312,
      "white": 2313,
      "curious": 2314,
      "pie": 2315,
      "trans": 2316,
      "fairly": 2317,
      "##pl": 2318,
      "origin": 2319,
      "hea": 2320,
      "depression": 2321,
      "practice": 2322,
      "enneagram": 2323,
      "emotionally": 2324,
      "##rug": 2325,
      "##sti": 2326,
      "##medi": 2327,
      "chall": 2328,
      "##order": 2329,
      "bias": 2330,
      "eventually": 2331,
      "trouble": 2332,
      "bar": 2333,
      "initi": 2334,
      "match": 2335,
      "recomm": 2336,
      "handle": 2337,
      "finish": 2338,
      "affect": 2339,
      "interp": 2340,
      "##ender": 2341,
      "sou": 2342,
      "##irm": 2343,
      "depress": 2344,
      "##ati": 2345,
      "recommend": 2346,
      "manip": 2347,
      "gre": 2348,
      "preference": 2349,
      "natural": 2350,
      "active": 2351,
      "challenge": 2352,
      "artic": 2353,
      "passion": 2354,
      "dog": 2355,
      "##dom": 2356,
      "valid": 2357,
      "several": 2358,
      "ser": 2359,
      "pas": 2360,
      "activity": 2361,
      "hmm": 2362,
      "cold": 2363,
      "fan": 2364,
      "infl": 2365,
      "death": 2366,
      "##ger": 2367,
      "source": 2368,
      "spot": 2369,
      "community": 2370,
      "heahy": 2371,
      "immedi": 2372,
      "claim": 2373,
      "effect": 2374,
      "angry": 2375,
      "##ortun": 2376,
      "discus": 2377,
      "quickly": 2378,
      "sister": 2379,
      "##vern": 2380,
      "obvious": 2381,
      "naturally": 2382,
      "mistake": 2383,
      "dude": 2384,
      "suff": 2385,
      "rational": 2386,
      "ups": 2387,
      "enc": 2388,
      "dead": 2389,
      "##ass": 2390,
      "##ning": 2391,
      "define": 2392,
      "continue": 2393,
      "##ssive": 2394,
      "currently": 2395,
      "cat": 2396,
      "##kke": 2397,
      "##book": 2398,
      "determ": 2399,
      "balance": 2400,
      "##ape": 2401,
      "##imal": 2402,
      "aspect": 2403,
      "og": 2404,
      "engage": 2405,
      "entjs": 2406,
      "##oooo": 2407,
      "##what": 2408,
      "##asion": 2409,
      "train": 2410,
      "message": 2411,
      "highly": 2412,
      "boyfriend": 2413,
      "piece": 2414,
      "waste": 2415,
      "role": 2416,
      "somewhat": 2417,
      "appar": 2418,
      "##antas": 2419,
      "slight": 2420,
      "heav": 2421,
      "##bby": 2422,
      "govern": 2423,
      "##ieve": 2424,
      "interact": 2425,
      "reaction": 2426,
      "##verage": 2427,
      "socion": 2428,
      "religion": 2429,
      "##form": 2430,
      "attra": 2431,
      "solve": 2432,
      "bet": 2433,
      "strange": 2434,
      "finally": 2435,
      "reach": 2436,
      "smile": 2437,
      "##ensive": 2438,
      "fantas": 2439,
      "swe": 2440,
      "beauti": 2441,
      "dislike": 2442,
      "attract": 2443,
      "hahaha": 2444,
      "ess": 2445,
      "moral": 2446,
      "card": 2447,
      "##ror": 2448,
      "coun": 2449,
      "down": 2450,
      "##tics": 2451,
      "career": 2452,
      "ach": 2453,
      "##anger": 2454,
      "##reddit": 2455,
      "unh": 2456,
      "sn": 2457,
      "##for": 2458,
      "##rage": 2459,
      "commit": 2460,
      "medi": 2461,
      "##val": 2462,
      "helpful": 2463,
      "##duc": 2464,
      "mood": 2465,
      "bull": 2466,
      "til": 2467,
      "profe": 2468,
      "##mental": 2469,
      "definition": 2470,
      "fra": 2471,
      "pull": 2472,
      "prom": 2473,
      "socionics": 2474,
      "enter": 2475,
      "hide": 2476,
      "##uter": 2477,
      "consist": 2478,
      "letter": 2479,
      "bear": 2480,
      "comb": 2481,
      "lab": 2482,
      "context": 2483,
      "abst": 2484,
      "creative": 2485,
      "##ak": 2486,
      "##empt": 2487,
      "statement": 2488,
      "teacher": 2489,
      "germany": 2490,
      "communication": 2491,
      "philosoph": 2492,
      "upset": 2493,
      "star": 2494,
      "english": 2495,
      "influ": 2496,
      "##raid": 2497,
      "somewhere": 2498,
      "##ority": 2499,
      "##shit": 2500,
      "admit": 2501,
      "subreddit": 2502,
      "bunch": 2503,
      "marry": 2504,
      "##mate": 2505,
      "poor": 2506,
      "but": 2507,
      "computer": 2508,
      "##yn": 2509,
      "afraid": 2510,
      "univers": 2511,
      "heah": 2512,
      "##ific": 2513,
      "##view": 2514,
      "particularly": 2515,
      "contact": 2516,
      "attack": 2517,
      "save": 2518,
      "model": 2519,
      "techn": 2520,
      "##co": 2521,
      "##cons": 2522,
      "##levant": 2523,
      "cuure": 2524,
      "beautiful": 2525,
      "attempt": 2526,
      "key": 2527,
      "ikke": 2528,
      "mag": 2529,
      "##ogn": 2530,
      "bed": 2531,
      "front": 2532,
      "program": 2533,
      "insight": 2534,
      "##omy": 2535,
      "color": 2536,
      "student": 2537,
      "despite": 2538,
      "blue": 2539,
      "quote": 2540,
      "field": 2541,
      "istps": 2542,
      "##enever": 2543,
      "plus": 2544,
      "whenever": 2545,
      "tradition": 2546,
      "solution": 2547,
      "standard": 2548,
      "goo": 2549,
      "##enty": 2550,
      "##land": 2551,
      "meth": 2552,
      "##rop": 2553,
      "##how": 2554,
      "##mb": 2555,
      "##urity": 2556,
      "rarely": 2557,
      "article": 2558,
      "##ital": 2559,
      "clean": 2560,
      "occasion": 2561,
      "government": 2562,
      "apart": 2563,
      "evidence": 2564,
      "team": 2565,
      "frustrate": 2566,
      "educ": 2567,
      "press": 2568,
      "nobody": 2569,
      "communicate": 2570,
      "tv": 2571,
      "uncom": 2572,
      "voice": 2573,
      "opportun": 2574,
      "##ternal": 2575,
      "aut": 2576,
      "eur": 2577,
      "my": 2578,
      "recogn": 2579,
      "average": 2580,
      "fire": 2581,
      "drop": 2582,
      "sensitive": 2583,
      "influence": 2584,
      "basic": 2585,
      "interpret": 2586,
      "romantic": 2587,
      "hus": 2588,
      "##ateg": 2589,
      "hot": 2590,
      "intention": 2591,
      "ele": 2592,
      "path": 2593,
      "to": 2594,
      "spir": 2595,
      "##oll": 2596,
      "none": 2597,
      "convince": 2598,
      "four": 2599,
      "##fortun": 2600,
      "internal": 2601,
      "unheahy": 2602,
      "unfortun": 2603,
      "prim": 2604,
      "incredibly": 2605,
      "determine": 2606,
      "achieve": 2607,
      "water": 2608,
      "tire": 2609,
      "bullshit": 2610,
      "du": 2611,
      "fell": 2612,
      "anti": 2613,
      "hobby": 2614,
      "page": 2615,
      "jump": 2616,
      "expl": 2617,
      "relax": 2618,
      "organize": 2619,
      "opportunity": 2620,
      "##iv": 2621,
      "##au": 2622,
      "peri": 2623,
      "jus": 2624,
      "##gue": 2625,
      "possibly": 2626,
      "terrible": 2627,
      "##band": 2628,
      "##right": 2629,
      "entirely": 2630,
      "task": 2631,
      "door": 2632,
      "loud": 2633,
      "##mmer": 2634,
      "europe": 2635,
      "inve": 2636,
      "jung": 2637,
      "##titude": 2638,
      "##ker": 2639,
      "##par": 2640,
      "aux": 2641,
      "potential": 2642,
      "lay": 2643,
      "##ourage": 2644,
      "there": 2645,
      "ther": 2646,
      "pred": 2647,
      "method": 2648,
      "benefit": 2649,
      "##cial": 2650,
      "dumb": 2651,
      "##ral": 2652,
      "##iver": 2653,
      "muip": 2654,
      "##ode": 2655,
      "##hole": 2656,
      "conscious": 2657,
      "tendency": 2658,
      "rock": 2659,
      "##isk": 2660,
      "strenh": 2661,
      "subjective": 2662,
      "vote": 2663,
      "##asc": 2664,
      "##zz": 2665,
      "priv": 2666,
      "trade": 2667,
      "dest": 2668,
      "intelligence": 2669,
      "accord": 2670,
      "odd": 2671,
      "sport": 2672,
      "##entially": 2673,
      "period": 2674,
      "drug": 2675,
      "##sec": 2676,
      "##anna": 2677,
      "istjs": 2678,
      "ver": 2679,
      "##gle": 2680,
      "abstract": 2681,
      "##to": 2682,
      "##fically": 2683,
      "sta": 2684,
      "dem": 2685,
      "responsi": 2686,
      "animal": 2687,
      "sho": 2688,
      "husband": 2689,
      "##fore": 2690,
      "complex": 2691,
      "uim": 2692,
      "##ribute": 2693,
      "score": 2694,
      "confidence": 2695,
      "version": 2696,
      "intro": 2697,
      "##ager": 2698,
      "calm": 2699,
      "somehow": 2700,
      "##roll": 2701,
      "majority": 2702,
      "##ial": 2703,
      "intel": 2704,
      "##erate": 2705,
      "shy": 2706,
      "hug": 2707,
      "##ception": 2708,
      "join": 2709,
      "american": 2710,
      "nf": 2711,
      "##tain": 2712,
      "##raph": 2713,
      "temp": 2714,
      "liber": 2715,
      "shoot": 2716,
      "medium": 2717,
      "travel": 2718,
      "confident": 2719,
      "master": 2720,
      "##ah": 2721,
      "web": 2722,
      "perception": 2723,
      "regardless": 2724,
      "gift": 2725,
      "wall": 2726,
      "##br": 2727,
      "##hood": 2728,
      "##ero": 2729,
      "intellect": 2730,
      "eu": 2731,
      "##tist": 2732,
      "extraver": 2733,
      "apparently": 2734,
      "imo": 2735,
      "grand": 2736,
      "circ": 2737,
      "isfjs": 2738,
      "external": 2739,
      "pret": 2740,
      "warm": 2741,
      "satis": 2742,
      "flow": 2743,
      "asshole": 2744,
      "pea": 2745,
      "raise": 2746,
      "recognize": 2747,
      "##old": 2748,
      "##loy": 2749,
      "wanna": 2750,
      "fully": 2751,
      "hop": 2752,
      "mad": 2753,
      "discover": 2754,
      "##if": 2755,
      "##atter": 2756,
      "beat": 2757,
      "necessary": 2758,
      "##io": 2759,
      "enfjs": 2760,
      "moder": 2761,
      "structure": 2762,
      "father": 2763,
      "near": 2764,
      "feeler": 2765,
      "dire": 2766,
      "confirm": 2767,
      "loc": 2768,
      "image": 2769,
      "content": 2770,
      "##duce": 2771,
      "asso": 2772,
      "specifically": 2773,
      "risk": 2774,
      "stack": 2775,
      "impression": 2776,
      "##epend": 2777,
      "mil": 2778,
      "adm": 2779,
      "typically": 2780,
      "smo": 2781,
      "spirit": 2782,
      "##cer": 2783,
      "cant": 2784,
      "forward": 2785,
      "emb": 2786,
      "bot": 2787,
      "sear": 2788,
      "scar": 2789,
      "factor": 2790,
      "ep": 2791,
      "pu": 2792,
      "introver": 2793,
      "observ": 2794,
      "wher": 2795,
      "orient": 2796,
      "relative": 2797,
      "##air": 2798,
      "muiple": 2799,
      "##lock": 2800,
      "political": 2801,
      "explore": 2802,
      "therap": 2803,
      "habit": 2804,
      "uncomfort": 2805,
      "gain": 2806,
      "maint": 2807,
      "signific": 2808,
      "econ": 2809,
      "lazy": 2810,
      "##ective": 2811,
      "shut": 2812,
      "react": 2813,
      "mistype": 2814,
      "proper": 2815,
      "search": 2816,
      "##app": 2817,
      "repe": 2818,
      "upon": 2819,
      "##usive": 2820,
      "humor": 2821,
      "scienti": 2822,
      "##ticism": 2823,
      "socially": 2824,
      "design": 2825,
      "stri": 2826,
      "wind": 2827,
      "##rit": 2828,
      "dev": 2829,
      "mix": 2830,
      "analyze": 2831,
      "unfortunately": 2832,
      "overall": 2833,
      "introversion": 2834,
      "uncomfortable": 2835,
      "cute": 2836,
      "impo": 2837,
      "##resent": 2838,
      "bud": 2839,
      "gui": 2840,
      "motivation": 2841,
      "suffer": 2842,
      "categ": 2843,
      "effici": 2844,
      "scre": 2845,
      "directly": 2846,
      "##under": 2847,
      "safe": 2848,
      "arm": 2849,
      "sweet": 2850,
      "attitude": 2851,
      "observe": 2852,
      "fill": 2853,
      "foot": 2854,
      "##xx": 2855,
      "ce": 2856,
      "pet": 2857,
      "sun": 2858,
      "##ym": 2859,
      "##illion": 2860,
      "among": 2861,
      "peace": 2862,
      "##ven": 2863,
      "##ario": 2864,
      "bey": 2865,
      "##arian": 2866,
      "pun": 2867,
      "somebody": 2868,
      "##ological": 2869,
      "jeg": 2870,
      "original": 2871,
      "ive": 2872,
      "teen": 2873,
      "ur": 2874,
      "##set": 2875,
      "expectation": 2876,
      "##stance": 2877,
      "##inter": 2878,
      "christi": 2879,
      "amb": 2880,
      "morning": 2881,
      "cost": 2882,
      "contra": 2883,
      "tough": 2884,
      "judg": 2885,
      "practical": 2886,
      "therefore": 2887,
      "##ili": 2888,
      "plenty": 2889,
      "##olate": 2890,
      "immediately": 2891,
      "rece": 2892,
      "member": 2893,
      "switch": 2894,
      "christian": 2895,
      "sche": 2896,
      "doms": 2897,
      "circle": 2898,
      "offend": 2899,
      "purs": 2900,
      "piss": 2901,
      "religious": 2902,
      "dance": 2903,
      "slightly": 2904,
      "air": 2905,
      "jour": 2906,
      "yep": 2907,
      "prof": 2908,
      "##haha": 2909,
      "engine": 2910,
      "can": 2911,
      "land": 2912,
      "popular": 2913,
      "##ier": 2914,
      "flaw": 2915,
      "profession": 2916,
      "sla": 2917,
      "prin": 2918,
      "impossi": 2919,
      "fake": 2920,
      "insec": 2921,
      "girlfriend": 2922,
      "trip": 2923,
      "beyond": 2924,
      "serv": 2925,
      "##ysis": 2926,
      "independ": 2927,
      "paper": 2928,
      "cop": 2929,
      "xn": 2930,
      "##erial": 2931,
      "parti": 2932,
      "soul": 2933,
      "direction": 2934,
      "intense": 2935,
      "grade": 2936,
      "eth": 2937,
      "pure": 2938,
      "##tify": 2939,
      "phot": 2940,
      "sent": 2941,
      "busy": 2942,
      "hyp": 2943,
      "inner": 2944,
      "sup": 2945,
      "##ural": 2946,
      "isfps": 2947,
      "net": 2948,
      "neither": 2949,
      "cook": 2950,
      "grind": 2951,
      "philosophy": 2952,
      "pressure": 2953,
      "##irth": 2954,
      "friendly": 2955,
      "loop": 2956,
      "strongly": 2957,
      "##tistic": 2958,
      "prote": 2959,
      "scen": 2960,
      "wife": 2961,
      "impossible": 2962,
      "##etic": 2963,
      "##lete": 2964,
      "pati": 2965,
      "universe": 2966,
      "ow": 2967,
      "##ler": 2968,
      "represent": 2969,
      "correl": 2970,
      "explan": 2971,
      "sentence": 2972,
      "typical": 2973,
      "##oof": 2974,
      "compli": 2975,
      "trump": 2976,
      "##gressive": 2977,
      "series": 2978,
      "drama": 2979,
      "tool": 2980,
      "meaning": 2981,
      "bat": 2982,
      "five": 2983,
      "##rease": 2984,
      "sell": 2985,
      "##iot": 2986,
      "perc": 2987,
      "gri": 2988,
      "##icate": 2989,
      "instance": 2990,
      "empathy": 2991,
      "gender": 2992,
      "shitty": 2993,
      "bul": 2994,
      "sj": 2995,
      "hair": 2996,
      "##room": 2997,
      "lean": 2998,
      "impact": 2999,
      "intelligent": 3000,
      "frequ": 3001,
      "birth": 3002,
      "##ible": 3003,
      "##vour": 3004,
      "uns": 3005,
      "bitch": 3006,
      "surround": 3007,
      "##dden": 3008,
      "service": 3009,
      "thinker": 3010,
      "fund": 3011,
      "happiness": 3012,
      "circum": 3013,
      "##icul": 3014,
      "drain": 3015,
      "compliment": 3016,
      "cross": 3017,
      "thus": 3018,
      "ve": 3019,
      "##tw": 3020,
      "differently": 3021,
      "cli": 3022,
      "tit": 3023,
      "west": 3024,
      "##vious": 3025,
      "sar": 3026,
      "sudden": 3027,
      "mature": 3028,
      "burn": 3029,
      "idk": 3030,
      "imply": 3031,
      "google": 3032,
      "explanation": 3033,
      "fal": 3034,
      "oppose": 3035,
      "distance": 3036,
      "earth": 3037,
      "equal": 3038,
      "cas": 3039,
      "vul": 3040,
      "##elm": 3041,
      "bos": 3042,
      "perfectly": 3043,
      "freak": 3044,
      "anger": 3045,
      "pleas": 3046,
      "##ctor": 3047,
      "effective": 3048,
      "vibe": 3049,
      "##son": 3050,
      "secret": 3051,
      "hy": 3052,
      "tb": 3053,
      "##inct": 3054,
      "##rase": 3055,
      "attractive": 3056,
      "ego": 3057,
      "relevant": 3058,
      "##umption": 3059,
      "invest": 3060,
      "##eem": 3061,
      "separ": 3062,
      "store": 3063,
      "accomp": 3064,
      "insp": 3065,
      "rob": 3066,
      "##bal": 3067,
      "bare": 3068,
      "nu": 3069,
      "paint": 3070,
      "smoke": 3071,
      "##iny": 3072,
      "##ated": 3073,
      "stim": 3074,
      "kick": 3075,
      "yea": 3076,
      "##une": 3077,
      "##vis": 3078,
      "selfish": 3079,
      "analysis": 3080,
      "maintain": 3081,
      "scenario": 3082,
      "normally": 3083,
      "cover": 3084,
      "russi": 3085,
      "##hol": 3086,
      "everybody": 3087,
      "university": 3088,
      "meas": 3089,
      "box": 3090,
      "wake": 3091,
      "baby": 3092,
      "unique": 3093,
      "crush": 3094,
      "dun": 3095,
      "artist": 3096,
      "femin": 3097,
      "taste": 3098,
      "engineer": 3099,
      "whereas": 3100,
      "feed": 3101,
      "anyways": 3102,
      "encourage": 3103,
      "pen": 3104,
      "##iar": 3105,
      "##inc": 3106,
      "##tta": 3107,
      "ready": 3108,
      "terti": 3109,
      "silly": 3110,
      "##whelm": 3111,
      "band": 3112,
      "##atic": 3113,
      "##cas": 3114,
      "##ercise": 3115,
      "compe": 3116,
      "esfjs": 3117,
      "weight": 3118,
      "psychology": 3119,
      "tertiary": 3120,
      "soft": 3121,
      "ridicul": 3122,
      "##play": 3123,
      "pretend": 3124,
      "bur": 3125,
      "nearly": 3126,
      "##olution": 3127,
      "genuinely": 3128,
      "##let": 3129,
      "weakness": 3130,
      "##aint": 3131,
      "private": 3132,
      "beside": 3133,
      "solid": 3134,
      "development": 3135,
      "##rog": 3136,
      "famil": 3137,
      "expression": 3138,
      "##ground": 3139,
      "club": 3140,
      "##outh": 3141,
      "unlike": 3142,
      "##ague": 3143,
      "coff": 3144,
      "third": 3145,
      "chill": 3146,
      "princip": 3147,
      "elect": 3148,
      "rely": 3149,
      "##ension": 3150,
      "associate": 3151,
      "##spect": 3152,
      "disorder": 3153,
      "dick": 3154,
      "fil": 3155,
      "exercise": 3156,
      "favour": 3157,
      "mode": 3158,
      "overwhelm": 3159,
      "tbh": 3160,
      "dress": 3161,
      "depth": 3162,
      "clothe": 3163,
      "entertain": 3164,
      "##ug": 3165,
      "excuse": 3166,
      "sexual": 3167,
      "population": 3168,
      "sake": 3169,
      "market": 3170,
      "facebook": 3171,
      "education": 3172,
      "mere": 3173,
      "gotta": 3174,
      "chat": 3175,
      "##ppy": 3176,
      "dig": 3177,
      "blame": 3178,
      "##understand": 3179,
      "site": 3180,
      "##tici": 3181,
      "remo": 3182,
      "deserve": 3183,
      "misunderstand": 3184,
      "green": 3185,
      "label": 3186,
      "##uu": 3187,
      "mer": 3188,
      "##ube": 3189,
      "##ball": 3190,
      "evil": 3191,
      "click": 3192,
      "nope": 3193,
      "vil": 3194,
      "vulner": 3195,
      "ine": 3196,
      "##ney": 3197,
      "der": 3198,
      "##back": 3199,
      "measure": 3200,
      "hol": 3201,
      "estjs": 3202,
      "camp": 3203,
      "yout": 3204,
      "thr": 3205,
      "coffee": 3206,
      "iron": 3207,
      "various": 3208,
      "competi": 3209,
      "troll": 3210,
      "instru": 3211,
      "lu": 3212,
      "leader": 3213,
      "lone": 3214,
      "track": 3215,
      "sarcas": 3216,
      "aern": 3217,
      "vol": 3218,
      "##mi": 3219,
      "assumption": 3220,
      "pursue": 3221,
      "rad": 3222,
      "##ery": 3223,
      "road": 3224,
      "deeply": 3225,
      "hello": 3226,
      "fau": 3227,
      "intuitives": 3228,
      "receive": 3229,
      "exha": 3230,
      "carry": 3231,
      "remain": 3232,
      "tax": 3233,
      "accomplish": 3234,
      "viol": 3235,
      "cha": 3236,
      "material": 3237,
      "uk": 3238,
      "##era": 3239,
      "arch": 3240,
      "worker": 3241,
      "realise": 3242,
      "circumstance": 3243,
      "manner": 3244,
      "trick": 3245,
      "pair": 3246,
      "##fication": 3247,
      "ly": 3248,
      "prep": 3249,
      "##rum": 3250,
      "observation": 3251,
      "alco": 3252,
      "##ogy": 3253,
      "mach": 3254,
      "employ": 3255,
      "physically": 3256,
      "remove": 3257,
      "ball": 3258,
      "perform": 3259,
      "##gger": 3260,
      "familiar": 3261,
      "uimately": 3262,
      "##rete": 3263,
      "complain": 3264,
      "object": 3265,
      "estps": 3266,
      "extraverted": 3267,
      "mut": 3268,
      "##ime": 3269,
      "##ench": 3270,
      "alcohol": 3271,
      "##yy": 3272,
      "##iter": 3273,
      "##itary": 3274,
      "rev": 3275,
      "behaviour": 3276,
      "fellow": 3277,
      "btw": 3278,
      "core": 3279,
      "##antage": 3280,
      "##lim": 3281,
      "park": 3282,
      "esfps": 3283,
      "counter": 3284,
      "suit": 3285,
      "tie": 3286,
      "total": 3287,
      "gather": 3288,
      "##ka": 3289,
      "politics": 3290,
      "idiot": 3291,
      "decent": 3292,
      "ahead": 3293,
      "folk": 3294,
      "and": 3295,
      "demo": 3296,
      "frame": 3297,
      "ya": 3298,
      "##agn": 3299,
      "capable": 3300,
      "christ": 3301,
      "##dule": 3302,
      "satisfy": 3303,
      "besides": 3304,
      "##ciss": 3305,
      "fantasy": 3306,
      "fasc": 3307,
      "tom": 3308,
      "summer": 3309,
      "extent": 3310,
      "lately": 3311,
      "##sequ": 3312,
      "mech": 3313,
      "basis": 3314,
      "blow": 3315,
      "wild": 3316,
      "##ki": 3317,
      "##uty": 3318,
      "mainly": 3319,
      "forever": 3320,
      "separate": 3321,
      "##gr": 3322,
      "##uate": 3323,
      "onto": 3324,
      "principle": 3325,
      "increase": 3326,
      "rude": 3327,
      "roll": 3328,
      "##vey": 3329,
      "resource": 3330,
      "##ropri": 3331,
      "dri": 3332,
      "##opath": 3333,
      "aggressive": 3334,
      "horrible": 3335,
      "professional": 3336,
      "gun": 3337,
      "narciss": 3338,
      "rout": 3339,
      "##put": 3340,
      "reference": 3341,
      "bound": 3342,
      "nor": 3343,
      "aside": 3344,
      "alright": 3345,
      "gold": 3346,
      "disapp": 3347,
      "pack": 3348,
      "ban": 3349,
      "##ky": 3350,
      "freedom": 3351,
      "predict": 3352,
      "pan": 3353,
      "##ton": 3354,
      "fle": 3355,
      "tho": 3356,
      "delete": 3357,
      "fiction": 3358,
      "pm": 3359,
      "##sive": 3360,
      "constant": 3361,
      "visit": 3362,
      "##bl": 3363,
      "##lig": 3364,
      "##xp": 3365,
      "socialize": 3366,
      "autom": 3367,
      "youtube": 3368,
      "sick": 3369,
      "##orn": 3370,
      "scale": 3371,
      "news": 3372,
      "##licate": 3373,
      "mechan": 3374,
      "shall": 3375,
      "anywhere": 3376,
      "hopefully": 3377,
      "crap": 3378,
      "million": 3379,
      "##ray": 3380,
      "reflect": 3381,
      "strike": 3382,
      "lad": 3383,
      "anxious": 3384,
      "intellectual": 3385,
      "und": 3386,
      "faith": 3387,
      "##tter": 3388,
      "##lication": 3389,
      "##phone": 3390,
      "refuse": 3391,
      "identity": 3392,
      "##vent": 3393,
      "criticism": 3394,
      "motivate": 3395,
      "schedule": 3396,
      "crow": 3397,
      "report": 3398,
      "concrete": 3399,
      "stereotyp": 3400,
      "##vote": 3401,
      "##ersh": 3402,
      "nah": 3403,
      "ske": 3404,
      "indeed": 3405,
      "cow": 3406,
      "fly": 3407,
      "##site": 3408,
      "chem": 3409,
      "mic": 3410,
      "##ander": 3411,
      "flirt": 3412,
      "profile": 3413,
      "exhaust": 3414,
      "tol": 3415,
      "unf": 3416,
      "serve": 3417,
      "board": 3418,
      "office": 3419,
      "daily": 3420,
      "title": 3421,
      "interview": 3422,
      "unp": 3423,
      "attach": 3424,
      "existence": 3425,
      "wonderful": 3426,
      "fulf": 3427,
      "##aw": 3428,
      "##den": 3429,
      "##inger": 3430,
      "adu": 3431,
      "disp": 3432,
      "weekend": 3433,
      "cy": 3434,
      "table": 3435,
      "vision": 3436,
      "squ": 3437,
      "zone": 3438,
      "film": 3439,
      "##onal": 3440,
      "occasionally": 3441,
      "##erk": 3442,
      "##ont": 3443,
      "##idate": 3444,
      "capital": 3445,
      "return": 3446,
      "aud": 3447,
      "ada": 3448,
      "demand": 3449,
      "tur": 3450,
      "##fj": 3451,
      "inher": 3452,
      "shad": 3453,
      "reb": 3454,
      "cele": 3455,
      "it": 3456,
      "##ga": 3457,
      "demon": 3458,
      "useless": 3459,
      "website": 3460,
      "##riage": 3461,
      "medit": 3462,
      "gradu": 3463,
      "address": 3464,
      "center": 3465,
      "now": 3466,
      "tear": 3467,
      "tap": 3468,
      "shop": 3469,
      "town": 3470,
      "background": 3471,
      "judgement": 3472,
      "element": 3473,
      "dunno": 3474,
      "prepare": 3475,
      "wise": 3476,
      "##ciously": 3477,
      "shape": 3478,
      "access": 3479,
      "esc": 3480,
      "constru": 3481,
      "significant": 3482,
      "fee": 3483,
      "##fp": 3484,
      "procra": 3485,
      "compet": 3486,
      "charge": 3487,
      "ste": 3488,
      "procrast": 3489,
      "ten": 3490,
      "marriage": 3491,
      "appeal": 3492,
      "lonely": 3493,
      "##ership": 3494,
      "dich": 3495,
      "##iant": 3496,
      "harmon": 3497,
      "routine": 3498,
      "##areness": 3499,
      "info": 3500,
      "record": 3501,
      "tal": 3502,
      "##led": 3503,
      "manif": 3504,
      "flo": 3505,
      "kan": 3506,
      "##cd": 3507,
      "##my": 3508,
      "reject": 3509,
      "##racy": 3510,
      "blind": 3511,
      "responsibility": 3512,
      "condition": 3513,
      "arrog": 3514,
      "passive": 3515,
      "ridiculous": 3516,
      "border": 3517,
      "##late": 3518,
      "##ison": 3519,
      "successful": 3520,
      "birthday": 3521,
      "port": 3522,
      "stat": 3523,
      "dear": 3524,
      "primary": 3525,
      "disappoint": 3526,
      "apolog": 3527,
      "heavy": 3528,
      "manifest": 3529,
      "wing": 3530,
      "harm": 3531,
      "boundary": 3532,
      "ali": 3533,
      "##ester": 3534,
      "din": 3535,
      "##urch": 3536,
      "awareness": 3537,
      "regular": 3538,
      "##aaaa": 3539,
      "dichot": 3540,
      "ack": 3541,
      "ge": 3542,
      "vague": 3543,
      "##ication": 3544,
      "guiy": 3545,
      "category": 3546,
      "##ina": 3547,
      "loy": 3548,
      "broad": 3549,
      "econom": 3550,
      "mistyped": 3551,
      "##light": 3552,
      "##ceed": 3553,
      "optim": 3554,
      "actively": 3555,
      "##eech": 3556,
      "exception": 3557,
      "neut": 3558,
      "favourite": 3559,
      "block": 3560,
      "##key": 3561,
      "essentially": 3562,
      "##point": 3563,
      "##ris": 3564,
      "judgment": 3565,
      "rant": 3566,
      "wit": 3567,
      "behave": 3568,
      "tone": 3569,
      "##date": 3570,
      "ide": 3571,
      "advantage": 3572,
      "progress": 3573,
      "##sition": 3574,
      "advent": 3575,
      "flu": 3576,
      "slowly": 3577,
      "##miss": 3578,
      "une": 3579,
      "##reet": 3580,
      "intim": 3581,
      "visual": 3582,
      "ax": 3583,
      "lma": 3584,
      "##omb": 3585,
      "church": 3586,
      "##ounce": 3587,
      "eh": 3588,
      "rough": 3589,
      "wide": 3590,
      "##ost": 3591,
      "##ør": 3592,
      "tip": 3593,
      "everyday": 3594,
      "scene": 3595,
      "phrase": 3596,
      "police": 3597,
      "dyn": 3598,
      "yup": 3599,
      "##iiii": 3600,
      "##labor": 3601,
      "confront": 3602,
      "##arious": 3603,
      "doctor": 3604,
      "irration": 3605,
      "dichotomy": 3606,
      "hil": 3607,
      "vary": 3608,
      "complicate": 3609,
      "##ablish": 3610,
      "repeat": 3611,
      "childhood": 3612,
      "suggestion": 3613,
      "cree": 3614,
      "gut": 3615,
      "consequ": 3616,
      "abuse": 3617,
      "adapt": 3618,
      "rich": 3619,
      "contribute": 3620,
      "awful": 3621,
      "scientific": 3622,
      "##ropriate": 3623,
      "##ection": 3624,
      "shift": 3625,
      "stranger": 3626,
      "##ficial": 3627,
      "##wards": 3628,
      "establish": 3629,
      "authority": 3630,
      "local": 3631,
      "fascinate": 3632,
      "shadow": 3633,
      "traditional": 3634,
      "suddenly": 3635,
      "snow": 3636,
      "military": 3637,
      "kn": 3638,
      "##por": 3639,
      "addition": 3640,
      "regret": 3641,
      "flair": 3642,
      "manipulate": 3643,
      "embar": 3644,
      "through": 3645,
      "##rom": 3646,
      "##inge": 3647,
      "settle": 3648,
      "##born": 3649,
      "lmao": 3650,
      "frequently": 3651,
      "acknow": 3652,
      "mouth": 3653,
      "strate": 3654,
      "player": 3655,
      "critical": 3656,
      "##eeee": 3657,
      "compar": 3658,
      "##lusive": 3659,
      "tran": 3660,
      "clari": 3661,
      "omg": 3662,
      "cru": 3663,
      "fri": 3664,
      "##nal": 3665,
      "##min": 3666,
      "speech": 3667,
      "mentally": 3668,
      "passionate": 3669,
      "strategy": 3670,
      "athe": 3671,
      "gay": 3672,
      "##zen": 3673,
      "affection": 3674,
      "dynam": 3675,
      "danger": 3676,
      "street": 3677,
      "everywhere": 3678,
      "ed": 3679,
      "spe": 3680,
      "defend": 3681,
      "##ashion": 3682,
      "##rass": 3683,
      "twice": 3684,
      "relatively": 3685,
      "inspire": 3686,
      "iq": 3687,
      "##orize": 3688,
      "indu": 3689,
      "##rupt": 3690,
      "##ograph": 3691,
      "ignor": 3692,
      "interpretation": 3693,
      "independent": 3694,
      "civ": 3695,
      "nut": 3696,
      "##ley": 3697,
      "drag": 3698,
      "occur": 3699,
      "acknowledge": 3700,
      "protect": 3701,
      "fashion": 3702,
      "trigger": 3703,
      "vulnerable": 3704,
      "throughout": 3705,
      "pi": 3706,
      "##ana": 3707,
      "##ortion": 3708,
      "input": 3709,
      "##olic": 3710,
      "unre": 3711,
      "threat": 3712,
      "sim": 3713,
      "proud": 3714,
      "insane": 3715,
      "race": 3716,
      "outcome": 3717,
      "blunt": 3718,
      "##ealous": 3719,
      "crowd": 3720,
      "##roy": 3721,
      "suspect": 3722,
      "impul": 3723,
      "ram": 3724,
      "##orrow": 3725,
      "quit": 3726,
      "blood": 3727,
      "##che": 3728,
      "##unk": 3729,
      "aernative": 3730,
      "ast": 3731,
      "clue": 3732,
      "weed": 3733,
      "stub": 3734,
      "##jection": 3735,
      "theore": 3736,
      "after": 3737,
      "justify": 3738,
      "##ox": 3739,
      "instinct": 3740,
      "movement": 3741,
      "casual": 3742,
      "previous": 3743,
      "proof": 3744,
      "holy": 3745,
      "cust": 3746,
      "combination": 3747,
      "king": 3748,
      "##iable": 3749,
      "map": 3750,
      "mass": 3751,
      "advance": 3752,
      "epis": 3753,
      "dynamic": 3754,
      "glo": 3755,
      "jealous": 3756,
      "sx": 3757,
      "##oon": 3758,
      "anybody": 3759,
      "overly": 3760,
      "avail": 3761,
      "graduate": 3762,
      "neu": 3763,
      "journal": 3764,
      "superior": 3765,
      "##ciation": 3766,
      "invite": 3767,
      "screw": 3768,
      "breat": 3769,
      "yell": 3770,
      "mur": 3771,
      "guide": 3772,
      "cheat": 3773,
      "liberal": 3774,
      "embarrass": 3775,
      "boo": 3776,
      "ner": 3777,
      "range": 3778,
      "##ring": 3779,
      "inte": 3780,
      "unc": 3781,
      "irrit": 3782,
      "modern": 3783,
      "dan": 3784,
      "east": 3785,
      "##lection": 3786,
      "##itter": 3787,
      "shame": 3788,
      "credit": 3789,
      "##itate": 3790,
      "reward": 3791,
      "promise": 3792,
      "machine": 3793,
      "##sis": 3794,
      "reserve": 3795,
      "destroy": 3796,
      "tree": 3797,
      "diagn": 3798,
      "terri": 3799,
      "meaningful": 3800,
      "ja": 3801,
      "kiss": 3802,
      "inn": 3803,
      "offici": 3804,
      "via": 3805,
      "immature": 3806,
      "neutral": 3807,
      "exam": 3808,
      "prevent": 3809,
      "incor": 3810,
      "insu": 3811,
      "humanity": 3812,
      "excell": 3813,
      "physic": 3814,
      "author": 3815,
      "lyric": 3816,
      "apologize": 3817,
      "##sson": 3818,
      "spiritual": 3819,
      "hole": 3820,
      "##att": 3821,
      "accident": 3822,
      "##osity": 3823,
      "distract": 3824,
      "funda": 3825,
      "##hn": 3826,
      "##lass": 3827,
      "conserv": 3828,
      "skin": 3829,
      "failure": 3830,
      "barely": 3831,
      "ou": 3832,
      "##ob": 3833,
      "sto": 3834,
      "sky": 3835,
      "irre": 3836,
      "lucky": 3837,
      "metal": 3838,
      "stubborn": 3839,
      "##ef": 3840,
      "##face": 3841,
      "size": 3842,
      "harsh": 3843,
      "code": 3844,
      "spect": 3845,
      "##lit": 3846,
      "who": 3847,
      "careful": 3848,
      "symp": 3849,
      "double": 3850,
      "properly": 3851,
      "false": 3852,
      "tl": 3853,
      "realistic": 3854,
      "consistent": 3855,
      "collect": 3856,
      "##aph": 3857,
      "final": 3858,
      "admire": 3859,
      "stereotypical": 3860,
      "talent": 3861,
      "hilarious": 3862,
      "jes": 3863,
      "rain": 3864,
      "sal": 3865,
      "##conscious": 3866,
      "contrad": 3867,
      "particip": 3868,
      "hypo": 3869,
      "irrational": 3870,
      "flip": 3871,
      "frank": 3872,
      "ell": 3873,
      "##rary": 3874,
      "rele": 3875,
      "##eap": 3876,
      "compati": 3877,
      "##load": 3878,
      "classic": 3879,
      "product": 3880,
      "manipul": 3881,
      "##iliary": 3882,
      "photo": 3883,
      "custom": 3884,
      "therapy": 3885,
      "yester": 3886,
      "##cist": 3887,
      "cheap": 3888,
      "reasonable": 3889,
      "roommate": 3890,
      "french": 3891,
      "america": 3892,
      "auxiliary": 3893,
      "indust": 3894,
      "yesterday": 3895,
      "growth": 3896,
      "honesty": 3897,
      "episode": 3898,
      "rap": 3899,
      "##hi": 3900,
      "scary": 3901,
      "##laborate": 3902,
      "##rist": 3903,
      "poke": 3904,
      "##annel": 3905,
      "equally": 3906,
      "adh": 3907,
      "calc": 3908,
      "status": 3909,
      "##uable": 3910,
      "##sc": 3911,
      "##itar": 3912,
      "massive": 3913,
      "efficient": 3914,
      "correlation": 3915,
      "robot": 3916,
      "creep": 3917,
      "gym": 3918,
      "##tom": 3919,
      "##cu": 3920,
      "##ww": 3921,
      "##icious": 3922,
      "lady": 3923,
      "fool": 3924,
      "seas": 3925,
      "dismiss": 3926,
      "productive": 3927,
      "consequence": 3928,
      "usual": 3929,
      "ride": 3930,
      "rise": 3931,
      "##vert": 3932,
      "##adem": 3933,
      "mark": 3934,
      "loss": 3935,
      "eval": 3936,
      "academ": 3937,
      "window": 3938,
      "battle": 3939,
      "gar": 3940,
      "ice": 3941,
      "jack": 3942,
      "##we": 3943,
      "senti": 3944,
      "outgo": 3945,
      "adhd": 3946,
      "fat": 3947,
      "ruin": 3948,
      "##sa": 3949,
      "##rap": 3950,
      "##urb": 3951,
      "price": 3952,
      "irl": 3953,
      "european": 3954,
      "national": 3955,
      "zero": 3956,
      "##reg": 3957,
      "noise": 3958,
      "crime": 3959,
      "bully": 3960,
      "##oke": 3961,
      "characteristic": 3962,
      "civil": 3963,
      "##inary": 3964,
      "prot": 3965,
      "theme": 3966,
      "heavily": 3967,
      "combine": 3968,
      "ethic": 3969,
      "neuro": 3970,
      "vent": 3971,
      "available": 3972,
      "nerv": 3973,
      "resist": 3974,
      "sam": 3975,
      "prior": 3976,
      "excellent": 3977,
      "alb": 3978,
      "parag": 3979,
      "bottom": 3980,
      "feedback": 3981,
      "gree": 3982,
      "##charge": 3983,
      "##pper": 3984,
      "creativity": 3985,
      "intend": 3986,
      "impress": 3987,
      "ground": 3988,
      "therapist": 3989,
      "væ": 3990,
      "##atically": 3991,
      "##xic": 3992,
      "smell": 3993,
      "strenhs": 3994,
      "dual": 3995,
      "son": 3996,
      "acqu": 3997,
      "display": 3998,
      "forg": 3999,
      "asser": 4000,
      "huh": 4001,
      "elaborate": 4002,
      "mir": 4003,
      "nd": 4004,
      "##ware": 4005,
      "prone": 4006,
      "recent": 4007,
      "insecurity": 4008,
      "sympath": 4009,
      "season": 4010,
      "nervous": 4011,
      "##ury": 4012,
      "##sure": 4013,
      "##lie": 4014,
      "##tem": 4015,
      "genre": 4016,
      "round": 4017,
      "##lement": 4018,
      "max": 4019,
      "patient": 4020,
      "xnt": 4021,
      "ud": 4022,
      "uh": 4023,
      "##dream": 4024,
      "anime": 4025,
      "subs": 4026,
      "assign": 4027,
      "incline": 4028,
      "typology": 4029,
      "adventure": 4030,
      "speed": 4031,
      "appropriate": 4032,
      "replace": 4033,
      "curiosity": 4034,
      "commitment": 4035,
      "paragraph": 4036,
      "dish": 4037,
      "extroversion": 4038,
      "harmony": 4039,
      "cand": 4040,
      "##acy": 4041,
      "##dra": 4042,
      "guitar": 4043,
      "sensory": 4044,
      "##uit": 4045,
      "mutual": 4046,
      "tomorrow": 4047,
      "murder": 4048,
      "release": 4049,
      "chase": 4050,
      "hardly": 4051,
      "experiment": 4052,
      "wave": 4053,
      "initiate": 4054,
      "jesus": 4055,
      "hero": 4056,
      "##rant": 4057,
      "they": 4058,
      "logically": 4059,
      "damage": 4060,
      "demonst": 4061,
      "atheist": 4062,
      "bill": 4063,
      "sjs": 4064,
      "steal": 4065,
      "##just": 4066,
      "##irty": 4067,
      "spread": 4068,
      "john": 4069,
      "organization": 4070,
      "legal": 4071,
      "conservative": 4072,
      "mate": 4073,
      "tang": 4074,
      "load": 4075,
      "##zzle": 4076,
      "shoe": 4077,
      "##mas": 4078,
      "##leg": 4079,
      "mal": 4080,
      "##ensi": 4081,
      "recharge": 4082,
      "thor": 4083,
      "##lam": 4084,
      "##ounter": 4085,
      "daydream": 4086,
      "augh": 4087,
      "initial": 4088,
      "russia": 4089,
      "mel": 4090,
      "aim": 4091,
      "##eable": 4092,
      "alive": 4093,
      "spell": 4094,
      "section": 4095,
      "what": 4096,
      "mindset": 4097,
      "incomp": 4098,
      "symb": 4099,
      "former": 4100,
      "##tism": 4101,
      "##board": 4102,
      "encounter": 4103,
      "##force": 4104,
      "ish": 4105,
      "item": 4106,
      "vic": 4107,
      "##ify": 4108,
      "##onate": 4109,
      "esteem": 4110,
      "objectively": 4111,
      "manipulative": 4112,
      "##entic": 4113,
      "##istry": 4114,
      "guard": 4115,
      "narrow": 4116,
      "shock": 4117,
      "aughing": 4118,
      "pin": 4119,
      "obse": 4120,
      "insecure": 4121,
      "acquaint": 4122,
      "bond": 4123,
      "##aly": 4124,
      "enth": 4125,
      "trend": 4126,
      "valuable": 4127,
      "arrogant": 4128,
      "##do": 4129,
      "##ooth": 4130,
      "six": 4131,
      "operate": 4132,
      "cam": 4133,
      "##vise": 4134,
      "management": 4135,
      "shallow": 4136,
      "cycle": 4137,
      "meditation": 4138,
      "root": 4139,
      "##tf": 4140,
      "stage": 4141,
      "beer": 4142,
      "immediate": 4143,
      "hint": 4144,
      "hehe": 4145,
      "correctly": 4146,
      "responsible": 4147,
      "fish": 4148,
      "rat": 4149,
      "variety": 4150,
      "creat": 4151,
      "jap": 4152,
      "##dly": 4153,
      "##ony": 4154,
      "polic": 4155,
      "charm": 4156,
      "copy": 4157,
      "album": 4158,
      "mirror": 4159,
      "hung": 4160,
      "##aur": 4161,
      "##til": 4162,
      "##atory": 4163,
      "alot": 4164,
      "scream": 4165,
      "colour": 4166,
      "syn": 4167,
      "cheer": 4168,
      "psychological": 4169,
      "##hhhh": 4170,
      "policy": 4171,
      "##iration": 4172,
      "##anch": 4173,
      "##ssy": 4174,
      "grant": 4175,
      "aust": 4176,
      "finan": 4177,
      "comparison": 4178,
      "glass": 4179,
      "channel": 4180,
      "##usi": 4181,
      "paran": 4182,
      "##ologist": 4183,
      "appearance": 4184,
      "cowork": 4185,
      "##ingu": 4186,
      "stable": 4187,
      "oblig": 4188,
      "produce": 4189,
      "jerk": 4190,
      "tiny": 4191,
      "libr": 4192,
      "suic": 4193,
      "precise": 4194,
      "perfection": 4195,
      "potentially": 4196,
      "silence": 4197,
      "update": 4198,
      "fresh": 4199,
      "fantastic": 4200,
      "dinner": 4201,
      "doc": 4202,
      "##think": 4203,
      "writer": 4204,
      "exclusive": 4205,
      "democra": 4206,
      "cond": 4207,
      "unw": 4208,
      "spont": 4209,
      "joy": 4210,
      "retard": 4211,
      "illness": 4212,
      "percent": 4213,
      "bsp": 4214,
      "rate": 4215,
      "##vive": 4216,
      "lock": 4217,
      "meme": 4218,
      "comprom": 4219,
      "lesson": 4220,
      "survive": 4221,
      "metaph": 4222,
      "compromise": 4223,
      "han": 4224,
      "hom": 4225,
      "kar": 4226,
      "voc": 4227,
      "##ggs": 4228,
      "email": 4229,
      "magic": 4230,
      "pleasure": 4231,
      "##ticize": 4232,
      "bank": 4233,
      "ene": 4234,
      "nation": 4235,
      "##sel": 4236,
      "##ste": 4237,
      "manager": 4238,
      "plat": 4239,
      "qual": 4240,
      "attribute": 4241,
      "##ocate": 4242,
      "mile": 4243,
      "fulfil": 4244,
      "escape": 4245,
      "she": 4246,
      "asse": 4247,
      "novel": 4248,
      "minim": 4249,
      "ug": 4250,
      "##sm": 4251,
      "lif": 4252,
      "congr": 4253,
      "ship": 4254,
      "strict": 4255,
      "screen": 4256,
      "dea": 4257,
      "loose": 4258,
      "ugh": 4259,
      "##anti": 4260,
      "unable": 4261,
      "fier": 4262,
      "imagination": 4263,
      "deny": 4264,
      "spontane": 4265,
      "ane": 4266,
      "sale": 4267,
      "tre": 4268,
      "##ik": 4269,
      "capt": 4270,
      "wood": 4271,
      "##sse": 4272,
      "shirt": 4273,
      "pointless": 4274,
      "attraction": 4275,
      "introduce": 4276,
      "##gen": 4277,
      "axis": 4278,
      "##assion": 4279,
      "##ior": 4280,
      "poster": 4281,
      "priority": 4282,
      "wtf": 4283,
      "##cend": 4284,
      "##orb": 4285,
      "discip": 4286,
      "usern": 4287,
      "alien": 4288,
      "irritate": 4289,
      "spectrum": 4290,
      "##draw": 4291,
      "##tish": 4292,
      "exe": 4293,
      "##entious": 4294,
      "recall": 4295,
      "pride": 4296,
      "clarify": 4297,
      "enthusi": 4298,
      "ix": 4299,
      "lon": 4300,
      "##und": 4301,
      "##arant": 4302,
      "desk": 4303,
      "belong": 4304,
      "withdraw": 4305,
      "powerful": 4306,
      "hyper": 4307,
      "forgive": 4308,
      "pha": 4309,
      "sat": 4310,
      "##acc": 4311,
      "till": 4312,
      "downvote": 4313,
      "framework": 4314,
      "irrelevant": 4315,
      "username": 4316,
      "pal": 4317,
      "tune": 4318,
      "vast": 4319,
      "neigh": 4320,
      "trap": 4321,
      "regularly": 4322,
      "xs": 4323,
      "stressful": 4324,
      "south": 4325,
      "##active": 4326,
      "##ius": 4327,
      "##cast": 4328,
      "##lab": 4329,
      "guarant": 4330,
      "minor": 4331,
      "sensation": 4332,
      "pic": 4333,
      "tac": 4334,
      "expert": 4335,
      "badly": 4336,
      "flag": 4337,
      "foreign": 4338,
      "apartment": 4339,
      "nowhere": 4340,
      "library": 4341,
      "##ok": 4342,
      "##zi": 4343,
      "mob": 4344,
      "##ama": 4345,
      "detach": 4346,
      "justice": 4347,
      "statistic": 4348,
      "christmas": 4349,
      "acquaintance": 4350,
      "phase": 4351,
      "vac": 4352,
      "##ulus": 4353,
      "adjust": 4354,
      "attend": 4355,
      "overcome": 4356,
      "security": 4357,
      "north": 4358,
      "industry": 4359,
      "guarantee": 4360,
      "plain": 4361,
      "rh": 4362,
      "rig": 4363,
      "##osition": 4364,
      "income": 4365,
      "chick": 4366,
      "reliable": 4367,
      "##version": 4368,
      "presence": 4369,
      "nons": 4370,
      "##ser": 4371,
      "stem": 4372,
      "functional": 4373,
      "planet": 4374,
      "ongue": 4375,
      "indicate": 4376,
      "##ography": 4377,
      "nail": 4378,
      "##nes": 4379,
      "sum": 4380,
      "authentic": 4381,
      "translate": 4382,
      "##incere": 4383,
      "official": 4384,
      "cod": 4385,
      "ring": 4386,
      "sig": 4387,
      "##ram": 4388,
      "chee": 4389,
      "split": 4390,
      "competitive": 4391,
      "vir": 4392,
      "##ient": 4393,
      "peer": 4394,
      "whats": 4395,
      "appy": 4396,
      "##erty": 4397,
      "grab": 4398,
      "warn": 4399,
      "hall": 4400,
      "rom": 4401,
      "##ience": 4402,
      "amuse": 4403,
      "decade": 4404,
      "briggs": 4405,
      "polite": 4406,
      "improvement": 4407,
      "puzzle": 4408,
      "gru": 4409,
      "sel": 4410,
      "##ren": 4411,
      "##fi": 4412,
      "##race": 4413,
      "##cribe": 4414,
      "blog": 4415,
      "flat": 4416,
      "beauty": 4417,
      "inherently": 4418,
      "discipline": 4419,
      "hence": 4420,
      "latter": 4421,
      "sand": 4422,
      "##ssor": 4423,
      "stone": 4424,
      "comic": 4425,
      "technical": 4426,
      "sarcastic": 4427,
      "##porate": 4428,
      "dict": 4429,
      "rd": 4430,
      "##erable": 4431,
      "unk": 4432,
      "crisis": 4433,
      "technically": 4434,
      "correlate": 4435,
      "automatically": 4436,
      "participate": 4437,
      "enemy": 4438,
      "##has": 4439,
      "defau": 4440,
      "heh": 4441,
      "frustration": 4442,
      "button": 4443,
      "hos": 4444,
      "##gma": 4445,
      "##uous": 4446,
      "##fl": 4447,
      "##well": 4448,
      "##za": 4449,
      "##atalk": 4450,
      "bright": 4451,
      "contrast": 4452,
      "tapatalk": 4453,
      "spec": 4454,
      "thorough": 4455,
      "found": 4456,
      "ty": 4457,
      "firm": 4458,
      "forth": 4459,
      "corner": 4460,
      "surface": 4461,
      "evaluate": 4462,
      "ju": 4463,
      "ration": 4464,
      "sight": 4465,
      "##mer": 4466,
      "##erg": 4467,
      "bub": 4468,
      "equ": 4469,
      "mr": 4470,
      "semi": 4471,
      "awh": 4472,
      "shower": 4473,
      "isolate": 4474,
      "primarily": 4475,
      "buddy": 4476,
      "merely": 4477,
      "chemistry": 4478,
      "victim": 4479,
      "wea": 4480,
      "##reh": 4481,
      "##rative": 4482,
      "expand": 4483,
      "##lessly": 4484,
      "error": 4485,
      "property": 4486,
      "accurately": 4487,
      "intros": 4488,
      "unsure": 4489,
      "finger": 4490,
      "sin": 4491,
      "um": 4492,
      "vice": 4493,
      "##kin": 4494,
      "##stal": 4495,
      "##raction": 4496,
      "brand": 4497,
      "skip": 4498,
      "grasp": 4499,
      "whose": 4500,
      "procrastinate": 4501,
      "bon": 4502,
      "##not": 4503,
      "defense": 4504,
      "consistently": 4505,
      "##astic": 4506,
      "fac": 4507,
      "evolution": 4508,
      "##ousand": 4509,
      "##ogical": 4510,
      "earn": 4511,
      "network": 4512,
      "unlikely": 4513,
      "edge": 4514,
      "##hold": 4515,
      "##list": 4516,
      "thousand": 4517,
      "neat": 4518,
      "application": 4519,
      "##mmar": 4520,
      "brief": 4521,
      "patience": 4522,
      "metaphor": 4523,
      "##place": 4524,
      "##sch": 4525,
      "##xual": 4526,
      "compassion": 4527,
      "##esis": 4528,
      "crack": 4529,
      "absorb": 4530,
      "morality": 4531,
      "restaur": 4532,
      "myers": 4533,
      "russian": 4534,
      "ramble": 4535,
      "diagnose": 4536,
      "awhile": 4537,
      "hook": 4538,
      "lin": 4539,
      "pill": 4540,
      "susp": 4541,
      "##oulder": 4542,
      "plot": 4543,
      "adop": 4544,
      "##tiveness": 4545,
      "##icient": 4546,
      "skep": 4547,
      "restaurant": 4548,
      "xst": 4549,
      "##gust": 4550,
      "##otic": 4551,
      "##vit": 4552,
      "##ersonal": 4553,
      "swear": 4554,
      "cud": 4555,
      "##etry": 4556,
      "##anda": 4557,
      "brown": 4558,
      "loyal": 4559,
      "contradict": 4560,
      "theyre": 4561,
      "lunch": 4562,
      "will": 4563,
      "##rite": 4564,
      "##ptive": 4565,
      "##xj": 4566,
      "theoretical": 4567,
      "hm": 4568,
      "##sd": 4569,
      "##iday": 4570,
      "##ffle": 4571,
      "shake": 4572,
      "##ief": 4573,
      "expensive": 4574,
      "harry": 4575,
      "consciousness": 4576,
      "customer": 4577,
      "rush": 4578,
      "##ctivity": 4579,
      "##roc": 4580,
      "##estyle": 4581,
      "uncon": 4582,
      "subtle": 4583,
      "cuz": 4584,
      "cuural": 4585,
      "emphas": 4586,
      "journey": 4587,
      "western": 4588,
      "floor": 4589,
      "symbol": 4590,
      "her": 4591,
      "hon": 4592,
      "not": 4593,
      "wash": 4594,
      "##rict": 4595,
      "bag": 4596,
      "##appe": 4597,
      "grad": 4598,
      "succeed": 4599,
      "hmmm": 4600,
      "counsel": 4601,
      "holiday": 4602,
      "hip": 4603,
      "np": 4604,
      "yay": 4605,
      "##look": 4606,
      "##rable": 4607,
      "profit": 4608,
      "seme": 4609,
      "lovely": 4610,
      "repress": 4611,
      "criticize": 4612,
      "difficuy": 4613,
      "punish": 4614,
      "anecd": 4615,
      "sincere": 4616,
      "reve": 4617,
      "##ooo": 4618,
      "ded": 4619,
      "##ada": 4620,
      "resonate": 4621,
      "extend": 4622,
      "concent": 4623,
      "bike": 4624,
      "analogy": 4625,
      "##acity": 4626,
      "technology": 4627,
      "panic": 4628,
      "dangerous": 4629,
      "nerd": 4630,
      "unknow": 4631,
      "ga": 4632,
      "internally": 4633,
      "verbal": 4634,
      "bath": 4635,
      "pla": 4636,
      "reduce": 4637,
      "feature": 4638,
      "span": 4639,
      "implement": 4640,
      "##agger": 4641,
      "##ronic": 4642,
      "psychopath": 4643,
      "nazi": 4644,
      "sarcasm": 4645,
      "reveal": 4646,
      "nog": 4647,
      "var": 4648,
      "sacri": 4649,
      "legiti": 4650,
      "dump": 4651,
      "lenh": 4652,
      "##type": 4653,
      "##vot": 4654,
      "##tise": 4655,
      "divide": 4656,
      "spo": 4657,
      "quir": 4658,
      "smooth": 4659,
      "##conne": 4660,
      "weather": 4661,
      "enjoyable": 4662,
      "hund": 4663,
      "leadership": 4664,
      "##while": 4665,
      "##titution": 4666,
      "mathem": 4667,
      "lifestyle": 4668,
      "semester": 4669,
      "iphone": 4670,
      "##fice": 4671,
      "meh": 4672,
      "meat": 4673,
      "resent": 4674,
      "clash": 4675,
      "cloud": 4676,
      "initially": 4677,
      "grey": 4678,
      "economy": 4679,
      "grip": 4680,
      "competition": 4681,
      "hire": 4682,
      "ixt": 4683,
      "##cket": 4684,
      "##of": 4685,
      "##rep": 4686,
      "empty": 4687,
      "afford": 4688,
      "##quest": 4689,
      "professor": 4690,
      "incorrect": 4691,
      "##pa": 4692,
      "##ær": 4693,
      "##ette": 4694,
      "genius": 4695,
      "traum": 4696,
      "outward": 4697,
      "embrace": 4698,
      "bre": 4699,
      "fo": 4700,
      "gam": 4701,
      "virt": 4702,
      "##change": 4703,
      "sole": 4704,
      "##teer": 4705,
      "infin": 4706,
      "gene": 4707,
      "messy": 4708,
      "employee": 4709,
      "hill": 4710,
      "pink": 4711,
      "desper": 4712,
      "socialist": 4713,
      "overthink": 4714,
      "reflection": 4715,
      "immig": 4716,
      "dry": 4717,
      "gas": 4718,
      "align": 4719,
      "consciously": 4720,
      "muslim": 4721,
      "racist": 4722,
      "snap": 4723,
      "hundred": 4724,
      "cath": 4725,
      "mask": 4726,
      "importance": 4727,
      "texting": 4728,
      "driver": 4729,
      "academic": 4730,
      "gh": 4731,
      "masc": 4732,
      "ut": 4733,
      "##ja": 4734,
      "##onent": 4735,
      "stream": 4736,
      "quad": 4737,
      "contain": 4738,
      "acceptable": 4739,
      "nav": 4740,
      "teenager": 4741,
      "lord": 4742,
      "##lin": 4743,
      "reverse": 4744,
      "##unteer": 4745,
      "##esthe": 4746,
      "shoulder": 4747,
      "compreh": 4748,
      "sociopath": 4749,
      "award": 4750,
      "manipulation": 4751,
      "##minal": 4752,
      "document": 4753,
      "##les": 4754,
      "quiz": 4755,
      "advocate": 4756,
      "economic": 4757,
      "winter": 4758,
      "##ko": 4759,
      "##rest": 4760,
      "secondary": 4761,
      "##phic": 4762,
      "affirm": 4763,
      "hike": 4764,
      "uimate": 4765,
      "##tician": 4766,
      "volunteer": 4767,
      "construct": 4768,
      "sacrifice": 4769,
      "gent": 4770,
      "##ba": 4771,
      "##mark": 4772,
      "target": 4773,
      "##ende": 4774,
      "posse": 4775,
      "unne": 4776,
      "##timate": 4777,
      "horse": 4778,
      "election": 4779,
      "##lablab": 4780,
      "nonsense": 4781,
      "cyn": 4782,
      "ny": 4783,
      "##urance": 4784,
      "empir": 4785,
      "incredible": 4786,
      "validation": 4787,
      "efficiency": 4788,
      "eg": 4789,
      "##fg": 4790,
      "prov": 4791,
      "expose": 4792,
      "obli": 4793,
      "##ountain": 4794,
      "cling": 4795,
      "heal": 4796,
      "philosophical": 4797,
      "weapon": 4798,
      "##ling": 4799,
      "##urd": 4800,
      "seat": 4801,
      "president": 4802,
      "indic": 4803,
      "blah": 4804,
      "capacity": 4805,
      "severe": 4806,
      "temper": 4807,
      "tempera": 4808,
      "compatible": 4809,
      "##appear": 4810,
      "dar": 4811,
      "exchange": 4812,
      "chart": 4813,
      "##lap": 4814,
      "##umble": 4815,
      "survi": 4816,
      "wiki": 4817,
      "satisf": 4818,
      "nuance": 4819,
      "fundamental": 4820,
      "bomb": 4821,
      "hvis": 4822,
      "rou": 4823,
      "sigh": 4824,
      "##uracy": 4825,
      "brill": 4826,
      "violence": 4827,
      "celebr": 4828,
      "ignorant": 4829,
      "##connect": 4830,
      "unnecess": 4831,
      "bf": 4832,
      "citi": 4833,
      "##hil": 4834,
      "mum": 4835,
      "artistic": 4836,
      "similarly": 4837,
      "purely": 4838,
      "meaningless": 4839,
      "software": 4840,
      "celebrity": 4841,
      "ease": 4842,
      "il": 4843,
      "mot": 4844,
      "rank": 4845,
      "tab": 4846,
      "##arm": 4847,
      "##orable": 4848,
      "##eline": 4849,
      "ink": 4850,
      "unha": 4851,
      "plant": 4852,
      "asleep": 4853,
      "addict": 4854,
      "dominate": 4855,
      "neighbor": 4856,
      "sea": 4857,
      "tag": 4858,
      "##arity": 4859,
      "##tification": 4860,
      "incons": 4861,
      "union": 4862,
      "rub": 4863,
      "court": 4864,
      "##macy": 4865,
      "##bling": 4866,
      "terrify": 4867,
      "duty": 4868,
      "van": 4869,
      "yo": 4870,
      "rein": 4871,
      "rejection": 4872,
      "strive": 4873,
      "confusion": 4874,
      "crave": 4875,
      "jew": 4876,
      "##box": 4877,
      "extravert": 4878,
      "inevit": 4879,
      "gro": 4880,
      "hes": 4881,
      "lift": 4882,
      "disappear": 4883,
      "pace": 4884,
      "mentality": 4885,
      "deliver": 4886,
      "butter": 4887,
      "devil": 4888,
      "instrument": 4889,
      "celeb": 4890,
      "ugly": 4891,
      "tert": 4892,
      "##eve": 4893,
      "##pi": 4894,
      "##pha": 4895,
      "##atar": 4896,
      "defensive": 4897,
      "##interest": 4898,
      "mechanism": 4899,
      "adopt": 4900,
      "citizen": 4901,
      "wis": 4902,
      "##inder": 4903,
      "cup": 4904,
      "openness": 4905,
      "##ublic": 4906,
      "existential": 4907,
      "largely": 4908,
      "tonight": 4909,
      "pc": 4910,
      "##rr": 4911,
      "dim": 4912,
      "unb": 4913,
      "educate": 4914,
      "jam": 4915,
      "utter": 4916,
      "##itive": 4917,
      "##cel": 4918,
      "choc": 4919,
      "diss": 4920,
      "sibling": 4921,
      "medication": 4922,
      "painful": 4923,
      "universal": 4924,
      "scientist": 4925,
      "cast": 4926,
      "doll": 4927,
      "thri": 4928,
      "stare": 4929,
      "resolve": 4930,
      "underlie": 4931,
      "consci": 4932,
      "##stig": 4933,
      "impulsive": 4934,
      "sentiment": 4935,
      "cer": 4936,
      "pant": 4937,
      "san": 4938,
      "spring": 4939,
      "brow": 4940,
      "mild": 4941,
      "criminal": 4942,
      "sadness": 4943,
      "convention": 4944,
      "toxic": 4945,
      "##ainty": 4946,
      "creepy": 4947,
      "temperament": 4948,
      "wander": 4949,
      "##bar": 4950,
      "##itt": 4951,
      "request": 4952,
      "lecture": 4953,
      "depart": 4954,
      "republic": 4955,
      "##licit": 4956,
      "sadly": 4957,
      "poorly": 4958,
      "investig": 4959,
      "afterwards": 4960,
      "hypothe": 4961,
      "review": 4962,
      "arbit": 4963,
      "generate": 4964,
      "wed": 4965,
      "##nique": 4966,
      "raw": 4967,
      "illogical": 4968,
      "histor": 4969,
      "versa": 4970,
      "narcissistic": 4971,
      "borderline": 4972,
      "mascul": 4973,
      "practically": 4974,
      "##iche": 4975,
      "##ughter": 4976,
      "politician": 4977,
      "bottle": 4978,
      "flexi": 4979,
      "financial": 4980,
      "gf": 4981,
      "##pg": 4982,
      "generation": 4983,
      "atmo": 4984,
      "technique": 4985,
      "butt": 4986,
      "intimidate": 4987,
      "suicide": 4988,
      "romance": 4989,
      "selv": 4990,
      "bounce": 4991,
      "rip": 4992,
      "##rat": 4993,
      "##æn": 4994,
      "##lex": 4995,
      "##resh": 4996,
      "moon": 4997,
      "disreg": 4998,
      "##lify": 4999,
      "empathetic": 5000,
      "gig": 5001,
      "tid": 5002,
      "##port": 5003,
      "##onym": 5004,
      "recip": 5005,
      "divor": 5006,
      "##urate": 5007,
      "##dia": 5008,
      "instantly": 5009,
      "charism": 5010,
      "thoughtful": 5011,
      "sexy": 5012,
      "analytical": 5013,
      "chocolate": 5014,
      "atmosp": 5015,
      "divorce": 5016,
      "aka": 5017,
      "##sta": 5018,
      "stance": 5019,
      "intent": 5020,
      "##olar": 5021,
      "abusive": 5022,
      "##tedly": 5023,
      "promote": 5024,
      "destru": 5025,
      "tempor": 5026,
      "toler": 5027,
      "capitalism": 5028,
      "global": 5029,
      "spark": 5030,
      "boat": 5031,
      "bug": 5032,
      "medical": 5033,
      "originally": 5034,
      "jungian": 5035,
      "location": 5036,
      "urge": 5037,
      "stimulate": 5038,
      "disregard": 5039,
      "cous": 5040,
      "cash": 5041,
      "gap": 5042,
      "kno": 5043,
      "rent": 5044,
      "tro": 5045,
      "accuracy": 5046,
      "##valent": 5047,
      "feminine": 5048,
      "unknown": 5049,
      "wisdom": 5050,
      "bru": 5051,
      "cake": 5052,
      "fur": 5053,
      "##grate": 5054,
      "##ato": 5055,
      "select": 5056,
      "host": 5057,
      "distin": 5058,
      "validate": 5059,
      "effectively": 5060,
      "burden": 5061,
      "fictional": 5062,
      "ideology": 5063,
      "innoc": 5064,
      "være": 5065,
      "pian": 5066,
      "##tarian": 5067,
      "##rain": 5068,
      "##olf": 5069,
      "##tte": 5070,
      "offensive": 5071,
      "crash": 5072,
      "cousin": 5073,
      "native": 5074,
      "##itude": 5075,
      "exagger": 5076,
      "intri": 5077,
      "uncle": 5078,
      "surely": 5079,
      "scr": 5080,
      "offic": 5081,
      "avatar": 5082,
      "cringe": 5083,
      "omfg": 5084,
      "aesthe": 5085,
      "wo": 5086,
      "##wor": 5087,
      "##ins": 5088,
      "dive": 5089,
      "disgust": 5090,
      "superficial": 5091,
      "homework": 5092,
      "dependent": 5093,
      "invent": 5094,
      "versus": 5095,
      "minimum": 5096,
      "intrigue": 5097,
      "##itation": 5098,
      "evolve": 5099,
      "hah": 5100,
      "randomly": 5101,
      "##mptom": 5102,
      "libertarian": 5103,
      "threaten": 5104,
      "mast": 5105,
      "##da": 5106,
      "##onic": 5107,
      "##tif": 5108,
      "##ued": 5109,
      "unt": 5110,
      "talkative": 5111,
      "consideration": 5112,
      "region": 5113,
      "##archy": 5114,
      "##ribution": 5115,
      "assertive": 5116,
      "route": 5117,
      "ber": 5118,
      "ko": 5119,
      "mountain": 5120,
      "inde": 5121,
      "arrive": 5122,
      "accuse": 5123,
      "criti": 5124,
      "breathe": 5125,
      "demonstrate": 5126,
      "officer": 5127,
      "##nos": 5128,
      "##iber": 5129,
      "##eration": 5130,
      "conce": 5131,
      "prem": 5132,
      "notion": 5133,
      "saf": 5134,
      "orange": 5135,
      "symptom": 5136,
      "secure": 5137,
      "performance": 5138,
      "uncert": 5139,
      "piano": 5140,
      "nur": 5141,
      "##core": 5142,
      "##bur": 5143,
      "##alog": 5144,
      "storm": 5145,
      "excess": 5146,
      "alpha": 5147,
      "greatly": 5148,
      "specie": 5149,
      "treatment": 5150,
      "percentage": 5151,
      "unhappy": 5152,
      "bird": 5153,
      "##omen": 5154,
      "##etype": 5155,
      "inacc": 5156,
      "##icket": 5157,
      "potter": 5158,
      "persona": 5159,
      "adus": 5160,
      "distant": 5161,
      "nfs": 5162,
      "rebel": 5163,
      "##self": 5164,
      "whe": 5165,
      "apple": 5166,
      "scri": 5167,
      "terror": 5168,
      "bible": 5169,
      "army": 5170,
      "chaos": 5171,
      "##iiiiiiii": 5172,
      "transp": 5173,
      "camera": 5174,
      "gentle": 5175,
      "bend": 5176,
      "socialism": 5177,
      "insist": 5178,
      "miserable": 5179,
      "flower": 5180,
      "bread": 5181,
      "inj": 5182,
      "##rish": 5183,
      "##laim": 5184,
      "##asty": 5185,
      "##lix": 5186,
      "contrary": 5187,
      "pass": 5188,
      "conform": 5189,
      "similarity": 5190,
      "absurd": 5191,
      "psychologist": 5192,
      "nightm": 5193,
      "##consciously": 5194,
      "climb": 5195,
      "spontaneous": 5196,
      "reciproc": 5197,
      "aid": 5198,
      "cue": 5199,
      "##head": 5200,
      "##tile": 5201,
      "ped": 5202,
      "league": 5203,
      "trash": 5204,
      "##duction": 5205,
      "closely": 5206,
      "swim": 5207,
      "famous": 5208,
      "slip": 5209,
      "client": 5210,
      "pleasant": 5211,
      "dedicate": 5212,
      "satisfaction": 5213,
      "brilliant": 5214,
      "knock": 5215,
      "punch": 5216,
      "##isation": 5217,
      "convey": 5218,
      "actor": 5219,
      "offense": 5220,
      "grav": 5221,
      "expressive": 5222,
      "intentionally": 5223,
      "explor": 5224,
      "eller": 5225,
      "atmosphere": 5226,
      "nightmare": 5227,
      "ri": 5228,
      "##nn": 5229,
      "##xps": 5230,
      "##sey": 5231,
      "ant": 5232,
      "facial": 5233,
      "##fulness": 5234,
      "consume": 5235,
      "maturity": 5236,
      "insert": 5237,
      "openly": 5238,
      "signal": 5239,
      "empathize": 5240,
      "apparent": 5241,
      "radio": 5242,
      "andre": 5243,
      "dragon": 5244,
      "gear": 5245,
      "hvor": 5246,
      "##lr": 5247,
      "##zer": 5248,
      "aww": 5249,
      "##rology": 5250,
      "##anese": 5251,
      "cognition": 5252,
      "rigid": 5253,
      "ben": 5254,
      "ixx": 5255,
      "mig": 5256,
      "##write": 5257,
      "##atable": 5258,
      "##utor": 5259,
      "comedy": 5260,
      "recover": 5261,
      "grammar": 5262,
      "angle": 5263,
      "purple": 5264,
      "upvote": 5265,
      "excitement": 5266,
      "betray": 5267,
      "whoever": 5268,
      "##hibit": 5269,
      "mathema": 5270,
      "script": 5271,
      "bow": 5272,
      "dirty": 5273,
      "ie": 5274,
      "util": 5275,
      "##fa": 5276,
      "##fx": 5277,
      "##isive": 5278,
      "aband": 5279,
      "weigh": 5280,
      "heat": 5281,
      "pragma": 5282,
      "viewpoint": 5283,
      "fancy": 5284,
      "cancer": 5285,
      "accidentally": 5286,
      "sympathy": 5287,
      "distinction": 5288,
      "soooo": 5289,
      "##sk": 5290,
      "##orge": 5291,
      "conspi": 5292,
      "parad": 5293,
      "clever": 5294,
      "blank": 5295,
      "heck": 5296,
      "concert": 5297,
      "format": 5298,
      "##ensity": 5299,
      "trivi": 5300,
      "hitler": 5301,
      "catholic": 5302,
      "department": 5303,
      "##flix": 5304,
      "##tire": 5305,
      "##raine": 5306,
      "shell": 5307,
      "spin": 5308,
      "impose": 5309,
      "assist": 5310,
      "##ered": 5311,
      "islam": 5312,
      "extraversion": 5313,
      "idealistic": 5314,
      "contemp": 5315,
      "essay": 5316,
      "netflix": 5317,
      "revolution": 5318,
      "##inguish": 5319,
      "vocal": 5320,
      "thrill": 5321,
      "conspiracy": 5322,
      "dare": 5323,
      "egg": 5324,
      "giant": 5325,
      "ppl": 5326,
      "tumb": 5327,
      "##gu": 5328,
      "##va": 5329,
      "##ays": 5330,
      "##enda": 5331,
      "unus": 5332,
      "traff": 5333,
      "twist": 5334,
      "subconscious": 5335,
      "coop": 5336,
      "generalize": 5337,
      "neglect": 5338,
      "horri": 5339,
      "jean": 5340,
      "moderate": 5341,
      "friday": 5342,
      "cuddle": 5343,
      "arise": 5344,
      "gal": 5345,
      "mas": 5346,
      "sir": 5347,
      "wrap": 5348,
      "##ca": 5349,
      "##ortive": 5350,
      "unconscious": 5351,
      "nostal": 5352,
      "phen": 5353,
      "craft": 5354,
      "daughter": 5355,
      "occup": 5356,
      "piz": 5357,
      "##aign": 5358,
      "##mind": 5359,
      "##ssment": 5360,
      "anim": 5361,
      "county": 5362,
      "literature": 5363,
      "straightfor": 5364,
      "verb": 5365,
      "archetype": 5366,
      "paranoid": 5367,
      "quadra": 5368,
      "unnecessary": 5369,
      "traffic": 5370,
      "nostalg": 5371,
      "straightforward": 5372,
      "bc": 5373,
      "nurt": 5374,
      "##ting": 5375,
      "##pet": 5376,
      "##fast": 5377,
      "twenty": 5378,
      "disturb": 5379,
      "football": 5380,
      "campaign": 5381,
      "tolerate": 5382,
      "creature": 5383,
      "assessment": 5384,
      "survival": 5385,
      "wal": 5386,
      "##yer": 5387,
      "##entive": 5388,
      "##itarian": 5389,
      "poll": 5390,
      "poetry": 5391,
      "##ruit": 5392,
      "seemingly": 5393,
      "agenda": 5394,
      "obno": 5395,
      "apology": 5396,
      "collection": 5397,
      "ghost": 5398,
      "obnoxi": 5399,
      "wil": 5400,
      "##range": 5401,
      "##gression": 5402,
      "explicit": 5403,
      "implication": 5404,
      "perman": 5405,
      "supportive": 5406,
      "classical": 5407,
      "france": 5408,
      "odds": 5409,
      "bind": 5410,
      "hv": 5411,
      "porn": 5412,
      "##bul": 5413,
      "##down": 5414,
      "##fly": 5415,
      "##ked": 5416,
      "##utation": 5417,
      "diet": 5418,
      "agre": 5419,
      "skal": 5420,
      "musical": 5421,
      "energ": 5422,
      "silent": 5423,
      "hypoc": 5424,
      "stimulus": 5425,
      "compete": 5426,
      "frankly": 5427,
      "japanese": 5428,
      "vacation": 5429,
      "illeg": 5430,
      "nurse": 5431,
      "tumblr": 5432,
      "ble": 5433,
      "##etal": 5434,
      "stability": 5435,
      "##utch": 5436,
      "angel": 5437,
      "beach": 5438,
      "portray": 5439,
      "loyay": 5440,
      "intimate": 5441,
      "breath": 5442,
      "dimension": 5443,
      "##nostic": 5444,
      "##ken": 5445,
      "defe": 5446,
      "##asm": 5447,
      "usa": 5448,
      "string": 5449,
      "classi": 5450,
      "swing": 5451,
      "generalization": 5452,
      "##retch": 5453,
      "##craft": 5454,
      "beta": 5455,
      "scheme": 5456,
      "fulfill": 5457,
      "coworkers": 5458,
      "mobile": 5459,
      "foundation": 5460,
      "safety": 5461,
      "tatt": 5462,
      "div": 5463,
      "interrupt": 5464,
      "musician": 5465,
      "minimal": 5466,
      "distinguish": 5467,
      "appreciation": 5468,
      "owner": 5469,
      "inspiration": 5470,
      "narcissist": 5471,
      "qualify": 5472,
      "arbitrary": 5473,
      "phenomen": 5474,
      "gard": 5475,
      "##cl": 5476,
      "##off": 5477,
      "chain": 5478,
      "carefully": 5479,
      "subtype": 5480,
      "endless": 5481,
      "prison": 5482,
      "freeze": 5483,
      "worthy": 5484,
      "secretly": 5485,
      "stock": 5486,
      "congrat": 5487,
      "bee": 5488,
      "bless": 5489,
      "hunt": 5490,
      "tank": 5491,
      "wire": 5492,
      "##lective": 5493,
      "shar": 5494,
      "##hael": 5495,
      "mac": 5496,
      "suppress": 5497,
      "variable": 5498,
      "ogsa": 5499,
      "judgmental": 5500,
      "dramatic": 5501,
      "optimistic": 5502,
      "##risingly": 5503,
      "spoil": 5504,
      "hypothetical": 5505,
      "inaccurate": 5506,
      "##uri": 5507,
      "##sen": 5508,
      "##stru": 5509,
      "##icle": 5510,
      "polish": 5511,
      "##soever": 5512,
      "precisely": 5513,
      "democracy": 5514,
      "sheer": 5515,
      "tattoo": 5516,
      "##ield": 5517,
      "##mble": 5518,
      "##ced": 5519,
      "inti": 5520,
      "lover": 5521,
      "file": 5522,
      "sample": 5523,
      "territ": 5524,
      "idealist": 5525,
      "insightful": 5526,
      "feminism": 5527,
      "pokemon": 5528,
      "bit": 5529,
      "ticket": 5530,
      "##ium": 5531,
      "##power": 5532,
      "##steri": 5533,
      "##eter": 5534,
      "station": 5535,
      "feder": 5536,
      "##ula": 5537,
      "ade": 5538,
      "disconnect": 5539,
      "bold": 5540,
      "coinc": 5541,
      "muscle": 5542,
      "survey": 5543,
      "finance": 5544,
      "minority": 5545,
      "flash": 5546,
      "commonly": 5547,
      "sugar": 5548,
      "budd": 5549,
      "michael": 5550,
      "audience": 5551,
      "obsession": 5552,
      "##votes": 5553,
      "aer": 5554,
      "bitter": 5555,
      "##hand": 5556,
      "##lay": 5557,
      "pod": 5558,
      "meal": 5559,
      "asian": 5560,
      "humour": 5561,
      "variant": 5562,
      "poland": 5563,
      "deliber": 5564,
      "protest": 5565,
      "##ensitive": 5566,
      "whatsoever": 5567,
      "inconsist": 5568,
      "nurture": 5569,
      "cart": 5570,
      "rage": 5571,
      "##nat": 5572,
      "##ino": 5573,
      "thin": 5574,
      "##adays": 5575,
      "##itype": 5576,
      "unrel": 5577,
      "##viously": 5578,
      "hoard": 5579,
      "empire": 5580,
      "remark": 5581,
      "consistency": 5582,
      "layer": 5583,
      "admin": 5584,
      "float": 5585,
      "ignorance": 5586,
      "obligation": 5587,
      "cheese": 5588,
      "honor": 5589,
      "unite": 5590,
      "differenti": 5591,
      "brut": 5592,
      "grain": 5593,
      "swed": 5594,
      "british": 5595,
      "##hhh": 5596,
      "##titute": 5597,
      "server": 5598,
      "nowadays": 5599,
      "edgy": 5600,
      "maxim": 5601,
      "condes": 5602,
      "pool": 5603,
      "##oti": 5604,
      "##kel": 5605,
      "converse": 5606,
      "##duct": 5607,
      "childish": 5608,
      "praise": 5609,
      "picky": 5610,
      "textbook": 5611,
      "subreddits": 5612,
      "myth": 5613,
      "significantly": 5614,
      "witty": 5615,
      "aesthetic": 5616,
      "billion": 5617,
      "##ta": 5618,
      "stretch": 5619,
      "sund": 5620,
      "realm": 5621,
      "##tless": 5622,
      "speaker": 5623,
      "inval": 5624,
      "romantically": 5625,
      "##cery": 5626,
      "christianity": 5627,
      "ineff": 5628,
      "chemical": 5629,
      "chicken": 5630,
      "concentrate": 5631,
      "celebrate": 5632,
      "pizza": 5633,
      "ash": 5634,
      "equi": 5635,
      "gest": 5636,
      "wine": 5637,
      "##dam": 5638,
      "chore": 5639,
      "ensure": 5640,
      "adore": 5641,
      "senior": 5642,
      "grate": 5643,
      "contract": 5644,
      "nihil": 5645,
      "agreement": 5646,
      "breakup": 5647,
      "bump": 5648,
      "indul": 5649,
      "bridge": 5650,
      "amaz": 5651,
      "fuel": 5652,
      "mysteri": 5653,
      "derive": 5654,
      "prioriti": 5655,
      "intimacy": 5656,
      "bli": 5657,
      "ol": 5658,
      "ry": 5659,
      "##amp": 5660,
      "goss": 5661,
      "##ffy": 5662,
      "##illed": 5663,
      "agnostic": 5664,
      "tritype": 5665,
      "sorta": 5666,
      "addiction": 5667,
      "remote": 5668,
      "conven": 5669,
      "##respon": 5670,
      "delusion": 5671,
      "independence": 5672,
      "burst": 5673,
      "astrology": 5674,
      "dictate": 5675,
      "exaggerate": 5676,
      "abandon": 5677,
      "obnoxious": 5678,
      "fond": 5679,
      "ved": 5680,
      "##inity": 5681,
      "##ancy": 5682,
      "##cean": 5683,
      "stea": 5684,
      "##ited": 5685,
      "previously": 5686,
      "session": 5687,
      "boil": 5688,
      "queen": 5689,
      "century": 5690,
      "##oooooooo": 5691,
      "privacy": 5692,
      "solely": 5693,
      "affirmation": 5694,
      "innocent": 5695,
      "wheel": 5696,
      "gossip": 5697,
      "herm": 5698,
      "##some": 5699,
      "reass": 5700,
      "stp": 5701,
      "adorable": 5702,
      "humble": 5703,
      "monster": 5704,
      "tease": 5705,
      "breakfast": 5706,
      "memorize": 5707,
      "medic": 5708,
      "slam": 5709,
      "investment": 5710,
      "drift": 5711,
      "austral": 5712,
      "thoroughly": 5713,
      "navig": 5714,
      "cell": 5715,
      "deem": 5716,
      "kun": 5717,
      "tight": 5718,
      "##ave": 5719,
      "##ts": 5720,
      "##ya": 5721,
      "##xy": 5722,
      "stalk": 5723,
      "ham": 5724,
      "workplace": 5725,
      "beg": 5726,
      "asp": 5727,
      "##agram": 5728,
      "scot": 5729,
      "elsewhere": 5730,
      "propose": 5731,
      "beneficial": 5732,
      "essential": 5733,
      "##iveness": 5734,
      "violent": 5735,
      "attachment": 5736,
      "grocery": 5737,
      "fort": 5738,
      "mort": 5739,
      "##cism": 5740,
      "##lead": 5741,
      "summ": 5742,
      "chair": 5743,
      "combo": 5744,
      "tele": 5745,
      "##agon": 5746,
      "guid": 5747,
      "hardcore": 5748,
      "schiz": 5749,
      "pray": 5750,
      "apath": 5751,
      "##nia": 5752,
      "collective": 5753,
      "dozen": 5754,
      "heaven": 5755,
      "peaceful": 5756,
      "canada": 5757,
      "unfair": 5758,
      "integrate": 5759,
      "dollar": 5760,
      "masculine": 5761,
      "unusual": 5762,
      "gross": 5763,
      "hur": 5764,
      "lur": 5765,
      "mand": 5766,
      "oo": 5767,
      "ocean": 5768,
      "rick": 5769,
      "tall": 5770,
      "##ors": 5771,
      "##chase": 5772,
      "unint": 5773,
      "anytime": 5774,
      "headphone": 5775,
      "afric": 5776,
      "purchase": 5777,
      "acceptance": 5778,
      "sooner": 5779,
      "hahahaha": 5780,
      "calculate": 5781,
      "illegal": 5782,
      "unrelated": 5783,
      "ath": 5784,
      "bone": 5785,
      "elim": 5786,
      "toy": 5787,
      "wolf": 5788,
      "##kt": 5789,
      "teeth": 5790,
      "instant": 5791,
      "biology": 5792,
      "luckily": 5793,
      "horror": 5794,
      "deadline": 5795,
      "association": 5796,
      "petty": 5797,
      "stimulation": 5798,
      "feminist": 5799,
      "subscribe": 5800,
      "energize": 5801,
      "##natural": 5802,
      "cream": 5803,
      "dot": 5804,
      "hun": 5805,
      "rot": 5806,
      "##bi": 5807,
      "all": 5808,
      "##pection": 5809,
      "confe": 5810,
      "handful": 5811,
      "island": 5812,
      "literal": 5813,
      "variation": 5814,
      "interpersonal": 5815,
      "hungry": 5816,
      "downvoted": 5817,
      "skeptical": 5818,
      "empirical": 5819,
      "premise": 5820,
      "reciprocate": 5821,
      "bip": 5822,
      "mart": 5823,
      "weah": 5824,
      "##ks": 5825,
      "##ilot": 5826,
      "needy": 5827,
      "kindness": 5828,
      "command": 5829,
      "assure": 5830,
      "formal": 5831,
      "surprisingly": 5832,
      "##stery": 5833,
      "##onald": 5834,
      "transition": 5835,
      "capture": 5836,
      "sharp": 5837,
      "hind": 5838,
      "tm": 5839,
      "##tra": 5840,
      "debt": 5841,
      "##olation": 5842,
      "##mentally": 5843,
      "accom": 5844,
      "incident": 5845,
      "entitle": 5846,
      "incompet": 5847,
      "bathroom": 5848,
      "mysterious": 5849,
      "cope": 5850,
      "river": 5851,
      "sf": 5852,
      "##ena": 5853,
      "##stanti": 5854,
      "anarch": 5855,
      "intr": 5856,
      "##erson": 5857,
      "arrange": 5858,
      "activ": 5859,
      "##ductive": 5860,
      "##osis": 5861,
      "rust": 5862,
      "graphic": 5863,
      "production": 5864,
      "mystery": 5865,
      "##uuuu": 5866,
      "elementary": 5867,
      "unex": 5868,
      "stoic": 5869,
      "hosp": 5870,
      "cynical": 5871,
      "don": 5872,
      "dose": 5873,
      "row": 5874,
      "sle": 5875,
      "##ament": 5876,
      "##stain": 5877,
      "mock": 5878,
      "relief": 5879,
      "meanwhile": 5880,
      "adver": 5881,
      "ord": 5882,
      "mission": 5883,
      "corporate": 5884,
      "##coming": 5885,
      "instruction": 5886,
      "##mission": 5887,
      "eastern": 5888,
      "garden": 5889,
      "ft": 5890,
      "##rome": 5891,
      "##bage": 5892,
      "##xjs": 5893,
      "##wi": 5894,
      "thrive": 5895,
      "tim": 5896,
      "##law": 5897,
      "##inese": 5898,
      "sps": 5899,
      "compel": 5900,
      "advise": 5901,
      "tex": 5902,
      "realization": 5903,
      "decl": 5904,
      "cock": 5905,
      "##ache": 5906,
      "marx": 5907,
      "conclude": 5908,
      "criter": 5909,
      "ethical": 5910,
      "photography": 5911,
      "ironically": 5912,
      "mechanic": 5913,
      "audio": 5914,
      "bubble": 5915,
      "trauma": 5916,
      "congratulation": 5917,
      "territory": 5918,
      "podcast": 5919,
      "condescend": 5920,
      "sunday": 5921,
      "gesture": 5922,
      "criterion": 5923,
      "lat": 5924,
      "portion": 5925,
      "tick": 5926,
      "xxx": 5927,
      "##ops": 5928,
      "sustain": 5929,
      "##ffer": 5930,
      "chap": 5931,
      "chinese": 5932,
      "compla": 5933,
      "societal": 5934,
      "height": 5935,
      "solo": 5936,
      "racism": 5937,
      "distinct": 5938,
      "perceiver": 5939,
      "psyche": 5940,
      "miscon": 5941,
      "essence": 5942,
      "intellectually": 5943,
      "confirmation": 5944,
      "partially": 5945,
      "sjw": 5946,
      "villain": 5947,
      "micro": 5948,
      "fundamentally": 5949,
      "exec": 5950,
      "tactic": 5951,
      "conscientious": 5952,
      "flexible": 5953,
      "dub": 5954,
      "pier": 5955,
      "ven": 5956,
      "##ai": 5957,
      "##uff": 5958,
      "##stream": 5959,
      "##pple": 5960,
      "##mother": 5961,
      "disres": 5962,
      "##thern": 5963,
      "happily": 5964,
      "##athe": 5965,
      "skew": 5966,
      "impulse": 5967,
      "assignment": 5968,
      "excessive": 5969,
      "equivalent": 5970,
      "disrespect": 5971,
      "pee": 5972,
      "tort": 5973,
      "##bow": 5974,
      "##lation": 5975,
      "dece": 5976,
      "shrug": 5977,
      "##ied": 5978,
      "seven": 5979,
      "leap": 5980,
      "pron": 5981,
      "reputation": 5982,
      "international": 5983,
      "##aneously": 5984,
      "legit": 5985,
      "goofy": 5986,
      "competent": 5987,
      "emphasis": 5988,
      "anecdot": 5989,
      "spanish": 5990,
      "motor": 5991,
      "browse": 5992,
      "bake": 5993,
      "dwell": 5994,
      "hr": 5995,
      "ponder": 5996,
      "##nership": 5997,
      "##rier": 5998,
      "poem": 5999,
      "enforce": 6000,
      "communist": 6001,
      "listener": 6002,
      "curse": 6003,
      "sexually": 6004,
      "negoti": 6005,
      "supposedly": 6006,
      "##interp": 6007,
      "falla": 6008,
      "champ": 6009,
      "boost": 6010,
      "candidate": 6011,
      "##flake": 6012,
      "bonus": 6013,
      "trivial": 6014,
      "buddh": 6015,
      "differentiate": 6016,
      "bipolar": 6017,
      "fade": 6018,
      "mys": 6019,
      "##boy": 6020,
      "##yth": 6021,
      "##storm": 6022,
      "incon": 6023,
      "##pedia": 6024,
      "progra": 6025,
      "dise": 6026,
      "##igner": 6027,
      "reader": 6028,
      "##bert": 6029,
      "creation": 6030,
      "imagin": 6031,
      "analyse": 6032,
      "sensitivity": 6033,
      "sweat": 6034,
      "bedroom": 6035,
      "chaotic": 6036,
      "examine": 6037,
      "unexpect": 6038,
      "dys": 6039,
      "fps": 6040,
      "nj": 6041,
      "nerve": 6042,
      "rab": 6043,
      "roud": 6044,
      "tor": 6045,
      "##vin": 6046,
      "reck": 6047,
      "##eliness": 6048,
      "cher": 6049,
      "china": 6050,
      "persu": 6051,
      "strateg": 6052,
      "branch": 6053,
      "requirement": 6054,
      "slave": 6055,
      "obsessive": 6056,
      "phenomenon": 6057,
      "unexpected": 6058,
      "upper": 6059,
      "##itor": 6060,
      "##ria": 6061,
      "makeup": 6062,
      "ted": 6063,
      "cafe": 6064,
      "##ssim": 6065,
      "outlet": 6066,
      "brit": 6067,
      "##mma": 6068,
      "conceptual": 6069,
      "categorize": 6070,
      "vulnerability": 6071,
      "##stein": 6072,
      "wikipedia": 6073,
      "##interpret": 6074,
      "pit": 6075,
      "##irable": 6076,
      "##oly": 6077,
      "##vable": 6078,
      "inability": 6079,
      "##getic": 6080,
      "shout": 6081,
      "compens": 6082,
      "##estimate": 6083,
      "cave": 6084,
      "trial": 6085,
      "publish": 6086,
      "cuures": 6087,
      "bullet": 6088,
      "terribly": 6089,
      "infinite": 6090,
      "oblivious": 6091,
      "scratch": 6092,
      "eliminate": 6093,
      "kitch": 6094,
      "nap": 6095,
      "zomb": 6096,
      "##net": 6097,
      "##ige": 6098,
      "lic": 6099,
      "##thy": 6100,
      "##ffe": 6101,
      "mund": 6102,
      "##social": 6103,
      "##iper": 6104,
      "distraction": 6105,
      "##naire": 6106,
      "equation": 6107,
      "##ledg": 6108,
      "snowflake": 6109,
      "unreal": 6110,
      "clingy": 6111,
      "navigate": 6112,
      "kitchen": 6113,
      "fortun": 6114,
      "mm": 6115,
      "yog": 6116,
      "##bid": 6117,
      "##ora": 6118,
      "##thesis": 6119,
      "pessim": 6120,
      "poly": 6121,
      "cauti": 6122,
      "applic": 6123,
      "questionnaire": 6124,
      "autism": 6125,
      "chess": 6126,
      "refresh": 6127,
      "despise": 6128,
      "ironic": 6129,
      "procrastination": 6130,
      "loneliness": 6131,
      "reinforce": 6132,
      "federal": 6133,
      "prioritize": 6134,
      "accommo": 6135,
      "bang": 6136,
      "cig": 6137,
      "hen": 6138,
      "nasty": 6139,
      "##ho": 6140,
      "##opher": 6141,
      "##unction": 6142,
      "chest": 6143,
      "##utter": 6144,
      "someday": 6145,
      "badass": 6146,
      "twitter": 6147,
      "awww": 6148,
      "recogni": 6149,
      "goddam": 6150,
      "presentation": 6151,
      "lawyer": 6152,
      "articulate": 6153,
      "statis": 6154,
      "veh": 6155,
      "##ugee": 6156,
      "hospital": 6157,
      "advertise": 6158,
      "blo": 6159,
      "lou": 6160,
      "pse": 6161,
      "pity": 6162,
      "rpg": 6163,
      "##ib": 6164,
      "##vation": 6165,
      "##alian": 6166,
      "##leas": 6167,
      "##itant": 6168,
      "lid": 6169,
      "##med": 6170,
      "alle": 6171,
      "proceed": 6172,
      "muse": 6173,
      "substance": 6174,
      "refugee": 6175,
      "polr": 6176,
      "butth": 6177,
      "occasional": 6178,
      "repeti": 6179,
      "budget": 6180,
      "tricky": 6181,
      "speculation": 6182,
      "legitimate": 6183,
      "indicator": 6184,
      "programmer": 6185,
      "lane": 6186,
      "ww": 6187,
      "##ix": 6188,
      "##cil": 6189,
      "##reck": 6190,
      "##organ": 6191,
      "likewise": 6192,
      "##urday": 6193,
      "expense": 6194,
      "sold": 6195,
      "partly": 6196,
      "scare": 6197,
      "farm": 6198,
      "sidebar": 6199,
      "setting": 6200,
      "importantly": 6201,
      "refine": 6202,
      "mentor": 6203,
      "organise": 6204,
      "naive": 6205,
      "forest": 6206,
      "toe": 6207,
      "frequent": 6208,
      "##aaaaaaaa": 6209,
      "simu": 6210,
      "greek": 6211,
      "saturday": 6212,
      "introspection": 6213,
      "disease": 6214,
      "pseud": 6215,
      "cc": 6216,
      "nick": 6217,
      "ting": 6218,
      "tact": 6219,
      "##fuck": 6220,
      "ing": 6221,
      "unit": 6222,
      "motion": 6223,
      "prime": 6224,
      "bund": 6225,
      "legend": 6226,
      "sufficient": 6227,
      "##yyyy": 6228,
      "inherent": 6229,
      "alike": 6230,
      "insuing": 6231,
      "japan": 6232,
      "steam": 6233,
      "sid": 6234,
      "##vention": 6235,
      "##wood": 6236,
      "##zzy": 6237,
      "##oral": 6238,
      "inno": 6239,
      "##cient": 6240,
      "motif": 6241,
      "bossy": 6242,
      "perpet": 6243,
      "##jectivity": 6244,
      "esp": 6245,
      "brush": 6246,
      "indie": 6247,
      "mainstream": 6248,
      "negatively": 6249,
      "discovery": 6250,
      "karma": 6251,
      "equip": 6252,
      "quirk": 6253,
      "grateful": 6254,
      "duck": 6255,
      "eight": 6256,
      "ip": 6257,
      "len": 6258,
      "tour": 6259,
      "##oe": 6260,
      "##itty": 6261,
      "anonym": 6262,
      "intensity": 6263,
      "neck": 6264,
      "pose": 6265,
      "clarity": 6266,
      "blan": 6267,
      "##liness": 6268,
      "excel": 6269,
      "flight": 6270,
      "propag": 6271,
      "killer": 6272,
      "recommendation": 6273,
      "toss": 6274,
      "orientation": 6275,
      "teenage": 6276,
      "ideally": 6277,
      "confrontation": 6278,
      "compatibility": 6279,
      "coworker": 6280,
      "sincerely": 6281,
      "cautious": 6282,
      "vehicle": 6283,
      "boot": 6284,
      "nag": 6285,
      "pile": 6286,
      "##night": 6287,
      "##iat": 6288,
      "##bra": 6289,
      "##hear": 6290,
      "##word": 6291,
      "##eral": 6292,
      "##tial": 6293,
      "retire": 6294,
      "knowledg": 6295,
      "arti": 6296,
      "##shine": 6297,
      "respective": 6298,
      "thankfully": 6299,
      "buzz": 6300,
      "raven": 6301,
      "biological": 6302,
      "retail": 6303,
      "immense": 6304,
      "central": 6305,
      "rationalize": 6306,
      "milk": 6307,
      "cancel": 6308,
      "##atedly": 6309,
      "arrogance": 6310,
      "additional": 6311,
      "captain": 6312,
      "introspective": 6313,
      "overthinking": 6314,
      "##alogue": 6315,
      "classify": 6316,
      "xx": 6317,
      "##bear": 6318,
      "##sday": 6319,
      "##inging": 6320,
      "anth": 6321,
      "ness": 6322,
      "enlight": 6323,
      "tempt": 6324,
      "##amed": 6325,
      "worldview": 6326,
      "##osure": 6327,
      "classmate": 6328,
      "nega": 6329,
      "##itious": 6330,
      "david": 6331,
      "achievement": 6332,
      "mutually": 6333,
      "witness": 6334,
      "noget": 6335,
      "verbally": 6336,
      "bree": 6337,
      "courage": 6338,
      "gau": 6339,
      "sink": 6340,
      "veri": 6341,
      "##yl": 6342,
      "pocket": 6343,
      "##ethe": 6344,
      "fiance": 6345,
      "controver": 6346,
      "incap": 6347,
      "supply": 6348,
      "clin": 6349,
      "##nife": 6350,
      "harass": 6351,
      "boredom": 6352,
      "douche": 6353,
      "household": 6354,
      "narrative": 6355,
      "pretentious": 6356,
      "creator": 6357,
      "tolerance": 6358,
      "mathematics": 6359,
      "occupy": 6360,
      "ein": 6361,
      "##iry": 6362,
      "##dr": 6363,
      "##ziness": 6364,
      "##ating": 6365,
      "##ilst": 6366,
      "progressive": 6367,
      "discri": 6368,
      "paral": 6369,
      "insurance": 6370,
      "labor": 6371,
      "unfortunate": 6372,
      "euro": 6373,
      "ambition": 6374,
      "butterfly": 6375,
      "medicine": 6376,
      "simuaneously": 6377,
      "knife": 6378,
      "youth": 6379,
      "##az": 6380,
      "##ingness": 6381,
      "sus": 6382,
      "definitive": 6383,
      "print": 6384,
      "exclude": 6385,
      "homeless": 6386,
      "misinterpret": 6387,
      "##bringing": 6388,
      "repeatedly": 6389,
      "casually": 6390,
      "archite": 6391,
      "garbage": 6392,
      "outwardly": 6393,
      "republican": 6394,
      "exploration": 6395,
      "utilize": 6396,
      "pierce": 6397,
      "mundane": 6398,
      "couch": 6399,
      "fer": 6400,
      "lens": 6401,
      "tail": 6402,
      "##av": 6403,
      "##erne": 6404,
      "##omfort": 6405,
      "exhibit": 6406,
      "dipl": 6407,
      "##ongue": 6408,
      "whilst": 6409,
      "reasonably": 6410,
      "considerate": 6411,
      "solitude": 6412,
      "quietly": 6413,
      "upbringing": 6414,
      "ntj": 6415,
      "##hahahaha": 6416,
      "representation": 6417,
      "radical": 6418,
      "cruel": 6419,
      "yellow": 6420,
      "virgin": 6421,
      "immigrant": 6422,
      "lurk": 6423,
      "license": 6424,
      "enlighten": 6425,
      "diplom": 6426,
      "bb": 6427,
      "jer": 6428,
      "jim": 6429,
      "sag": 6430,
      "##roph": 6431,
      "##wl": 6432,
      "stab": 6433,
      "goodness": 6434,
      "hav": 6435,
      "hack": 6436,
      "unaw": 6437,
      "lifetime": 6438,
      "clock": 6439,
      "institution": 6440,
      "retreat": 6441,
      "fran": 6442,
      "combat": 6443,
      "digital": 6444,
      "square": 6445,
      "talented": 6446,
      "tangible": 6447,
      "congrats": 6448,
      "##school": 6449,
      "critique": 6450,
      "fruit": 6451,
      "ji": 6452,
      "ng": 6453,
      "sly": 6454,
      "vict": 6455,
      "##rue": 6456,
      "##uc": 6457,
      "##fall": 6458,
      "stead": 6459,
      "stumble": 6460,
      "##rim": 6461,
      "enable": 6462,
      "obama": 6463,
      "##ptop": 6464,
      "outlook": 6465,
      "psychiat": 6466,
      "slide": 6467,
      "fighter": 6468,
      "envy": 6469,
      "explode": 6470,
      "##reland": 6471,
      "validity": 6472,
      "prompt": 6473,
      "grandmother": 6474,
      "ambig": 6475,
      "ambitious": 6476,
      "##bleness": 6477,
      "constructive": 6478,
      "whatnot": 6479,
      "strictly": 6480,
      "hvad": 6481,
      "defeat": 6482,
      "aunt": 6483,
      "gate": 6484,
      "hunch": 6485,
      "iv": 6486,
      "soo": 6487,
      "tutor": 6488,
      "##win": 6489,
      "##orate": 6490,
      "relatable": 6491,
      "component": 6492,
      "agency": 6493,
      "trail": 6494,
      "supervis": 6495,
      "doom": 6496,
      "numer": 6497,
      "hier": 6498,
      "magical": 6499,
      "pursuit": 6500,
      "equality": 6501,
      "incorporate": 6502,
      "indec": 6503,
      "pragmatic": 6504,
      "remotely": 6505,
      "blanket": 6506,
      "gauge": 6507,
      "ireland": 6508,
      "tongue": 6509,
      "convert": 6510,
      "proc": 6511,
      "spare": 6512,
      "extensive": 6513,
      "laptop": 6514,
      "definite": 6515,
      "playful": 6516,
      "mail": 6517,
      "discomfort": 6518,
      "skilled": 6519,
      "mislead": 6520,
      "punk": 6521,
      "entertainment": 6522,
      "merit": 6523,
      "capitalist": 6524,
      "comprehend": 6525,
      "explicitly": 6526,
      "indulge": 6527,
      "fallacy": 6528,
      "bell": 6529,
      "biz": 6530,
      "jk": 6531,
      "##ike": 6532,
      "##pr": 6533,
      "##post": 6534,
      "##enance": 6535,
      "stj": 6536,
      "##geon": 6537,
      "##cience": 6538,
      "mush": 6539,
      "##inton": 6540,
      "nod": 6541,
      "commer": 6542,
      "outright": 6543,
      "overlook": 6544,
      "overlap": 6545,
      "skype": 6546,
      "nicely": 6547,
      "brave": 6548,
      "restrict": 6549,
      "worthless": 6550,
      "glance": 6551,
      "capability": 6552,
      "conviction": 6553,
      "ambiver": 6554,
      "electric": 6555,
      "luc": 6556,
      "unpleas": 6557,
      "turkey": 6558,
      "meditate": 6559,
      "jazz": 6560,
      "enthusiastic": 6561,
      "temporary": 6562,
      "recognition": 6563,
      "soldier": 6564,
      "knowledgeable": 6565,
      "cro": 6566,
      "sket": 6567,
      "##cut": 6568,
      "##break": 6569,
      "##fc": 6570,
      "##tible": 6571,
      "##anter": 6572,
      "persist": 6573,
      "imper": 6574,
      "accent": 6575,
      "insensitive": 6576,
      "certainty": 6577,
      "##edness": 6578,
      "razy": 6579,
      "entry": 6580,
      "morally": 6581,
      "transfer": 6582,
      "nucle": 6583,
      "dispro": 6584,
      "roughly": 6585,
      "clarification": 6586,
      "declare": 6587,
      "unaware": 6588,
      "ara": 6589,
      "dutch": 6590,
      "oil": 6591,
      "##nic": 6592,
      "##ban": 6593,
      "recon": 6594,
      "##cep": 6595,
      "lige": 6596,
      "##roke": 6597,
      "##ease": 6598,
      "##eableness": 6599,
      "uninterest": 6600,
      "compul": 6601,
      "submit": 6602,
      "subconsciously": 6603,
      "pause": 6604,
      "assert": 6605,
      "detect": 6606,
      "clip": 6607,
      "cliche": 6608,
      "autistic": 6609,
      "district": 6610,
      "cali": 6611,
      "reminder": 6612,
      "philosopher": 6613,
      "internalize": 6614,
      "oddly": 6615,
      "maintenance": 6616,
      "vegan": 6617,
      "ridiculously": 6618,
      "tangent": 6619,
      "democratic": 6620,
      "inevitable": 6621,
      "hypocri": 6622,
      "zombie": 6623,
      "cigar": 6624,
      "unpleasant": 6625,
      "eld": 6626,
      "lend": 6627,
      "lame": 6628,
      "obe": 6629,
      "wage": 6630,
      "wreck": 6631,
      "yang": 6632,
      "##eet": 6633,
      "##ission": 6634,
      "##house": 6635,
      "##jud": 6636,
      "##aline": 6637,
      "##tig": 6638,
      "##rael": 6639,
      "oneself": 6640,
      "shot": 6641,
      "##lage": 6642,
      "unst": 6643,
      "##beit": 6644,
      "resort": 6645,
      "##lige": 6646,
      "hahah": 6647,
      "theater": 6648,
      "godt": 6649,
      "energetic": 6650,
      "approve": 6651,
      "polar": 6652,
      "electronic": 6653,
      "campus": 6654,
      "golden": 6655,
      "economics": 6656,
      "xntp": 6657,
      "desperate": 6658,
      "charismatic": 6659,
      "destructive": 6660,
      "complaint": 6661,
      "torture": 6662,
      "yoga": 6663,
      "accommodate": 6664,
      "incapable": 6665,
      "pitch": 6666,
      "##tly": 6667,
      "##sty": 6668,
      "loathe": 6669,
      "precious": 6670,
      "backwards": 6671,
      "twin": 6672,
      "awake": 6673,
      "##used": 6674,
      "##aria": 6675,
      "blat": 6676,
      "violate": 6677,
      "imaginary": 6678,
      "colleague": 6679,
      "psyched": 6680,
      "dominance": 6681,
      "awkwardness": 6682,
      "fourth": 6683,
      "prediction": 6684,
      "wherever": 6685,
      "ukraine": 6686,
      "##poration": 6687,
      "##lablablablab": 6688,
      "supervisor": 6689,
      "dit": 6690,
      "era": 6691,
      "fold": 6692,
      "hood": 6693,
      "tj": 6694,
      "tension": 6695,
      "##icy": 6696,
      "##ictive": 6697,
      "stats": 6698,
      "##ader": 6699,
      "intuit": 6700,
      "##ogam": 6701,
      "compose": 6702,
      "whine": 6703,
      "nok": 6704,
      "understandable": 6705,
      "blend": 6706,
      "indirect": 6707,
      "emerg": 6708,
      "complexity": 6709,
      "nfp": 6710,
      "sunshine": 6711,
      "deres": 6712,
      "italian": 6713,
      "integr": 6714,
      "hillary": 6715,
      "gravitate": 6716,
      "imaginative": 6717,
      "louis": 6718,
      "discrim": 6719,
      "sketch": 6720,
      "nuclear": 6721,
      "gang": 6722,
      "jun": 6723,
      "##vate": 6724,
      "reci": 6725,
      "##icorn": 6726,
      "##mean": 6727,
      "##idal": 6728,
      "projection": 6729,
      "needle": 6730,
      "sober": 6731,
      "substanti": 6732,
      "highlight": 6733,
      "##ologically": 6734,
      "bury": 6735,
      "freely": 6736,
      "indiffer": 6737,
      "dae": 6738,
      "halfway": 6739,
      "delicious": 6740,
      "sneak": 6741,
      "predictable": 6742,
      "##eeeeeeee": 6743,
      "unwill": 6744,
      "punishment": 6745,
      "quirky": 6746,
      "historical": 6747,
      "troop": 6748,
      "contemplate": 6749,
      "pilot": 6750,
      "##pd": 6751,
      "##vs": 6752,
      "##ju": 6753,
      "##arre": 6754,
      "sher": 6755,
      "prec": 6756,
      "bob": 6757,
      "##fty": 6758,
      "appoint": 6759,
      "consu": 6760,
      "smash": 6761,
      "truck": 6762,
      "fuckin": 6763,
      "monogam": 6764,
      "invis": 6765,
      "blast": 6766,
      "simplify": 6767,
      "respectful": 6768,
      "idealize": 6769,
      "idealism": 6770,
      "silver": 6771,
      "disagreement": 6772,
      "barrier": 6773,
      "affectionate": 6774,
      "authenticity": 6775,
      "provoke": 6776,
      "paradox": 6777,
      "applicable": 6778,
      "gør": 6779,
      "kat": 6780,
      "mmm": 6781,
      "sv": 6782,
      "##kk": 6783,
      "##aked": 6784,
      "##herent": 6785,
      "##shop": 6786,
      "acquire": 6787,
      "adren": 6788,
      "##lessness": 6789,
      "coin": 6790,
      "##matic": 6791,
      "brag": 6792,
      "atm": 6793,
      "frag": 6794,
      "devote": 6795,
      "slap": 6796,
      "batman": 6797,
      "contradiction": 6798,
      "enthusiasm": 6799,
      "investigate": 6800,
      "agreeableness": 6801,
      "administ": 6802,
      "anecdotal": 6803,
      "integrity": 6804,
      "overs": 6805,
      "ocd": 6806,
      "pig": 6807,
      "##rical": 6808,
      "##nel": 6809,
      "##nis": 6810,
      "##care": 6811,
      "##su": 6812,
      "##mend": 6813,
      "gosh": 6814,
      "##cially": 6815,
      "unicorn": 6816,
      "spam": 6817,
      "more": 6818,
      "mold": 6819,
      "operation": 6820,
      "impati": 6821,
      "extension": 6822,
      "paul": 6823,
      "complement": 6824,
      "enjoyment": 6825,
      "repair": 6826,
      "breakdown": 6827,
      "israel": 6828,
      "weirdo": 6829,
      "hatred": 6830,
      "ntp": 6831,
      "uncommon": 6832,
      "owe": 6833,
      "lux": 6834,
      "jealousy": 6835,
      "unrealistic": 6836,
      "bal": 6837,
      "each": 6838,
      "fox": 6839,
      "##ctiveness": 6840,
      "##fs": 6841,
      "##orious": 6842,
      "stroke": 6843,
      "##roid": 6844,
      "##road": 6845,
      "ancient": 6846,
      "chronic": 6847,
      "##ulator": 6848,
      "joe": 6849,
      "scope": 6850,
      "outline": 6851,
      "outdo": 6852,
      "handwrite": 6853,
      "register": 6854,
      "##anny": 6855,
      "##grade": 6856,
      "productivity": 6857,
      "spiral": 6858,
      "puppy": 6859,
      "strip": 6860,
      "intensely": 6861,
      "roller": 6862,
      "george": 6863,
      "theoretically": 6864,
      "nerdy": 6865,
      "danish": 6866,
      "greece": 6867,
      "impressive": 6868,
      "perfectionist": 6869,
      "grudge": 6870,
      "chapter": 6871,
      "misconception": 6872,
      "conscientiousness": 6873,
      "goddamn": 6874,
      "negativity": 6875,
      "dull": 6876,
      "kom": 6877,
      "naked": 6878,
      "oops": 6879,
      "##claw": 6880,
      "##bye": 6881,
      "##hr": 6882,
      "##ini": 6883,
      "##stard": 6884,
      "##icit": 6885,
      "stark": 6886,
      "dialogue": 6887,
      "##ruption": 6888,
      "genetic": 6889,
      "##oca": 6890,
      "instagram": 6891,
      "##develop": 6892,
      "clinton": 6893,
      "##acky": 6894,
      "mini": 6895,
      "rape": 6896,
      "standpoint": 6897,
      "isolation": 6898,
      "##ternally": 6899,
      "brainstorm": 6900,
      "flavor": 6901,
      "keen": 6902,
      "auton": 6903,
      "recognise": 6904,
      "pathetic": 6905,
      "shyness": 6906,
      "warmth": 6907,
      "representative": 6908,
      "irony": 6909,
      "resistance": 6910,
      "##respond": 6911,
      "compensate": 6912,
      "commercial": 6913,
      "sherlock": 6914,
      "eachother": 6915,
      "ech": 6916,
      "eternal": 6917,
      "fj": 6918,
      "ii": 6919,
      "mill": 6920,
      "witch": 6921,
      "thumb": 6922,
      "##rian": 6923,
      "demean": 6924,
      "##illa": 6925,
      "##olly": 6926,
      "shade": 6927,
      "befriend": 6928,
      "iden": 6929,
      "##beat": 6930,
      "undergra": 6931,
      "readily": 6932,
      "##berg": 6933,
      "scroll": 6934,
      "correspond": 6935,
      "ahh": 6936,
      "distress": 6937,
      "accordingly": 6938,
      "grandma": 6939,
      "ville": 6940,
      "narcissism": 6941,
      "knee": 6942,
      "rapid": 6943,
      "duality": 6944,
      "melanch": 6945,
      "ashamed": 6946,
      "lidt": 6947,
      "bizarre": 6948,
      "banter": 6949,
      "dread": 6950,
      "jar": 6951,
      "mc": 6952,
      "##crat": 6953,
      "##bour": 6954,
      "##front": 6955,
      "ree": 6956,
      "inward": 6957,
      "albeit": 6958,
      "mange": 6959,
      "highschool": 6960,
      "hed": 6961,
      "formula": 6962,
      "exploit": 6963,
      "profound": 6964,
      "throne": 6965,
      "counterp": 6966,
      "unemp": 6967,
      "tremend": 6968,
      "dictator": 6969,
      "suspicious": 6970,
      "counselor": 6971,
      "utterly": 6972,
      "horribly": 6973,
      "australia": 6974,
      "butthurt": 6975,
      "ravenclaw": 6976,
      "cite": 6977,
      "irish": 6978,
      "jan": 6979,
      "kon": 6980,
      "slo": 6981,
      "##father": 6982,
      "##inent": 6983,
      "##lel": 6984,
      "##omach": 6985,
      "lip": 6986,
      "liar": 6987,
      "aloof": 6988,
      "##shell": 6989,
      "sock": 6990,
      "disney": 6991,
      "quanti": 6992,
      "usage": 6993,
      "apps": 6994,
      "coast": 6995,
      "disclaim": 6996,
      "monitor": 6997,
      "##yping": 6998,
      "##quer": 6999,
      "grace": 7000,
      "weekly": 7001,
      "err": 7002,
      "keyboard": 7003,
      "epic": 7004,
      "categor": 7005,
      "amongst": 7006,
      "veget": 7007,
      "stereotypically": 7008,
      "fluid": 7009,
      "superiority": 7010,
      "anecdote": 7011,
      "##track": 7012,
      "aogether": 7013,
      "buck": 7014,
      "lake": 7015,
      "pump": 7016,
      "rog": 7017,
      "##fire": 7018,
      "thick": 7019,
      "##etz": 7020,
      "##rid": 7021,
      "conduct": 7022,
      "##ado": 7023,
      "goodbye": 7024,
      "bass": 7025,
      "playlist": 7026,
      "##ami": 7027,
      "incl": 7028,
      "outs": 7029,
      "corporation": 7030,
      "flatter": 7031,
      "proportion": 7032,
      "behavioral": 7033,
      "##comp": 7034,
      "transform": 7035,
      "hypothesis": 7036,
      "nostalgia": 7037,
      "permanent": 7038,
      "califor": 7039,
      "psychedel": 7040,
      "bun": 7041,
      "bum": 7042,
      "cens": 7043,
      "jon": 7044,
      "nic": 7045,
      "ooo": 7046,
      "##vo": 7047,
      "##ara": 7048,
      "stomach": 7049,
      "##rac": 7050,
      "loan": 7051,
      "##isp": 7052,
      "##iser": 7053,
      "meget": 7054,
      "sheep": 7055,
      "arrest": 7056,
      "selective": 7057,
      "bastard": 7058,
      "pls": 7059,
      "underdevelop": 7060,
      "##thermore": 7061,
      "consens": 7062,
      "emotionless": 7063,
      "laziness": 7064,
      "##sible": 7065,
      "decisive": 7066,
      "coord": 7067,
      "opponent": 7068,
      "necessity": 7069,
      "obsc": 7070,
      "cooky": 7071,
      "feely": 7072,
      "rainbow": 7073,
      "exclusively": 7074,
      "emphasize": 7075,
      "unintention": 7076,
      "slyther": 7077,
      "disclaimer": 7078,
      "ost": 7079,
      "patch": 7080,
      "rum": 7081,
      "tou": 7082,
      "##away": 7083,
      "##uf": 7084,
      "##sche": 7085,
      "##enger": 7086,
      "##iture": 7087,
      "inapp": 7088,
      "stag": 7089,
      "alarm": 7090,
      "chip": 7091,
      "##urous": 7092,
      "sequ": 7093,
      "bach": 7094,
      "whis": 7095,
      "##bej": 7096,
      "obsta": 7097,
      "discourage": 7098,
      "monkey": 7099,
      "preferably": 7100,
      "##quate": 7101,
      "drown": 7102,
      "entity": 7103,
      "bio": 7104,
      "director": 7105,
      "halo": 7106,
      "politically": 7107,
      "visible": 7108,
      "initiative": 7109,
      "greet": 7110,
      "rebell": 7111,
      "ought": 7112,
      "neuroticism": 7113,
      "bubbly": 7114,
      "compassionate": 7115,
      "resentment": 7116,
      "adrenaline": 7117,
      "obstacle": 7118,
      "##top": 7119,
      "##del": 7120,
      "stjs": 7121,
      "connot": 7122,
      "##sial": 7123,
      "##ologue": 7124,
      "sword": 7125,
      "vivid": 7126,
      "nonethe": 7127,
      "numb": 7128,
      "resemble": 7129,
      "illusion": 7130,
      "delve": 7131,
      "aernate": 7132,
      "mechanical": 7133,
      "construction": 7134,
      "incompetent": 7135,
      "numerous": 7136,
      "nonetheless": 7137,
      "ai": 7138,
      "cough": 7139,
      "eli": 7140,
      "fry": 7141,
      "horm": 7142,
      "kal": 7143,
      "##af": 7144,
      "##atis": 7145,
      "##tch": 7146,
      "##uum": 7147,
      "##pal": 7148,
      "##stic": 7149,
      "##arn": 7150,
      "##stone": 7151,
      "##step": 7152,
      "##verty": 7153,
      "pole": 7154,
      "poverty": 7155,
      "prol": 7156,
      "spider": 7157,
      "exposure": 7158,
      "adam": 7159,
      "resume": 7160,
      "nose": 7161,
      "obtain": 7162,
      "decrease": 7163,
      "##osc": 7164,
      "basket": 7165,
      "plane": 7166,
      "crappy": 7167,
      "developer": 7168,
      "moron": 7169,
      "approval": 7170,
      "potato": 7171,
      "abstraction": 7172,
      "revenge": 7173,
      "obligate": 7174,
      "sheet": 7175,
      "rationality": 7176,
      "linear": 7177,
      "hipster": 7178,
      "##worthy": 7179,
      "uncertain": 7180,
      "coincidence": 7181,
      "ooh": 7182,
      "champion": 7183,
      "immensely": 7184,
      "steady": 7185,
      "fence": 7186,
      "junk": 7187,
      "lash": 7188,
      "oct": 7189,
      "tes": 7190,
      "tale": 7191,
      "zo": 7192,
      "##name": 7193,
      "##bs": 7194,
      "##alf": 7195,
      "##ces": 7196,
      "##mes": 7197,
      "loser": 7198,
      "peg": 7199,
      "concise": 7200,
      "chuck": 7201,
      "disaster": 7202,
      "novey": 7203,
      "contribution": 7204,
      "minus": 7205,
      "##spok": 7206,
      "##redict": 7207,
      "horiz": 7208,
      "translation": 7209,
      "justification": 7210,
      "unpredict": 7211,
      "harmful": 7212,
      "whoa": 7213,
      "calculus": 7214,
      "loner": 7215,
      "##repr": 7216,
      "immigration": 7217,
      "inevitably": 7218,
      "furthermore": 7219,
      "identical": 7220,
      "inclination": 7221,
      "connotation": 7222,
      "##spoken": 7223,
      "cure": 7224,
      "jab": 7225,
      "lush": 7226,
      "pt": 7227,
      "pound": 7228,
      "soph": 7229,
      "void": 7230,
      "##vil": 7231,
      "##inal": 7232,
      "##entric": 7233,
      "fes": 7234,
      "shin": 7235,
      "##oter": 7236,
      "spati": 7237,
      "##allow": 7238,
      "##uman": 7239,
      "underestimate": 7240,
      "scatter": 7241,
      "phd": 7242,
      "hearted": 7243,
      "eta": 7244,
      "honey": 7245,
      "##aaa": 7246,
      "touchy": 7247,
      "darkness": 7248,
      "sniper": 7249,
      "disappointment": 7250,
      "knight": 7251,
      "platform": 7252,
      "rhet": 7253,
      "uncertainty": 7254,
      "transport": 7255,
      "verify": 7256,
      "batter": 7257,
      "eager": 7258,
      "kc": 7259,
      "ye": 7260,
      "zen": 7261,
      "##ysi": 7262,
      "##puff": 7263,
      "##sight": 7264,
      "##jerk": 7265,
      "##tie": 7266,
      "thro": 7267,
      "##icism": 7268,
      "chunk": 7269,
      "##olo": 7270,
      "diam": 7271,
      "pregn": 7272,
      "##usation": 7273,
      "spite": 7274,
      "spill": 7275,
      "sovi": 7276,
      "socc": 7277,
      "sociable": 7278,
      "interestingly": 7279,
      "caffe": 7280,
      "scan": 7281,
      "confid": 7282,
      "guest": 7283,
      "theat": 7284,
      "monday": 7285,
      "immer": 7286,
      "static": 7287,
      "device": 7288,
      "ownership": 7289,
      "revolve": 7290,
      "escal": 7291,
      "diagnosis": 7292,
      "sentimental": 7293,
      "contradictory": 7294,
      "masturb": 7295,
      "intrins": 7296,
      "##organize": 7297,
      "lucid": 7298,
      "invisible": 7299,
      "california": 7300,
      "soccer": 7301,
      "bush": 7302,
      "fate": 7303,
      "gry": 7304,
      "gem": 7305,
      "itte": 7306,
      "lb": 7307,
      "lingu": 7308,
      "lsd": 7309,
      "mouse": 7310,
      "pour": 7311,
      "sab": 7312,
      "##gi": 7313,
      "##ura": 7314,
      "##men": 7315,
      "##wa": 7316,
      "##elle": 7317,
      "##ooter": 7318,
      "tier": 7319,
      "##ffind": 7320,
      "spar": 7321,
      "probability": 7322,
      "thankful": 7323,
      "##vile": 7324,
      "##uild": 7325,
      "abra": 7326,
      "generic": 7327,
      "##osexual": 7328,
      "recre": 7329,
      "insign": 7330,
      "synd": 7331,
      "oppress": 7332,
      "aftern": 7333,
      "indo": 7334,
      "warrant": 7335,
      "worthwhile": 7336,
      "avoidant": 7337,
      "patri": 7338,
      "straw": 7339,
      "modest": 7340,
      "illust": 7341,
      "anticip": 7342,
      "efficiently": 7343,
      "employer": 7344,
      "unpro": 7345,
      "##field": 7346,
      "neighborhood": 7347,
      "##burst": 7348,
      "bowl": 7349,
      "cartoon": 7350,
      "controversial": 7351,
      "itteh": 7352,
      "ak": 7353,
      "binge": 7354,
      "dod": 7355,
      "lan": 7356,
      "ron": 7357,
      "ren": 7358,
      "york": 7359,
      "##ex": 7360,
      "##lar": 7361,
      "##tio": 7362,
      "chan": 7363,
      "proced": 7364,
      "enh": 7365,
      "mui": 7366,
      "##inem": 7367,
      "resolution": 7368,
      "asper": 7369,
      "##lier": 7370,
      "sav": 7371,
      "decline": 7372,
      "insus": 7373,
      "mistyping": 7374,
      "typo": 7375,
      "retro": 7376,
      "delay": 7377,
      "meta": 7378,
      "downside": 7379,
      "merkel": 7380,
      "turk": 7381,
      "vaguely": 7382,
      "candy": 7383,
      "virtue": 7384,
      "##lapse": 7385,
      "deliberately": 7386,
      "nihilism": 7387,
      "propaganda": 7388,
      "consensus": 7389,
      "slytherin": 7390,
      "soviet": 7391,
      "afternoon": 7392,
      "bout": 7393,
      "cab": 7394,
      "ek": 7395,
      "lag": 7396,
      "nit": 7397,
      "sooo": 7398,
      "woo": 7399,
      "yr": 7400,
      "##rence": 7401,
      "##otion": 7402,
      "##vas": 7403,
      "##hen": 7404,
      "##leon": 7405,
      "##oric": 7406,
      "##sexual": 7407,
      "##ril": 7408,
      "devi": 7409,
      "##oodle": 7410,
      "arc": 7411,
      "workout": 7412,
      "modi": 7413,
      "##inte": 7414,
      "##dient": 7415,
      "constitution": 7416,
      "##liament": 7417,
      "fors": 7418,
      "quest": 7419,
      "detri": 7420,
      "factual": 7421,
      "monologue": 7422,
      "martial": 7423,
      "supernatural": 7424,
      "carl": 7425,
      "resuing": 7426,
      "successfully": 7427,
      "pussy": 7428,
      "accomplishment": 7429,
      "additionally": 7430,
      "innate": 7431,
      "officially": 7432,
      "guardian": 7433,
      "freshman": 7434,
      "genetics": 7435,
      "desperately": 7436,
      "nuanced": 7437,
      "hesitant": 7438,
      "reassure": 7439,
      "pronounce": 7440,
      "##oscope": 7441,
      "caffeine": 7442,
      "gryffind": 7443,
      "ari": 7444,
      "hoc": 7445,
      "nin": 7446,
      "niche": 7447,
      "tack": 7448,
      "##ns": 7449,
      "##ux": 7450,
      "##antic": 7451,
      "##else": 7452,
      "externally": 7453,
      "chame": 7454,
      "everytime": 7455,
      "imperial": 7456,
      "##agle": 7457,
      "consent": 7458,
      "parliament": 7459,
      "problematic": 7460,
      "collapse": 7461,
      "sweep": 7462,
      "buff": 7463,
      "england": 7464,
      "entrepr": 7465,
      "curve": 7466,
      "follower": 7467,
      "singular": 7468,
      "signature": 7469,
      "keir": 7470,
      "centre": 7471,
      "downvotes": 7472,
      "starve": 7473,
      "costume": 7474,
      "spirituality": 7475,
      "##hib": 7476,
      "##scape": 7477,
      "dishone": 7478,
      "##alyze": 7479,
      "suicidal": 7480,
      "vocab": 7481,
      "hostile": 7482,
      "xstj": 7483,
      "documentary": 7484,
      "convenient": 7485,
      "respectively": 7486,
      "hierarchy": 7487,
      "cigarette": 7488,
      "unemploy": 7489,
      "insignific": 7490,
      "entreprene": 7491,
      "gee": 7492,
      "gul": 7493,
      "hash": 7494,
      "nine": 7495,
      "rural": 7496,
      "##rick": 7497,
      "##gent": 7498,
      "##eous": 7499,
      "##function": 7500,
      "liqu": 7501,
      "##ned": 7502,
      "##ppet": 7503,
      "reli": 7504,
      "plastic": 7505,
      "##versity": 7506,
      "outburst": 7507,
      "headache": 7508,
      "huffle": 7509,
      "##uster": 7510,
      "fuzzy": 7511,
      "toile": 7512,
      "verse": 7513,
      "xnfp": 7514,
      "democrat": 7515,
      "confrontational": 7516,
      "giggle": 7517,
      "charisma": 7518,
      "woah": 7519,
      "berlin": 7520,
      "breed": 7521,
      "emergency": 7522,
      "fas": 7523,
      "ky": 7524,
      "mun": 7525,
      "voter": 7526,
      "##uct": 7527,
      "##bian": 7528,
      "##mine": 7529,
      "##erver": 7530,
      "##thes": 7531,
      "pros": 7532,
      "prejud": 7533,
      "##arter": 7534,
      "interfer": 7535,
      "##shot": 7536,
      "righteous": 7537,
      "aggression": 7538,
      "##life": 7539,
      "mindfulness": 7540,
      "##athon": 7541,
      "##fici": 7542,
      "blur": 7543,
      "regulation": 7544,
      "nato": 7545,
      "heel": 7546,
      "##quis": 7547,
      "hopeless": 7548,
      "characteri": 7549,
      "psychic": 7550,
      "hurtful": 7551,
      "intuitively": 7552,
      "admittedly": 7553,
      "antisocial": 7554,
      "shove": 7555,
      "sexuality": 7556,
      "volume": 7557,
      "unreason": 7558,
      "financially": 7559,
      "parano": 7560,
      "rationally": 7561,
      "pillow": 7562,
      "unstable": 7563,
      "recipe": 7564,
      "bachel": 7565,
      "lushed": 7566,
      "gryffindor": 7567,
      "aqu": 7568,
      "bil": 7569,
      "eagle": 7570,
      "les": 7571,
      "tent": 7572,
      "tun": 7573,
      "##gic": 7574,
      "##bon": 7575,
      "##watch": 7576,
      "##zard": 7577,
      "stad": 7578,
      "exit": 7579,
      "worship": 7580,
      "##cile": 7581,
      "##olol": 7582,
      "bagg": 7583,
      "##ourse": 7584,
      "laund": 7585,
      "soundtrack": 7586,
      "estimate": 7587,
      "coat": 7588,
      "repro": 7589,
      "clum": 7590,
      "specify": 7591,
      "planner": 7592,
      "communism": 7593,
      "studio": 7594,
      "chew": 7595,
      "serial": 7596,
      "paste": 7597,
      "reform": 7598,
      "##cutive": 7599,
      "xntj": 7600,
      "legitim": 7601,
      "ixtp": 7602,
      "##iiiiiiiiiiiiiiii": 7603,
      "african": 7604,
      "quantity": 7605,
      "battery": 7606,
      "hufflepuff": 7607,
      "toilet": 7608,
      "paranoia": 7609,
      "elo": 7610,
      "elev": 7611,
      "furn": 7612,
      "ofc": 7613,
      "roc": 7614,
      "ward": 7615,
      "wiz": 7616,
      "##gar": 7617,
      "##uary": 7618,
      "##hes": 7619,
      "##fter": 7620,
      "##qual": 7621,
      "##enni": 7622,
      "##sect": 7623,
      "stal": 7624,
      "##rial": 7625,
      "##rior": 7626,
      "cheek": 7627,
      "##ulary": 7628,
      "sham": 7629,
      "shield": 7630,
      "whore": 7631,
      "##teen": 7632,
      "fif": 7633,
      "gray": 7634,
      "##orean": 7635,
      "##ermind": 7636,
      "##cript": 7637,
      "ratio": 7638,
      "preserve": 7639,
      "invade": 7640,
      "extrem": 7641,
      "tribe": 7642,
      "##going": 7643,
      "##ricate": 7644,
      "limitation": 7645,
      "##gery": 7646,
      "download": 7647,
      "circlejerk": 7648,
      "steel": 7649,
      "adventurous": 7650,
      "widely": 7651,
      "platonic": 7652,
      "anarchist": 7653,
      "latin": 7654,
      "censor": 7655,
      "chameleon": 7656,
      "keirsey": 7657,
      "prejudice": 7658,
      "dang": 7659,
      "donald": 7660,
      "fid": 7661,
      "gif": 7662,
      "komm": 7663,
      "lm": 7664,
      "mell": 7665,
      "vid": 7666,
      "wrest": 7667,
      "##ov": 7668,
      "##xim": 7669,
      "##øre": 7670,
      "##erge": 7671,
      "##inator": 7672,
      "poison": 7673,
      "mexic": 7674,
      "dile": 7675,
      "fairy": 7676,
      "preach": 7677,
      "expend": 7678,
      "expans": 7679,
      "reluct": 7680,
      "plate": 7681,
      "##dian": 7682,
      "coal": 7683,
      "outfit": 7684,
      "robo": 7685,
      "march": 7686,
      "indication": 7687,
      "psycho": 7688,
      "avoidance": 7689,
      "flame": 7690,
      "supporter": 7691,
      "observer": 7692,
      "beast": 7693,
      "upload": 7694,
      "heahier": 7695,
      "heahcare": 7696,
      "intentional": 7697,
      "nfj": 7698,
      "fleet": 7699,
      "authoritarian": 7700,
      "civilization": 7701,
      "alienate": 7702,
      "executive": 7703,
      "mildly": 7704,
      "conventional": 7705,
      "inconsistent": 7706,
      "athle": 7707,
      "confess": 7708,
      "repetitive": 7709,
      "echo": 7710,
      "laundry": 7711,
      "bay": 7712,
      "læ": 7713,
      "tinder": 7714,
      "##een": 7715,
      "##bie": 7716,
      "##state": 7717,
      "##elly": 7718,
      "##see": 7719,
      "##opp": 7720,
      "##rot": 7721,
      "before": 7722,
      "tedi": 7723,
      "fordi": 7724,
      "launch": 7725,
      "believer": 7726,
      "##amili": 7727,
      "coherent": 7728,
      "corrupt": 7729,
      "classroom": 7730,
      "flood": 7731,
      "##istics": 7732,
      "##ervation": 7733,
      "announce": 7734,
      "##ondon": 7735,
      "environmental": 7736,
      "chris": 7737,
      "positively": 7738,
      "beard": 7739,
      "staff": 7740,
      "protective": 7741,
      "robin": 7742,
      "steve": 7743,
      "incompati": 7744,
      "concentration": 7745,
      "mastermind": 7746,
      "sweden": 7747,
      "amazon": 7748,
      "execute": 7749,
      "motorcy": 7750,
      "rabbit": 7751,
      "museum": 7752,
      "unpredictable": 7753,
      "spatial": 7754,
      "##vilege": 7755,
      "bachelor": 7756,
      "beforehand": 7757,
      "alex": 7758,
      "cunt": 7759,
      "dorm": 7760,
      "dirt": 7761,
      "london": 7762,
      "rag": 7763,
      "umm": 7764,
      "##cup": 7765,
      "##mal": 7766,
      "##ji": 7767,
      "##els": 7768,
      "##very": 7769,
      "##isc": 7770,
      "##mos": 7771,
      "selection": 7772,
      "bav": 7773,
      "manic": 7774,
      "whim": 7775,
      "physi": 7776,
      "nietz": 7777,
      "##arius": 7778,
      "margin": 7779,
      "credi": 7780,
      "dreamer": 7781,
      "horoscope": 7782,
      "observant": 7783,
      "automatic": 7784,
      "##obia": 7785,
      "neurotic": 7786,
      "venture": 7787,
      "cheesy": 7788,
      "speculate": 7789,
      "spoiler": 7790,
      "delusional": 7791,
      "summary": 7792,
      "anonymous": 7793,
      "fragile": 7794,
      "undergrad": 7795,
      "outsider": 7796,
      "inappropriate": 7797,
      "immerse": 7798,
      "bure": 7799,
      "bog": 7800,
      "geek": 7801,
      "kink": 7802,
      "##iel": 7803,
      "##uce": 7804,
      "##balance": 7805,
      "##kan": 7806,
      "##panda": 7807,
      "##wich": 7808,
      "##anion": 7809,
      "##ston": 7810,
      "##adian": 7811,
      "relieve": 7812,
      "companion": 7813,
      "sob": 7814,
      "##ham": 7815,
      "##bed": 7816,
      "##tival": 7817,
      "flirty": 7818,
      "noticeable": 7819,
      "slut": 7820,
      "##ification": 7821,
      "##lands": 7822,
      "mercy": 7823,
      "alcoholic": 7824,
      "optimism": 7825,
      "xsfj": 7826,
      "willingness": 7827,
      "brex": 7828,
      "activate": 7829,
      "psychiatrist": 7830,
      "autonomy": 7831,
      "obscure": 7832,
      "enhance": 7833,
      "bern": 7834,
      "dy": 7835,
      "jac": 7836,
      "sli": 7837,
      "ura": 7838,
      "xxt": 7839,
      "##gor": 7840,
      "##bag": 7841,
      "##dog": 7842,
      "##øj": 7843,
      "##wn": 7844,
      "##ons": 7845,
      "##till": 7846,
      "##ica": 7847,
      "intx": 7848,
      "hammer": 7849,
      "disable": 7850,
      "quo": 7851,
      "agent": 7852,
      "abroad": 7853,
      "overbear": 7854,
      "argu": 7855,
      "surgery": 7856,
      "grass": 7857,
      "fitness": 7858,
      "cripple": 7859,
      "warrior": 7860,
      "mennes": 7861,
      "##ician": 7862,
      "emerge": 7863,
      "denial": 7864,
      "auto": 7865,
      "grandfather": 7866,
      "nearby": 7867,
      "significance": 7868,
      "protection": 7869,
      "unfamili": 7870,
      "competence": 7871,
      "fluffy": 7872,
      "knit": 7873,
      "realistically": 7874,
      "ixfp": 7875,
      "indicative": 7876,
      "korea": 7877,
      "guideline": 7878,
      "parallel": 7879,
      "indifferent": 7880,
      "appointment": 7881,
      "festival": 7882,
      "procedure": 7883,
      "insignificant": 7884,
      "legitimately": 7885,
      "motorcycle": 7886,
      "ecc": 7887,
      "fy": 7888,
      "gpa": 7889,
      "kay": 7890,
      "mul": 7891,
      "vit": 7892,
      "##rink": 7893,
      "##aper": 7894,
      "##aire": 7895,
      "##gel": 7896,
      "##ione": 7897,
      "##zone": 7898,
      "##inform": 7899,
      "##stop": 7900,
      "##ved": 7901,
      "inch": 7902,
      "fetish": 7903,
      "##adv": 7904,
      "neo": 7905,
      "firstly": 7906,
      "discern": 7907,
      "marathon": 7908,
      "swap": 7909,
      "affair": 7910,
      "hangout": 7911,
      "retain": 7912,
      "##iotic": 7913,
      "ceo": 7914,
      "punct": 7915,
      "climate": 7916,
      "grump": 7917,
      "equate": 7918,
      "##agonist": 7919,
      "texas": 7920,
      "buddhism": 7921,
      "clinical": 7922,
      "elder": 7923,
      "demeanor": 7924,
      "throat": 7925,
      "vocabulary": 7926,
      "dm": 7927,
      "dust": 7928,
      "ec": 7929,
      "ich": 7930,
      "nom": 7931,
      "pad": 7932,
      "peak": 7933,
      "rit": 7934,
      "sfj": 7935,
      "vel": 7936,
      "##ten": 7937,
      "##vy": 7938,
      "##writ": 7939,
      "##æl": 7940,
      "##ali": 7941,
      "lion": 7942,
      "inxx": 7943,
      "##ulous": 7944,
      "shed": 7945,
      "spy": 7946,
      "funeral": 7947,
      "anyhow": 7948,
      "bab": 7949,
      "comedian": 7950,
      "infat": 7951,
      "designer": 7952,
      "objectivity": 7953,
      "closet": 7954,
      "closure": 7955,
      "discount": 7956,
      "privilege": 7957,
      "solitary": 7958,
      "##gration": 7959,
      "memor": 7960,
      "strangely": 7961,
      "hotel": 7962,
      "smother": 7963,
      "slack": 7964,
      "grief": 7965,
      "italy": 7966,
      "steer": 7967,
      "evaluation": 7968,
      "##hhhhhhhh": 7969,
      "facet": 7970,
      "briefly": 7971,
      "virtually": 7972,
      "terrorist": 7973,
      "brutal": 7974,
      "kunne": 7975,
      "sleeve": 7976,
      "fortunately": 7977,
      "fascist": 7978,
      "nietzsche": 7979,
      "brexit": 7980,
      "hype": 7981,
      "rer": 7982,
      "uti": 7983,
      "##greg": 7984,
      "##itzer": 7985,
      "lil": 7986,
      "##icion": 7987,
      "##uto": 7988,
      "shiny": 7989,
      "##fect": 7990,
      "extj": 7991,
      "contest": 7992,
      "##ocal": 7993,
      "output": 7994,
      "overload": 7995,
      "ski": 7996,
      "skim": 7997,
      "singer": 7998,
      "difficuies": 7999,
      "individually": 8000,
      "strain": 8001,
      "notebook": 8002,
      "delight": 8003,
      "ntps": 8004,
      "peter": 8005,
      "popularity": 8006,
      "manifestation": 8007,
      "dismissive": 8008,
      "neuros": 8009,
      "minimize": 8010,
      "sandwich": 8011,
      "darn": 8012,
      "tidy": 8013,
      "swedish": 8014,
      "inconven": 8015,
      "arab": 8016,
      "wizard": 8017,
      "dilemma": 8018,
      "unfamiliar": 8019,
      "dw": 8020,
      "diction": 8021,
      "fb": 8022,
      "ps": 8023,
      "roy": 8024,
      "sane": 8025,
      "##iest": 8026,
      "##case": 8027,
      "##king": 8028,
      "##hab": 8029,
      "##mun": 8030,
      "##erence": 8031,
      "##ingen": 8032,
      "poop": 8033,
      "##irk": 8034,
      "##eria": 8035,
      "manual": 8036,
      "compass": 8037,
      "socialization": 8038,
      "shitpost": 8039,
      "bash": 8040,
      "lastly": 8041,
      "##izer": 8042,
      "judgemental": 8043,
      "fallout": 8044,
      "determination": 8045,
      "doors": 8046,
      "canadian": 8047,
      "princess": 8048,
      "luke": 8049,
      "wildly": 8050,
      "subscri": 8051,
      "suspicion": 8052,
      "gradually": 8053,
      "destruction": 8054,
      "##world": 8055,
      "pessimistic": 8056,
      "indecisive": 8057,
      "compulsive": 8058,
      "horizon": 8059,
      "diamond": 8060,
      "bureau": 8061,
      "cage": 8062,
      "cater": 8063,
      "just": 8064,
      "kr": 8065,
      "kin": 8066,
      "mary": 8067,
      "pru": 8068,
      "tp": 8069,
      "##hy": 8070,
      "recons": 8071,
      "ally": 8072,
      "conquer": 8073,
      "##ffff": 8074,
      "diale": 8075,
      "##sole": 8076,
      "spl": 8077,
      "plug": 8078,
      "##ormal": 8079,
      "boom": 8080,
      "prick": 8081,
      "incentive": 8082,
      "supplement": 8083,
      "rave": 8084,
      "absent": 8085,
      "secondly": 8086,
      "seeker": 8087,
      "motherfuck": 8088,
      "specialize": 8089,
      "##value": 8090,
      "moody": 8091,
      "universally": 8092,
      "goof": 8093,
      "loudly": 8094,
      "devast": 8095,
      "demogra": 8096,
      "nutri": 8097,
      "instinctual": 8098,
      "evolutionary": 8099,
      "foster": 8100,
      "delivery": 8101,
      "cherish": 8102,
      "strategic": 8103,
      "statistically": 8104,
      "rpgs": 8105,
      "pseudo": 8106,
      "disprove": 8107,
      "impatient": 8108,
      "syndrome": 8109,
      "clumsy": 8110,
      "rocket": 8111,
      "arguably": 8112,
      "aha": 8113,
      "ahaha": 8114,
      "cease": 8115,
      "dans": 8116,
      "korean": 8117,
      "md": 8118,
      "xbox": 8119,
      "##ku": 8120,
      "##lor": 8121,
      "thur": 8122,
      "them": 8123,
      "##asse": 8124,
      "##irate": 8125,
      "progression": 8126,
      "diverse": 8127,
      "sep": 8128,
      "##umn": 8129,
      "sore": 8130,
      "oper": 8131,
      "theorize": 8132,
      "topps": 8133,
      "switzer": 8134,
      "internship": 8135,
      "absence": 8136,
      "distrust": 8137,
      "distribution": 8138,
      "annoyance": 8139,
      "upvotes": 8140,
      "smiley": 8141,
      "fantasize": 8142,
      "penis": 8143,
      "package": 8144,
      "duals": 8145,
      "hunger": 8146,
      "gamma": 8147,
      "severely": 8148,
      "animate": 8149,
      "nostalgic": 8150,
      "bleed": 8151,
      "subtypes": 8152,
      "mandatory": 8153,
      "hunter": 8154,
      "ordinary": 8155,
      "havde": 8156,
      "unwilling": 8157,
      "hormone": 8158,
      "escalate": 8159,
      "entrepreneur": 8160,
      "switzerland": 8161,
      "az": 8162,
      "ald": 8163,
      "cui": 8164,
      "drum": 8165,
      "fist": 8166,
      "kit": 8167,
      "lun": 8168,
      "mit": 8169,
      "mari": 8170,
      "pyth": 8171,
      "ze": 8172,
      "##giv": 8173,
      "##ds": 8174,
      "##mart": 8175,
      "##wash": 8176,
      "##itable": 8177,
      "rey": 8178,
      "stagn": 8179,
      "##rix": 8180,
      "alert": 8181,
      "console": 8182,
      "chime": 8183,
      "prospect": 8184,
      "##urally": 8185,
      "unconsciously": 8186,
      "stigma": 8187,
      "##liam": 8188,
      "paris": 8189,
      "decorate": 8190,
      "hob": 8191,
      "skate": 8192,
      "envision": 8193,
      "laughter": 8194,
      "painfully": 8195,
      "ntjs": 8196,
      "hahahahaha": 8197,
      "risky": 8198,
      "paperwork": 8199,
      "ethnic": 8200,
      "cookie": 8201,
      "owl": 8202,
      "turbul": 8203,
      "graduation": 8204,
      "salary": 8205,
      "firmly": 8206,
      "xstp": 8207,
      "hesitate": 8208,
      "gala": 8209,
      "tedious": 8210,
      "ay": 8211,
      "fright": 8212,
      "ken": 8213,
      "ray": 8214,
      "vom": 8215,
      "yu": 8216,
      "##rator": 8217,
      "##aff": 8218,
      "##cue": 8219,
      "##uity": 8220,
      "##brow": 8221,
      "##veness": 8222,
      "##mar": 8223,
      "##fu": 8224,
      "##fw": 8225,
      "##star": 8226,
      "##orie": 8227,
      "##ittle": 8228,
      "reven": 8229,
      "##vere": 8230,
      "alge": 8231,
      "##rait": 8232,
      "##neath": 8233,
      "shooter": 8234,
      "adhere": 8235,
      "resident": 8236,
      "aggress": 8237,
      "scrap": 8238,
      "smith": 8239,
      "##angle": 8240,
      "selfless": 8241,
      "coach": 8242,
      "synes": 8243,
      "hock": 8244,
      "skul": 8245,
      "bland": 8246,
      "prize": 8247,
      "graph": 8248,
      "sexist": 8249,
      "fairness": 8250,
      "seriousness": 8251,
      "##cratic": 8252,
      "labour": 8253,
      "mastery": 8254,
      "receptive": 8255,
      "independently": 8256,
      "blindly": 8257,
      "bloody": 8258,
      "##obic": 8259,
      "vastly": 8260,
      "gaze": 8261,
      "##æng": 8262,
      "unclear": 8263,
      "inefficient": 8264,
      "mushroom": 8265,
      "tackle": 8266,
      "reconsider": 8267,
      "galaxy": 8268,
      "algebra": 8269,
      "blev": 8270,
      "jail": 8271,
      "tld": 8272,
      "uhh": 8273,
      "wag": 8274,
      "zu": 8275,
      "##rent": 8276,
      "##nam": 8277,
      "##cate": 8278,
      "##orous": 8279,
      "##cest": 8280,
      "anni": 8281,
      "tiger": 8282,
      "##asa": 8283,
      "metic": 8284,
      "##esteem": 8285,
      "mud": 8286,
      "diary": 8287,
      "fab": 8288,
      "evident": 8289,
      "telev": 8290,
      "consum": 8291,
      "phar": 8292,
      "##amine": 8293,
      "elite": 8294,
      "selfesteem": 8295,
      "orch": 8296,
      "overrea": 8297,
      "discre": 8298,
      "surf": 8299,
      "formulate": 8300,
      "indian": 8301,
      "calorie": 8302,
      "##ophren": 8303,
      "crystal": 8304,
      "pushy": 8305,
      "##aker": 8306,
      "magaz": 8307,
      "duh": 8308,
      "destiny": 8309,
      "urban": 8310,
      "electron": 8311,
      "dispute": 8312,
      "visualize": 8313,
      "pix": 8314,
      "temporarily": 8315,
      "division": 8316,
      "invalid": 8317,
      "amazingly": 8318,
      "hermit": 8319,
      "apathetic": 8320,
      "equipment": 8321,
      "suscep": 8322,
      "moreso": 8323,
      "counterpart": 8324,
      "unintentionally": 8325,
      "lmfa": 8326,
      "dictionary": 8327,
      "magazine": 8328,
      "ace": 8329,
      "cable": 8330,
      "dil": 8331,
      "ej": 8332,
      "sander": 8333,
      "##rich": 8334,
      "##onde": 8335,
      "##tition": 8336,
      "##anic": 8337,
      "##rection": 8338,
      "##ouri": 8339,
      "##orph": 8340,
      "##eee": 8341,
      "succ": 8342,
      "summar": 8343,
      "intol": 8344,
      "##asi": 8345,
      "##abe": 8346,
      "idi": 8347,
      "disadv": 8348,
      "underneath": 8349,
      "##times": 8350,
      "##lown": 8351,
      "##osal": 8352,
      "robert": 8353,
      "regulate": 8354,
      "##iciency": 8355,
      "stupidity": 8356,
      "shortcoming": 8357,
      "dave": 8358,
      "extrap": 8359,
      "legally": 8360,
      "datab": 8361,
      "freud": 8362,
      "metric": 8363,
      "snack": 8364,
      "destination": 8365,
      "##missive": 8366,
      "atheism": 8367,
      "journalist": 8368,
      "pinpoint": 8369,
      "vacuum": 8370,
      "transpar": 8371,
      "adept": 8372,
      "schizophren": 8373,
      "apathy": 8374,
      "einstein": 8375,
      "architecture": 8376,
      "indirectly": 8377,
      "tourist": 8378,
      "ptsd": 8379,
      "anticipate": 8380,
      "hockey": 8381,
      "ritual": 8382,
      "revenue": 8383,
      "television": 8384,
      "disadvantage": 8385,
      "eb": 8386,
      "nether": 8387,
      "soup": 8388,
      "vag": 8389,
      "weahy": 8390,
      "##cis": 8391,
      "##ctiv": 8392,
      "##bro": 8393,
      "##zation": 8394,
      "##inon": 8395,
      "thesis": 8396,
      "inxp": 8397,
      "##entine": 8398,
      "conj": 8399,
      "seed": 8400,
      "aru": 8401,
      "undermine": 8402,
      "impersonal": 8403,
      "accum": 8404,
      "tower": 8405,
      "flor": 8406,
      "presume": 8407,
      "videog": 8408,
      "argumentative": 8409,
      "missouri": 8410,
      "freel": 8411,
      "medioc": 8412,
      "##aken": 8413,
      "educational": 8414,
      "practicality": 8415,
      "android": 8416,
      "portrait": 8417,
      "treas": 8418,
      "ixfj": 8419,
      "investigation": 8420,
      "tolerant": 8421,
      "upvoted": 8422,
      "victory": 8423,
      "hedon": 8424,
      "theatre": 8425,
      "unreasonable": 8426,
      "mellow": 8427,
      "eccentric": 8428,
      "tldr": 8429,
      "asexual": 8430,
      "dome": 8431,
      "ka": 8432,
      "mall": 8433,
      "mim": 8434,
      "pag": 8435,
      "sna": 8436,
      "uph": 8437,
      "vet": 8438,
      "##rey": 8439,
      "##anta": 8440,
      "##ones": 8441,
      "anne": 8442,
      "chop": 8443,
      "prosec": 8444,
      "unatt": 8445,
      "bait": 8446,
      "##ogen": 8447,
      "infuri": 8448,
      "genoc": 8449,
      "##lift": 8450,
      "experimental": 8451,
      "##ithm": 8452,
      "mindless": 8453,
      "generous": 8454,
      "situational": 8455,
      "specially": 8456,
      "monop": 8457,
      "breaker": 8458,
      "ruth": 8459,
      "wholehear": 8460,
      "reflex": 8461,
      "misinform": 8462,
      "dreamy": 8463,
      "jeff": 8464,
      "wipe": 8465,
      "southern": 8466,
      "depressive": 8467,
      "instrumental": 8468,
      "unde": 8469,
      "##awn": 8470,
      "skinny": 8471,
      "industrial": 8472,
      "assertiveness": 8473,
      "austria": 8474,
      "##voting": 8475,
      "william": 8476,
      "hermione": 8477,
      "hypocritical": 8478,
      "intrinsic": 8479,
      "##thesize": 8480,
      "fyi": 8481,
      "reread": 8482,
      "demographic": 8483,
      "atle": 8484,
      "dj": 8485,
      "lg": 8486,
      "nfps": 8487,
      "ot": 8488,
      "von": 8489,
      "wet": 8490,
      "##rance": 8491,
      "##roman": 8492,
      "##pick": 8493,
      "##ock": 8494,
      "##free": 8495,
      "##walk": 8496,
      "##ænd": 8497,
      "##tik": 8498,
      "##orse": 8499,
      "reactive": 8500,
      "gol": 8501,
      "##ila": 8502,
      "manga": 8503,
      "##sheet": 8504,
      "##umber": 8505,
      "adder": 8506,
      "disinterest": 8507,
      "quarter": 8508,
      "abortion": 8509,
      "highway": 8510,
      "awe": 8511,
      "confine": 8512,
      "esxp": 8513,
      "domain": 8514,
      "brick": 8515,
      "handy": 8516,
      "clutter": 8517,
      "blot": 8518,
      "blush": 8519,
      "ramp": 8520,
      "eyebrow": 8521,
      "sticky": 8522,
      "emulate": 8523,
      "dammit": 8524,
      "continually": 8525,
      "upfront": 8526,
      "countless": 8527,
      "introduction": 8528,
      "mistypes": 8529,
      "violation": 8530,
      "northern": 8531,
      "kanye": 8532,
      "unreli": 8533,
      "clueless": 8534,
      "skyrim": 8535,
      "foolish": 8536,
      "castle": 8537,
      "injury": 8538,
      "inconsistency": 8539,
      "guidance": 8540,
      "peeve": 8541,
      "ambiguous": 8542,
      "oooh": 8543,
      "furniture": 8544,
      "athletic": 8545,
      "bernie": 8546,
      "doorslam": 8547,
      "skulle": 8548,
      "orchest": 8549,
      "database": 8550,
      "videogame": 8551,
      "bol": 8552,
      "bye": 8553,
      "fro": 8554,
      "gi": 8555,
      "gorge": 8556,
      "jaw": 8557,
      "lee": 8558,
      "tense": 8559,
      "vamp": 8560,
      "##urable": 8561,
      "##bel": 8562,
      "##bru": 8563,
      "##vet": 8564,
      "##eng": 8565,
      "relev": 8566,
      "thresh": 8567,
      "ingen": 8568,
      "pepper": 8569,
      "faus": 8570,
      "##iece": 8571,
      "kindof": 8572,
      "imho": 8573,
      "starter": 8574,
      "trace": 8575,
      "endea": 8576,
      "ohh": 8577,
      "conversational": 8578,
      "opposition": 8579,
      "unimp": 8580,
      "slice": 8581,
      "midnight": 8582,
      "admiration": 8583,
      "observable": 8584,
      "bitchy": 8585,
      "volunt": 8586,
      "whoop": 8587,
      "sympathize": 8588,
      "malicious": 8589,
      "melody": 8590,
      "synonym": 8591,
      "uncondition": 8592,
      "ixtj": 8593,
      "##itten": 8594,
      "criticise": 8595,
      "gravity": 8596,
      "ixxp": 8597,
      "beef": 8598,
      "##structure": 8599,
      "invalidate": 8600,
      "bliss": 8601,
      "negotiate": 8602,
      "junior": 8603,
      "rebellious": 8604,
      "basketball": 8605,
      "modify": 8606,
      "stalin": 8607,
      "grumpy": 8608,
      "devastate": 8609,
      "lmfao": 8610,
      "wholeheartedly": 8611,
      "apt": 8612,
      "arist": 8613,
      "bart": 8614,
      "borrow": 8615,
      "dol": 8616,
      "giver": 8617,
      "ira": 8618,
      "ome": 8619,
      "por": 8620,
      "rome": 8621,
      "wound": 8622,
      "##rous": 8623,
      "##gon": 8624,
      "##tal": 8625,
      "##iously": 8626,
      "##bet": 8627,
      "##vative": 8628,
      "##lus": 8629,
      "##ala": 8630,
      "thou": 8631,
      "##ings": 8632,
      "inade": 8633,
      "inxj": 8634,
      "sting": 8635,
      "exfj": 8636,
      "ala": 8637,
      "algor": 8638,
      "##racle": 8639,
      "##ged": 8640,
      "pov": 8641,
      "chi": 8642,
      "proactive": 8643,
      "enxp": 8644,
      "##igan": 8645,
      "arse": 8646,
      "unin": 8647,
      "unch": 8648,
      "motive": 8649,
      "manuf": 8650,
      "asap": 8651,
      "##isexual": 8652,
      "##simp": 8653,
      "##amin": 8654,
      "outrage": 8655,
      "oversimp": 8656,
      "brood": 8657,
      "discord": 8658,
      "charity": 8659,
      "charlie": 8660,
      "draft": 8661,
      "aura": 8662,
      "minister": 8663,
      "imagery": 8664,
      "reflective": 8665,
      "simpl": 8666,
      "restric": 8667,
      "visually": 8668,
      "immune": 8669,
      "hmmmm": 8670,
      "engagement": 8671,
      "snake": 8672,
      "liberty": 8673,
      "boob": 8674,
      "##weight": 8675,
      "assertion": 8676,
      "desktop": 8677,
      "juice": 8678,
      "plague": 8679,
      "untrue": 8680,
      "divine": 8681,
      "##struct": 8682,
      "africa": 8683,
      "disrespectful": 8684,
      "##ythm": 8685,
      "reconcile": 8686,
      "precision": 8687,
      "prolong": 8688,
      "detrimental": 8689,
      "mennesker": 8690,
      "thursday": 8691,
      "vomit": 8692,
      "infuriate": 8693,
      "binary": 8694,
      "ey": 8695,
      "fjs": 8696,
      "fwi": 8697,
      "kor": 8698,
      "kim": 8699,
      "las": 8700,
      "made": 8701,
      "roof": 8702,
      "riot": 8703,
      "sni": 8704,
      "tay": 8705,
      "tread": 8706,
      "uber": 8707,
      "yield": 8708,
      "##ew": 8709,
      "##och": 8710,
      "##vell": 8711,
      "##met": 8712,
      "##mme": 8713,
      "##tize": 8714,
      "ster": 8715,
      "##ctr": 8716,
      "pean": 8717,
      "dip": 8718,
      "seman": 8719,
      "##ists": 8720,
      "##shi": 8721,
      "composition": 8722,
      "meantime": 8723,
      "acid": 8724,
      "##psy": 8725,
      "infra": 8726,
      "nove": 8727,
      "probable": 8728,
      "tror": 8729,
      "##via": 8730,
      "sauce": 8731,
      "endure": 8732,
      "asset": 8733,
      "assass": 8734,
      "outspoken": 8735,
      "roast": 8736,
      "winner": 8737,
      "ahhh": 8738,
      "swiss": 8739,
      "swift": 8740,
      "swallow": 8741,
      "hopeful": 8742,
      "courte": 8743,
      "raid": 8744,
      "viable": 8745,
      "##tisk": 8746,
      "extraord": 8747,
      "organisation": 8748,
      "##ansa": 8749,
      "artsy": 8750,
      "##commun": 8751,
      "researcher": 8752,
      "analyst": 8753,
      "sensible": 8754,
      "greg": 8755,
      "promotion": 8756,
      "airport": 8757,
      "frequency": 8758,
      "encouragement": 8759,
      "flesh": 8760,
      "sims": 8761,
      "astron": 8762,
      "protagonist": 8763,
      "rhythm": 8764,
      "rationale": 8765,
      "unconvention": 8766,
      "symbolism": 8767,
      "nogen": 8768,
      "gamble": 8769,
      "navy": 8770,
      "temperature": 8771,
      "flexibility": 8772,
      "pedest": 8773,
      "nickname": 8774,
      "##ractical": 8775,
      "dodge": 8776,
      "##hibition": 8777,
      "characterize": 8778,
      "robotic": 8779,
      "consumer": 8780,
      "atleast": 8781,
      "unreliable": 8782,
      "algorithm": 8783,
      "manufact": 8784,
      "bpd": 8785,
      "jane": 8786,
      "jug": 8787,
      "nsure": 8788,
      "rut": 8789,
      "wat": 8790,
      "##col": 8791,
      "##pack": 8792,
      "##jo": 8793,
      "##flow": 8794,
      "##icked": 8795,
      "##asingly": 8796,
      "ens": 8797,
      "diversity": 8798,
      "##usible": 8799,
      "haunt": 8800,
      "unav": 8801,
      "spa": 8802,
      "spit": 8803,
      "spouse": 8804,
      "sector": 8805,
      "bean": 8806,
      "nevermind": 8807,
      "asia": 8808,
      "realist": 8809,
      "caution": 8810,
      "backst": 8811,
      "mindful": 8812,
      "valentine": 8813,
      "##xture": 8814,
      "repost": 8815,
      "replay": 8816,
      "monot": 8817,
      "addictive": 8818,
      "informative": 8819,
      "##nya": 8820,
      "sadan": 8821,
      "organic": 8822,
      "politely": 8823,
      "upgrade": 8824,
      "increasingly": 8825,
      "##parent": 8826,
      "photograph": 8827,
      "westport": 8828,
      "rebuild": 8829,
      "optimal": 8830,
      "aernatively": 8831,
      "spontaneity": 8832,
      "facade": 8833,
      "smoothly": 8834,
      "concede": 8835,
      "assistant": 8836,
      "permanently": 8837,
      "discriminate": 8838,
      "luxury": 8839,
      "confidently": 8840,
      "susceptible": 8841,
      "netherlands": 8842,
      "freelance": 8843,
      "treasure": 8844,
      "fwiw": 8845,
      "peanut": 8846,
      "unconventional": 8847,
      "bor": 8848,
      "dag": 8849,
      "fet": 8850,
      "gall": 8851,
      "ik": 8852,
      "nich": 8853,
      "rail": 8854,
      "sway": 8855,
      "wary": 8856,
      "##trol": 8857,
      "##cent": 8858,
      "##tious": 8859,
      "##section": 8860,
      "induce": 8861,
      "stake": 8862,
      "deut": 8863,
      "##irc": 8864,
      "enig": 8865,
      "##oli": 8866,
      "##usal": 8867,
      "##arten": 8868,
      "evoke": 8869,
      "mole": 8870,
      "##ized": 8871,
      "appropri": 8872,
      "submissive": 8873,
      "assau": 8874,
      "hateful": 8875,
      "commentary": 8876,
      "critic": 8877,
      "perceptive": 8878,
      "##space": 8879,
      "convo": 8880,
      "fixate": 8881,
      "immoral": 8882,
      "denmark": 8883,
      "##atile": 8884,
      "mannerism": 8885,
      "adaptable": 8886,
      "nutshell": 8887,
      "insanely": 8888,
      "condem": 8889,
      "homosexual": 8890,
      "trek": 8891,
      "xsfp": 8892,
      "psychopathy": 8893,
      "jewish": 8894,
      "agreeable": 8895,
      "deliberate": 8896,
      "brutally": 8897,
      "mystical": 8898,
      "expansion": 8899,
      "incompatible": 8900,
      "jacket": 8901,
      "frighten": 8902,
      "monopoly": 8903,
      "simplistic": 8904,
      "donate": 8905,
      "icon": 8906,
      "mcc": 8907,
      "ool": 8908,
      "vader": 8909,
      "welf": 8910,
      "yard": 8911,
      "##pro": 8912,
      "##hu": 8913,
      "##len": 8914,
      "##lord": 8915,
      "##fin": 8916,
      "##æld": 8917,
      "##anth": 8918,
      "##lem": 8919,
      "##oul": 8920,
      "revel": 8921,
      "thom": 8922,
      "inception": 8923,
      "##ighed": 8924,
      "meg": 8925,
      "haw": 8926,
      "unlock": 8927,
      "##iph": 8928,
      "stir": 8929,
      "disorganize": 8930,
      "lef": 8931,
      "permit": 8932,
      "pertain": 8933,
      "extp": 8934,
      "commission": 8935,
      "attain": 8936,
      "abn": 8937,
      "smack": 8938,
      "amend": 8939,
      "accusation": 8940,
      "putin": 8941,
      "coaster": 8942,
      "bron": 8943,
      "blonde": 8944,
      "corruption": 8945,
      "preservation": 8946,
      "entail": 8947,
      "isxj": 8948,
      "weirdly": 8949,
      "restrain": 8950,
      "misread": 8951,
      "##dddd": 8952,
      "gladly": 8953,
      "purposely": 8954,
      "grieve": 8955,
      "chatty": 8956,
      "inexp": 8957,
      "suitable": 8958,
      "simulation": 8959,
      "samme": 8960,
      "demonstrative": 8961,
      "buddhist": 8962,
      "teddy": 8963,
      "anthrop": 8964,
      "blatantly": 8965,
      "january": 8966,
      "psychedelics": 8967,
      "nitpick": 8968,
      "interfere": 8969,
      "reluctant": 8970,
      "neuroscience": 8971,
      "motherfucker": 8972,
      "domestic": 8973,
      "unattra": 8974,
      "gorgeous": 8975,
      "welfare": 8976,
      "bin": 8977,
      "cog": 8978,
      "dow": 8979,
      "dope": 8980,
      "dense": 8981,
      "ditch": 8982,
      "erase": 8983,
      "fea": 8984,
      "gim": 8985,
      "iirc": 8986,
      "km": 8987,
      "ket": 8988,
      "kitten": 8989,
      "lower": 8990,
      "nig": 8991,
      "sfjs": 8992,
      "tant": 8993,
      "xy": 8994,
      "##aid": 8995,
      "##uously": 8996,
      "##vol": 8997,
      "##ona": 8998,
      "##lee": 8999,
      "sty": 9000,
      "##nest": 9001,
      "##ilize": 9002,
      "spur": 9003,
      "idiotic": 9004,
      "resued": 9005,
      "impractical": 9006,
      "perk": 9007,
      "permission": 9008,
      "imbalance": 9009,
      "fork": 9010,
      "sac": 9011,
      "scor": 9012,
      "##erman": 9013,
      "scholar": 9014,
      "recur": 9015,
      "##atively": 9016,
      "##fiction": 9017,
      "basement": 9018,
      "april": 9019,
      "##ypical": 9020,
      "##ased": 9021,
      "crawl": 9022,
      "superpower": 9023,
      "ongoing": 9024,
      "alongside": 9025,
      "comfortably": 9026,
      "trustworthy": 9027,
      "minecraft": 9028,
      "atl": 9029,
      "publicly": 9030,
      "transcend": 9031,
      "upside": 9032,
      "moderation": 9033,
      "xnfj": 9034,
      "supre": 9035,
      "instructor": 9036,
      "crucial": 9037,
      "simulator": 9038,
      "perfectionism": 9039,
      "tywin": 9040,
      "traumatic": 9041,
      "##burg": 9042,
      "bliver": 9043,
      "reassurance": 9044,
      "martin": 9045,
      "marxist": 9046,
      "reckon": 9047,
      "uninteresting": 9048,
      "abrasive": 9049,
      "tunnel": 9050,
      "extremist": 9051,
      "mimic": 9052,
      "lgbt": 9053,
      "vampire": 9054,
      "november": 9055,
      "condemn": 9056,
      "pony": 9057,
      "sour": 9058,
      "tps": 9059,
      "##aik": 9060,
      "##ctic": 9061,
      "##kind": 9062,
      "##dp": 9063,
      "##fol": 9064,
      "##real": 9065,
      "reign": 9066,
      "##elie": 9067,
      "limb": 9068,
      "stor": 9069,
      "##ratic": 9070,
      "##rade": 9071,
      "chin": 9072,
      "##ortant": 9073,
      "##otype": 9074,
      "unnatural": 9075,
      "spain": 9076,
      "idol": 9077,
      "disrupt": 9078,
      "##tember": 9079,
      "opt": 9080,
      "lemon": 9081,
      "leverage": 9082,
      "grin": 9083,
      "##velope": 9084,
      "sail": 9085,
      "maker": 9086,
      "install": 9087,
      "humility": 9088,
      "meetup": 9089,
      "crew": 9090,
      "empower": 9091,
      "##phant": 9092,
      "currency": 9093,
      "individualistic": 9094,
      "glorious": 9095,
      "determin": 9096,
      "council": 9097,
      "locate": 9098,
      "professionally": 9099,
      "clique": 9100,
      "richard": 9101,
      "comparable": 9102,
      "siger": 9103,
      "plausible": 9104,
      "possession": 9105,
      "maximum": 9106,
      "morty": 9107,
      "arrangement": 9108,
      "excessively": 9109,
      "dysfunction": 9110,
      "substantial": 9111,
      "tremendous": 9112,
      "vegetarian": 9113,
      "jabber": 9114,
      "pregnant": 9115,
      "dishonest": 9116,
      "wrestle": 9117,
      "##ocalyp": 9118,
      "dialect": 9119,
      "september": 9120,
      "genocide": 9121,
      "threshold": 9122,
      "cere": 9123,
      "fw": 9124,
      "isi": 9125,
      "mull": 9126,
      "mich": 9127,
      "sno": 9128,
      "wee": 9129,
      "wicked": 9130,
      "##gl": 9131,
      "##town": 9132,
      "##ups": 9133,
      "##bb": 9134,
      "##hed": 9135,
      "##mail": 9136,
      "##fle": 9137,
      "##onia": 9138,
      "##ourish": 9139,
      "##orney": 9140,
      "##keep": 9141,
      "##chem": 9142,
      "exfp": 9143,
      "##ida": 9144,
      "##ella": 9145,
      "poker": 9146,
      "cho": 9147,
      "##irly": 9148,
      "shine": 9149,
      "arbej": 9150,
      "leia": 9151,
      "forbid": 9152,
      "attorney": 9153,
      "confide": 9154,
      "coke": 9155,
      "cosm": 9156,
      "overan": 9157,
      "effe": 9158,
      "farmer": 9159,
      "apocalyp": 9160,
      "judger": 9161,
      "##rown": 9162,
      "flick": 9163,
      "individuality": 9164,
      "snark": 9165,
      "grandpa": 9166,
      "sunny": 9167,
      "landscape": 9168,
      "dramatically": 9169,
      "village": 9170,
      "aernatives": 9171,
      "kingdom": 9172,
      "##litarian": 9173,
      "willpower": 9174,
      "incorrectly": 9175,
      "mathematical": 9176,
      "quadras": 9177,
      "soothe": 9178,
      "credibility": 9179,
      "adderall": 9180,
      "unimportant": 9181,
      "cs": 9182,
      "dum": 9183,
      "gy": 9184,
      "gli": 9185,
      "jr": 9186,
      "lul": 9187,
      "ldr": 9188,
      "mp": 9189,
      "pirate": 9190,
      "tan": 9191,
      "##gers": 9192,
      "##sl": 9193,
      "##sw": 9194,
      "##hrase": 9195,
      "##human": 9196,
      "##logy": 9197,
      "##ød": 9198,
      "##west": 9199,
      "##aring": 9200,
      "##ener": 9201,
      "##ano": 9202,
      "##iterate": 9203,
      "##raint": 9204,
      "febru": 9205,
      "##endo": 9206,
      "##ilitate": 9207,
      "diver": 9208,
      "faction": 9209,
      "##ota": 9210,
      "sphere": 9211,
      "besti": 9212,
      "which": 9213,
      "undert": 9214,
      "sociology": 9215,
      "noble": 9216,
      "desert": 9217,
      "kinderg": 9218,
      "learner": 9219,
      "prank": 9220,
      "rephrase": 9221,
      "clone": 9222,
      "theor": 9223,
      "mike": 9224,
      "mixture": 9225,
      "rug": 9226,
      "drone": 9227,
      "setup": 9228,
      "flake": 9229,
      "prescribe": 9230,
      "wavel": 9231,
      "##theless": 9232,
      "motivational": 9233,
      "foreigner": 9234,
      "legis": 9235,
[...]
